#version: 0.2
Ġ t
h e
Ġ a
i n
r e
Ġt he
o n
e r
n d
Ġ s
a t
Ġ o
i s
Ġ w
e n
Ġ c
e d
a n
o r
a r
i t
e s
Ġ p
Ġ f
Ġo f
Ġ b
Ġ in
a l
in g
a s
Ġt o
Ġa nd
Ġ h
o u
i on
i c
Ġ d
Ġ m
i l
en t
r o
l e
Ġ S
Ġt h
i d
Ġ re
Ġb e
v e
a d
c t
s t
Ġ M
Ġ n
o m
Ġ is
T he
Ġ e
Ġ l
Ġ C
Ġ A
a m
u r
Ġ I
Ġ g
Ġ P
Ġf or
at ion
o l
a y
o t
Ġ on
v er
t er
i m
i r
e l
e t
u t
c e
Ġ R
Ġ B
il l
Ġs t
u s
r a
l y
m ent
i g
Ġa l
c h
o w
Ġ he
Ġth at
" "
a k
re s
Ġ D
it h
r i
is t
u l
o d
Ġw h
u n
Ġ G
a nd
Ġ K
i a
er s
Ġ y
Ġw ith
Ġa s
Ġh as
Ġw as
Ġc on
Ġp ro
Ġd e
at e
Ġh a
h i
Ġ N
Ġ 1
Ġa n
ĠI nd
o s
e re
Ġa re
es t
Ġa t
he r
Ġ it
Ġs a
t h
a b
Ġ 2
Ġ (
Ġb y
Ġw ill
Ġs e
o p
l d
Ġ H
Ġ T
a in
a g
ou r
Ġha ve
ar t
Ġ v
u m
Ġc om
ro m
i f
p p
Ġ J
Ġsa id
ic e
Ġf rom
Ġn ot
or t
it y
i es
n t
h a
e m
es s
s o
a c
Ġs u
Ġe x
p e
Ġth is
i v
u d
Ġ u
an t
h t
Ġn e
i ve
Ġ r
ct ion
on g
s e
is ter
o re
Ġ L
h ar
Ġo r
ĠInd ia
i al
Ġal so
q u
u re
Ġbe en
Ġ le
Ġg o
Ġ F
in ister
c c
ar d
Ġy ou
Ġh is
r y
Ġ U
u st
Ġ k
Ġs h
ou ld
al l
Ġ W
i an
h an
o c
Ġ E
res s
0 0
Ġw ere
t her
Ġw or
Ġp ol
a re
ver n
a p
Ġa g
Ġal l
at ed
id ent
Ġw e
as t
e f
Ġin c
r ic
im e
ĠM inister
o k
ar y
Ġp l
e p
' s
i re
Ġh ad
g e
ou s
Ġthe ir
f f
vern ment
ic h
ig ht
a h
in d
ou nt
om e
H e
r ou
o st
as e
Ġ2 0
Ġa d
Ġre s
Ġp er
Ġ V
Ġ j
a j
e ar
T h
Ġm e
l i
nd er
Ġa b
Ġcom p
Ġ O
Ġwh o
Ġwh ich
a v
Ġp art
ag e
t e
p ort
i k
Ġp e
on e
e w
Ġof f
Ġthe y
Ġthe m
Ġ im
ou t
Ġc an
ĠP r
r u
b er
id e
Ġd o
"" "
el l
e ct
op le
ation s
Ġu p
w o
ĠC h
or m
ul t
. "
en ce
or d
I t
Ġa cc
f ter
d u
o g
Ġ en
Ġ us
an s
I n
Ġ 3
a il
Ġ un
Ġw he
it ion
ve l
Ġd is
Ġa pp
Ġo ther
an ce
u e
ct or
ak e
il e
ic al
Ġu nder
Ġpe ople
Ġcon t
p l
o v
p er
Ġin t
Ġ -
ĠS ing
Ġm an
a ch
p t
Ġag ain
g h
ĠS t
ay s
ver y
Ġpol ice
l l
Ġit s
Ġo ut
ation al
ĠSing h
in e
Ġs p
Ġa r
Ġre g
is h
he d
ĠR s
ĠInd ian
an k
os e
re e
Ġt e
Ġon e
am e
ac k
Ġo ver
Ġgo vernment
at es
Th is
Ġ20 1
ig n
Ġc ount
at h
Ġc l
i z
u b
ad e
Ġa m
m it
as s
ion s
Ġs c
re d
Ġs o
Ġst ate
ab le
a ce
an g
J P
Ġthe re
es h
d ay
Ġagain st
Ġwor k
at er
Ġf il
Ġc h
Ġb ut
hi ef
Ġt wo
en s
Ġre c
f orm
Ġf ir
Ġp res
Ġt r
Ġa fter
i b
Ġan y
Ġh im
el hi
Ġab out
m e
Ġ ""
er v
i ous
Ġw ould
a w
t ed
Ġ 5
ĠI n
Ġy ear
Ġne w
ĠS h
Ġn o
ere d
c on
Ġ qu
n ow
as h
od i
ur ing
i p
Ġ 4
Ġhe r
w e
ol d
ing s
is s
Ġle ad
Ġe v
e ver
our t
Ġc ase
Ġ ro
ĠD elhi
Ġo ur
ĠG o
Ġin v
it ies
Ġde c
o ve
Ġfir st
ers on
o in
Ġ Y
W e
l ic
Ġt ime
ong ress
m er
k et
c es
Ġy our
l ud
ĠB JP
Ġc ent
u al
Ġ '
ig h
ct ed
il d
r it
ĠM odi
ter n
Ġp re
) ,
Ġs pe
e c
o y
Ġfil m
Ġoff ic
o b
Ġbe t
s s
Ġcount ry
ĠC om
Ġ ra
o ok
ist an
vel op
Ġc ro
it al
ĠU n
ol l
c ed
in ist
i ed
Ġl ik
ent s
Ġpro v
ĠR aj
m an
Ġinc lud
Ġp r
Ġd ist
is e
as ed
Ġad d
Ġsh ould
h at
re at
Ġbe ing
Ġm ore
a i
ric t
Ġin d
Ġbe c
it e
re n
c ial
el y
ĠD e
hi p
ou n
w ard
Ġ The
ĠC ongress
g ed
am il
r am
st it
ver s
or y
Ġk now
Ġt ak
nd ra
a us
k s
i e
Ġwhe n
t ain
j ect
Ġint o
if e
Ġ 6
Ġt ra
y a
a ct
Ġre l
2 0
o od
Ġe le
Ġm ade
Ġp erson
Ġim p
em b
Ġ1 9
u p
I nd
ment s
ak istan
Ġsu ch
Ġm ar
Ġre m
ot h
ri b
Ġm at
ou nd
c y
ar n
en g
Ġis s
Ġthe se
m a
Ġwh at
Ġs ome
ur n
Ġm y
Ġm ed
ĠA r
Ġcom m
Ġc o
ad esh
r al
ut ion
Ġcon s
Ġat t
Ġa ct
Ġas s
n e
at ing
Ġa c
Ġon ly
d er
Ġd uring
ĠA ll
an a
Ġme et
res ident
o h
c i
on s
ow n
he n
er al
m ed
The re
am p
Ġg et
iss ion
ction s
Ġt er
we en
ow er
f ere
Ġre port
ic t
rou gh
ol ice
H ow
Ġ if
B ut
us ed
Ġbet ween
u g
Ġlik e
is ion
Ġne ed
Ġp h
f ore
Ġinv est
ĠG od
e nd
Ġth an
t ing
ak h
u res
g an
is ed
Ġsu pp
Ġf l
k ed
Ġf ar
Ġth ose
Ġth ree
Ġst ud
Ġpl ay
Ġ1 0
Ġ 7
l es
el f
ĠH e
w ay
The y
e h
Ġth rough
Ġf e
ĠGo vernment
al th
Ġthe n
Ġsu b
ĠC hief
Ġde velop
Ġwh ile
it ed
ĠPr ime
Ġ ent
ure d
al ly
ro w
u nd
f ul
Ġd ay
ĠP akistan
or s
on t
if ic
A nd
inist ry
re t
um b
Ġs he
Ġpres ent
Ġwor ld
Ġw om
um ar
Ġ very
v ed
Ġdist rict
ĠP resident
Ġe m
aus e
Ġd id
Ġm on
Ġ 8
os p
Ġg iv
00 0
g et
c k
Ġcro re
as es
ol og
Ġp os
ĠPr adesh
n ess
Ġb l
Ġc ap
ar s
Ġoffic ial
Ġd ire
Ġs erv
al s
Ġpro du
a x
ĠSt ate
ub lic
Ġl ast
Ġse c
Ġf in
ter s
ĠK han
o or
ar li
ot her
ĠSh ri
Ġs et
at a
rou nd
Ġf amil
Ġh ow
pe ct
. .
A s
ĠA n
oll ow
Ġt ake
at ive
c ess
Ġwhe re
Ġhe l
ib le
he s
ĠM an
Ġin form
, ""
Ġm inister
f t
i x
are ndra
Ġgo od
Ġhe re
l ed
u k
ĠA s
Ġacc used
Ġw ell
p h
Ġto day
Ġd if
v i
r an
ĠK umar
Ġc all
Ġs ay
Ġs oc
Ġst art
oin t
Ġe very
at s
e ep
re st
u es
ĠG and
il ity
at i
Ġtak en
Ġse e
Ġman y
Ġe ff
w n
Ġc ourt
ĠP ro
ic es
Ġyear s
ĠN arendra
ut h
osp ital
b le
a ir
x t
Ġde m
in k
ĠAll ah
v en
Ġin j
od y
ur al
Ġhel p
ĠC ent
Ġte am
ri es
Ġc han
Ġm ay
Ġpart y
Ġinc ident
Ġl oc
o ol
Ġex p
ĠM a
Ġp ost
Ġd es
ant s
Ġch ild
Ġn um
) .
Ġl a
Ġtr ans
is m
te nd
n g
Ġbe fore
Ġs er
ĠC ourt
id ed
ĠGand hi
Ind ia
Ġ &
Ġv ar
ĠCom m
n ing
at her
Ġc ould
Ġan n
are d
con d
Ġl ife
iv es
Ġr ight
an y
Ġre p
Ġsh all
O n
ĠS har
S o
Ġo cc
on d
Ġm ake
us s
ak ing
Ġj ust
Ġv is
e e
it s
Ġs y
Ġar rest
Ġc hief
Ġv i
Ġ 9
ĠA d
Ġ1 2
ch n
in es
Ġc ur
ul ar
t y
Ġf ollow
How ever
Ġnum ber
Ġo b
Ġde f
Ġmeet ing
g ht
m ir
Ġc or
m s
. """
Ġha pp
ĠG u
Ġh and
ĠN ational
Ġreg ist
Ġh igh
u ch
con om
Ġdis c
Ġc ol
Ġcom e
Ġinclud ing
Ġfamil y
k ar
Ġf our
a ve
ou se
Ġs ha
u c
Ġc ar
ic s
em ber
ĠU S
Ġev en
Ġpro g
Ġinc re
re ad
Ġa v
i vers
ha h
Ġm ost
Ġl akh
c er
Ġs m
Ġp ass
Ġb ack
ar ch
p ur
Ġim port
W h
en eral
Ġgiv en
ce pt
am m
Ġmon th
Ġb r
i or
Ġc har
Ġo p
re nt
Ġs it
Ġre le
Ġb oth
Ġsupp ort
Ġk ill
Ġl aw
ri v
Ġin ter
ĠN ew
Ġd own
Ġb u
st em
Ġc ases
1 9
ist s
ĠS ab
ut e
t al
Ġam ong
ĠP un
ĠR am
ĠK ash
Ġf ac
id es
ĠM inistry
Ġin f
Ġg u
ord ing
ĠS ec
w ays
ur ity
pl oy
ĠK ap
ĠT h
r or
Ġapp ro
Ġo pp
ĠR e
us h
in ce
ĠA ct
p le
in s
Ġs ent
Ġb en
Ġh ospital
Ġr un
ĠW e
rou p
Ġregist ered
Ġsh ow
Ġinvest ig
ĠKash mir
ch ool
Ġpol it
c om
Ġcont in
j ab
ĠB h
Ġre t
as ht
Ġpro m
g es
Ġres p
Ġ1 5
Ġpl ace
P olice
Ġcon f
ĠI s
Ġre qu
am ent
Ġw ater
n a
W hat
ret ary
Ġpart ic
Ġde p
Ġbe li
ĠUn ion
Ġfor mer
pe nd
Ġe nd
Ġdif fere
umb ai
ou th
Ġ2 00
in ess
in a
en cy
Ġre f
Ġde ath
e y
Ġor gan
tern ational
and id
n er
Ġre ce
Ġse cond
emb ers
k ing
Ġb us
e le
t t
ire d
Ġatt ack
ĠT r
Ġl ar
ĠE x
if ied
ĠSab ha
Ġhe ld
Ġw ay
Ġc r
Ġs ign
S he
r ong
Ġe ach
os ed
ĠA nd
Ġres ult
Ġin s
Ġp ower
Ġ ed
Ġfor m
Ġs ur
Ġw ant
Ġla un
B I
Ġdevelop ment
u ed
w ar
Ġwom en
ro l
Ġc re
ur ther
o ard
p r
Ġlead ers
Ġarrest ed
Ġl ook
Ġpro ject
Ġdo es
al e
Ġm ov
Ġinj ured
Ġhe alth
Ġsp ot
Ġn ow
Ġs ame
olog y
Y ou
c hed
ĠA ss
Ġstud ents
Ġsoc ial
Ġg row
Ġc le
Ġal le
ĠB ank
Ġp ublic
ĠShar ma
Ġav ail
Ġg l
Ġa ir
ent ion
Ġmed ia
Ġlead er
ou gh
ent ly
a im
Ġpres ident
asht ra
Ġe ar
ul l
j ay
Ġcomp le
a z
Ġb ro
t en
Ġa ff
Ġf ound
Ġe conom
an i
t s
g est
ĠS hah
st ru
a u
ĠH ind
Ġex am
Ġl ong
w al
in ation
ĠPun jab
Ġmat ter
Ġocc as
Ġd ue
ag es
Ġd ays
Ġbec ause
Ġcon d
ctor s
Ġo per
art ment
Ġto ok
Ġm embers
ro ss
Ġ1 1
l and
i et
A n
Ġv ill
Ġo wn
Ġreg ard
Ġcom mit
m ers
ab ad
ar at
Ġvar ious
Ġchild ren
er ation
Ġus ed
Ġop en
iz ed
v ing
eh ov
ehov ah
Ġsy stem
ĠC on
Ġpro cess
oc k
Ġcur rent
Ġm od
Ġm ain
Ġne xt
Ġs ays
Ġal ong
ĠD ep
l im
Ġad v
ĠA m
Ġ Z
Ġor der
ĠKap oor
ward s
Ġto ld
r ation
Ġc andid
Ġoccas ion
Ġt al
Ġann oun
ah ul
en ior
Ġrem ain
ĠP M
im es
v es
Ġother s
Ġw on
u ation
iv ed
Ġto o
et h
el s
ĠW or
Ġm in
Ġdiffere nt
ĠL ord
Ġm ust
Ġqu est
Ġg reat
ĠComm ission
r at
Ġl and
Ġf ore
uth or
at ure
ot e
Ġ ve
aj or
is hed
Ġgo ing
o ot
emb ly
Ġs l
Ġw rit
I f
Ġb ank
Ġinform ation
Ġhe ad
A ll
ĠP at
g y
ri end
F or
ĠR es
al ity
Ġter ror
Ġw in
ere st
ĠM umbai
Ġadd ed
S t
Ġf urther
Ġd et
i as
Ġprog ram
A fter
Ġcount ries
t o
n ce
Ġf ive
ĠJ ehovah
el d
as on
I D
Ġst and
Ġa round
tt ar
Ġ est
ra ct
l ing
Ġ1 4
Ġstart ed
ĠT e
Ġiss ue
Ġcomm un
ric ket
ff ic
Ġte chn
ill ion
Ġbeli e
i har
ri ed
Ġv al
Ġt em
Ġn ational
Ġkill ed
te e
Ġcall ed
Ġp ur
Ġ1 3
har ashtra
n ed
Ġ1 8
Ġacc ount
Ġd el
y s
Ġsec urity
Ġpre v
Ġimport ant
Ġv ide
' t
Ġcl aim
m ber
Ġle vel
Ġf a
re me
ĠA b
ac hed
Ġse en
Ġt est
ĠA g
eng al
Ġvis it
ar h
Ġare a
Ġmar ket
er ing
Ġse ver
Ġac ross
Ġle t
Ġpos s
Ġb ody
il it
um p
t he
Ġreport ed
Ġg r
Ġcol le
a id
Ġg roup
p or
arli er
um an
Ġg ive
Ġm uch
ar k
Ġpro p
ult ure
Ġres pect
Ġa ction
m y
Ġsever al
ĠJ an
Ġben ef
Ġdec l
Ġpl an
Ġs chool
i o
Ġsc he
ĠP olice
i eld
in ed
Ġan other
ĠH igh
cc ess
ir d
Ġe qu
ĠL ok
is ing
i od
ress ed
Ġj ud
Ġavail able
Ġh ome
k e
Ġind ust
Ġcomp l
Ġst ates
Ġus e
Ġdem and
ic k
C C
Ġint erest
Ġdec ision
Ġspe cial
Ġm ajor
Ġto tal
Ġre ad
our s
ag ar
ou ght
e k
amm u
stit ution
it i
Ġc he
Ġy et
Ġd one
Ġed uc
Ġc ame
or th
Ġex t
ĠB engal
ĠU ttar
ĠC ha
al a
Ġpro ble
os s
Ġcon du
arli ament
ĠP art
Ġne ar
ir l
air s
Ġcomp any
ĠS a
Ġ1 6
Ġp ay
Ġas ked
ad h
ĠS hi
ĠS e
S h
ivers ity
en a
ess ion
Ġl it
er a
Ġh ouse
Ġper iod
t le
Ġperson s
ic ket
Ġfar mers
Ġle g
Ġsit uation
ĠCh and
Ġa way
ch an
ary ana
Ġ2 5
ĠSec retary
Ġpro t
A l
Ġex per
Ġro ad
Ġare as
ĠR ahul
Ġcons id
A cc
Ġb est
Ġro le
W hen
j arat
ĠL e
ĠC or
Ġb ig
ep t
ĠE ng
ĠD r
Ġpolit ical
Ġb as
Ġs k
Ġdisc uss
ĠWor ld
r ate
Ġofficial s
b s
Ġcompl ain
one y
ĠCent ral
ut y
Ġsu ccess
Ġs on
Ġth ink
ĠM us
Ġs ince
at ch
Ġen s
Ġl ater
Ġl ist
Ġbec ome
Ġele ctions
Ġp oint
read y
ĠCh r
9 9
ĠA l
i ence
ĠA f
N o
Ġh ig
ĠMa harashtra
ĠSt ates
Ġc ity
st and
Ġret urn
Ġall ow
N ew
am es
it iz
e al
Ġcon cer
ual ly
so ci
ĠD ay
Ġem ploy
Ġhapp en
Ġ Q
Ġat tend
pt ion
Ġto p
Ġpartic ip
Ġn ame
Ġf r
Ġal ready
Ġrec ord
Ġp ut
Ġb ook
ĠJ ammu
our ces
Ġne ver
in al
n ot
Ġ ident
Ġth ings
velop ment
Ġk eep
Ġ20 20
Ġso on
ĠM P
Ġm et
Acc ording
s elf
P r
Ġv ict
in ing
wo od
c ent
Ġc er
Ġg ot
Ġact iv
Ġse ats
ĠA ir
Ġ3 0
ĠF or
m i
Ġs im
g ing
port s
Ġre st
Ġ2 4
Ġvi ew
Ġse ctor
Ġs ix
ĠC O
Ġt urn
Ġbu ild
Ġf ew
ort un
ĠS an
Ġhe av
Ġf riend
vi ew
Ġeff ect
Ġpr ice
ĠT est
ic le
.. .
The se
Ġ201 9
o ad
Ġvide o
c ing
r id
Ġm en
Ġp op
Ġ [
et s
it ness
w h
ol ly
stit ut
Ġg en
ru ct
up reme
Ġalle ged
Ġind e
Ġcond ition
Ġs enior
Ġc amp
Ġh old
iv ing
Ġc ost
Ġbus iness
ĠH aryana
i ent
ic y
c l
Ġad m
th an
Ġt ru
Ġg re
Ġb at
or k
Ġf un
au gh
l ine
ĠM L
ust ral
Ġ 0
ĠB ihar
ĠGu jarat
ort s
a ug
Ġen g
B JP
Ġvi ol
l ish
S T
Ġf ather
Ġm ove
Ġprov ide
Ġsp ok
s el
ĠM e
at ely
ĠDe velopment
ust ice
Ġannoun ced
Ġev ent
Ġw ife
ĠS u
Ġvill age
ob al
Ġup on
Ġp ric
Ġper form
Ġc are
Ġnew s
Ġstate ment
le ment
fere nce
ang u
age ment
b e
Ġb ased
Ġf ire
ur s
Ġt reat
an cial
ren g
Ġ1 7
id ence
Ġc am
Ġpol l
ar m
en se
Ġreg ion
A t
Ġd ied
Ġwith out
ĠW est
ĠH im
Ġserv ices
G B
Ġ5 0
mit ted
pe cted
Ġser ies
ele b
is es
c il
Ġto get
Ġtoget her
Ġm aking
Ġinvestig ation
Ġa uthor
Ġquest ion
il y
Ġre ached
ĠF in
C h
Ġp et
ition al
ur y
Ġlaun ched
ĠS c
Ġbe l
Ġs ol
Ġbr ing
olly wood
iet y
ĠS upreme
V ID
Ġin st
Ġcle ar
ĠB har
Ġimp ro
ak a
ĠG eneral
ĠChr ist
Ġh ist
Ġear th
iv il
Ġpro f
as than
ind er
Ġrel ations
he re
Ġapp lic
Ġiss ued
ĠR ail
Ġ ur
l ess
Ġst reng
un e
Ġwork ing
ĠD ire
Ġrece ived
ĠA mit
Ġp riv
Ġar t
it ive
n ers
Ġwor d
th ing
pe cial
Ġgrow th
ĠR a
Ġin ternational
ar i
Ġhe art
Ġc ha
Ġbet ter
Ġin iti
am b
Ġst rong
Ġt ax
ĠM ay
Ġknow n
Ġg ra
on es
Ġl ove
Ġf und
Ġch all
o f
ar a
me nd
ad av
Ġd ri
are nt
ect ed
Ġiss ues
Ġrel ig
Ġst ill
Ġg irl
ĠCh ina
Ġf ield
ĠM al
Ġf ind
Ġb o
c ies
Ġbe g
ĠDep artment
Ġpl ac
ir on
ĠPart y
Ġadd ress
ir us
H is
Ġst or
Ġc eleb
ĠA ff
c hes
Ġinform ed
g r
Ġde v
ĠS outh
Ġresp ons
Ġinclud e
Ġph one
Ġm oney
Ġt imes
on y
Ġc ricket
oun cil
Ġcan not
Ġp le
Ġpre p
Ġth ird
ĠCO VID
Ġf ood
Ġs ing
ific ation
n el
ĠS at
Ġ201 8
Ġ /
is ation
Ġto wards
S P
Ġbe h
Ġimp lement
Ġh uman
Ġhow ever
Ġfollow ing
Ġtr ad
ar ing
Ġlar ge
Ġwom an
Ġloc al
Ġeduc ation
Ġcurrent ly
Ġpro te
Ġt ill
am s
Ġr ul
a pp
I C
ĠP ar
ent ial
Ġbro ther
ank a
M e
Ġd augh
ĠY adav
id d
i um
ĠM ed
ĠAff airs
res ent
Ġj oin
en ces
Ġrun s
ian ce
Ġl ot
Ġre al
Ġc ust
ical ly
Ġ1 00
Ġfil ed
ul ation
ĠInd ias
r on
ĠP arliament
Ġprot est
tern al
Ġmat ch
Ġsay ing
Ġmov ie
ĠShi v
ch ie
ĠJ a
Ġwe ek
Ġcom es
Ġde b
ian s
Ġtak ing
re ed
Ġdet ail
Ġd iv
Ġd ata
rou ght
Ġf ut
Ġa ctor
Ġn ation
Ġcl ass
ĠCent re
ard s
Ġsa f
Ġde ad
Ġcandid ates
ive ly
ove red
P M
ĠA ustral
ĠP l
g o
Ġrele ased
ĠC ol
Ġex pl
ĠUn iversity
s h
ry ing
ĠB oard
Ġwith in
ruct ure
Ġ201 7
Ġprodu ct
Ġincre ase
if y
Ġst ep
il ities
es us
Ġchan ge
hat t
Ġve h
os ition
Ġpe ace
ha v
med i
it her
20 1
ĠJ ustice
Ġbelie ve
d d
Ġopp ortun
ou ra
itiz ens
ib ility
T I
o ver
Ġal ways
arn at
ĠR an
ir it
p s
at ives
in et
ĠM ah
D I
Ġserv ice
ad u
g er
Ġf ull
Ġg eneral
a ff
Ġsm all
Ġsha red
Ġinv ol
oh li
Ġyou ng
we et
Ġf ight
Th at
ĠRaj asthan
wh ile
Ġr u
ĠMus lim
Ġfin al
i qu
It s
m es
ĠB ang
ri al
Ġacc ident
Ġa chie
ĠAss embly
ag ed
Ġv ot
id ing
arnat aka
ain ed
ra b
O ne
Ġpro per
T o
le ct
ĠDire ctor
ĠM o
p art
Ġent ire
al i
pr il
Ġde al
Ġoff ice
ar am
e b
ĠH ome
an ces
Ġm other
b and
ĠS on
i ver
Ġprov ided
ĠCom mit
pl es
Ġin n
sel ves
S E
Ġs us
Ġfe at
Pr ime
Ġest ab
p ut
Ġcomplain t
Ġ es
t i
w are
Ġe arlier
Ġ2 1
k h
in t
Ġc rit
5 0
Ġle ft
Ġre du
Ġwh y
Ġfin ancial
ir man
Ġcam era
ĠI P
il ar
oin ted
Ġcon stru
Ġen c
ĠHe alth
Ġp ati
pp ed
j ee
Ġor d
Ġt re
Ġcer tain
Ġser ious
ab inet
Ġw ent
Ġb rought
e ople
Ġr ate
e v
Ġdec ided
ult ural
ru g
Ġm ess
U n
mer ic
ĠM ar
Ġspe c
Ġsu g
k a
f ic
ar ies
Ġe t
stit ute
Ġd ate
Ġac cept
Ġl ive
I R
Ġtreat ment
Ġp ress
m en
an ies
Ġf ree
op e
Ġ ri
r ast
Ġfr ont
ĠM adh
Ġeconom ic
ĠA pril
ĠA h
w it
ir th
Ġunder stand
Ġcont rib
Ġcontin ue
Ġfut ure
Ġele ct
ĠC ouncil
Ġele ction
Ġb re
ra ft
Ġmonth s
Ġm illion
ĠD h
Ġs om
ĠC M
Ġp ri
m p
Ġens ure
Ġfe el
Ġp ar
Ġgl obal
es ides
Ġsp irit
an while
ĠC o
Ġplay ed
ab ility
Ġsche me
Ġl angu
v iron
le y
Ġpol icy
b an
"" ."
in c
u f
ra h
w an
Ġstor age
h old
Ġdire cted
ĠC BI
al f
Ġd ont
ĠCommit tee
Ġo ld
W ith
ĠAr my
l a
Ġet c
Ġm ight
Ġim medi
iz e
Ġpric es
is ions
Ġw icket
Ġadm inist
C ongress
am ed
e ad
ĠK ohli
Ġ .
viron ment
A N
c ell
Ġindust ry
s hip
B oth
Ġwork ers
Ġp ast
or n
o ber
ore d
l ished
Ġpart ies
ĠS erv
ĠM arch
un g
Ġeff orts
ĠR ep
Ġme as
h ra
Ġe as
Ġam ount
A M
ir c
Ġyou th
Ġm is
Ġfa ith
ro du
Ġcont rol
ĠIn ternational
ir at
er red
Ġdo ing
s ide
e es
Ġt ar
n es
Ġsh ort
re en
Ġf act
Ġex pected
eral a
Ġt weet
Ġm ilit
Ġ ide
Ġk ind
Ġfun ction
Ġha ving
Ġl o
l am
Ġ2 2
Ġst at
Ġrec ently
u ary
Ġle arn
Ġproject s
iz ation
o j
ĠA li
im um
op eration
Ġj ob
Ġp ict
Ġresult s
ĠT amil
c rib
h u
Ġph ot
Ġrep resent
Ġs elf
du c
Ġprogram me
ud e
Ġl ess
ĠUn ited
er t
ĠO r
Ġf ace
Ġoffic ers
Ġpriv ate
Ġn on
Ġf ail
D uring
Ġdaugh ter
Ġm ind
ĠJ esus
Ġd est
Ġd om
ĠM on
ĠK arnataka
u ly
Ġh on
ens ion
Ġd en
her s
Me anwhile
Ġper cent
Ġlik ely
led ge
ĠM r
Ġ ver
ip al
Ġsha re
Ġm ur
Ġme ans
1 0
Ġg ave
le g
Ġd ou
is l
ĠV i
Wh ile
Ġceleb r
p erson
Ġsm art
Ġcap ital
Ġfore ign
amp le
Ġposs ible
Ġ X
ĠH is
ĠE n
ĠS he
Ġre ason
Ġse ction
Ġsu ff
at or
od e
Ġwe bs
ric ulture
Ġre se
ĠP h
Ġa ward
Ġw ar
Ġto ur
ĠN av
ight s
ce ed
Ġp ort
Ġcon ne
er c
I M
it or
ed d
d om
Ġst ation
Ġrele ase
I T
w a
us band
Ġdire ct
a f
Ġwrit ten
Ġcomp et
Ġp ract
ain s
Ġbas is
Ġl ost
ĠG ur
Ġas soci
Ġvict im
ik a
Ġl ed
Ġs ide
Ġcomp anies
Ġtr uth
Ġl im
as ter
T wo
Ġm or
ĠAs h
t hen
it ing
Ġre v
Ġmed ical
Ġab le
Ġen er
as ing
ĠN orth
Ġm ult
Ġtechn ology
stit u
r ing
Ġcont est
ak er
Ġprodu ction
Ġc ause
ept ember
ce mber
Ġd on
ak es
ic les
ĠFin ance
ĠAustral ia
Ġpos ition
Ġf all
Ġe l
ot ion
Ġacc ording
Ġneed s
a ign
Ġhig her
Ġp an
I s
iv al
am a
Ġbec ame
s w
ĠS al
ĠTr ump
ri y
Ġres ol
Ġf ul
he st
Ġb irth
er n
ad a
he ad
ef ence
Ġb ow
ĠO ct
uk h
A R
og n
Ġg old
Ġst op
ord er
Ġcon g
Ġp arent
ad i
Ġn et
Wh y
Ġm ob
uf act
Ġh ard
Ġf ear
Ġcl ose
Ġdes ign
ac ity
u ge
m ar
Ġcap tain
Ġo il
Ġc oun
ĠJ une
eng ers
Ġc aus
ĠC l
Ġj our
D o
Ġtra vel
Ġprev ious
Ġclaim ed
e ction
ove mber
ĠRe g
Ġ2 3
Ġf oc
Ġpart s
Ġra in
b y
Ġstud y
Ġs al
h ing
Ġl ives
Ġex tend
Ġter m
com ing
Sh ri
ĠA meric
Ġcommun ity
a ut
ĠK h
Ġs w
vern or
Ġdecl ared
ĠP an
ĠS y
Ġget ting
u ro
Ġrel ated
ar an
ĠW h
Ġoffic er
P akistan
re m
Ġw rong
Ġdistrict s
Ġs ens
ĠAf ric
av irus
Ġcon v
orm er
ĠM oh
Ġsu re
Ġ201 6
ĠM uk
Ġincre ased
ĠInd ust
Ġl ab
ĠS am
ak s
os es
a ur
Ġus ing
rast ructure
our se
Ġener gy
Ġfor ces
Ġdis p
Ġst ated
Ġsoc iety
ĠD ist
ĠB ollywood
Ġre ve
Ġa ut
g arh
on avirus
ĠI m
Ġe ver
S S
Ġtar get
Ġcon n
C P
Ġcom ing
The n
em pt
ĠS w
ut ed
Ġ2 8
Ġst ar
Ġt rib
ĠS m
f or
Ġpoint s
Ġproble m
P eople
Ġw itness
Ġex ist
2 1
ro te
en cies
Ġwebs ite
c ome
ud d
iv id
Ġin stitut
ĠMadh ya
Ġl ight
Ġwh om
Ġh usband
Ġt y
Ġob s
duc ation
Ġcondu cted
Ġex ample
Ġass ist
Ġs old
ĠDe cember
Ġm ember
Ġc oll
Ġc itizens
ip ur
ĠU P
Ġdire ctor
ay a
ĠTe chn
Ġactiv ities
pl ay
Ġcre ated
Ġle ast
ĠN o
S ome
ĠB ible
Ġ4 0
Ġk ey
ĠS eptember
ug ust
is on
Ġn ight
fic ult
Ġun t
le ction
Ġd ra
our ce
it ation
Ġplac es
Ġl oss
Ġc irc
Ġcamp aign
Ġcomm on
Ġfeat ures
Ġbuild ing
ĠK erala
Ġdetail s
eth ing
Ġne cess
Ind ian
Ġv ir
ĠH y
us hed
3 0
G o
Ġcon stitu
Ġ i
Ġc ard
Ġconne ction
Ġproble ms
Ġprog ress
ĠJ uly
Ġrec om
ĠJan uary
ud get
Ġpartic ular
Ġst ri
er y
Ġapp ear
hi b
Ġdif ficult
Ġtr ade
r s
ra el
b el
ĠN ovember
Ġcent ral
og ra
ĠH ar
Ġab ove
Ġent er
Ġ ,
Ġra il
Ġ3 1
Ġst ars
Ġknow ledge
Ġreport s
Ġse ven
Ġpr ay
Ġfor ward
Ġre view
al ed
ate g
Ġ2 6
Ġeconom y
Ġtru e
ol k
Ġtem ple
em ic
l u
ph one
Ġattend ed
ĠOct ober
ĠCor por
Ġcap acity
Ġexp ressed
e g
am i
Ġh ost
ĠS ci
Ġh ours
Ġh it
Ġlaun ch
at ory
v est
ĠS p
nd ing
Ġbeh ind
elf are
Ġmain tain
ic ation
Ġsug gest
Ġbenef it
a ul
Ġn or
E x
ĠH ouse
ĠS ur
op s
Ġpur p
Ġsu per
l adesh
ĠM u
Ġhist ory
Ġsp read
e ed
Ġ2 7
Ġhim self
Ġnot hing
Ġt ell
ĠHind i
1 2
ivid ual
ĠAnd hra
Ġstreng then
A P
wit ter
Ġg round
Ġtra ining
Ġs il
ĠHind u
Ġl ow
Ġm us
Ġs an
Ġre ach
Ġp oor
Ġto wn
ĠC up
Ġre ally
Ġs um
er ve
ĠB ill
Ġsing le
Ġc ivil
i er
O ur
ĠF eb
Ġv ac
Ġan sw
ĠBhar at
b ed
p ed
Ġb oard
M y
Ġspok es
u ck
Ġe mer
is ha
Ġd ies
Ġrequ est
Ġin aug
Ġqu ality
M P
ĠF ore
Ġparent s
r ish
Ġrelations hip
Ġfilm s
Ġident ified
Ġhappen ed
ĠS ri
ous and
j it
ir m
Ġmur der
il t
Ġcandid ate
ot s
Ġrequ ired
Ġche ck
Ġb ra
ĠA ugust
on se
j an
Al so
U S
ve y
ĠS ena
Ġm er
at ors
Ġrec overed
Ġcommit tee
ĠCom p
P ro
ĠT el
Ġp un
Ġlar gest
ĠIs rael
Ġrese arch
Ġman agement
re g
Ġsom ething
ab h
Ġass embly
ru ary
Ġsuccess ful
Ġw rote
ĠS un
Ġag ree
n ath
M any
j i
Ġm iss
ĠK e
ĠE ducation
Ġf av
Ġhapp y
Ġpos itive
ĠIn stitute
Ġwhe ther
Ġman ufact
Ġag e
A T
Ġst ay
ĠK ing
Ġc red
ik e
S C
oh it
ĠP and
Ġon line
Ġimpro ve
Ġab s
Ġ19 9
n s
Ġind ividual
Ġinc ome
ach al
ĠD efence
Ġth reat
Ġon ce
Ġp ot
ur ies
p ar
Ġ201 4
Ġn orm
Ġc ast
ĠV ice
Ġpet ition
o on
ĠS ub
Ġviol ence
ad d
Ġp o
Ġth ough
Ġf ast
Ġs ources
t a
Ġdis e
Ġsign ific
ch ar
ĠN adu
ter m
ig arh
Ġth ought
oc u
Ġpass ed
Ġd r
Ġsec retary
y ear
ĠCon stitution
Ġthem selves
Ġword s
Ġapplic ation
Ġgr ant
n al
ear ch
ac y
ĠR uss
Ġm ater
F ormer
Ġcondu ct
ĠIs lam
Ġwork s
Ġad mitted
Ġear ly
Ġwho le
Ġperson nel
ĠP ublic
der abad
Ġrecom mend
t on
ĠL al
Ġco operation
Ġm ot
Ġc ateg
ĠP ra
form ation
m ost
Ġg ame
Ġse at
Ġh ous
Ġa p
Ġbeg in
re am
ĠML A
er man
c ri
Ġdri ver
Ġperson al
ul ed
ĠO ffic
Ġs at
ĠB al
Ġob ject
Ġex cept
Ġsub ject
Ġallow ed
Ġb an
om es
Ġy e
ĠH ospital
Ġ3 7
Ġen vironment
Ġteam s
Ġe y
ĠDe v
ill s
Ġcons um
ver age
l er
Ġth ing
Ġra ised
D A
Ġb all
Ġd am
ĠDist rict
Ġfor ce
y an
D P
ĠVi jay
1 1
amm ad
ĠFeb ruary
Ġplay ers
Ġo pt
p ir
est ic
ĠEng land
Ġacc ess
ĠK an
Ġc ourse
ap an
o ice
he t
Ġ201 5
Ġte le
ro p
Ġinvest ment
Ġte ac
et y
at ural
Ġchar ge
Ġdep artment
Ġany thing
em or
ĠY ou
en ed
Ġter ms
ĠT witter
g a
Ġproduct s
d own
A I
Ġrec ogn
Ġacc om
ic ial
res h
Ġbank s
Ġachie ve
ĠC abinet
em s
Ġne g
od ies
8 0
m ission
e ch
ĠGod s
ic i
Ġ z
Ġpoll s
om en
Ġj oint
Ġde ep
Ġval ue
Ġl at
Ġimmedi ately
Ġright s
iv ity
Ġse arch
Ġa im
ĠAr t
d ra
Ġinf rastructure
Ġinclud ed
ne y
Ġint rodu
Ġme an
ĠJ ud
Ġpart ners
Ġim m
Ġsh oot
Ġfollow ed
Ġlangu age
ĠBang ladesh
ort em
ĠAd v
Ġof ten
j ri
Ġsim ilar
Ġpati ents
ang ana
se qu
Ġt en
Ġbel ong
Ġl od
ul ated
ĠPr as
ĠY og
Ġun to
ĠAh med
Ġchall eng
riy anka
Ġde g
N E
go ing
Ġres ident
Ġ2 9
ĠMinister s
Ġpro be
ĠV irat
al d
ab or
ut ive
Ġlet ter
Ġnecess ary
Ġt ri
Ġfriend s
ig ation
Ġm ag
Ġheav y
Ġschool s
Ġdis play
Ġsu st
pecial ly
I S
Ġup coming
A m
Ġcomm and
hen n
Ġr ushed
b it
Ġd ocu
ed s
Ġ"" ""
Ġs hi
ĠA y
ĠPat el
Ġst ory
ĠA pp
Ġm om
Ġexam ination
id s
Ġconstru ction
E arlier
ĠAfric a
Ġs ister
ĠSc he
ĠB rit
Ġfamil ies
Ġhand s
Ġaff ected
Ġqu ar
Ġdem oc
j a
Ġinstitut ions
Ġf ell
Ġfoc us
olog ical
Ġbe gan
Ġinclud es
Ġd ig
Ġres erv
Ġact ive
Ġc ou
ĠB l
ogra ph
Ġp aid
Ġmess age
Ġgen er
ou l
Ġres ign
w ork
I P
Ġmater ial
Ġm ention
ever s
Ġplay ing
Ġcle an
Ġinaug ur
Ġgovernment s
il ater
Ġk m
Ġth ousand
M C
Ġdevelop ed
Ġrec ent
Ġcre ate
jri wal
Ġchar ges
om s
Ġhig hest
ur ance
ia h
om b
Ġl ine
ĠL t
Ġpop ulation
henn ai
Ġeng ine
g han
Ġcor onavirus
Ġt rying
Ġtrans f
v ision
ĠS ar
Ġan g
Ġapp ointed
ap er
ĠSan jay
Ġwor th
Ġpr im
pp er
Ġse ason
Ġc ities
un ic
Ġapp re
D elhi
Ġp ow
Ġst rate
Ġoff er
ĠP ad
Ġgu id
ĠAr un
Ġwicket s
ĠO DI
ĠRaj ya
Ġben ch
it a
Ġa ware
Ġin te
qu ir
ĠRail ways
y ing
ĠA k
ĠML As
1 5
Ġm inistry
Ġn amed
E very
ĠCol le
Ġw a
ĠJ ag
e x
Ġdef e
Ġh ope
ars h
j oy
or ies
at ic
ĠS o
ĠJ os
Ġl iving
Ġin stru
Ġdou b
Ġw arn
Ġlit tle
ve re
Ġinvol ved
Ġle ave
Ġb ad
ran ge
Ġre ject
ĠCorpor ation
Ġpolit ics
ov ed
Ġleg isl
Ġchar act
Ġtra in
Ġr is
chan ge
Ġstep s
Ġh uge
Ġth ank
Ġpop ular
Ġp ub
ines e
Ġexper ience
Ġprodu ced
ĠG roup
ĠS ush
Ġsmart phone
uro pe
Ġor ig
h ood
Ġex ec
pend ent
ĠGo vernor
rid ay
Ġm ass
v al
i ber
ere m
ĠE ast
A dd
at form
Ġa head
ĠB ab
ĠJehovah s
ĠA z
Ġout side
Ġs ession
ilater al
Ġmeas ures
f all
Ġes pecially
ur u
A pp
ag ing
ĠHy derabad
ĠTechn ology
Ġact ress
A r
Ġe ight
re et
1 7
Ġrespons ibility
Ġopportun ity
i ers
Ġe ither
Ġd ed
Ġw ind
ĠR oy
a ction
Ġconcer ned
eng er
Ġresp onse
ĠN it
le t
it es
Ġhe aring
Ġf oot
Ġregard ing
N ow
Ġc ut
Ġcont ro
ĠPras ad
B esides
Ġtweet ed
olk ata
r ance
e ous
ĠW hat
Ġmob ile
Ġb oy
Ġveh icles
Ġemploy ees
Ġrequ ire
1 8
ks h
Ġunt il
ĠSu per
ĠF IR
Ġlead ing
Ġapp eal
ik h
ĠFor ce
o id
A S
Ġsc reen
ĠI ran
Ġt w
Ġprov iding
ĠD al
ĠB ar
Ġadminist ration
Ġc al
Ġr ank
Ġperform ance
ĠS chool
kh and
ĠIndian s
ĠRes earch
Ġsignific ant
b ased
or ters
Ġ ill
Ġj ail
ĠT ra
Ġon es
ĠS und
Ġsupp ly
ĠL aw
Ġen han
Ġc reat
n ew
ic ated
Ġcomple ted
Ġcommit ted
Ġ6 0
Ġappro ved
R C
Ġs ong
Ġmor ning
Ġobs erv
Ġlod ged
Ġg one
Ġminister s
Ġf el
Ġa ud
Ġp ain
S pe
Ġ er
Ġconsid ered
Ġb odies
est ival
Ġrelig ious
Ġr ural
ic ro
Ġestab lish
ĠIn st
Ġ3 2
ĠTr ans
ĠCommission er
ĠC ont
Ġro les
Ġpri or
ĠP ol
Ġv ol
r is
o har
Ġinde ed
Ġexp ress
Ġde ce
ail y
Ġex c
Ġre li
ag ue
Ġsc ient
Ġbl ood
Ġp at
Ġauthor ities
ĠMon day
Ġb order
on i
ce ment
C om
Ġtr ust
ĠB an
ach ing
hip s
Ġcom b
ĠR av
ĠP al
ip le
E D
ĠF riday
ĠJ apan
c le
z e
ag ram
Ġconn ect
Ġpresent ed
ri age
Ġconsid er
CC I
or row
Ġpun ish
ĠAs soci
ĠI t
ĠN ath
Ġsp ace
o han
ĠN ar
ĠCha irman
Ġfac ilities
Ġenc oura
ĠDe ep
ĠB ach
and a
ĠC ap
ut es
Ġcomple t
Ġph ys
st ant
ĠAss am
M inistry
ĠE urope
Ġchall en
im ate
ra j
if ul
p ite
Ġ ess
ĠF ar
Ġen joy
Ġdist rib
Ġmilit ary
Ġ ut
ill ed
Ġquest ions
r in
Ġs ought
Ġgroup s
Ġmove ment
Ġwant ed
Ġn om
Un ion
Ġc ash
Ġjud ge
"" ,
r as
Ġreg ular
ro g
ru ption
Ġgiv ing
reed om
I I
ĠAf ghan
g n
Ġs qu
Ġpl atform
1 6
ab ly
Ġatt empt
Ġprop os
ro ad
Ġdef ence
Ġrelig ion
Ġ3 5
Ġrecord ed
ĠG ST
Ġoper ation
Ġl ower
Ġcon ference
ir st
Ġex erc
Ġwh ose
Ġalle g
Ġsa w
R aj
Ġcondition s
c raft
Ġlook ing
Ġsub s
Ġelect ric
Ġadd itional
b ody
v ent
Ġse x
ĠT V
Ġdom estic
ĠKe jriwal
Ġqu al
ĠSal man
ĠS P
Ġread y
ĠInst agram
ha i
ĠS oc
ri ef
ĠO ff
in ated
Ġdo ctors
Ġadd ition
C hief
Ġapp ly
Ġpr ime
ĠI C
2 5
ĠK ar
is c
Ġw is
ir a
Ġ $
Ġincre asing
Ġtem per
d ict
Ġe arn
Ġt it
ĠCh inese
Ġh y
Ġac qu
Ġtrans port
m ortem
ĠJ oh
Ġ- -
Ġcomp r
crib ed
Ġco ver
R D
j un
Ġan ti
l oad
Ġcomple te
Ġ vers
ĠC hennai
igh b
s c
Ġcro ss
ad ha
b ook
ĠEng lish
Ġcust om
Ġcl os
Ġreve aled
Ġr an
Ġb illion
ĠP e
Ġleg al
ir med
ic ide
n am
Ġcomp ared
Ġthere fore
ot ed
Ġh alf
ĠDep uty
ĠG erman
Ġloc ated
op al
ĠC an
Ġany one
Ġneed ed
Ġwork ed
c ast
et ro
P h
ĠD av
Ġjoin ed
ĠAm b
har khand
Ġb ar
ĠMed ical
Ġs ports
I m
Ġev idence
ĠR AM
ow s
Ġas k
Ġoper ations
Ġs har
r ay
ĠK al
Ġopp osition
Ġm akes
ĠC ricket
ĠAs ia
ter y
Ġimp act
ĠB en
li ed
ot ing
b ir
Ġex pect
quir y
ch ay
Ġr ound
it ude
ĠR ed
i ant
Ġqu ite
Ġmom ent
Ġag ency
ĠI N
Ġpurp ose
Ġc y
aug ht
Ġits elf
Ġb ur
l ight
Ġpot ential
Ġc ulture
Ġpass engers
ia b
2 2
Ġp en
ĠIP L
Ġse par
Ġde ploy
Ġprop osed
Ġk ing
ĠK olkata
Ġprote ct
he l
se c
Ġtal ks
M an
Ġconstitu ency
E R
ĠP re
im inal
P F
Ġprep ared
a fter
Ġcl osed
F ollow
il es
Ġstreng th
Ġw el
ĠS te
in ary
Ġmin or
Ġcent ury
Ġcar ried
Ġcust ody
Ġjust ice
le cted
ĠR oad
y al
ĠU N
is garh
Ġprov isions
i res
ĠD o
Ġveh icle
ĠD es
Ġw al
ĠRaj nath
Ġhist or
Ġw atch
Ġru pe
Ġtal k
ĠA t
ĠPakistan i
h is
Ġk ept
Ġimplement ation
Ġsaf ety
Ġph ase
Ġr ise
M ore
F C
ĠRail way
Ġne ighb
Ġinn ov
4 0
ĠLt d
Ġc erem
Ġwor ship
Ġspe ed
ra cy
ur t
Ġinvestig ating
Ġb ats
ues day
Ġrespect ively
Ġopportun ities
en e
Ġstat us
ĠU r
Ġh ol
Ġunder t
at t
Ġspe ak
as ons
pt a
ĠBach chan
in ent
Ġmod ern
ap ur
mer ce
p an
Ġt on
und red
ach in
p ress
ĠAd ity
Ġmod el
Ġchan ges
ĠG ang
Ġc ultural
Ġst aff
Ġbel ow
Ġfir m
Ġorgan ised
u el
d e
ĠRep ublic
I N
inc ipal
d isha
b ack
Ġleaders hip
Ġloc k
Ġget s
ĠM ad
M odi
conom ic
Ġcred it
Ġtak es
Ġprev ent
Ġdece ased
Ġbu ilt
Ġterror ists
Ġad op
us ion
ĠG l
ĠT uesday
U nder
Ġst ra
Ġpro ceed
r ant
ĠM y
ĠI T
k now
en ced
ru it
Ġrul es
Ġh arm
od h
A part
ĠR el
Ġspokes person
Ġsee king
Ġhous es
b ar
ĠM and
on ald
Ġp il
Ġall iance
ĠServ ices
Ġdeath s
Ġd rug
ĠB e
ed nes
Ġfund s
op ra
P C
Ġful f
el ines
E O
M umbai
Ġpict ure
od ay
en ing
Ġunder way
urs day
Ġl ate
ĠMuslim s
Ġsign ed
ĠS in
ud ents
Wh o
Ġappre ci
Ġst ake
Ġcon c
ig g
Ġ7 0
g ment
Ġman ner
m b
ĠTh is
ot t
v ind
Ġse nd
Ġdies el
ĠO ne
Ġfor g
ĠT ri
Ġd i
Ġemploy ment
Ġam end
ednes day
Ġnot ice
ĠB ut
Ġd aily
Ġw ants
amp ions
Ġdire ction
Ġpres ence
ĠT ha
Ġinj uries
hatt isgarh
Ġterror ism
Ġfour th
ell ing
Spe aking
Ġsu icide
A b
Ġcong rat
Ġest im
ĠSche me
Ġf reedom
iqu e
ĠH D
ĠSund ay
ĠN e
ksh ay
or a
Th ree
Ġfor med
Ġbl ack
Ġvir al
Ġdiscuss ed
ĠZ eal
Th ose
Ġmar ried
ĠBrit ish
ĠC ivil
Ġcharact er
ĠChand igarh
Ġestab lished
Ġjour nal
ĠColle ge
Ġh ar
Ġw ays
ĠK ore
Ġ19 8
Ġpl ant
Ġre pl
ad es
ĠZeal and
Ġdemand ed
ĠM ission
E L
Ġf ile
am med
Ġconf irmed
Follow ing
p ond
Ġlaw s
es tern
ĠW ednesday
Ġevery one
ĠTh ursday
Ġb i
ĠAssoci ation
in i
Ġdise ase
Ġvict ory
Ġv s
1 4
Ġan im
ĠR ohit
ĠM ess
Ġresp ond
Ġcontin ued
ix ed
Ġprof ession
Ġpro s
O ther
A L
ur day
Ġmus ic
Ġassist ance
Ġapp e
ha wan
c he
ĠChrist ian
ĠSe ction
Ġreli ef
6 0
Ġ201 3
Ġg od
Ġn orth
pp ing
akh and
C T
as k
u ter
Ġar ri
ab les
g ram
Ġfl ood
Ġspec ific
ĠJ harkhand
Ġ8 0
m iss
Ġsche mes
Ġpl ans
Ġcomm ission
Ġvot es
Ġtra ffic
all ed
ĠP aw
Ġa verage
ĠS ha
v ention
Ġansw er
Ġprov ision
ly mp
ĠAn il
ĠCh opra
ep al
ect or
tern et
Ġm ax
Ġp ath
Ġg as
ĠSci ence
Ġ19 7
ĠN ag
E S
Ġl if
Ġcaus ed
le ar
Ġass ess
Ġdest ro
ĠK rish
Ġhand ed
Ġp ack
Ġst age
ĠA uthor
A D
Ġocc ur
ĠSat urday
Ġst e
a ult
Ġsh ot
us e
r ad
ix el
ĠServ ice
w here
Ġevery thing
tain ed
Ġexp and
mer cial
Ġ ir
Ġs ite
ur i
Ġse ized
S ince
Ġr ates
Ġn ames
ĠIn formation
L ater
ĠM ot
ĠO ur
es ter
ag er
Ġpress ure
Ġdem on
ĠL anka
Ġsc hed
il m
Ġev il
Ġfail ed
Ġmar riage
ric ke
Ġalleged ly
ate ver
Ġre form
pend ence
Ġag o
Ġmat ches
ov id
N ot
ĠS C
Ġar g
Ġexist ing
Ġproper ty
Ġs ource
Ġoff ered
Ġinf lu
Ġref erred
Ġgiv es
Ġ201 1
D r
ĠS pecial
ĠFore ign
Ġr ally
umb ers
Ġco al
ĠA rab
ĠO disha
Ġag riculture
Ġimport ance
ever al
Ġmov ed
Ġn ations
Ġar range
Ġb ilateral
ov ind
R O
Ġpr in
Ġextend ed
aid u
ĠI nt
M a
Ġmention ed
Ġd uty
Ġlat est
Ġde term
Ġprom ote
Ġair craft
Ġru le
Ġmajor ity
Ġeffect ive
Ġn atural
Ġparticip ated
ĠL im
ition s
Ġres c
ĠT er
Ġth ou
Ġhe ard
Ġan al
Ġcent re
pect s
Ġchan ged
Ġdid nt
Ġ5 00
ĠSec urity
M S
ĠO lymp
ĠT rib
Ġf ig
Ġl ink
Ġpict ures
Ġm and
Ġbo x
Ġins ide
Ġt ried
os h
B y
ĠOr gan
E ven
ou d
it ial
Ġprov ides
ĠAmeric an
ĠD iv
Ġple a
c o
ol ution
ĠP aul
Ġs ides
ĠS han
Ġal most
Ġsure ly
Ġext rem
Ġden ied
Ġ201 2
Ġv ia
Ġin ternal
Ġp ers
Ġcerem ony
Ġal one
Ġpur ch
ĠD i
ĠArt icle
ĠM od
ven ue
Ġre d
Ġvill ages
Ġbig gest
qu e
re p
ĠK ul
J D
ĠC ons
ĠB hatt
os ing
Ġalleg ations
ond on
ut ions
ĠHim achal
re w
S everal
Ġremain ed
Ġturn ed
ist ic
Ġb ail
Ġpet rol
ay an
Ġcontin u
Ġri ver
u v
ĠG e
Ġmat ters
ĠGu pta
k ash
Ġtra ins
ĠN agar
Ġbenef its
M E
ĠRa o
s pe
ĠO n
Ġbl ess
Ġsc ored
Ġfor th
ch i
Ġprogram mes
Ġroad s
Ġle av
Ġsched uled
Ġun its
Ġsee k
ri pt
' .
Ġw id
ĠR ukh
Ġnear ly
Ġstud ent
Ġp and
ĠD is
ĠPl an
Ġpunish ment
Ġteac hers
Ġshow s
Ġbrother s
Ġgood s
Ġto urn
Ġre asons
Ġc ell
ĠV er
Ġf ans
ind ra
Ġres ources
Ġprim ary
Ġaccount s
ĠJan ata
ĠI S
Ġspe ech
ph as
ĠUttar akhand
Ġrail way
Ġcr ime
ĠDh oni
Ġus ers
th ough
Ġun it
ĠAr vind
Ġfl ow
ĠAb d
Ġra pe
Ġc op
Ġs outh
Ġrespons ible
ĠW elfare
O f
o x
Ġmar k
ic ked
Ġn ature
Ġb ill
Ġcateg ory
i y
ang er
Ġh ot
t ies
Ġb udget
Ġt ry
Ġvis ited
Ġfac ing
Ġpub lished
Ġs ale
ĠGo a
Ġappro ach
ak ur
ĠF und
ĠMuk her
ĠMan agement
Ġp ra
ĠCh hattisgarh
Ġcrit ical
Ġchalleng es
Ġdr ink
99 9
ĠN aidu
ac hes
Ġgirl s
ĠOffic er
ĠE lection
Ġnorm al
ud i
H er
Ġdep art
m on
Ġeas y
Ġdemoc racy
Ġcoun ter
Ġdig ital
g ic
Ġess ential
Ġv ote
un t
Ġapp oint
Ġsus pend
Ġopen ing
b all
op er
ĠP riyanka
ĠDav id
ĠT ax
ĠH ow
Ġh undred
C A
,"" ""
idd le
ent al
Ġagree ment
ous ly
Ġcou ple
Ġ |
ĠK am
Ġdis bel
Ġrece ive
ĠAfghan istan
o o
Ġgre ater
ĠS pe
Ġcom ment
Ġey es
Ġc ricke
Ġh um
Ġiniti ative
g ap
Ġb al
Ġgrow ing
Ġsold iers
Ġris k
Ġrep ly
d eep
Ġindust rial
Ġ6 4
ĠB ook
Ġcont ain
S im
ĠIn vest
Ġchallen ge
ĠN a
stand ing
ĠS ector
ĠP ower
Ġmax imum
Ġsil ver
Ġen ough
Ġreg ul
ĠC har
rat ic
ĠG B
an ced
Ġt ro
P resident
Ġde leg
Ġlock down
ĠM S
ric ultural
il i
Ġur ged
ĠKing dom
Ġem p
Ġeven ing
Ġs oul
ace book
Ġcare er
Ġes c
Ġf re
Ġfav our
m ing
ig ence
en ess
stitution al
Ġn umbers
Ġopen ed
edd y
p ing
Ġar my
he m
Ġpand emic
ĠP TI
Ġnet work
ĠSon ia
as tern
Ġl in
ĠTel angana
ran ch
Ġb esides
Ġspirit ual
Ġele cted
Ġran ge
ĠSin ha
Ġte xt
Ġreject ed
m ohan
ar c
re es
Ġplay er
ve er
Ġatt ention
ĠE m
ot al
Ġord ered
Ġf ine
1 3
C B
ĠMukher jee
ĠT our
Ġmarket s
Ġlevel s
Ġinn ings
ul s
w ide
Ġl ay
Ġsc ience
ĠW itness
Ġcor ruption
Ġbro ad
ĠAsh ok
Ġpost ed
Ġsa ve
Ġequ al
j e
is f
Ġur ban
ĠThe y
Ġdestro y
Ġpro b
ĠAg riculture
er jee
Ġcoll abor
ĠC ovid
ha p
Ġm ount
ĠN et
Ġcons ult
Ġknow s
Ġattack s
O N
Ġnot e
Ġbe at
Ġcro res
g ency
Ġh op
Ġcha irman
Ġcelebr ated
ivers ary
Ġfac ilit
ĠJ ay
Ġse ctions
Ġtemper ature
ru pt
it ley
ĠS ol
ĠN eh
ĠCon ference
Ġfel t
ĠAuthor ity
Ġ4 8
Ġad j
Ġv ision
unic ipal
Ġwith dra
ĠN epal
Ġf if
Ġm il
ĠRuss ia
Ġexerc ise
al se
Ġhe ar
Ġag encies
em y
Ġset ting
o very
Ġe ld
ĠC EO
Ġpropos al
ĠC r
ĠB as
Ġth us
Ġspok e
Ġstri ke
ĠS um
Ġsaf e
ir s
ent ed
Ġact ually
Ġb ound
Ġsystem s
ou red
Ġev ents
Ġbre ak
Ġmon itor
Ġgo vern
Ġf resh
res pond
Ġ201 0
udd in
Ġgo es
R s
p ro
Ġl og
Ġs ons
Ġt rial
ic it
ĠB hav
Ġp red
ĠS ports
Ġquar ter
ĠJoh n
Ġremain s
Ġt icket
o e
v t
ci ent
Ġin quiry
an th
as i
Ġdeploy ed
5 00
Ġvictim s
ĠOff ice
Ġann ual
Ġf estival
o ff
il ed
ĠIn f
Ġmin imum
Ġrece iving
Ġs in
Ġw ish
ĠW ater
ĠEx press
"" ""
eth od
H I
Ġcontro vers
Ġcr iminal
ĠC han
ĠLim ited
ĠChand ra
Ġun f
ĠPro gram
y er
ci ples
Ġaccept ed
oun ter
an ath
gap ixel
Ġfl ed
Ġem phas
Ġst ations
ĠCl ass
Ġpay ment
Ġ3 3
Ġre ar
R ec
Ġcer t
ĠB ad
v a
ĠB CCI
Ġinter view
Ġp arliament
The ir
v ant
Ġse vere
A C
Ġdep os
. ,
in ch
Ġm ission
Ġjud icial
Ġcap t
Ġsh own
ens ive
Ġair port
Ġshoot ing
Ġco ach
Ġreturn ed
ĠD har
Ġ9 0
ak en
Ġdra w
Ġex change
ĠW ar
ress ing
em a
Ġv ice
Ġappro val
Ġmeet ings
ĠTh akur
ĠA I
Ġse ctors
Ġfl ag
Ġser ve
Ġbelie ved
ĠT o
Ġgra nd
in ations
ĠA ward
ap t
Ġcrit ic
Ġm ut
L et
Ġcr is
Ġb ase
Ġtourn ament
Ġne ither
Ġsens or
li p
Ġhospital s
Ġcall s
p ri
mend ment
Ġful ly
ad han
Ġmed ic
Ġlo an
Ġauthor ity
Ġsub mitted
Ġcontrib ution
ĠChrist ians
Ġc ant
ĠD onald
Ġn ine
Ġhelp ed
Ġprote ction
ĠA jay
Ġ4 5
an e
Ġag reed
Ġse lected
el a
ĠT ata
R ahul
Ġcertain ly
Ġf em
Ġ il
r ative
ĠM at
Ġord ers
Ġm icro
ver t
er o
Ġcor respond
Ġterror ist
Ġcor por
ĠCh ild
Ġsepar ate
Ġcol our
p en
Ġter rit
u nder
ĠBhar ati
uc lear
E C
Ġb ag
j u
Ġcris is
m inist
ash ing
ĠGovernment s
Ġdiscuss ion
P S
e en
ĠL ondon
ef ul
amil y
Ġplac ed
A h
Ġlit er
t ime
ĠAs ian
Ġre pe
Ġfe ature
Ġsur v
P l
Ġ200 9
Ġpre c
ol s
M ost
esh war
Ġfac ility
n y
Ġ3 6
ĠV id
Ġheav ens
ner gy
ĠPro ject
ĠAd d
Ġc ru
in ate
Ġconcer n
ĠU K
S al
ĠBan erjee
Ġintrodu ced
Ġiniti atives
ĠI CC
Ġrem ember
om an
Ġoff ers
ĠC ity
ĠRaj put
Ġrun ning
Ġcom mercial
ĠW omen
Ġappe ared
ĠReg ion
Ġphot o
il s
Ġto m
om ing
ĠAn and
Ġcont act
a cted
Ġpartners hip
Ġsha res
ve ndra
e qu
ut t
ĠV ik
Ġprodu ce
ĠI f
C R
Ġgrant ed
A F
ĠL ad
ish ra
are ena
Th ats
Ġcar ry
re l
ri ya
il a
ĠK a
le um
ren e
Ġredu ce
Ġdeb ut
Ġcomplet ely
Ġel se
Ġr ich
Ġvac c
ĠPr an
Ġ19 6
o res
Ġeff ort
Ġin itial
ful ly
ĠComm and
Ġiniti ated
Ġright eous
Ġhead ed
f ted
al ore
ĠS rin
oc ks
Ġmanufact uring
ĠKrish na
ĠR BI
iz ing
B ollywood
Ġpost s
ĠLe g
Ġg e
edd ing
Ġgen eration
Ġdeg ree
Ġsuspend ed
Ġs ense
Ġpl ays
ush ka
Ġsc ore
it er
hen s
ĠW ill
Ġextrem ely
Ġsat isf
Ġf alse
as hi
me gapixel
Ġestim ated
ag h
Ġclaim s
Ġdes pite
ĠE conomic
ĠPra kash
Ġil leg
Ġconf idence
ĠBh ag
Ġref used
pp osition
ĠSy stem
e ks
Ġarri ved
and eep
2 00
Ġdev ice
Ġ :
Ġf air
Ġphys ical
Ġsign s
ĠA cc
ĠPro f
Ġcontin ues
N I
Ġide a
S hah
Ġm ethod
hold ers
Ġp age
Ġresol ution
Y our
ĠF ood
ester day
4 5
um e
art i
ĠN CP
Ġparticular ly
Ġind ic
b h
H ere
R es
T e
Ġpur s
Ġro om
Ġpro c
ĠIndust ry
qu ar
y le
ĠA kshay
Ġinst ead
har a
Ġdocu ments
Ġbat tery
ro id
olog ies
oc ation
Ġthe e
F urther
Ġon going
ĠIn ter
Ġty p
t ty
Ġsk i
at ma
Ġan t
ĠJa itley
ĠC P
S uch
w ise
Ġv irus
r ated
Ġqu ick
Ġopt ions
Ġcont ract
Go vernment
char ge
Ġsuff ered
Ġappro pri
Ġsa cri
f ect
it ure
W here
p id
O ver
o le
Ġsome one
b l
ĠB S
ĠLe ague
ĠK aur
n i
ul a
Ġav oid
ĠV al
land s
ĠY ork
3 5
h ammad
Ġla id
Ġdec isions
Ġexper i
ĠF acebook
ĠCont rol
rou d
ĠG al
Ġrul ing
Ġheart s
Ġmot or
Ġty pe
ĠF ed
if t
ck er
Ġimplement ed
' re
p al
ĠS id
T r
Ġl ack
ch ol
om et
ĠG h
ĠMan mohan
re ct
han k
Ġbec omes
Sim ilar
Am ong
ard han
p ay
ĠYog i
Ġf ra
ĠM in
Ġinte gr
Ġserv ed
T oday
andid ates
Ġ7 5
Ġwin ning
p ati
ĠA c
Ġs le
Ġregion al
Ġgre et
l aw
Ġbo ost
Ġwh atever
vi ation
ĠM ishra
Ġ19 5
Ġaff ect
Ġo ption
f ace
Ġse a
rep rene
ĠWitness es
Ġd anger
Ġw elfare
st ar
ĠM or
ar ily
r im
Ġg ather
us iness
Ġdevelop ing
ĠPun e
ĠTrans port
Ġjour ney
Ġtechn ical
Ġwe ap
it able
Ġassoci ated
ĠS war
Ġcent res
ĠAm ar
C on
Ġgre en
w ith
Ġ3 4
Ġpart ner
Ġbu y
ĠAdity anath
Ġe at
Ġde pend
Ġfore st
ĠF ilm
Ġto uch
ĠInd ies
Ġdis miss
ur rent
Ġbas ic
2 4
Ġbook s
i evers
Ġaward ed
ul ate
ĠB oss
Ġsec ret
ĠAd minist
Ġv oice
Ġann iversary
Ġsust ain
og le
A d
ĠP ort
Ġcompet ition
E N
Ġpro ced
ĠCh ampions
s et
Ġfin ance
oc ked
Ġjob s
U s
ĠE lect
Ġmar ks
am ir
rug g
ĠV ish
a pe
Ġ200 8
kar i
Ġhouse hold
Ġco ast
op les
An other
ag ers
Ġcons ist
Ġtransf er
aw a
uck now
am an
ĠPat na
Ġass ured
ĠK ovind
Ġrep orters
Ġtru ck
u gh
D R
Ġop in
Ġst ock
es e
p ic
F rom
Ġwe eks
Ġnot ed
Ġlangu ages
ĠS idd
ĠV ar
I L
Ġcre ation
Ġbats man
st ances
Ġcirc um
Ġdirect ly
Ġre ward
Ġorgan ized
ĠT al
Ġinaugur ated
ĠG ad
Ġso ft
Ġtest ing
ra in
er ies
Ġbeh alf
Ġbegin ning
Ġton nes
Ġadd ressed
Ġver dict
sequ ently
id a
om i
Ġdel iver
Ġthrough out
Ġap ost
Ġorgan is
Ġrem ar
ĠR eddy
ll ed
Ch ina
Ġrain fall
7 5
Ġup d
Ġimmedi ate
Ġm id
Ġhon our
Ġcha ired
ĠF rance
ĠK at
C S
ĠMo han
2 3
Ġb orn
Ġwe ak
ĠC ode
ak ers
r d
Ġserious ly
ell igence
ĠSun il
pe x
ren ch
Ġg ri
o i
al ty
St udents
Ġp roud
us ive
aj i
Ġgu est
Ġy esterday
Ġpract ice
Ġplan ning
Ġinc l
l ation
Ġs ound
Ġc e
Ġro b
Ġcar rying
Ġcong reg
Ġval ues
ĠM ant
ary a
Ġgo al
on a
Ġconc lud
Ġd ie
Ġdisp ute
Ġ15 0
R e
ly ing
Ġcond em
il ing
Ġt or
Ġfa ctor
h ab
ĠBhav an
r ang
Ġhealth y
Ġsit u
l ers
ĠD hawan
Ġinv ited
Ġac ad
There fore
St ate
Ġst rugg
id amb
nd s
Ġun ivers
Ġlit re
Ġbe aut
ĠA AP
Ġobserv ed
Ġaut om
Ġext ra
Ġbat tle
ĠG en
M r
Ġdel ay
Ġequ ip
riv ing
Ġcourt s
Ġlim ited
Ġb it
ĠM et
Ġsl ow
Ġsub mit
Ġlearn ing
Ġme chan
ĠA nt
ĠD ig
un al
Ġkeep ing
ĠE nergy
ress ion
Ġsit ting
ĠB ah
ig er
Ġf at
s y
Ġenc ounter
ĠB i
Ġprior ity
ĠIm ran
Ġj i
Ġbirth day
ad ium
ic ted
Ġp m
ĠRaj iv
Ġd ial
Ġpol ic
Ġfe e
ĠBengal uru
E T
Ġr ather
Ġra ins
ull ah
Ġstand s
H O
ĠE d
Ġincident s
Ġlim it
as hed
a ctions
Ġreg ister
z a
ĠR aw
Ġch o
Ġunderstand ing
B C
Ġmult iple
Ġman aged
w ell
Ġspe aking
ĠH on
ĠPran ab
Ġt ies
ĠAr jun
Ġhold ing
Ġ +
Ġf ram
chay at
Th us
Ġ20 21
ess or
Ġart icle
Ġcolle ct
aram an
ĠS k
ĠAhmed abad
Ġguid elines
D e
Ġp aper
Ġremain ing
Ġk g
Ġg ain
har y
ĠPaw ar
ur b
Ġappropri ate
Ġw edding
ĠB SP
Ġtra ck
Ġski pper
ap s
ĠV en
Ġ37 0
Ġshi fted
ĠBharati ya
) :
ĠGang a
ĠG ames
Ġfl ight
ĠNew s
ĠM as
Ġcustom ers
Ġdef in
on ed
ĠGerman y
ast ic
Ġcon stitut
oj ana
Ġwis hes
Ġbe ha
Ġsur pr
ĠM am
Ġcon stant
4 7
Ġ %
Ġth y
Ġimp osed
ad ra
ac ed
ĠR ai
Ġsupport ed
ĠPad uk
ĠR ec
Ġa st
Ġdou ble
k har
in als
Ġst one
Ġcommit ment
Ġd ro
ĠB ra
ĠPr adhan
ĠM eh
ĠG old
ict ion
pl om
ha ps
ĠB udget
G od
Ġacc ord
Ġbe y
w in
rit s
Ġm ig
ci pl
Ġtest ed
Ġbey ond
ĠEn ter
ĠKore a
Ġu nd
Ġsqu ad
Ġc at
og ue
T s
p ly
ĠHe ad
ar th
ens ation
ĠT om
u ction
n ces
ĠP er
as w
Ġw ide
Ġf am
ĠPol icy
ĠJ D
Ġtrad ing
Ġar ch
Ġkill ing
Ġaware ness
Ġins urance
Ġst ood
ĠPaduk one
ot i
du le
or ing
Ġcolle ge
us han
Ġfor ms
Ġpr ison
op h
adha ar
Ġa ctors
ĠD EL
Ġlo ans
R B
Ġshow ed
Ġent ered
Ġdoub t
Ġtom orrow
end ul
ĠMan ohar
Ġth r
w adi
Ġt im
NE W
Ġn uclear
Ġend ed
Ġse em
Ġded icated
ap ers
ĠC ar
Ġview s
Ġnot ification
ist ics
9 0
Ġem b
n ap
Ġres idence
S ub
ĠMah atma
ĠCom merce
ĠEng ine
Ġshar ing
im a
Ġadv oc
Ġmean ing
Ġfound ation
ĠTour ism
' m
ĠPro du
ron ic
P P
Ġb ond
ĠKap il
Ġinde pendent
Ġparticip ation
Ġa pex
Ġresident s
Ġcreat ing
ĠJ av
ĠK aran
Ġbeaut iful
Ġpolic ies
ĠC A
art y
v is
Ġfight ing
l ies
Ġpan el
Ġcricke ter
Ġaddress ing
Ġmed al
Ġfac ed
A ct
Ġrepresent atives
ures h
Ġg ames
an cy
ĠDEL HI
d a
in ance
Ġheav en
n av
Ġcorrespond ing
ĠAnd roid
Ġsp ent
Ġbl ast
Ġcommun ication
Ġrel ating
Ġam b
ens ions
Ġindividual s
Ġf ixed
Ġactiv ity
Ġ3 00
Ġmar g
ĠP ak
ul es
R E
Ġh urt
Ġt rou
ĠD em
ith araman
s p
pur a
Ġim age
Ġwe ather
Ġcont ent
ĠSoc ial
w d
Ġprotest s
ĠAmeric a
erv ation
r un
Ġregist ration
Ġl iqu
f ort
Ġredu ced
Ġsuff ering
N U
Ġt able
ĠN I
cker ay
Ġdocu ment
c ks
if f
war i
B S
Ġworld s
all s
Ġper mission
Ġcomple x
Ġun iversity
ĠQ u
Ġpost mortem
Ġbl ock
pan ied
ot a
Ġun ique
ov t
Ġvar iant
ĠNav y
Ġw arm
Ġsex ual
Ġdemon st
Ġre ality
Ġex cell
Ġwas te
Ġtal king
Ġb rief
Ġinterest s
c are
n ic
Ġn am
ĠNeh ru
Ġm ill
ĠN aw
ĠL a
Ġf le
ec ause
Ġcon vers
Ġag g
Ġn one
ĠR ana
quar ters
F our
Ġpros per
7 0
ast e
Ġorgan isation
Ġaff airs
Ġv ent
Ġpoll ution
ĠP erson
Ġ x
Ġparticip ate
ĠQ ual
Ġcost s
Ġlook ed
' ,
ent y
Ġth row
ĠP ost
ess ions
her n
Ġbook ed
Ġst ructure
Ġto ll
endul kar
ĠSam aj
Ġst rict
S enior
Ġneg ative
Ġresc ue
Ġcan cell
war a
ĠF l
ĠInd e
Ġrele vant
Ġarg u
Ġco ord
Ġdes cribed
Ġra ise
Ġtre ated
Ġm ach
ĠM ag
ĠR ashtra
pend iture
ĠV in
odh ya
Ġsubs id
ĠNit ish
Ġtour ism
Ġrupe es
ĠR SS
y n
Ġstop ped
ĠM ir
Ġthink ing
Ġple as
Ġrequest ed
Ġdemand s
Ġent ry
Ġrem oved
im ately
P un
Ġgu ard
Ġattack ed
Ġguid ance
Ġsim ple
Ġbec oming
ro re
Ġk new
w or
Ġb ul
ĠC R
ĠO pen
Ġbeli evers
Ġg un
Ġaccom panied
id er
Ġdam age
Ġvir t
u le
ĠB aj
Ġpric ed
Ġwe ight
Ġelectric ity
Ġarrange ments
Ġad mit
Ġmer cy
v an
ol i
ar pur
Ġserv ants
ĠJ ew
Ġman if
Ġhold s
Ġd oll
il ty
Ġ4 4
E n
ĠE astern
. )
ĠP ark
Ġcond ol
Ġins p
ĠProgram me
ĠN irm
Ġtit le
F ar
ort hern
ĠU s
Ġilleg al
ĠMP s
ĠUr ban
Ġprof it
o oth
ĠC al
Ġfem ale
ĠBang alore
ar b
ia ble
ug u
Ġeduc ational
Ġs ell
Ġover all
ult s
ĠEurope an
C an
ish ing
ĠPand ey
know n
ul ations
2 6
Ġtrad itional
av y
ĠS achin
C andidates
Ġass ets
Ġdeleg ation
ĠSec ret
ver se
mi er
ĠS ikh
m in
Ġm iddle
ap tain
reprene urs
Ġab road
Ġhapp iness
Ġrespect ive
Ġk il
ĠAmit abh
Ġ ign
Ġpe nding
Ġorig inal
Ġdis app
wal i
ĠF amily
ĠJ oint
Ġre venue
Ġident ify
Ġexam s
Ġover s
Ġstand ards
Ġdeg rees
Ġhigh light
ov ing
nd ed
Similar ly
i very
ĠO pposition
Ġm em
Ġcolle ges
ĠThe re
Ġan cient
Ġdec ide
Ġbr id
ĠO F
com m
Ġ >
te xt
k ind
Ġmult i
Ġdri ve
ure ment
Ġproceed ings
ok e
idamb aram
ĠIndust ries
ur k
ĠR ural
ĠP rab
G u
ĠU nder
Ġval id
ĠTha ckeray
ĠC CT
ĠY ojana
han a
ear ing
Ġstand ard
Ġ3 8
tain ing
am y
Ġgu ilty
S hi
Ġopin ion
ĠS ik
ing er
Ġb urn
ĠWh o
Ġapplic ations
Ġachie ved
ĠB est
r ont
al m
Ġex port
Ġf uel
ĠA adhaar
Ġmil k
ĠDeep ika
Ġcountry s
Ġencoura ge
Ġpo et
ĠLeg isl
ill ing
er ted
Ġcl ar
ĠEx ternal
ĠV is
Ġmonitor ing
ax y
C O
al and
Ġannoun cement
Ġs ize
Ġdiffere nce
Ġpower ful
Ġcro wd
he red
ĠL ucknow
Ġobject ive
Ġdoes nt
ĠGad kari
N ational
O r
On ly
Ġcolle ction
Ġmass ive
Ġprom ise
v ious
ĠNit in
in tend
ar ation
ĠP etro
Ġl ic
B e
Ġconf ident
Ġhappen ing
k eep
ĠS itharaman
ĠS ind
lic t
Ġsc ale
ĠT em
Ġsuggest ed
Ġwh ite
Ġr ad
Ġcircum stances
Ġj oy
riv al
ub e
Ġsan ction
Ġrest rict
Ġvers ion
S ay
Ġadv ised
Ġdis s
Ġoff ering
Ġmiss ing
Ġdefe at
Ġs un
Ġsacri f
r ary
Ġcon vey
ĠSrin agar
Ġtrans p
Ġd er
ou han
ĠCCT V
ĠM it
a q
Ġag ricultural
Ġhelp s
Ġpow ers
D es
ol it
ĠK art
Ġinte g
Ġrec overy
Ġremar ks
S D
ĠC itizens
Ġsur vey
Ġfell ow
Ġcom ments
Ġra pid
it age
i us
ĠMoh ammad
Ġcl imate
Ġdes ire
i ya
ing h
6 5
Ġ12 8
Ġl ies
Ġgo vt
Ġbring ing
ploy ment
Sal man
N G
ĠH ard
Ġexec utive
Ġeng aged
iv eness
ĠJud ge
h as
Ġhol y
Pun jab
M s
ĠG ra
Ġdiscuss ions
Ġc overed
ĠSt and
H E
g on
Ġd ign
Ġr ising
Ġpol ling
ĠAn n
Ġsol ution
Ġm ist
ĠMant ri
Ġexper ts
Ġcomp uter
re hens
Ġinj ury
hi k
ĠL ab
Ġwrit ing
ĠRam esh
Ph one
Ġinvest ors
ĠR o
Ġstud ies
Ġd ream
ĠRe ad
Ġnear by
Ġc ards
Ġass ign
Ġprom oting
Ġfor t
Ġut il
Ġit ems
ĠH uman
ĠGo yal
Ġcert ific
m ark
Ġsal es
ys is
Ġc abinet
itiz en
Ġequip ment
Ġconnect ivity
W est
Ġsom et
ur ch
Ġwe alth
ĠIslam ic
ĠEn vironment
ĠRep ort
ĠAdv is
Ġdecl ined
ĠAy odhya
omb ay
Ġpl ants
ĠJos hi
T al
Ġmanufact ure
Ġb ab
Ġmov ing
ĠRes erve
Ġdistrib ution
ĠAn ushka
ef ore
en n
ot o
Ab out
Ġsister s
ĠT endulkar
ph y
is han
cept ion
Ġsl og
ĠS uresh
ĠI I
Ġdown load
ĠK o
p at
Ġs chol
ĠTel ugu
ĠIn s
Ġde eds
Ġf it
ure ly
Ġcoun sel
ĠC B
Ġcall ing
Ġinde x
ĠSpe aker
ĠF rench
Ġh omes
ĠM oses
Ġdo ctor
Ġbro ke
ult an
Ma harashtra
S ec
ĠRed mi
ĠMam ata
ĠShar if
St ep
Ġ4 9
Ġfam ous
Ġo ath
n agar
A ctor
u z
ĠB usiness
ĠVer ma
Ġt ask
ĠN ote
u it
Ġfif th
Ġm ere
Ġh ath
Ġlong er
Ġconcer ns
ĠAdd itional
ĠJ on
ĠDe vi
hes h
Ġvide os
Ġpray er
Ġlakh s
R el
he k
ĠA T
Ġcongrat ulated
Ġa part
Ġmanif est
3 7
C urrent
Ġen able
Ġs n
ĠIP C
Ġsust ained
u ild
U P
Y es
Ġis ol
Ġstrate gy
Ġreform s
ĠN ations
Ġcongreg ation
Ġdid n
Ġqu oted
Ġm emor
Ġcan cer
tain ment
b re
Ġs am
S e
Ġorganis ations
Ġfe et
gr ad
Ġ3 9
a res
Ġbal ance
Ġus er
ĠSe cond
Ġball s
Ġn ar
Ġstart ing
Ġdet ained
Ġf igh
Ġneighb our
al es
Ġdep uty
Ġpati ent
Ġadv ant
over ty
k en
2 8
Ġc ult
ou te
ĠHind us
ĠP ul
ĠMu hammad
2 7
Ġoccur red
Ġprom ised
Ġl ines
Ġindust ries
ĠS A
Ġtest s
Ġadd ing
Ġorig in
ak sh
Ġpolit ic
h ir
ĠN DA
u j
Ġse ems
M ay
ashing ton
Ġc as
m osp
ab led
ĠM emor
Ġdi plom
Ġconstitut ed
Ġhigh ly
rah am
at ra
Ġun ion
Ġsy mb
E ng
as an
ĠT ele
R I
ĠTe am
Ġc old
Ġpract ices
Ġset t
ĠF ound
Ġspe nd
h al
Ġcompr ising
Add ressing
ĠH ous
Ġfe ed
Ġel ig
ĠRashtra pati
Ġ6 5
g round
ĠRan veer
Ġass ault
ĠPetro leum
Ġdel ivery
ĠCap ital
Ġas pects
os ite
Ġstrate gic
Ġresol ve
ĠComm un
Ġdestroy ed
ĠP ay
oura ge
Ġwrit e
Ġa wards
le ase
Ġatt ract
ant a
oc al
ure au
ĠSwar aj
es ters
ert il
Ġhistor ic
Ġsc am
ĠYog a
Ġthousand s
\ ""
ĠSte el
ĠT i
ĠDiv ision
u ing
Ġprofession al
ou nder
Ġcommun ities
m ember
ĠGl obal
ĠS ud
Ġbe ar
Ġocc up
ĠR at
ĠMan oj
Ġwa iting
ical s
Ġro se
Ġstake holders
aks hi
Ġr out
Ġa ctions
ĠD as
ĠSush ant
Ġcomp ensation
N e
ĠComp any
L ast
an cing
ite ndra
Ġdaugh ters
ĠAss ist
Ġtele vision
ĠK ings
li ke
Ġfir ing
al t
Ġenhan ce
Ġadv is
Ġoper ational
ther n
s hi
ap ore
ĠAn g
Ġlook s
Ġve get
Ġex act
Ġreported ly
B h
Ġappoint ment
ĠA wards
se ction
Ġman kind
Ġ5 5
Ġscient ists
Ġsle ep
im b
Ġident ity
Ġ200 7
Ġsol ar
ad or
Ġwel come
Ġd ram
eng th
en ant
ĠB rah
Ġtro ops
Ġsu p
Ġ ult
Ġd ark
ell ed
Ġam id
Ġtechn ologies
Ġmin utes
ĠY ear
ĠGo ogle
p ass
Ġbenef ici
Ġmut ual
Ġbeg un
G P
Ġplan ned
his hek
Ġmilit ants
Ġsh ut
ar wal
Ġrecommend ed
Ġche m
inist ries
P re
Ġus ually
Ġcor rect
Ġ id
s on
Ġbeha vi
Ġover se
ĠN ir
Ġdefe ated
Ġphot os
Ġadv ance
y l
Ġal tern
Ġdiv ision
Ġtrad ition
ĠLad akh
ĠW ith
ut ing
Ġl oved
ain a
ĠCha ud
ĠP en
Ġe c
Ġdeb t
R ohit
ĠB udd
ĠRa f
Ġdepart ments
ch ang
ĠAc ad
ffic ient
O ut
Ġconn ected
Ġfin ally
Ġclear ly
Ġchan ce
Ġwitness ed
ĠF irst
Ġdeb ate
ĠR iver
gr im
Ġnot es
Ġcontest ing
ou thern
4 8
Ġscient ific
Ġ4 2
Ġ4 3
Ġide as
Ġgl ob
Ġwon der
Ġoper ating
ive red
Ġphot ograph
d o
M ar
Ġa f
ar ant
id ers
ĠF ire
Ġimpro ved
ĠShan kar
Ġro ll
Ġdef end
Ġste el
Ġcon cept
Ġr oute
ĠTer rit
ĠMoh ammed
ĠS enior
Ġhar ass
ut i
Ġrecord s
Ġin ternet
Ġjud gment
Ġfield s
O S
W ill
Ġas king
el ess
N A
int on
Ġinf ection
iz ations
ĠG ul
Ġjud ges
ad nav
Ġpre m
Ġat mosp
A ustral
as p
Ġabs ol
st er
Ġqu ant
ĠMan ipur
Ġmod e
ĠCh idambaram
m aker
D ire
ĠB ombay
ht ar
kh il
Ġinflu ence
Ġwel com
IC I
n ov
ĠIn come
Ġfl ights
Ġchar ged
ĠMess enger
ic ate
Ġdel ivered
adnav is
Ġd u
ĠU p
ĠUS D
Ġsk ills
Ġfacilit ate
P riyanka
Ġyour self
5 5
ĠI tal
ctor al
Ġpass ing
he ast
ur a
Ġmeas ure
Ġcom fort
ĠE le
Ġsu c
l al
Ġdis cipl
4 9
Ġmem ory
ĠA M
Ġtrans form
Ġt ree
Ġemer gency
d en
Ġdise ases
D M
ur re
Ġspokes man
Ġaud ience
c ious
Ġad equ
Ġvot ers
ob ile
ower ment
et ic
ht a
Ġrecommend ations
ĠC S
Ġassoci ation
ĠR ak
Ġfar m
. '
he ndra
Ġcollabor ation
un ch
Ġimpro ving
Ġn ab
Ġh om
Ġdisbel ie
ĠE D
Ġact ing
Ġprocess or
ock ey
ĠK areena
Ġwe b
Ġconstitu encies
b al
f er
ĠM ember
Ġperform ed
Ġin stitution
intend ent
Ġse lection
Ġp it
Ġstate ments
ĠL o
ĠRan bir
Ġd iver
Ġsc ene
ĠAl ia
Ġnews p
Ġaff ord
ĠFore st
ĠRuss ian
0 9
Ġserv ing
Ġprom otion
Ġte ach
han s
Ġcon st
A ss
O R
S an
ĠM i
ĠS nap
Ġex penditure
Ġcon text
r ight
Ġresign ation
Ġstand ing
ra v
A g
p et
Ġsk ill
Ġanim als
Ġd ual
Ġens uring
ha w
Ġnam ely
us al
Ġlaw yer
C M
ĠTem ple
if ty
Ġposs ession
M inister
Ġh or
Ġg ram
ĠGal axy
ĠSum mit
Ġw at
Ġbat ting
ĠPro p
ĠS en
IM S
Ġtransf erred
Ġref lect
Ġdisc l
B ecause
ĠB ureau
Ġwind ow
ĠKam al
ense x
ar ian
Ġret ail
Ġdam aged
ĠRav i
Ġhapp ens
um er
ĠJ io
Ġsuccessful ly
Ġleav ing
har th
ĠCourt s
r ina
ĠW estern
Ġcur ren
3 8
r ants
Ġbus y
Ġpurch ase
Ġquestion ed
R ep
Ġbank ing
Ġk n
b oard
Ġc aught
Ġdo or
IP L
l ig
w w
Ġinnov ation
Ġeld er
ĠF a
Ġph ones
ĠSa f
Ġsuc ceed
ĠB el
Ġdec ades
lic k
T C
g ent
Ġadop ted
Ġh our
hib ition
Ġspok en
Ġp a
ĠRel iance
Ġvisit ing
3 2
Ġweap ons
ĠV ardhan
Ġoffic es
Ġdetail ed
ĠFound ation
S u
ĠG an
ress ive
H ome
pr ises
rit i
ĠJ er
Ġprom inent
Ġreturn s
Ġm as
3 6
at han
Ġconstru cted
ĠPr incipal
ĠA re
ĠI IT
H ence
ĠMal ik
ĠNirm ala
Ġ #
Ġprev ail
Ġrem ove
Current ly
Ġc itizen
Ġre b
ma z
Ġp ie
Ġshow ing
c ked
A ir
gh al
Ġstrengthen ing
Ġl ie
Ġcomp on
dd en
Ġ4 7
Ġcast e
Ġl iber
ga on
? """
Ġst re
Ġyouth s
Ġsomet imes
ĠSa udi
Ġmed ium
ur is
Ġcon ven
Ġdrug s
D C
ĠMed ia
Ġgovern ance
Ġchalleng ing
ĠAmar inder
Ġb and
ĠTr ade
f riend
Ġcru cial
ĠA jit
ĠInd ira
Ġset tle
ams ung
aran asi
Ġreg ions
ruit ment
av a
ĠAustral ian
le vel
Ġin tend
Ġre ference
ĠMa har
ĠD ub
Ġrupe e
Ġch oice
ĠY our
Ġ4 00
ab ilities
im al
Ġadv ice
ge nd
A round
el ine
rehens ive
Ġwill ing
Ġfra ud
Ġex ports
ra p
E E
im ent
Ġpro ve
2 9
ov al
Ġopp osed
Ġacad emic
ist ans
Ġrequire ments
Ġdrink ing
ours es
Ġl ength
ĠAir port
as hes
ew ork
ĠSing apore
e um
Ġdist ance
Ġparliament ary
S on
Ġex cl
Ġsc en
ĠEx am
Ġse ed
Ġmechan ism
ĠP eople
ĠS ay
ĠJ ust
Ġsk in
Ġorgan ization
ĠD han
F irst
Ġwa it
ĠShe tty
m al
Ġre new
ĠSc ript
Ġdesign ed
ĠMod is
Ġper man
ele ction
ĠBh arti
ri a
ter an
us ing
ĠSm ith
Ġl oad
Ġme ant
Ġsh op
ĠFin ancial
s App
Ġri vers
ĠW hen
Ġatmosp here
Ġey e
ĠSt ation
Ġlab our
' ve
Ġdismiss ed
ound ed
ĠDem oc
ir person
Ġamong st
Ġdemand ing
Ġprin ciples
ĠF adnavis
ĠCh ouhan
Ġsupport ing
ĠG as
Ġe ast
ĠD utt
ĠN ot
n ight
Ġk ids
Ġpil grim
d ev
Ġunder going
Ġcontrovers y
ĠSt aff
Ġpass enger
ĠPr at
Ġinvestig ations
ĠM unicipal
Ġbeli ef
Ġcro ps
Ġs ort
Ġab ility
ĠK now
0 8
Ġpow ered
ĠM aj
ĠA p
Ġ4 6
Ġstrong ly
Ġsp in
Ġpe oples
Ġfre qu
Ġpurp oses
Ġg ang
Ġchan nel
for cement
ĠB a
Ġdel iber
Ġconduct ing
ĠSp ace
in ema
Ġp ension
Ġn ut
Ġhealth care
Ġcr ude
ig en
ru its
1 00
Ġhead quarters
Ġno vel
ĠNaw az
Ġa id
ĠY outh
Ġsur round
re r
ĠA mendment
Ġco oper
0 5
Ġi Phone
ch a
Ġcancell ed
ĠSh ak
ify ing
Y et
3 9
Ġper fect
R am
Ġrel atives
e ndra
h ot
gy pt
Ġsol id
O C
ĠO b
Ġtra il
Ġf ruit
p reet
ament al
w as
it ect
Al though
Ġinvest ments
ĠMe et
ec utive
Ġcon ver
c el
p re
Ġm ental
Ġwal k
ĠM er
Ġchan ging
Ġappreci ated
ard ar
ĠLe ad
idd en
ep h
adu ate
ĠJag ran
Ġmy self
Ġte aching
ce an
Th ough
All ah
ĠSu pp
at ures
Ġgr ad
Ġfor ced
Ġmag n
z il
Ġfall s
Ch and
Ġeas ily
ĠKul deep
Ġst ress
Ġs port
Ġundert aken
A re
con t
ĠQ ur
og a
ĠBJP s
ĠD in
Ġcontrib ute
er as
Ġboy s
p a
is her
ĠW ord
Ġinvol ve
Ġappro x
V irat
ĠP S
Ġstra ight
Shi v
Ġcon sequ
g en
e or
ĠO f
ĠCan ada
A mit
ĠRe al
er ring
P R
ĠSa hib
Ġcl ause
Ġfollow s
ĠOlymp ic
D ue
r ison
ĠG ovt
har m
dra gon
Ġlin ked
Ġp overty
ĠJ ohar
Ġfac es
Rec ently
ĠR ah
ĠSa if
Ġengine ering
ĠDes k
R an
ĠK har
Ġsec ure
Ġcro p
f it
Ġg at
Ġsur face
R ead
ĠWh ite
Ġavail ability
w ama
ĠS ang
Ġar ms
pect ive
D ep
Ġpro of
Ġar m
Ġtyp es
k es
ist ed
ass ador
ĠO per
Ġterrit ory
ĠSnap dragon
The res
ĠV ir
Ġposs ess
Ġdis put
ct s
Ġlar ger
Ġthere in
ĠM ost
A B
m od
il os
por ary
Ġg rief
Ġsc ript
D S
u ff
ing u
as a
Ġal ert
ĠParliament ary
Ġas cer
Ġalong side
Ġsustain able
Ġd ance
Ġmaintain ed
w ing
ĠIndust rial
ut ta
Ġfor get
ĠRaw at
Ġprot esters
Ġcomplain ts
so on
ĠPe ter
Ġfeel ing
i j
C l
Ġsu dden
Ġs ad
Ġgather ing
4 4
l ong
ten ance
Ġ <
Ġelig ible
us es
B efore
ĠAb hishek
Ġc ode
Ġdial ogue
ow ed
F I
Ġpr incipal
Ind eed
ĠM ic
Ġprov ed
we h
or am
os en
Ġfil ing
ar ia
Ġp ace
Ġcolle cted
ĠSm t
g i
Ġsymb ol
est s
Ġdiv ided
maz on
ĠH ere
ĠShar ad
D ont
Ġk id
ha z
Ġc ars
un a
awa har
ĠCR PF
D eep
ĠD il
ĠT urk
ĠA ut
char ged
ĠL O
ĠY ah
ĠAcc ount
Ġim ag
Ġreserv o
Ġm os
Ġsent ence
Ġlist en
Ġsat ell
u ja
Ġl ose
ĠSw ach
ĠK ir
i ef
Ġcaus es
Ġas pir
ĠPro te
Ġprocess ing
ĠN RC
Ġfriend ly
Ġt aught
Ġpro sec
Ġj aw
Ġl ived
Ġsug ar
ĠKa if
Ġwelcom ed
Ġsam ples
Ġvar i
ĠBh ushan
ru ck
Ġs hip
Ġassess ment
Ġsum mit
Ġpen alty
Ġpray ers
Ġstrugg le
ĠM ark
Ġteac her
ree ment
ĠTi wari
Ġv ital
on ic
ĠOlymp ics
Ġin put
Ġadminist rative
han e
Ġfaith ful
Ġparticip ants
Ġrepe ated
H ind
Ġsong s
Ġconsid eration
ens us
Ġinst all
Ġaim s
ial s
ord ers
Ġproc urement
ok es
Ġgu ide
Ġ iron
Ġe th
Ġg ard
Ġpolice men
iss ions
ĠD ar
ab i
ĠB r
o es
ĠMS ME
Ġadop t
e er
ĠG DP
Ġjournal ist
Ġnum er
Ġa wa
Ġstor ies
ĠOrgan isation
asht riya
j ection
Ġm arty
I nt
ĠS T
ĠS ant
aut am
ĠB and
3 3
Ġm ent
ĠW arn
Ġwhere as
Ġsub stant
ĠN ifty
ĠV aranasi
J ust
Ġw ins
Ġproper ties
ĠJ ames
Ġclass es
Ġspe ct
ĠArun achal
ĠAz ad
Ġvill agers
4 6
am in
Ġ2 000
ra q
isc al
ĠN H
ib ilities
m pt
ĠAb raham
ĠJa ipur
n els
Ġinst alled
ĠMo U
Every one
ici ency
ist rate
el er
Ġer ror
ĠB road
ĠJ am
ĠJ itendra
it ely
ĠS ukh
Ġform ation
Ġadequ ate
m atch
ĠC y
Ġinde pendence
ĠE gypt
ĠRaj k
Ġgat hered
Ġb ird
ĠT hat
Ġstart s
rid or
Ġtru ly
h ad
ĠM ur
ĠC ount
Ġext ent
ĠH C
Ġw ild
ĠPul wama
Ġc ul
ĠTe j
Ġrul ed
ĠPro v
ro ll
Ġe p
C or
Ġadvant age
Ġequ ity
Ġwarn ing
ĠTr ust
Ġbeg ins
] ,
Ġj uris
Ġc ra
O s
Ġban ned
ĠM etro
Ġpr inc
Ġcons pir
Ġour selves
Ġcam eras
Ġspec ified
Ġexper t
l ot
ĠRan jan
Ġh ur
Ġliter ature
ĠA khil
Ġfe els
g ov
Ġc ourage
ĠGo od
cast ing
Ġm ort
r ations
ĠE mp
Ġp ointed
Ġsol utions
Ġtrib al
t el
Ġproced ure
Ġf ake
C ons
Ġun known
Ġact s
On ce
Ġte nd
Ġadv anced
Ġapost le
ĠHigh ways
ĠSt adium
ĠRaj esh
Ġbelong s
K eep
Ġslog ans
ĠAmb ani
Ġra ce
Ġins pir
oth ing
and e
ĠVal ley
Far mers
Ġsim ply
x ic
M o
ans k
Ġ5 6
ĠN an
ĠS ir
Ġfil es
Ġwrit er
ĠT im
Ġcl ash
Ġch osen
Ġpl us
p ter
Ġun ity
Ġar med
Ġwis dom
av es
Ġcon cl
Ġconcer ning
S har
Ġper haps
Ġanal y
Ġcateg ories
. ""
Ġ5 1
erc iful
riv ate
Ġmain ly
ĠI r
Ġint ens
S ee
ĠJ i
Ġbra nd
Ġto ward
Ġwor st
Ġun less
Ġele ments
ĠE arth
ĠMar ket
are n
k i
pay ee
Ġprosper ity
Ġw ont
Ġleav es
Ġbr ings
Ġmill ions
Ġrem ark
Ġhand le
ĠK i
ĠBh opal
ched uled
ĠFed eration
Ġvacc ine
Ġtw ice
ĠS ah
Ġport al
Ġfig ure
Ġf ed
ens es
F ive
ha jan
ĠEx ecutive
Ġadvoc ate
ur ved
Ġinterest ing
Ġopp osite
Ġemer ged
ĠIC ICI
Ġto ugh
Ġcelebr ations
Ġappeal ed
Ġnew ly
S a
Ġinst ance
Ġw ise
Ġret ire
ay al
Ġass um
Ġfail ure
ĠM ary
Ġhelp ing
Ġto ss
ust ed
ĠDeep ak
ĠE st
Ġst able
ĠG ar
ote es
201 7
l in
is ition
j ar
ĠI D
ĠShiv raj
rits ar
Ġhe at
Ġr um
ĠDe vendra
Ġconf irm
ĠGo vern
7 7
Ġd ated
Ġ5 4
ĠL akh
ĠF ather
M us
ĠS il
Ġthem e
Ġref uge
ic ip
Ġp iv
u a
ĠR ad
els ius
or ge
Ġearn ed
ĠT y
ĠR JD
ans ion
Ġsche dule
al y
ĠSt at
Ġgeneral ly
Ġrec over
C H
Ġbenefici aries
Ġhe ro
Ġm ale
ĠShah id
Ġcurren cy
Ġher itage
ig il
Ġgreet ings
u x
ĠSoc iety
ĠAllah abad
Ġtre es
ĠAcad emy
Ġ20 22
Ġsacrif ice
Ġpeace ful
Ġst yle
Austral ia
Ġb omb
ĠS ad
Ġse lect
ĠA ad
H ave
Ġc ouncil
ut in
Ġv en
ĠInde pendence
Ġw est
ĠSci ences
Ġst ressed
ail s
Ġout standing
ur g
8 5
Ġple ase
Ġsitu ated
Ġclos ely
Ġcop y
9 5
ro om
Ġp icked
ĠHD FC
Ġem otion
ĠDi wali
P G
Ġhum ans
Ġgo als
Ġpre gn
Ġcon stitution
Ġfollow ers
ĠC he
and er
B ihar
Ġsoft ware
m ad
ch ing
Ġdistrib uted
Ġmov ies
M oh
Ġgreat est
Ġsk y
Ġspe cies
Ġprem ises
' ll
Ġceleb rate
C BI
Ġinsp ired
Ġrel ative
ĠNo ida
ĠLO RD
Ġanim al
Ġquick ly
k im
Ġsee ing
Ġcent uries
ĠFor ces
Ġshow c
Ġexpl os
ĠMan ish
ĠAbd ul
J esus
ĠD ec
ĠPr ice
Ġint elligence
ĠGur u
Ġ5 2
Ind ias
ĠAbd ullah
Ġland s
ĠT an
c aptain
Ġ200 6
Ġtrans actions
N ob
Ġ \""
Ġresign ed
ĠTri pura
ĠInd o
Ġexam ples
ĠSid hu
angu ly
Ġwin ners
Ġbelie ves
ĠTra ining
ĠH arsh
J ehovah
ĠIn stitut
i pped
ut ies
ree k
E ach
Ġent repreneurs
Ġdire ctions
Ġinc or
Ġinter act
av ing
Ġqu it
ĠK ot
ĠMa hendra
n an
An y
iy ush
ĠPre mier
ĠH el
C ent
Ġw estern
Ġbab y
ĠWill i
ati o
Ġbrid ge
R S
et a
red it
Ġprodu cer
Ġunivers ities
o om
ĠR ef
ĠRaf ale
Ġnot ified
ĠYah weh
ĠAr ora
Ġappear s
Ġfunction ing
ĠInd ones
Ġal though
Ġprep are
ĠA amir
Ġpra ise
ĠA ar
ĠAg ency
Ġb ranch
Ġposs ibility
Ġcas ual
ĠMa hesh
Ġread ing
Ġf ought
ad hav
Ġtrans l
Ġed ition
Ġf ruits
ath y
Ġapp lied
Ġdist in
Ġregular ly
Ġdoes n
ĠT imes
Ġjuris dict
is hi
y as
Ġparticip ating
ĠEngine ering
Ġpiv otal
w est
Ġst ead
Ġbelong ing
Ġwarn ed
ĠI M
Ġperman ent
al ing
A Y
Ġso il
ive k
r igation
ia omi
Ġoff ence
Ġpriv ile
ĠEx change
G eneral
ĠA viation
ĠMal ays
Ġmot iv
urre ction
ĠC ard
6 4
S m
Ġform al
Ġfact s
Ġschol ars
ĠC elsius
Ġex ternal
Ġfar mer
ĠS ardar
ĠR en
ograph y
Ġdev ices
Ġm aster
Ġe lim
Ġang els
ph ones
ĠP ur
ĠMah indra
ĠSe a
ĠG autam
Ġs now
Ġyoung er
Ġag end
ĠBl ack
Ġcl in
Ġph ilos
Ġconsum ers
ĠE nt
Ġt ank
ĠP o
Ġabs cond
Ġeas tern
ĠI raq
Ġvot ing
Ġbow ling
Ġrepl ace
ĠJ NU
ĠDirector ate
Ġ200 5
Ġfa ctors
Ġinvestig ated
l ights
aj a
W or
Ġf est
ĠArab ia
j ud
ĠTest s
Ġreservo irs
Ġ1 20
ok ed
Ġmotor cy
Ġimp rison
Ġall ot
0 7
Ġcomp rehensive
bed kar
ic ed
uk la
Ġimprove ment
Ġver ily
ĠH az
ĠO il
Ġnorm s
Ġloc ations
N L
Ġappro ached
h in
Ġf iscal
Ġdoll ar
Ġcon sec
Ġde ter
Ġelect ronic
Ġdiv ide
Ġdeterm ined
le ts
ĠBh ut
Ġgri ev
Ġlist ed
Ġc ourses
Ġdro pped
ĠCitizens hip
Ġinterest ed
Ġsanction ed
it ors
Ġcho ose
al u
ĠM s
Ġcorpor ate
g ra
Ġc ore
r ine
Ġinf lation
ĠD el
Ġm al
ĠF estival
Ġst orm
Ġret ired
3 1
aks ha
ertil iz
O L
Ġsuff er
Ġd ia
Ġpres cribed
Ġconf lict
H aryana
ĠJ ain
Ġpre mi
od a
Ġhead s
im ents
ĠIn ternet
Ġpat tern
ĠM un
ak ar
Ġhon oured
ĠAg ra
ro c
ĠV aj
Ġent h
- -
Ġ4 1
Ġrequire ment
umb le
Ġlab or
ĠCh at
ĠS im
S ingh
ĠJ awahar
Ġestablish ment
0 6
ĠVar un
Ġset s
ĠLegisl ative
Ġp apers
or ation
Ġself ie
Ġshe l
ĠK ab
Ġst ruct
Ġrequ ires
Ġharm ony
ĠVik as
Ġarch itect
Ġcon stitutional
R eg
Ġst ream
Ġcomplet ion
ĠS BI
Ġd raft
Ġcont ains
Ġlead s
Ġthat s
ĠM ax
ansk rit
ĠCP I
Ġmaterial s
ĠM ake
Ġun bel
Ġto ler
ĠG opal
ĠCh ak
Ġfig ures
Ġf illed
and um
ĠN atural
Ġprob ably
Ġad vert
keep er
um ber
ĠE l
uild ing
Ġagend a
ĠJ al
an j
ĠP ress
stru ction
Ġfund amental
ĠDig ital
Ġd riving
Ġgu ided
Ġorgan izations
ĠSamaj wadi
Des pite
ĠR ic
ĠT ro
Ġlearn ed
Ġdemoc ratic
Ġsa ved
Ġj ump
n u
Ġexpress ion
Ġfigh ter
Ġconv ict
Ġsing er
or ter
ade kar
Ġrem and
ant i
Ġexpl ained
Ġ @
ĠSt ud
le x
ĠKat rina
Ġas pect
ific ations
Ġthe at
ĠODI s
ĠComm on
ĠBra zil
Nob ody
et rol
ĠL ife
Ġconspir acy
ĠSush ma
ac es
ol es
ĠAg reement
er ia
ĠCh all
Ġthought s
Ġprom ises
Ġaim ed
Ġcitizens hip
ĠA tal
Ġdecl ine
Ġexpl ain
V i
Ġcl ub
Ġd ates
Ġchan nels
Ġinvol ving
% ),
Ġhigh way
R em
e av
Ġloc ation
Ġdes crib
Ġinter rog
on om
ĠR ashtriya
Ġreg ime
Ġlab ou
dd hav
ĠP uri
Tr ump
up s
Ġfl u
Ġj un
Ġmis hap
l ines
ĠChaud hary
ĠG ard
row n
Ġplan e
W ell
Ġob ey
h ash
ĠRak esh
ĠB igg
Ġviol ation
Ġtravel ling
Ġtrou ble
Ġown er
ĠAk htar
ĠW ashington
Ġmain tenance
vision al
ka iah
Ġreach ing
' '
ash ion
ĠSh ukla
Ġeff ic
Ġgu arant
Ġbr on
iz oram
Ġb id
Ġfoot ball
Ġal t
Ġhot el
T ra
Ġre vel
lud ing
ron ics
% .
Ġm outh
G ST
Ġe ase
Ġcell s
M T
20 20
Ġaccom pl
Ġj ew
Ġh ang
ĠP iyush
Ġconclud ed
ĠJer usal
Ġ _
ĠAfric an
Ġ25 0
ĠHous ing
ir ing
ĠA mazon
riv es
H A
ĠSat an
ĠS ara
Ġprov ince
a iah
ĠM T
ĠP as
Ġcamp us
ort ed
amp ur
ĠRoy al
Ġdanger ous
Ġown ers
Ġto il
Ġb ott
ĠCo operation
ĠI AF
Ġpercent age
y ers
aw ati
re rs
c re
Ġat h
Ġman ager
Ġthank ed
U p
3 4
Ġfun ctions
M K
Ġra ising
DR F
Ġf an
ĠKan n
Ġc um
ib ly
Ġresult ed
Ġform at
x y
ur ation
Ġap olog
Ġmod els
ĠG reen
Ġneg oti
Ġw ake
Ġgo vernor
Ġatt itude
Ġhistor ical
Ġs elling
ĠR os
f rom
ĠOffic ers
Ġfather s
Ġwitness es
Ġto t
ghal aya
Ġexp ansion
ĠWhat sApp
Ġtrail er
ĠThe n
ĠLab our
Eng land
Ġdis charged
Ġfl oor
Ġexcell ent
Ġtem ples
Ġh at
ĠCent res
Ġexp ed
iet ies
b o
ĠEx cell
ĠAdv ani
cri ption
T E
ov es
Ġt ear
ĠA j
ĠK aus
Ġredu ction
u han
Ġall oc
Ġhous ing
ed y
Ġtre nd
ĠN G
ĠS andeep
Ġsu it
Ġtour ists
ĠAdminist ration
Ġm ix
Ġfriend ship
ĠInvest igation
Ġup to
Ġmed als
Ġmarket ing
Ġhundred s
Ġsuggest ions
Ġsu fficient
Ġar bit
ele ct
ĠA NI
Ġloss es
ĠG og
i ar
Ġin du
Ġun ve
ĠS MS
Ġapplic able
ĠH er
Ġre iter
Ġind igen
ari at
add a
Ġfram ework
Ġden y
Ġc inema
ĠC rore
ion al
Ġthreat ened
ĠSik kim
201 6
Ġjoint ly
ĠNar ayan
add ha
ĠCA A
Ġhighlight ed
Ġtra ined
U ttar
uss ain
Ġrepresent ed
ĠG or
ĠChild ren
P lease
Tal king
y am
ut ely
ĠV ill
Ġf urn
o ch
ĠP oll
Ġwid ely
ar nt
Ġsee ks
ĠJos eph
Ġf ounder
Ġbus es
S A
ĠAkhil esh
Ġbless ings
Ġsh ops
ĠGra nd
Ġchar ging
Ġend eav
Ġle arnt
ĠX I
Ġconsum ption
J ammu
ri er
Ġs ight
ĠM c
Ġnumer ous
Ġg ains
ĠAg arwal
9 8
od ia
Ġd uties
ĠJerusal em
A E
Ġfin ished
wal a
Ġbow ler
ol a
ind a
ĠAb b
Ġhy d
ĠH a
ĠM arsh
Ġp ush
oc king
ĠRes ources
ĠDis aster
Ġc ook
eor ological
ĠG anguly
Ġmiss ile
Ġbag ged
ĠG aur
Ġsub sequently
Ġresol ved
ĠR ules
Ġst ore
Ġinstru ctions
M R
Ġcounter part
Ġf ill
ĠT MC
Ġ5 8
j ust
ĠBad al
Ġsubstant ial
sy ch
Ġreview ed
ĠBen ch
Ġcondol ences
ild ren
ĠWh y
Ġeffect s
it ime
ĠM arat
Ġbron ze
ab u
T A
Ġdisc ount
d h
ir i
Ġexpand ed
Ġd rop
Ġr ice
Ġsix th
Ġcon cent
ĠCh ow
Ġannoun ce
Ġwas nt
Ġmess ages
Ġc ry
th at
Ġent it
Ġpr ide
Ġha ir
ĠSecond ary
V P
Ġwor shi
Ġcaus ing
Ġbuild ings
6 7
Gu jarat
ell ow
Ġrecogn ised
ĠInd ore
ĠIn nov
S outh
Ġwhe at
Ġfel icit
Ġmedic ines
augh ter
k g
Ġmand atory
Ġmost ly
P er
ĠMuk esh
Ġis nt
Pl us
u ters
ĠR ash
Ġpay ments
W omen
as kar
Ġres ist
L A
Ġdec re
ĠT HE
Ġr atio
ond a
Ġout l
ol y
ĠAssist ant
Ġbur den
I G
rib ution
Ġrev ised
T ake
Ġcomp ar
Ġenvironment al
Ġs essions
Ġw icked
Ġex ceed
Ġconsec utive
ĠIns urance
Ġal ive
Ġput ting
Ġrev olution
ar ations
Ġim per
Ġtal ked
Ġrese arc
Ġc oin
Ġm unicipal
Ġim pl
Ġconsum er
Ġher self
Ġcertific ate
He avy
uk i
ak ed
Ġreserv ation
eh lot
C o
ac ific
ĠNav al
ĠM ang
ad ing
el lect
Ġwork sh
S R
per t
Ġdiffere nces
Ġdeep ly
Ġl oving
Ġpan chayat
r um
ĠAm ritsar
ad ise
ra id
Ġcons cious
ĠB hat
Ġman aging
ap se
As ked
Ġdisc rim
Ġle gend
Ġ6 7
p resident
Ġst ability
in ating
Ġking dom
Raj asthan
Ġcondem ned
Ġv ast
Ġ7 2
ĠS ain
ĠE k
Ġ6 8
Ġac know
Ġvar iety
i pt
ĠB R
ĠUP A
ĠProp het
g s
K arnataka
ĠP rom
che ll
0 1
N D
f ield
ĠW atch
Ġro w
A mendment
ĠM embers
More over
S ush
qu ake
Ġrestrict ions
Ġse p
ay ing
Ġun cle
ĠDev gn
Ġaccord ance
Ġun able
mpt oms
ur ities
Ġanal ysis
Ġworld wide
Ġimport s
Ġexperi enced
Ġse mi
Ġto uc
ĠA ay
ger y
I V
Ġthere after
ĠE V
ĠPak istans
Ġpr int
Ġthere of
Ġaccident s
ĠMe hta
Ġy ield
Ġdeal ing
spe ctor
Ġjurisdict ion
w ah
m as
Ġcoal ition
Ġwithdra w
d ess
Ġtarget ed
ib an
Ġmag az
ush man
Ġsens itive
Ġdev otees
Ġmach ine
Ġhe ct
Ġob tained
Ġse vent
Ġch ain
Ġcover ing
ĠAh mad
Ġf old
Ġex chang
Ġspot ted
Ġintegr ity
ĠH ood
ilit ation
Ġcl oud
ĠI AS
ĠV ivek
Ġ5 7
ĠJapan ese
ĠG ram
Ġshi ft
Ġn orthern
k art
Ġun s
Ġc ow
Ġother wise
Ġrem ind
201 8
te es
I F
Ġg ar
ĠJav adekar
and i
O ffic
b on
Ġesc ape
Ġwom ens
Ġcompr ises
ĠProte ction
Ġall ocation
Ġfulf illed
Ġconv ention
ĠT eh
ĠJ adhav
ĠFar mers
Ġinter action
b a
Ġdis aster
Ġdra wn
Ġter med
P at
ĠPat il
ĠDin esh
ĠCo ast
rat ors
u pe
Ġso vere
Ġfir ms
Ġsit es
Ġallow s
Ġw all
Ġconsid ering
Ġen emy
ĠAdity a
ĠM inistries
Ġcross ed
ol id
ĠH ussain
Ġpil ot
lip kart
ĠOb ama
Ġus eful
? "
Ġan ger
c les
Ġsupport s
Ġpack age
There after
Ġtell s
Ġplatform s
ĠInf rastructure
ĠS cheduled
ĠP G
Ġexist ence
R ef
ol ic
ĠInd eed
Ġprinc iple
ĠL ah
ĠPrat ap
Ġs outhern
ĠH an
ĠKhan na
Ġapprox imately
S I
ĠSur vey
ĠS anskrit
est y
Ġbro ken
Ġ )
Ġl ad
ĠSt udents
Ġachieve ment
ĠR ights
Ġactiv ists
he et
ĠL ine
ĠO ut
the w
Ġmur d
Ġbow lers
as c
Ġabscond ing
s alm
Ġyour selves
har i
har d
ĠAd am
Ġus es
ĠD esh
Ġsupp orters
Ġeff iciency
ĠPro cess
ĠAm bedkar
Ġunf ortun
4 2
Ġthere by
oy al
Ġabs ence
ĠB ag
app a
ass ion
ĠTro phy
r ist
ĠSh im
Ġpresent ly
C I
ĠBudd h
Ġaf raid
ĠChr is
Ġs ick
Ġcontrib uted
il as
Act ress
Ġredu cing
Ġrec ruitment
Ġdefin itely
bre ak
Ġfore ver
ic ks
Ġwho ever
ĠMot or
ĠJ un
pl ace
Ġpri ze
Ġcap able
Ġthank s
Ġ6 6
riend s
Ġsett led
ity a
N B
ĠM izoram
Ġintegr ated
ĠIs h
Ġsus pected
Ġmin ing
Ġfall ing
Ġact ual
Ġpost p
m un
ĠS and
ĠJ ac
Ġprom ot
ĠDemoc ratic
Ġflood s
ĠMeet ing
Ġpl ot
Ġa uction
Ġcal c
ort heast
ĠC ell
ĠU ddhav
ish ad
Ġdram a
ig ious
K erala
Ġtal ent
Ġcult iv
Ġemer ging
Ġveget ables
Ġcons ervation
T V
Ġdem ise
w ord
is an
ĠG ehlot
Ġse m
ĠNag pur
t ra
ul am
ĠG reat
Ġinnov ative
Ġfor b
ĠM icro
Ġ ?
Ġl ying
Ġbenef icial
app y
ot hes
ĠH am
Ġaltern ative
Ġd iet
Ġn av
her ry
V ar
ĠSh r
Ġ200 4
Ġse gment
Ġins pe
Ġb orrow
Ġint ention
Ġrel ation
p oll
So on
Ġ12 5
ĠGu ard
ĠMe ghalaya
Ġfoc used
ĠRegion al
Ġposition s
Ġele ctoral
Ġext ension
Ġ6 9
Ġadm ission
ĠKan pur
U R
Ġeffect ively
ĠA v
Ġreserv ed
Ġharass ment
Ġimplement ing
Al ong
Ġenhan ced
h it
Ġpl astic
Ġcomm ence
a uty
Ġl osing
Ġdel ight
B igg
Ġticket s
Ġvent ure
Ġass erted
Ġg rat
um a
Ġpay ing
Ġconstant ly
um rah
Ġcompet itive
ĠMu z
ĠLal u
ĠSuper intendent
Ġsep arat
ĠRaj a
ici ary
ĠAI IMS
Ġwhere in
R BI
Ġh ike
Ġam az
Ġ ic
ĠBh up
m et
b i
ct ive
Ġdiv or
Ġquestion ing
ĠC amp
Ġill ust
ĠCap tain
ĠSk ill
Ġc ad
l ife
Ġcommun al
ay am
Ġmor al
Ġdep th
Ġmedic ine
Ġnom ination
Ġg ained
ĠC ulture
Ġtrib ute
ĠPl ay
hatt ar
Ġconvers ation
ult y
ĠHood a
ĠO m
Ġlet ters
EN T
201 5
Ġmarg in
W he
Ġachieve ments
Ġinitial ly
ĠMat thew
Ġpr on
ĠUS A
Ġaut o
Ġtit led
aren cy
arn ath
c ers
Ġm otion
ĠCB SE
0 4
ĠG re
Ġgre w
pic ious
ĠQual comm
Ġra re
ĠTom ar
Ġbats men
Ġmount ain
Ġparty s
c her
ate ful
ĠM yan
ĠHind ust
U V
ip s
Ġ8 5
Ġstay ed
Ġf ired
Ġd ry
ĠM os
ĠCh in
ail ed
Ġcont em
Ġfav or
op ic
Ġst ruck
Ġbra in
ĠJust ices
Ġenth us
Ġbl ind
ur ag
ĠB ob
Ġfund ing
ĠIndones ia
f l
ĠVaj payee
erv ed
y stem
Ġfield ed
ĠCo al
ĠGog oi
ĠR et
x is
ĠT O
H y
ĠJawahar lal
Ġb ed
ĠItal y
i ation
ident ified
Ġprep arations
if ies
Ġcont ra
we ets
Ġd im
Ġrem emb
N S
ade ja
ĠReal me
Ġwe aring
ĠD G
os ure
ĠAb hi
Ġf ix
Ġtri ple
Ġtor ment
ant ic
AN S
ĠAsh win
ic ations
ĠS av
Ġconf erred
Ġ5 9
i i
li hood
T otal
ĠSm art
g u
at ar
Ġten ure
Ġmeet s
Ġliqu id
6 8
Ġsearch ing
ĠJew s
ĠL and
el t
Ġve teran
Ġ era
os is
oc ol
Ġb orders
ĠD a
ĠL aksh
ĠS ensex
Ġg ift
Ġmaintain ing
Ġvis its
Ġrep lied
Ġp ac
l iness
Ġreturn ing
uk a
Ġbusiness es
N CP
B ang
re ams
Ġh its
Ġop ens
ri an
Ġimprison ment
ĠV a
ig her
and al
ĠR em
D on
r ates
Ġset up
Ġgrow n
iz es
h and
Ġt ack
Ġchallen ged
ok ing
l or
w at
Ġstar red
Deep ika
c red
g am
Ġeffic ient
n oon
ĠJ ack
Ġ9 9
Ġsha pe
Ġtour ist
A meric
ĠM il
Ġmonth ly
Ġstrong er
Ġlegisl ation
Ġprop he
ob a
ise ment
Ġprotest ing
Ġkind s
em ies
Ġprocess es
hot ra
Ġnewsp aper
ĠPlan ning
Ġin stitute
ĠB et
ĠChampions hip
ĠG haz
Ġ5 3
4 00
] .
Ġnom inated
ĠB at
0 3
S p
Ġc ord
ĠF ort
Ġsec ured
L e
Ġn od
ĠRes ource
ĠPad ma
Ġm oon
ĠD ur
Ġtot ally
Ġfoot age
F in
ĠPand ya
lic op
Ġlabou rers
C ha
ĠSu z
Ġc raft
ĠMalays ia
R ail
w ant
Ġt ension
er ate
ĠP ri
ag ues
a ution
Ġover t
Ġhousehold s
ĠBhut an
c ore
o a
amp ion
ĠNag aland
Ġcontinu ing
ĠPl us
Ġ7 4
G old
c oh
Ġf ly
Ġsignificant ly
Ġshe ll
Ġsecond ary
Ġevent ually
He alth
ĠAir tel
Ġconsult ation
Ġamend ment
r ition
Ġex cess
ĠCons umer
Ġch ampions
ĠMemor ial
Ġjew ell
ĠP il
ĠTrib unal
in ar
Ġhe licop
Ġexam inations
N C
in ner
Ġincre ases
Ġu pper
Ġown ed
ĠQur an
Ġsubject s
ha el
m ore
ĠAr med
ĠP ant
Ġdis ciples
Ġground s
spe ed
l ast
Ġequ ipped
Ġ rom
Ġexperi ences
he w
ar io
ĠD an
ĠTr in
ow ing
D id
Ġs ins
Ġwatch ing
Ġdis rupt
.. ..
Ġst ones
Ġdifficult ies
Ġmethod s
Ġse qu
ĠN adda
S pecial
5 8
ĠMyan mar
ĠB er
Ġkeep s
ud ed
ĠInvest ment
Ġbl ue
Ġd well
Ġany where
Ġoverse as
Ġco verage
ĠFor um
ef t
Ġpleas ure
Ġdest ination
if orm
Ġinstru ment
Ġisol ated
Ġtrans mission
ĠH and
ĠP a
IC S
Ġrecogn ized
Ġres ource
Ġjournal ists
Ġprodu cing
L ike
Ġlim its
Ġmon soon
Ġso le
Ġimm ense
ĠA B
Ġsy mptoms
Ġob vious
Ġend s
Ġshar p
Ġafford able
Ġst ret
Ġk een
or gan
Ġconv icted
Ġmere ly
Ġcre w
ĠSind hu
Ġprom pt
Ġcon ce
ĠSw ami
Ġargu ment
C ont
Ġbow l
Ġhy p
ight y
Ġatt ached
g ments
Ġdisbelie ve
ĠPan chay
Ġsan itation
Ġm ir
Ġturn s
S un
Ġinteg ral
ul ating
6 9
ĠMal hotra
Ġph ases
Ġvis ible
S ection
hara oh
Ġglob ally
Ġassoci ate
Ġprevious ly
Ġabsol utely
ust er
y nam
Ġev ol
Ġtown s
ĠB agh
Ġex em
Ġdepos it
ug ht
Ġs ed
for ce
ĠSub hash
Ġcomb at
st ood
ĠElect ric
h y
Ġin her
ĠRana ut
ĠDub ai
ĠS er
ĠL ED
ĠJon as
l is
ĠShe ikh
w ani
Ġfeel ings
art ments
lic ation
in ter
Ġse nding
ric k
Ġnet wor
Ġtele com
Ġsmall er
Ġrepl aced
C he
ĠP rem
201 4
he b
Ġa cted
ĠK hattar
lim ate
Ġhon or
Ġgl ad
Ġspread ing
Ex ternal
Ġcul p
Ġpremi um
ot ton
Ġsqu are
4 3
S ources
Ġas ide
Ġviol ent
Ġhuman ity
Ġretire ment
ul ative
ok h
ur d
Ġco aches
Ġno body
un k
Ġlin ks
ĠJ adeja
cell or
Ġeng age
Ġf ish
ĠJ in
% )
J ustice
Ġtax es
ĠH all
or ious
id elines
end ar
Ġemotion al
ĠAay og
Ġback ground
ĠInd ex
Ġr ang
ug g
F inance
et ary
Ġfactor y
ĠMa ur
ick y
T er
Ġencoura ged
D F
7 8
Ġsmart phones
je et
Ġsur ve
Ġforg ive
Ġbehavi our
Ġp ure
iab ility
ĠB umrah
Ġtrib utes
Ġcol or
Ġun identified
ot ic
Ġspe nding
ĠPan ch
ĠS et
Ġphilos oph
ĠPar is
ĠIran i
ĠUn ivers
Ġgener ations
ĠS om
Ġimp art
Ġattempt s
Ġcr ash
) ."
Q u
Ġpost er
d i
Ġfar ming
Ġappear ing
Ġcomm od
J a
Ġs pl
ish w
ĠMan aging
ĠN E
Ġvari ants
Ġshe et
f ree
ĠPen al
Ġsatell ite
j ot
ĠA ction
Ġint ellect
Ġcoast al
Ġr id
f are
Ġw ave
or ough
Ġjoin ing
ĠGur d
Ġsm ooth
Ġbig ger
IN G
Ġb le
ĠT ar
Ġh ill
fere nces
Ġattend ing
Ġcapt ured
Ġ200 2
os o
Ġfl at
ĠAn ant
P etrol
Ġp air
Ġp ick
ib rary
M ah
ou b
Ġfeat ured
ĠSwach h
m Ah
Ġpro hib
Ġjudge ment
ĠHe b
cl ass
Ġapp arent
ĠC redit
ĠJ e
ĠNa ik
ĠWarn er
Ġdia gn
Ġp ill
Ġp ul
ent h
ĠM en
g iving
Sub sequently
ĠL at
Ġco ol
Ġv ess
Ġte a
Ġrece ipt
Ġwonder ful
ĠM erciful
Ind e
ishan kar
il and
ĠC hem
Ġpl ain
ĠB ay
Ġv ul
Ġper mitted
ĠMuz aff
Ġrem ote
Ġport ion
Ġf ashion
ĠM art
ant ly
Ġpre st
Ġmet al
Ġsix es
Ġperform ing
Ġha bit
Ġfulf ill
all ing
Ġim ages
Ġeng agement
al ities
Ġclos er
Ġentit led
M B
p her
Ġstat ue
Ġlat ter
ĠL et
em ed
lim inary
N arendra
Ġtre as
Ġacc ur
Ġwin ner
ĠL ank
ĠA P
Ġsu cc
al pur
Ġz one
ĠHon ble
ĠF ormer
Ġval u
Ġs hips
ĠAn s
ĠB ro
Ġneighb ours
B SP
Ġserv ant
Ġpropos als
D efence
m akers
Ġper mit
ĠHim al
E A
R ed
Ġbe auty
Ġpass es
apur am
ĠB order
Ġgr ateful
ov enant
ĠPunjab i
r ide
ft i
ĠAad mi
Ġ7 8
Ġinvestig ate
Ġpilgrim s
as im
ĠM ath
Th rough
Ġup grad
Ġmin eral
ĠMot ors
Ġf ab
ide o
Ġout put
Ġinvolve ment
Ġwor se
ru ction
Ġappro ves
Ġw ished
Ġm akers
Ġas ks
Ġhe ight
Ġb ike
Ġcamp s
ĠMay awati
5 7
Ġp al
Ġp ip
Ġacqu isition
Ġrespond ed
ad ur
ĠI b
Ġrec on
TI ON
T aking
Ġhost ed
Ġmount ains
ĠN C
b orn
ri e
Ġh ub
ĠBab a
f an
l ad
Ġt ally
Ġin stitutional
Ġdisplay ed
Ġast ray
Ġhe nce
app ed
rel ated
Ġincl usive
ch and
h ouse
In st
Ġatt rib
Ġgener ate
Ġw ives
ĠF Y
Ġent ering
Ġ6 3
ink ing
Ġpat ri
Ġgod s
g ar
ĠV adra
ĠPaw an
Ġpol y
Ġachie ving
Ġcy cl
Ġang ry
ĠRos han
rid ge
ire ct
Ġsus pect
J an
T ube
ut ation
Ġallow ing
ĠJ y
Ġansw ered
ĠMet eorological
C han
ĠV ed
Ġtransp arency
U Ts
Ġmind s
Ġwat ers
Ġsu itable
ĠO cean
b ut
ĠCor ona
unic ations
Ġinf ected
Ġknow ing
ĠPan chayat
ĠR RB
Ġm ixed
Ġwork er
Ġresearc hers
N ever
v ir
ĠSush il
Ġgl ory
av ed
Ġdec ade
Ġsim pl
Ġpl ed
it aries
ĠSecret ariat
ĠBrah m
et isation
Ġp ion
Ġ1 000
In vest
Ġrecogn ition
Ġconvey ed
Ġliqu or
D h
Ġart icles
ment ation
ĠJ ai
Ġatt ra
ren ce
Ġamend ed
ĠMin or
Ġcomb ined
ĠSh ow
Ġf inger
an and
Wh ich
wh ich
ĠSuz uki
ili pp
Ġ rival
ĠA am
Ġgl ass
Ġcharact ers
Ġm Ah
Ġab and
ĠM ain
Ġ6 2
Ġrad io
e gr
ĠM is
Ġlaw yers
Ġearth quake
Ġgener ated
ĠWilli ams
US H
asw amy
ĠM W
v ation
Ġinter im
ĠM ajor
Ġwe ar
le an
Ġdu o
Ġf olk
Ġ9 5
ĠI d
ri kar
Ġpron oun
ĠN ation
ri f
Ġath let
ac c
Pro t
ow ered
Ġwor ried
our nal
Ġeld ers
ĠT ir
P A
Ġpre aching
ĠCent er
ĠEm ployment
ĠM C
ĠN ob
F riends
ĠF lipkart
ĠSt ock
Ġloc als
ĠRav indra
ĠVin od
ac hers
Ġaccom mod
Ġcontro lled
Ġregul ations
Ġz ero
ĠSte ve
Ġh un
ĠH ot
Ġdef ined
Ġtransport ation
D is
at o
Ġg ate
so ever
Ġmar ked
Ġbr ight
6 6
ĠB y
ĠWor k
Ġrail ways
Ġcoord ination
Ġburn ing
C lick
ĠReg ist
Ġpain ful
Ġprop het
Ġvol ume
Ġcont ained
V er
ĠY ash
20 19
ak umar
ures hi
ĠVik ram
wah ati
Ġexc ited
ĠN am
Ġdist ingu
eg u
ĠKann ada
ro ff
Ġcons ists
Ġcontrib utions
Ġir rigation
it t
Ġ7 3
Ġafter noon
Ġcontrovers ial
Ġb ought
Ġ 000
Ġincor por
res ents
Ġ7 1
Ġequ ival
Ġsignific ance
ĠP rivate
Ġvis a
cri pt
ĠMar uti
9 7
at ab
en cing
Ġcr imes
Ġsa v
Ġw ing
al le
ĠB hawan
Ġman age
ĠR ight
ace ut
P ar
ven ues
Ġconsequ ences
achin ery
ĠMit chell
Ġra ped
ĠChar ge
Ġtrad ers
harm aceut
Ġf itness
ĠSh ami
A kshay
Ġneighbour ing
ĠC are
ĠCorpor ate
Ġcat tle
reme nd
az a
Ġdiscipl ine
Ġs wit
ĠBengal i
ĠK ong
Ġac id
ĠM ount
Ġwor ry
S ix
Ġunder stood
Ġexp enses
Ġemploy ee
Ġbless ed
A v
R uss
Ġen emies
Ġsal ary
8 8
ĠSh roff
c ket
3 00
ĠSon am
ĠNI A
S ri
Ġenjoy ed
ĠN and
Ġinn oc
Ġtri p
Ġmicro SD
Ġed itor
Ġresc ued
nder ing
Ġassign ed
ĠLead er
ct ure
ac ing
Ġlaun ches
Ġrapid ly
ĠL ist
Ġval ley
Ġappear ance
Ġep is
Wor ld
G C
ir ty
Ġmet ro
Ġinspir ation
ishw arya
om ic
Ġcontinu ous
Ġde als
Ġforg iveness
F ore
Ġsol ve
Ġdest ruction
Ġal coh
Ġsur re
iab et
Ġany body
Ġprim arily
Ġbird s
K areena
Ġascer tained
ĠExam ination
Ġev ac
ĠApp le
ĠSt ar
Ġam bit
ĠN ick
ĠK ha
Ġtri als
ind ia
Ġreiter ated
Ġp sych
Ġqual ified
ĠA tt
os al
s ha
z en
adh ya
Ġdign itaries
ĠN ic
ĠBl ue
Ġrel ax
ĠBank s
Ġperson ally
Ġsec ular
Ġdisbel ievers
ror ism
w ater
Ġold er
ĠGh osh
an es
S M
ĠM all
ĠE v
Ġunbel ievers
Ġh all
Ġtouc hed
Ġprep aring
Ġcritic ism
Ġst ocks
ĠMal d
w icket
ĠH as
B har
Ġarrange ment
ĠMarat hi
Ġun just
Ġpow der
Ġtarget s
m ukh
ĠV as
Ġfe es
ĠA lex
Ġcommission er
ag on
Ġansw ers
Ġexact ly
Ġinc ent
Ġobject ives
Ġout come
me ndra
z es
Ġc ovenant
Ġac res
r ith
rat or
it ra
Ġsh ock
Ġcent er
Ġopen er
Ġcould nt
Ġprof essor
Ġvac ant
odh pur
uls es
or al
ĠC ust
Ġ0 1
Ġconcl usion
y ap
st ers
Ġe g
Ġrem oval
Ġcustom er
Ġab use
Ġstud ied
Ġem ail
we ep
Ġrepresent ing
ĠMu fti
Ġacqu ired
ang a
ĠBihar i
0 2
f e
Ġun ited
Ġ200 1
Ġcontinu ously
l it
cl aim
ĠPh ilipp
Ġd reams
ĠP ud
Ġbre ath
Ġc atch
ĠE conom
ĠIS RO
Ġc li
ĠV iet
Ġstre ets
ĠA fter
B ank
act ing
Ġproper ly
B ased
G and
w ill
Ġl ens
ĠEle ctions
Ġpra ised
K now
ĠK arn
Ġele ment
Ġcle ared
p es
Ġt remend
L ok
Ġshort age
ĠYou Tube
Ġminor ity
Ġar rival
4 1
ĠAmb assador
Ġdecl are
Ġfest iv
R eal
ĠT oday
Ġ6 00
Ġide al
ultan eous
Ġse ar
ĠEnter prises
ĠCon vention
ĠAk bar
l ar
oss ible
g ies
om in
ĠKhan s
z y
Ġh ockey
ĠMad ras
ĠTal iban
ĠU m
H igh
oura ble
F P
Ġv an
Ġrep ent
Ġcare ful
un te
Ġexpl o
D ist
U T
Ġg ear
oin ting
in ks
uc herry
Ġstudy ing
Ġg ap
Ġlive lihood
st ream
ĠC limate
Ġart ist
ĠChan ge
Ġsubsid y
ĠLah ore
Ġst ages
Ġalloc ated
ud hi
ran ches
ber g
gan j
Ġshort ly
Ġprogram s
ĠS ign
te en
ĠAn urag
ĠQ ue
S amsung
Ġpre tty
ĠAar on
Ġag itation
ĠA Y
Ġex it
Ġpa ise
it ary
ĠG r
Ġlegisl ative
Ġp ump
ĠS ession
Ġoff ences
ĠP ass
ĠBroad casting
Ġport f
p o
ill ance
Ġfind ing
ĠVen kaiah
ĠG ir
Ġn urs
Ġun em
Ġmet res
ĠN on
ĠHard ik
ig ade
Ġ {
Ġchild hood
ĠBrit ain
Ġinaugur ate
Ġdiv ine
Ġb apt
ĠRes p
at ically
S at
Ġst reet
ol en
G l
ĠT iger
Ġoper ate
Ġdeter ior
Ġf ranch
Ġcomp rom
ĠPas wan
rah im
Ġlegisl ators
ri ev
ce nd
ĠA K
F ile
Ġd il
Ġse eds
Ġmembers hip
Ġprote cted
Ġshel ter
Ġw rest
M ed
ĠMus eum
p ower
ĠProf essor
ilit ary
ĠInt elligence
Ġdiplom atic
Ġd ust
Ġe ating
Ġcomp osed
Ġprep aration
m inton
Ġple ased
ach i
Ġdepos its
Ġinstitut es
Ġcar bon
G S
ĠTerrit ories
ĠSy ria
ĠRa ut
Ġindigen ous
Ġt ong
qu al
Ġ200 3
Ġlow est
Ġvot ed
Ġturn ing
Ġhop es
w ami
Ġm ine
ĠR om
ĠG ow
ĠShiv a
Ġenhan cing
Ġdevelop ments
Ġg ross
Ġhar vest
Ġstrengthen ed
Ġmach ines
ertiliz ers
ĠM ul
Ġsl ight
Ġreve al
ĠK ris
Ġw ood
Ġsc ope
Ġf aster
uk e
Ġappreci ation
Ġpurch ased
Ġjaw ans
Ġmotorcy cle
n ect
Ġt aste
ĠL ax
Ġd istan
ĠF rom
Ġexam ined
Ġover come
an ation
Ġcommand ed
Ar t
Ġp ist
Ġre action
ĠD ef
Ġscen ario
oun g
Ġresult ing
Ġm ortem
Ġsatisf action
ĠP oon
Ġjud iciary
Ġvul ner
Ġy oga
ĠSp ain
ĠMag istrate
ĠY uv
Ġdire ctors
Ġri ots
Ġactiv ist
is he
ri or
ĠAy ushman
Ġ7 7
Ġcor ner
Ġreason able
W atch
chn ology
Ġcongrat ulate
ĠMic hael
U N
Ġrep resents
Ġcolle agues
ag ra
ĠPerson nel
Ġintend ed
ĠA ctor
ap ed
Com p
Ġan x
ĠT ime
Ġex hibition
ĠIslam abad
Ġbi opic
Ġsitu ations
Inde pendent
ial a
pur i
Ġmin us
am ation
Ġst ring
Ġsurv ived
Ġch ampion
rith ik
ĠH ell
k m
ĠR ani
Ġout break
Ġaddress es
f ast
Ġmar ry
or ne
ĠK ath
ĠKore an
Cent ral
r ank
ĠIn spector
k ha
Ġens ured
Ġ ...
ĠSan gh
Ġacqu it
Ġun iform
Ġstra nded
Ġle v
Dire ctor
ĠC ert
h vi
is i
Ġref ers
under ing
ĠInnov ation
ĠPart ners
Ġill ness
Ġmist ake
it an
Ġp ages
A AP
are r
Ġch ast
um n
Ġstri kes
Ġo k
ur am
Ġinv ite
Whe ther
am ing
Ġfab ric
Ġupd ate
Ġv igil
ĠV ol
ĠChand r
at ics
am ool
ru e
Ġsum mer
ĠH igher
Ġp ark
Ġre aches
Ġcl othes
Ġsurpr ised
B l
ĠG reek
G A
Ġamaz ing
d is
ĠY am
Ġair ports
Ġgra ce
f ord
Ġexam ine
ĠAg ricultural
ĠBS F
iabet es
Ġencoura ging
9 6
um in
arli est
Ġcomp assion
ĠTha iland
S BI
Ġtrad itions
Ġsent enced
Ġquar ant
ĠAnn ual
Ġa w
ĠSt art
Ġfulf il
ĠBas ket
d ays
Ġc art
ith a
ĠKashmir i
Ġcricke ters
ĠAY USH
Ġemphas ized
Ġe ve
Ġpar ame
Ġpract ical
Sec urity
Ġequival ent
P ak
Ġvisit ors
a ctor
os ystem
Ġthreat s
add y
Ġbul let
Ġsa cred
ĠU AE
ĠRaj endra
ĠIs lands
pat hi
Ġto ol
u ous
Add itional
ĠTurk ey
Ġlar g
ĠCha uhan
Ġsan ct
oper ative
Ġe arliest
ĠK ish
Ġcap abilities
ast s
Ġperson ality
Ġb bl
RD O
ĠD am
Ġcol on
F i
ĠSecret aries
Ġback ed
B CCI
n is
Ġsaf egu
ĠA ur
ĠN S
Ġunfortun ate
Ġrelationship s
ĠJoh ns
at hi
ator ies
E m
in ity
Ġre in
ĠT har
Ġcha pter
ĠP R
ĠS it
k er
Ġemp owerment
bo oba
Ġup load
ain st
Ġcompon ents
Ġm aid
Ġacc eler
ĠAz har
ĠPh ase
Ġt ur
ir t
Ġreg ret
Ġind ul
h ow
ĠMe xic
Ġin hab
ĠN az
ally a
Ġ25 6
ĠSci ent
ĠK im
Ġper taining
Ġlik es
Ġexpect ations
p rodu
ĠGu wahati
ĠOrgan ization
th a
ab a
fere n
Ġt ight
Ġoccas ions
Ġwin ter
Ġrepresent ative
ĠHindust an
w ag
Ġch ose
p oint
Ġcivil ian
Ġmas ks
ĠM el
Mus lim
b ox
Ġdiver se
K ohli
w rit
nt y
Ġeas ier
ĠBR ICS
z er
Ġr ub
Ġprofession als
pr int
Ġdelay ed
if ically
W C
Ġwhen ever
ĠIP S
ist ry
iv o
Ġrighteous ness
ĠR ath
ĠOr der
ak rish
ut ch
Ġto ols
ic a
Ġbur nt
Ġre j
Ġsupp lies
ploy ees
Ġtim ely
Ġchem ical
Ġm m
ĠRe v
Ġfast est
udhi ana
Ġsupp osed
ĠPar rikar
Ġsevent h
ĠK es
ĠF ront
ass y
Ġsince re
ĠJ odhpur
ĠAns ari
akh pur
ĠHere after
ĠA D
Ġgreat ly
P ost
Ġrank ings
Ġa er
Ġmos que
Ġal ias
hah al
P L
ĠRam an
Ġclaim ing
P e
Ġmagaz ine
ĠPre vention
Ġhost s
Ġsus pects
ĠA st
ĠB ose
Ġcol ours
Ġcomb ination
ĠHeb rew
we alth
pro visional
Ġcontest ed
ĠSaf ety
oura v
Ġaut onom
egr ated
ci ence
Ġdri ven
Ġhol id
Ġ6 1
M ake
Ġb ranches
Ġind icated
Ġcomm emor
et her
ĠP ath
Ġla undering
ĠTe xt
Ġcha irperson
ĠX i
Ġtransp arent
Ġrum ours
Ġst un
Ġtr igg
Ġrout es
Ġfl esh
Ġscreen ing
Ġunivers al
Ġd iversity
S c
S chool
st ate
Ġis land
ĠI ANS
ĠKh ur
c utta
Ch ildren
Ġarri ve
ĠPud ucherry
E F
Ġm achinery
Ġst ab
Ġlarg ely
Ġint ent
Ġfl ash
ĠG ill
Ġj u
Ġemphas is
o ist
Ġfore cast
Ġkil omet
Ġwithdra wal
Ġro ck
Ġrele ases
Ġun con
Ġhon est
ĠR oman
Ġpresent ation
I B
nd ered
ĠR oh
ĠStand ard
Ġst olen
ani el
Ġcelebr ities
Ġexec ution
Ġra w
ĠM obile
i ji
ig nty
Ġequ ality
Ġsatisf ied
all i
oin ing
Ġimm ig
Ġpe ak
rib le
vi jay
sequ ent
Ġcritic ised
qu es
ord s
Ġdes ires
Ġbo oth
W ere
Ġobs erve
Ġtw enty
Ġdisput es
What s
Ġmother s
Ġpan ic
Ġspecific ations
Ġprec ious
Ġphilosoph y
ĠEnter tainment
Ġspe aks
ĠPrab hu
Ġvol unt
ĠPe ace
t ax
Ġse es
n ag
Ġcl ick
Ġtrans action
Ġentire ly
Ġsum mon
ars han
wh o
ic ian
Ġsil ent
Ġvers es
ĠShr addha
Ġre nt
Ġex ists
Ġquant ity
ĠK angana
Ġnom ine
ĠShak ti
j id
Ġ' %
M I
Ġgen u
Ġd ynam
8 7
Ġass emb
Ġmov es
Ġpolitic ians
ĠG amb
ac le
ĠL eft
Ġev ident
ĠAll iance
Ġfall en
feren cing
G ood
L D
Ġequ ally
Ġdesign ated
Ġpred ict
ĠAbb as
ĠJ oe
Ġass et
xy gen
est yle
Ġrelig ions
aw n
Ġfilm maker
Ġex empt
9 3
al ted
ĠRe venue
ĠNan ak
Ġc ogn
Ġdri vers
ĠR agh
Ġbl ame
Ġant icip
o il
Ġinter vention
Ġrespons ibilities
C abinet
Ġb read
Ġpresident ial
Ġsus p
Ġconne ctions
ill a
Ġamend ments
Ġtrans formation
ĠAy urved
X iaomi
W ork
pre ced
O P
Ġproduct ivity
w er
Ġst adium
ĠF ran
Ġh idden
Ġp ull
Ġhe ll
ĠDhar mendra
oc on
W oman
Ġh ate
ĠS is
preced ented
C ol
ĠTri pathi
Ġpers ec
ĠD C
Ġtem porary
ific ial
Ġbl amed
Ġtrans g
Ġsettle ment
ĠQ ureshi
ĠComp anies
Ġch art
iab ad
Ġworksh op
ut ory
av ati
Ġexpl ore
M u
Ġth orough
Ġjewell ery
Ġ14 4
Ġminor ities
Ġrenew able
Ġcontain ing
Ġdign ity
ayal am
Ġbl ocks
c rore
Ġp hen
6 3
Ġpregn ant
b ing
l o
m n
ĠO ver
Ġinv itation
Ġtremend ous
Ġh ide
Ġext ensive
Ġassist ant
ies el
Ġend ing
Ġp ool
ĠP haraoh
Ġar rang
asp rit
Ġcharges heet
Ġsurpr ise
iver se
Ġintellect ual
ĠSm all
j ah
Ġw ounded
Ġl uck
Ġpre liminary
ĠMald ives
ad ed
ĠJ ail
m at
m ail
orm s
Ġcl ashes
w ad
ĠV eh
ĠAct s
Ġ13 0
Ġprop ag
Ġmight y
Ġge nder
ĠElect ronics
E ast
ĠShi pping
p ret
M L
ĠM iddle
Ġl y
ĠR up
Ġmar itime
ĠKap ur
Ġem pt
Ġround s
Ġalcoh ol
Ġhe ed
ĠF ac
Che ck
f inals
Ġcor ridor
Ġre hab
ĠN orthern
Ġmig rant
Chand igarh
Ġthe ory
ĠH ong
ist ory
urn ed
Ġfle e
ĠN ay
erv ing
ĠK L
oj a
ĠTechn ical
ĠGe orge
ĠC hahal
Ġcons ent
Ġob tain
Ġproced ures
ĠBah adur
Ġemp ower
Ġsal t
isher men
Ġinf l
L ook
Ġdist ress
ĠRoy als
ĠB ul
Ġfac ulty
Ġur ge
Ġ8 1
ĠP ict
Ġab und
Ġinaug ural
ĠR ober
ĠW i
ĠO ther
ans hip
Ġperform ances
Ġweap on
ĠW ind
an cies
ĠM iss
Ġdist urb
Ġdef ault
Ġnational s
Ġunve iled
s il
he nt
b our
ĠM other
ĠB ur
ĠMan j
ĠTrib al
port ion
ound s
i ences
Ġad vers
Ġm ap
Ġceleb ration
Ġculp rits
ĠB lu
ĠS eries
Ġest ate
ĠM ill
Ġsh out
Ġaff ili
Ġh rs
han i
Ġint im
Ġsl ammed
Ġbl ocked
Ġevery body
ĠShim la
Ġgrat itude
Ġdisp ers
Ġsuper star
Ġde ar
ĠMed ic
ĠL PG
Ġen vis
N T
Ġ19 99
Ġbond s
ĠG a
ĠP ank
Ġenter tainment
Ġsav ings
Gand hi
Ġfed eral
Ġt ie
Ġpre ced
am ond
ro s
ĠK en
Ġv iz
ĠCh oud
Ġagree ments
Ġrank ed
Inst ead
ric h
ĠCons ult
Ġec osystem
Ġclean liness
ĠAz am
ing ly
ĠA ch
Ġcy cle
ĠUr du
ĠTh om
Ġprob ing
Ġob lig
ĠRash id
ĠP ers
Ġins ult
ĠCl ub
ĠM ore
ĠT ag
Ġco vers
C ong
Pro v
Amit abh
ĠE mer
Ġ8 00
B A
Ġintrodu ction
Ġmoment um
ĠP salm
own ed
ĠU T
ĠDesh mukh
Ġpetition s
Ġd ivers
ĠJag an
Ġinput s
ĠInstitut ions
Ġcons olid
Ġundert ake
Ġflag ship
Ġdiscrim ination
ĠS eh
ut enant
ĠJa ish
ĠU Ts
Ġch op
Ġel abor
Ġk it
ĠThe se
Ġwal king
Ġbeat en
ĠS aj
ĠF il
Ġdifficult y
ĠCal cutta
ed i
B engal
Ġc otton
Ġpre f
Ġcirc uit
Ġacknow led
it is
Ġchan ces
Ġhand ling
ĠIb rahim
ĠViet nam
ess ed
Ġcompon ent
ĠS aw
ol io
Ġsucc umb
ĠS IT
Ġgr ass
5 9
im an
Ġvirt ual
ĠEmp owerment
Ġpres ided
Ġfirm ly
ĠN ow
ee v
in ik
Ġtell ing
Ġimm un
Ġregister ing
lim ited
e ctions
Ġex hib
Do es
ĠNI TI
ac her
Ġt weets
le te
ĠB SE
un ar
Ġven ue
ĠK ed
ĠCh am
Ġofficial ly
Ġdemon etisation
P art
Ġrank s
Ġpie ce
ĠRic hard
ĠJ as
R a
Ġargu ments
ĠS l
Ġdepend s
ĠH em
Ġsent iments
Ġprivile ge
ES ID
ĠC ro
ĠSt rate
Ġpublic ation
Ġterrit ories
V ice
Ġte nder
Ġpie ces
ĠShi khar
Ġb ills
Ġre tal
Ġg if
Is lam
Ġun precedented
est ed
ear ly
ent ure
Ġch urch
Ġfl o
N othing
oy s
ĠBhag at
ĠJ ha
Ġrec alled
Ġdev otion
Ġrepeated ly
Ġem bar
ĠDal it
Ġair line
inc luding
Ġaud io
ix els
Ġpred icted
he ld
Ġman ual
w hat
Ġall ies
ĠS ee
Ġrevel ations
8 3
it ate
ĠS SP
ĠR TI
Ġbu ying
Ġconv in
iv a
ĠGand his
N CR
ĠV e
ĠNet work
Ġprosec ution
Ġkill s
ĠPh il
Ġe ager
Ġpass word
ĠKh al
ĠSy ed
Ġres um
Ġref er
Ġvol unte
Ph oto
be at
ĠS E
rom e
Ġdef icit
ĠScript ures
be ing
Ġundert aking
T H
Ġas h
Ġded ication
Ġregul atory
Ġr ic
ĠP V
is al
ric es
ĠA ud
K e
Ġdis ob
ĠCor onavirus
Ġpurs ue
Ġpri est
ab ling
ĠT wo
201 3
ĠSur at
Ġsup rem
Ġbound aries
Ġsc an
og ether
S urely
ĠP ension
ĠJa ishankar
ĠSupp ort
ut or
ĠG ro
C ould
Ġcomp an
ag an
SC O
Ġz ones
av i
ĠMod el
g il
Ġsim ultaneous
et ition
ĠL ot
Ġimp ossible
ĠGor akhpur
ĠSm riti
ĠAn up
Ġsovere ignty
Ġfor um
Ġab rog
ĠEn forcement
S upreme
w he
du ct
Ġra ids
ĠRes urrection
ĠSw ed
Ġestim ates
ĠProm otion
ĠPal est
Ġcont rast
Ġeconom ies
u jan
or g
ĠN T
Ġback ward
ug ram
Ġ7 6
Ġord inary
R A
ĠG riev
wa isi
c ill
Ġs li
Ġre tain
ĠRes ults
Ġintrodu ce
Bang ladesh
Ġspl it
iqu es
Ġanaly st
ĠPresident s
ĠMal ayalam
um i
Ġem inent
ĠMay or
B en
m ates
Ġdoub les
Ġro ot
jee v
Ġcondem n
Ġinnoc ent
Ġn ative
Ġshe ep
Ġsudden ly
/ -
ĠWor king
an agar
ĠO s
Ġcr im
Ġarrest s
Ġcor rupt
ĠRan chi
ĠH old
air y
Ġguest s
Ġresident ial
K ash
Ġsh rine
ĠTrin amool
p read
har an
Ġthe ft
Ġc ured
Ġclar ified
Ġmis le
Ġmand ate
f ather
Ġh ards
Ġne p
Ġcollect ive
Ġw age
ĠR ag
Ġgard en
Ġb io
ĠB id
row s
Ġsy mp
ĠKaus hal
Ġl amp
ĠK u
ĠF DI
do ers
oso ever
Ġmurd ered
Ġr all
Ġcoll ision
Ġut ter
Ġen quiry
Ġdom ain
ĠL ive
Ġcomp uls
S L
Ġfut ures
ĠDe ol
ĠCommand er
ĠAng el
Ġsub sequent
Ġstay ing
in y
ĠM D
t ings
Ġcom mend
Ġ9 1
ĠCommon wealth
ur se
ĠU nt
Ġup set
Ġur gent
Ġsold ier
ec ess
ĠTerrit ory
ides pread
last ing
ĠH ave
Ġoper ated
id av
ĠC reat
ĠR ay
Ġsurve illance
ich and
ĠRam a
9 1
r ating
Ġf lying
om on
Ġt ensions
ĠE U
Ġcal m
r ath
Ġcompl iance
Ġ8 4
Ġvalu able
it amin
ĠCh urch
Ġdark ness
T ill
on ing
Ġc up
Int erest
Ġal ly
ab ri
ESID ENT
6 2
ĠDe b
aya an
Ġesc al
od af
Ġent rance
Ġforg ot
an anda
ĠChall engers
id abad
Ġhe s
Ġfr ame
ĠBab u
ach ment
Ġcont ing
Ġorgan ic
Ġrememb ered
Ġw ard
ĠT aj
Ġcount ing
Ġcar go
omet imes
5 4
Ġdeterm ine
ind e
ĠJ ournal
Ġcap ability
Ġcelebr ating
Ġre bel
Ġve nd
Ġmilit ant
Ġd ress
cer tain
Ġappreci ate
ju ven
Ġsa ving
ĠSol ar
Ġdisc overed
angu age
ĠSid harth
Ġout fit
Ġconstru ct
Ġpati ence
Ġdeal t
Ġtar iff
ĠMemor andum
Ġdivor ce
od es
Ġapost les
P res
Ġme at
Ġlaunch ing
Ġcreat ive
Ġqual ities
ĠJ ob
Ġsoc io
Ġsign ing
Ġreal ise
ĠIN DI
Ġaspir ations
Ġallot ted
act ive
7 2
ĠB ans
e conomic
Ġcomp lic
A f
Ġtrou b
Ġgrad ually
6 1
Ġrec ip
Ġy es
Ġref und
Ġm ac
Ġle ague
ĠPM O
Ġcare fully
Ġfranch ise
H D
ĠS ure
Ġsubs crib
b har
ĠMan ufact
Ġpetition er
Hy derabad
ĠCon f
Ġcal endar
ĠChampions hips
ĠMeh booba
Ġrob ust
ĠT w
ĠPar adise
Ġinc ur
Ġconvict s
Ġstar rer
5 2
Ġseem ed
Ġid ol
Ġprest igious
Ġpass ion
Ġgra ve
at nam
ign ed
Ġro yal
ĠTr uth
Ar jun
ĠRes ult
Ġpoet ry
Ġathlet es
az e
Ġs and
ĠM allya
99 0
Ġinvol ves
ric ted
Ġadj oining
ur appa
Ġpart ial
Ġob jection
! """
Ġs weet
Ġte en
I ran
ĠLe vel
ĠS UV
ĠTh ir
Ġcum ulative
ĠD NA
ar kar
Ġfin ancing
pr ise
T el
ĠP acific
Ġse min
ast ri
ĠL RB
oc ket
et ooth
Ġr adi
Ġsh ocked
ĠSa eed
ĠH RD
Ġwhere ver
Ġaff air
Ġreal ize
H arsh
K ar
rou nder
Ġstri ve
Ġevery where
Ġincl usion
ĠMir za
Ġarchitect ure
ĠVin ay
ind ing
Ġar rives
Ġbre aking
n o
ĠS ultan
Ġnar row
7 3
Ġst amp
ĠN ov
Ġspect rum
n ity
Ġthe res
ĠS amsung
ĠF ern
ĠMas jid
ĠM ac
Ġpet ro
ire nder
Ġen forcement
Ġre n
En ter
Ġr amp
ĠSon akshi
ĠS elf
ĠJ u
adh y
Ġcoll aps
Ġ7 9
ĠS urely
ĠP AN
olit ical
ious ly
ĠM ult
Ġapp s
ĠIn c
Ġart ists
ony m
SE AN
oo q
Ġvulner able
Ġsusp ension
5 1
ĠD en
ĠJ ason
ĠInt egrated
Ġact ively
Ġext reme
Ġr at
Ġport ray
ĠY es
? ""
ĠKab ir
Ġhat red
ĠDur ga
Ġaff idav
Sush ant
w aj
ip in
Ġgra ph
Ġhas nt
ort y
ust ain
Ġind irect
Ġforth coming
201 2
Ġrecommend ation
Ġbad ly
Ġexplos ion
ĠH en
Ġdo g
ĠI B
ig or
Ġenter prises
Ġcomplain ed
ĠKart arpur
5 3
i ary
Ġemploy ed
Ġult ra
est ion
Ġsur gery
l s
ĠSt reet
ĠAut o
Ġexp ensive
Ġinstru cted
Ġsp an
Ġgreet ed
Ġfestiv als
ĠM aster
Ġpolitic ian
duc ational
O b
f i
Ġper pet
Ġfavour ite
Ġsurround ing
Ġsub mission
Ġannoun ces
Ġpub lish
Ġt ied
Ġav o
riv als
Ġhop ed
ĠProdu ction
Y outh
Ġcl im
odaf one
Ġb in
ĠA ry
ĠP DP
Ġde emed
ac he
Ġnation wide
Ġrec ording
Ġrank ing
ĠCh h
Ġsw orn
ĠPand it
Ġmarg inal
ĠMan ager
Ġless on
Ġmus eum
Ġadminist ered
ĠDep artments
ay ana
ĠL udhiana
ĠR ang
ĠK isan
ĠMand ir
ĠPat iala
Ġent ities
ĠM SP
Ġkind ness
ast ava
ĠRen ew
7 4
T amil
G erman
Ġha vent
ach arya
8 9
Ġtack le
/ /
U se
Ġbre aks
F ire
T hank
s u
ĠK K
Ġen abled
ĠRaj an
Offic ials
ĠAd mir
Ġcertific ates
st an
ĠF ate
Ġtra ged
Ġbow led
ĠR adha
ĠB hans
Ġlif ted
Ġm iles
igh th
ĠNav jot
ĠAdvis or
ĠNir av
Ġin se
Ġweak ness
Ġal arm
Ġprodu ces
: %
R P
Ġsc ared
ĠSat ish
Ġworshi pped
ĠPar ishad
R L
Ġun limited
Ġcy ber
ĠOne Plus
ff ee
Ġbr ill
W ater
Ġf ool
s i
ĠR ishi
ĠSt okes
M on
ĠS agar
ĠK her
ĠUn it
Ġelder ly
Ref erring
ĠG ay
ĠH ans
Ġident ification
ĠCount ry
Kash mir
ic ing
iss a
ĠMahar aj
Ġbott om
Var ious
Ġs or
ĠAnd aman
c an
Ġsevere ly
Ġnot ices
D s
M U
est one
Ġrest aur
Ġb eds
Ġfrequ ently
E P
Ġt as
Ġdisp osal
G AR
Ġa viation
ri fic
Ġres ort
ĠRo ht
re te
Ġ10 5
Ran veer
r ig
Ver ily
ĠC ur
ĠR andeep
Ġfin ish
ĠCha irperson
Ġconver ted
he a
R et
at ri
all a
ik ar
Ġdeterm ination
upe e
Ġan ointed
ĠE PF
Ġneed y
Ġspec ifically
ĠBhup inder
i pe
Ġc ops
b ound
Ġp orts
b um
Ġp ulses
re land
ak k
Ġcasual ties
l if
K umar
ala ika
Ġbeh old
ride vi
ĠD rav
ĠN ad
Ġdis qual
Ġadd s
Ġprom oted
Dist rict
ĠSche dule
an ia
ra ge
Ġinter pret
Ġhold ers
ĠA xis
if orn
Ġwithdra wn
Ġremark able
ĠH asan
h am
Ġepis ode
ĠJud ges
riy al
ĠGhaz iabad
ĠG ovind
Ġaut hent
Ġp ic
Ġsum m
z z
ĠC ast
ĠW ell
Ġinf ections
Ġguarant ee
ĠLe ela
Ġbra ve
ĠMexic o
Ġide ology
Ġspeed y
ag o
Ġv o
gr ade
lit re
ĠB re
ĠH ill
Ġam mun
Ġautom atic
w hel
Ġla ugh
stru ct
Ġtoil ets
ĠBlu etooth
Ġb atch
Ġmat hem
Ġfind s
, '
um m
Ġsan ctions
7 6
ord inary
Ġk ings
Ġun n
Ġw ages
st ance
amb a
Ġpostp oned
Ġqu e
Ġsil ence
F T
g ence
n eshwar
Ġprevail ing
atab ase
O T
o cc
Ġref erring
Ġ11 0
Ġmod erate
ĠSis odia
Ġf ib
ac co
ĠAl ok
Ġprotect ing
b ul
ĠRe view
rad un
Ġr ough
T ata
ĠPe oples
: //
ad ian
ĠC am
ot he
ĠN abi
Ġportf olio
person s
ĠBaj aj
an im
ad s
Ġsend s
Cor onavirus
ĠO mar
ĠSun ny
Ġpers pective
v ar
I A
ĠD GP
Ġfa ult
ĠNo ah
Ġa us
Ġobserv ation
Ġdoll ars
Ġconsider able
Ġwal ked
Ġbr igade
ĠSat y
ĠGro ver
Ġcont empt
Ġbr ut
ĠL ove
ok ia
Ġa ug
As h
Ġgard ens
H appy
el ve
w inder
Ġdiscl osed
ĠS ourav
Ġspe aker
Ġ8 2
Wh atever
N orth
Ġw idespread
Ġ199 0
ĠKal yan
i ro
6 00
ary an
Ġtechn ological
ĠOr d
Ġcompet itions
Ġstruct ures
ĠJohns on
is hes
Ġd ow
ĠIran ian
l og
Ġout s
Ġann ually
Ġcompany s
d ar
Ġt ort
ĠS eng
ra f
O U
Ġdefin ition
es ha
Ġold est
om ens
ition ally
ĠCom ple
ĠCr ime
U r
ĠGan esh
Ġkid na
M al
Ġsur f
Ġcrim inals
ĠUnder standing
Ġt ag
ĠI F
ĠG irl
ort ic
Ġexcell ence
Se cond
Ġm ail
ĠB is
Ġprof its
Ġorigin ally
J I
ĠD MK
Ġne ck
ĠPro ced
Ġbound ary
inik anth
Ġempt y
on so
art ed
ĠSh ashi
Ġrev ol
Ġmanufacture rs
ĠC irc
ĠO waisi
ĠPro t
Ġfound ed
ĠGur ugram
f inal
Ġfr ay
ĠRad io
Ġkilomet res
an na
Ġris ks
ĠThom as
Ġd iabetes
ĠR io
Ġtra cks
Ġmanufact ured
Ġsoul s
7 9
ric s
vent ions
ĠExcell ency
Ġopt im
Ġwas h
ew ise
B est
Ġ8 3
ro lled
ĠT own
Ġprote in
B P
C aptain
NE R
Ġpar king
Ġwar rant
Ġimag ine
Ġparame ters
Ġdecl aration
Ġexcept ion
ĠSain i
l ook
Ġ7 00
ĠVer ily
ĠGh ulam
iforn ia
E ff
: -
ĠK ail
B T
ĠS qu
Ġst ores
ri ers
Ġr ational
D G
ul atory
ĠE qu
Ġt all
Ġc aut
Ġcom edy
Ġtechn iques
ĠKan e
ĠE C
Ġgra ins
Ġcy l
Ġgenu ine
ĠP vt
Ġhop eful
k y
ĠJ asprit
ĠF ree
Ġsup reme
Ġinter ven
ĠM ilitary
are rs
Ġambit ious
Ġl oves
ĠA C
Ġreport ing
ĠKumar i
Ġconnect ing
ust ing
S am
ĠH aj
Ġconv iction
ĠDig vijay
Ġten nis
Ġalle ging
Ġmag ic
ĠA ishwarya
Ġprison ers
Ġm it
U L
Ġestablish ing
ib et
Ġnetwor ks
Ġcon stitute
mon th
Ġacquit ted
ĠB irth
Ġro of
oul t
L ets
ĠW ise
Ġexp osed
Ġwrit es
Ġstar ring
Ġrecogn ize
rat ri
m aking
Ġrest ored
ĠSa ur
Ġreve als
Ġtemper atures
Ġen abling
ull a
ĠGamb hir
el ing
Ġint ense
ĠAn k
Sh ow
y o
are st
Ġun certain
An ushka
ĠN SE
Ġregard ed
Ġarg ued
Ġsafegu ard
ĠGod dess
Ġconfirm ation
Ġb reed
Ġin ner
ĠE li
A ction
ĠI II
ĠV ideo
ĠHar b
ĠUnivers ities
ĠC ong
Ġ8 6
ĠDes ai
Americ an
Ġ9 6
Ġdet ention
rab abu
Ġglob e
Ġo xygen
Ġsl ave
pl ed
ousand s
Ġtele phone
c hen
j j
ĠB ig
ĠHigh way
ĠD rug
Ġtor que
Ġpul led
Mu hammad
C hennai
Ġpri zes
Ġamount s
Ġkm ph
a uc
ĠD aniel
in o
Ġdo ors
Ġrest ore
ĠPank aj
ay as
Ġme al
Ġeng ines
ĠD ip
ĠD SP
ĠPr ince
aland har
ri ors
ber y
Ġqu iet
ob ar
Ġprev ention
ĠSe ctions
Ġgra in
Ġoper ators
ĠReg ister
Ġconst able
it arian
Ġheav ily
Ġaccept able
har ma
Ġar ising
Ġinteg ration
Ġinterrog ation
8 2
B el
ol ence
Av oid
ĠD ab
Ġdes ired
ĠCust oms
ĠGow da
ĠDe ath
Ġdepend ing
Ġrehab ilitation
9 00
L o
arent s
Ġresist ance
M A
ĠAmb ala
ul ous
% ,
ĠB ox
Ġimp ressive
Ġhigh ways
Ġstat utory
Ġkn ock
Ġtraged y
H ar
r utin
ĠN or
5 6
H es
f ar
iv ic
ade ep
S w
Ġopp on
ĠJ ama
ĠJud icial
ĠMSME s
g ium
Ġwill s
ĠL ie
Ġus age
Ġwind s
Ġwebs ites
Ġaccording ly
Ġindic ate
ĠAre a
ĠMarsh al
Ġover whel
Ġtong ue
Ġh ik
Ġ3 50
Ġdis charge
ĠAbhi yan
c r
Ġthrow n
Ġexchang es
ĠPartners hip
orth y
Ġce as
Ġo ct
Ġsur ge
ĠMand i
is ive
Ġrest ra
ĠN D
k ula
less ly
Ġst ating
ĠRep resent
ĠMart in
ĠP okh
Ġisol ation
Ġrall ies
ĠJew ish
ĠKart ik
Ġsc oring
Ġgr ants
S et
f ew
Ġt un
ĠN DRF
N early
os hi
ine et
8 4
ĠK ishan
ĠGo el
Ġcon tend
ĠRat na
D em
In ter
Ġ199 6
Ġcomp lim
Ġpre mier
ĠAnt i
Ġcomfort able
Ġinher it
id hi
r fan
er aj
al al
Ġed ge
Ġdead ly
ĠMo on
Ġpun ished
Ġclin ical
Ġmaid en
ag g
Ġvac ancies
Ġgram s
M adhya
Ġestablish ments
ĠFar ooq
ij ing
h or
L aw
Ġ9 7
ĠThar oor
Ġammun ition
ĠN at
Rel iance
Ġob ed
H C
ĠM ans
Ġlic ence
Ġt ap
ew ala
Ġy ellow
ĠCor ridor
Ġfind ings
8 6
H P
ĠV an
Ġqu ad
Ġprov in
ĠJav ed
ĠMul ayam
8 00
ĠG round
ip at
Ġit em
Ġex h
Ġme ga
Ġquarant ine
Ġvalid ity
ĠB eg
us ively
Ġr ans
ĠDist ribution
8 1
ar ity
Ġrest ricted
ĠQue en
as pur
Ġre tained
ĠP utin
ĠB ib
ĠMed al
Ġlif t
ak hap
ĠAr ch
Ġphotograph s
ĠC lean
Ġsupp lied
app ing
ĠM ove
Ġbrill iant
9 4
Ġt ab
ib al
Ġprodu cers
Ġattend ance
ĠDire ct
Ġreview s
ĠSidd iqu
Ġcommon ly
ĠSidd harth
Ġro t
S ometimes
Ġsl ated
ĠPil ot
ĠPh ys
ĠAdminist rative
Ġw ww
ish abh
ishe ries
Ġt une
as er
Ġl ights
ĠDe h
ĠR aina
Ġdom in
Ġnab bed
r ar
Ġcont rary
l ock
ĠB hai
Ġapp r
ĠSec urities
Ġrelative ly
in th
ur ally
F A
Ġpro claim
Ġclear ance
Ġadvis ory
Ġcon vert
ĠH oly
Ġag it
ĠCal ifornia
Ġspecial ly
ĠGard ens
Ġj et
Ġjoin s
Ġchast isement
I ve
ĠE xt
Ġinc on
Ġinj ustice
ĠB ack
ĠF orm
Ġheaven ly
Moh ammed
Ġhect ares
Ġ """
R JD
ĠS S
iv en
Ġexcl usive
Ġf ishermen
ĠRober t
Ġ8 7
Ġsol ved
Ġprof ile
ĠBen ef
ĠL ight
P an
Ġj ets
Ġmay be
ĠZ one
ĠF ull
Ġupd ated
Ġupd ates
Ġlands l
pt ed
Ġtheat re
P oll
ef ire
Ġnegoti ations
o omi
ĠO BC
Ġbless ing
ĠChak rab
Ġpac er
ĠTag ore
Ġmin ute
Ġ199 8
Ġag ent
Ġnewsp apers
ĠT ai
iji ju
c ul
in n
ĠR E
Ġexec uted
re ci
Ġdistan cing
Ġinvest ed
Ġcivil ians
Ke jriwal
ĠGu jar
ĠAm rit
Ġqual ify
Ġdistingu ished
ĠM id
Ġcons ensus
Ġearn ings
ĠIN S
or able
Ġb es
ĠT ok
Ġaus picious
T O
ĠR eh
ĠB uilding
ĠN ame
Ġgra b
Ġsurv iv
M M
Ġw alls
Ġd rought
ĠC ase
Ġminister ial
Ġtax pay
Ġinstru ments
ĠG hat
Ġarrang ed
Ġbe ings
Ġdem ol
Ġobject s
et ime
Ġsp ouse
Ġsem if
d y
in ts
Ġo ri
Ġon ion
Ġnomine e
Ġcont acted
Ġsuggest s
akhap atnam
ĠK night
ĠRaj eev
com merce
Ġro oms
ĠMess engers
Ġabsol ute
ĠRah man
Ġbe aring
ĠCommun ity
9 2
rol og
Ġlegisl ature
Ġjun ior
M ajor
Ġsp ar
Ġcommun ications
D av
ir am
ĠJ at
Ġbelong ed
E ducation
Ġcut ting
Ġde pendent
Ġalleg ation
d iv
il le
ĠTele com
Up on
u ated
ĠC het
ĠB eh
Ġnorm ally
P aul
ĠS her
r mal
ĠGriev ances
an ian
ĠP O
ment ing
ĠT a
um es
Ġse aled
ĠV ilas
ĠSikh s
ĠUm esh
he e
ĠV ict
Ġshould er
Ġsuper ior
is ans
With out
ig in
Ġdis in
uz vendra
Ġbelie ving
ĠProject s
Ġopp osing
ĠMad an
Ġaccord ed
Ġmac ro
and s
ĠE r
Ġvis ual
Vi jay
Ġf are
ĠK ush
Ġgold en
Ġpray ed
or ney
Th ousands
Ġtra ce
Ġfl our
Ġfour s
AR C
Ġadopt ion
Ġr ating
Ġpo ison
ĠI reland
Ġt urb
out s
en ary
ĠMar g
CB SE
u ance
ĠD ata
ĠK az
In f
Ġ9 2
irm anship
Ġir res
ĠMan n
Ġlab s
Ġcooper ative
Ġf et
ĠS ai
ĠC ath
Ġent ity
ris ers
S oc
now ned
ias m
L E
ĠM und
ĠSiddiqu i
w i
ple mentation
ĠMo S
Ġm ol
ĠPol it
Ġqual ification
it ual
Ġland ing
ĠG av
Ġcomm enced
Ġloc ked
ĠLank an
bh adra
San jay
ĠJac ob
ĠEnt repreneurs
Ġtarget ing
ĠBhag wat
j ewala
ĠB ranch
ĠKail ash
ĠComm unications
Ġpass port
onso red
et hi
CA A
as ters
ap a
Ġhel pl
Ġlot s
ĠNic obar
Ġesc aped
ĠT DP
ĠW ing
Ġsuccumb ed
ĠAdmir al
ee k
Ġinter acted
Ġindic ates
Ġob l
ĠTh ou
Pro f
ĠEm ployees
Ġcommod ities
W D
Ġm ens
Ġs add
ver bs
ĠIsrael ites
H ad
Ġattack ers
Ġcre ates
Ġpil ots
ĠChow k
Ġw ars
ĠI mp
et te
Ġse gments
ĠW HO
ast ra
ĠPri ze
Ġplan et
reg ular
Ġconsist ing
juven ation
ĠTh ose
Ġyoung sters
Ġcompar ison
e ve
Ġl oyal
ĠN is
Ġdraw ing
ĠN ave
N one
ĠS election
irl a
ĠRaw al
Ġexpert ise
Ġenthus iasm
Ġsuprem o
Ġele v
Ġter rible
Rem ember
! "
Ġass ass
Tr ans
Ġb om
ĠMed ium
Ġdeleg ates
ĠPatna ik
Ġmist akes
oth y
Ġ9 4
uv an
Ġsummon ed
Ġ8 9
Ġpass age
rop ri
Ġtest im
m m
il al
Ġl oot
ĠH af
Ġris en
S ur
Ġf ever
Ġb old
Ġassess ee
H S
th is
Ġmon u
att ered
yl on
ĠSt ep
Ġinaugur ation
Ġ9 8
ĠM oney
ograph ic
Ġconc rete
Ġaffidav it
er on
st orm
p m
Ġthank ful
Ġcra ck
ograph ical
ia z
ĠV ad
Ġmess engers
Ġc ited
Ġleg s
Ġteach ings
i est
ac les
Ġimport ed
ĠSingh s
Ġhigh lights
Ġdisput ed
ĠFil ms
R SS
ĠSil ver
M od
In ternational
ĠGold en
Ġs hed
ĠA SEAN
og i
Dh oni
ĠS ank
ĠJ P
Ġen v
Ġviol ations
Ġz eal
ra pe
ĠNa q
Ġaccur ate
Ġcon cess
pp a
urn s
Ġaff ection
Ġton ne
Ġceas efire
c hers
Ġb idd
ĠSh astri
Ġless ons
ĠCert ific
Ġrefuge es
het ic
Ġexpand ing
pert ure
ĠL ocal
Ġper ce
ĠSc india
Ġre act
Pr ice
ĠSA W
ĠT ah
Ġser ver
ĠFed eral
Dep uty
ĠG ate
Ġmob il
ĠBuddh ist
Ġd w
Ġis n
Ġst aged
Ġad verse
Ġpos ed
Ġhot els
ĠNet her
Ġign or
ĠDrav id
Ġres pected
Ġliber al
ĠB all
Ġqu ota
Real me
S ha
ĠSan jeev
Ġlay ing
Ġhang ing
Ġc ater
S ara
ĠKar gil
m ade
ĠH ollywood
ĠGur gaon
al ysis
ĠTh us
Ġgr adu
Ġg all
ĠWe b
Ġcust oms
Ġclos ing
Ġm inistries
Ġth ick
ĠAdvis ory
ou ch
rap y
ĠDil ip
S ensex
T S
Ġmult ip
ef in
Ġflow ers
Ġpre fer
ĠSol omon
Ġamb ul
V e
m ood
Ġal bum
A amir
P ad
or ia
ĠM G
ĠCon stitu
Ġche st
Every thing
ire n
Ġreal ised
et ails
ist ing
Ġsc rutin
Ġrespect s
Ġcrit eria
Ġl ake
Ġst ir
Ġann um
am ar
Ġrout ine
Ġendeav our
n ational
Ġhead ing
Ġne ut
li ant
ĠGood s
Ġre nowned
In c
Ġpri ests
Ġt id
Ġin g
Ġemer ge
ĠChin as
Ġst r
Ġbehavi or
ĠBhans ali
Ġp addy
Ġpro portion
ĠIs aiah
ĠRah im
ĠD RDO
Ġaud it
P ower
it ored
Ġvot er
ĠAmeric ans
Ġdra g
ic he
ĠM att
ĠK ad
Ġconsist ent
T ime
Ġb act
Ġj ack
ie ce
Ġair lines
the less
ĠJan hvi
ĠMarket ing
D E
so ft
ĠDeh radun
os ys
OL ED
f ortun
ĠA S
ul ates
out heast
Ġdef amation
int hi
ĠNob el
A y
Ġsing ing
ĠPo oja
Ġb ount
ĠS HO
ol f
Ġr itual
7 1
Ġrul ers
Other s
Ġcorpor ation
os ers
Ġrec all
Ġbal anced
Ġrepresent ation
A tt
Ġval ued
ors hip
Ġextend ing
hin agar
Ġnep hew
ĠK on
Ġwe igh
ĠL ast
oc ate
Ġ8 8
an n
na o
ĠJin ping
han g
Ġb rib
ĠMinor ity
C r
ĠT ay
R oad
m and
Ġinhab it
ĠNether lands
Ġc iting
ĠPh oto
Ġhyp oc
Ġm a
Ġtruth ful
ĠEmer gency
I CC
Ġp ixels
Ġst uck
In s
Ġch at
Ġref lected
Ġinflu enced
Ġdisapp ointed
Ġn ice
ri ve
ec hes
ĠCor inthi
ĠAs if
ĠVish nu
Ġdistin ct
ĠWilliams on
ĠProced ure
Ġun beat
erv ice
Ġfunction al
ĠResp onse
ĠD ix
ĠIsrael i
Ġb ot
ĠM atch
ĠMedic ine
ĠSub ram
Ġprepared ness
P rom
Ġv ib
ĠMa hajan
Ġbre ach
Ġg iant
ĠKash yap
Ġhum ili
Ġla uded
Ġopp ose
Ġappe als
F l
Ġa perture
Ġc hips
Go ogle
ĠPhilipp ines
me et
a un
we ight
Ar my
ĠN athan
Ġc aution
og ram
ĠAyurved a
Ġwh osoever
ĠI G
Ġexpl ains
Ġseparat ely
Ġtrigg ered
Ġphen omen
t op
Ġadm on
Ġacqu ire
b hai
Ġdep ression
ir aj
ĠH onda
Ġemphas ised
M in
ch ant
Ġr ing
ĠF ive
ĠKumar aswamy
Ġpist ol
Ġrecom p
Ġnot iced
Ġun anim
Ġcommit tees
ĠFor giving
ĠBl ock
ĠPort ug
Fore ign
ĠCreat or
ur ban
Ġform ing
wit zer
Ġreserv es
F ilm
og en
Ġun iverse
ĠProcess ing
Ġb ath
ĠA ND
Ġcommit ting
Ġcontract s
ĠRoht ak
Ġv ary
ant ry
Ġar ts
Ġgr aduate
Ġpay able
ĠChand rababu
Ġmarty rs
Ġremand ed
H aving
Ġcon ferencing
ĠCha ut
as ion
ĠAct ress
Ġself ies
Te am
Ġunem ployment
ĠRenew able
Ġview ed
Ġmove ments
A jay
ĠH ockey
ĠL y
Ġincreasing ly
Ġmid st
ĠAur ang
N RE
Ġo wing
Ġcolour ful
Ġslight ly
ĠChakrab orty
ĠR aksha
Ġforest s
ĠAM OLED
Sec retary
Ġattract ive
ĠGard en
or ial
Ġh tt
Ġpart ition
Ġamb assador
Ġaband oned
U I
Ġag ents
Ġassoci ations
Ġpit ch
Ġcent ers
Ġclean ing
Ġagg ressive
Ġsimultaneous ly
b ers
ĠS ustain
Ġch ill
ĠJud ah
B s
Ġbe ating
ĠN al
ĠRaj u
Ġsing les
Ġhelicop ter
Ġhun ger
Ġm our
ĠA th
ĠT op
ns ic
Ġste pped
Ġcrit ics
ĠA irl
Hind i
lud ed
olit an
P ra
com es
St ill
Ġdevelopment al
Ġfr ust
ĠHar ish
ĠChoud hary
ĠRel ations
ĠK y
ne x
ĠGre ater
P rodu
on al
ĠT or
Ġcha ir
gr aduate
Ġvolunt ary
ĠNaq vi
Ġpref erred
ĠL ake
ĠBut t
Ġ ice
Ġbl ow
Ġlif estyle
ĠD isha
Ġrec k
Ġbo at
ĠDes ign
W ashington
Ġcom merce
ĠVid han
p any
ĠB are
Ġar ise
row th
Ġsurv ive
Ġvess els
Ġfinger print
V en
ul i
pe ople
ĠSystem s
ĠB ik
Ġad apt
Ġhom age
An il
Ġtyp ically
ĠKo chi
r ass
Ġent r
Ġforb idden
f ting
ac hel
Ġcl er
ĠSur jewala
Ġpersonal ities
Ġeth nic
Ġl ibrary
ĠR ank
Ġterm inal
Ġcontem porary
is a
Ġha iled
ĠJ ab
Ġbut ton
ĠShiv aji
Ġ `
Ġpres erve
Do ctors
N it
P ay
ĠIs land
' :
um ph
Ġwitness ing
ĠPokh riyal
er tain
ĠK as
vel ation
ĠEx pl
Ġsacrif ices
ĠS up
Ġdes cend
ic ious
ad itya
ĠD D
ĠT reat
Ġm ild
ĠK ant
Ġsnow fall
ĠP op
ag a
D ev
ĠR ijiju
ĠInd us
erv es
Ġd uration
ĠB CM
pr ing
Ġdet ected
c ise
Ġp ays
ĠP P
ĠP uj
pp ers
ĠE mb
st ep
em ia
ĠJay anti
Ġexcl usively
ĠSad ar
n ut
Ġwas n
ĠIn iti
t r
Ġr ises
Ġcoll apse
Ġ196 1
Russ ia
Art icle
at ha
ud a
ĠAl m
Ġstrict ly
ĠCS IR
ĠKir an
am ents
ĠB irla
Un ited
Ġextra ordinary
ĠJ alandhar
Ġmanufacture r
Ġd atabase
J apan
L ead
ord inate
sh ow
ĠPanch kula
ĠMove ment
P ublic
Ġmag istrate
ash ant
Ġsupp lement
Ġbest owed
ĠSp irit
Ġpetro leum
re ll
Ġwrit ers
Ġis lands
ĠF e
Ġmanifest o
Ġshowc ase
f ront
z o
Ġre verse
ĠArab ic
p ost
Ġemb ra
N ir
ĠR ate
ĠW eek
Ġfear s
F amily
Ġt ons
ĠP ed
um mar
Ġimp ose
Ġadj our
G ovt
Ġbat t
rog en
Ġmig rants
G et
Ġm ad
witzer land
\ '
Ġre venues
Ġattempt ed
ĠVill age
Ġsk illed
Fin ally
Ġcaut ious
Ġh umble
pl us
Ġsacri fic
akrish nan
Ġmy th
Ġleg acy
Ġbre ast
ĠInde pendent
Ġfigh ters
ĠCorinthi ans
is ite
Ġre ception
Ġput s
Ġk ne
Ġri f
Ġsucceed ed
je ctions
hold ing
Ġexc iting
Ġcop ies
u ber
ĠA IR
Ġ9 3
ĠAk ali
ĠChan cellor
Ġnom inations
Ġstret ch
Ġsl ain
Ġfif ty
z ing
Ġevery day
Ġpl un
ish ment
ĠFin ch
ĠCap t
Ġunbeat en
Ġf ost
Ġimp ressed
Ġcommand er
Ġir regular
ĠGul f
ang le
Ġcol umn
ĠOr issa
Ġh ug
Se ven
Ġapolog ise
Ġle cture
Ġeduc ated
ar aj
Ġmess enger
ĠK ak
ĠN ik
ĠH rithik
ĠJ ord
Ġfle x
Ġest imate
ĠBi ote
Su per
Ġincon ven
Ġbuy ers
Ġawa ited
Ġf ant
Ġinc om
Ġl iability
ond s
Ġsw earing
Ġgriev ances
ĠAs ad
Ġang el
H el
Ġwe aker
Ġspe eches
ĠCor ps
alle l
ĠLie utenant
P O
ĠH ari
ĠL eh
ĠPr ay
Ġbas ically
ĠAir ways
Ġslow ly
ĠDix it
Ġwhat soever
ĠBh and
ĠPra g
ĠInstitut es
ĠL abor
Ġcou ples
Ġrom antic
ĠS uch
Ġpro st
Ġcompet e
ie ves
Ġphys ically
ĠCommun ication
ichand ran
C D
Ġse le
Ġsc al
Al ia
Ġabs or
ĠPG I
ĠK aj
Ġad ult
Ġweek end
asa heb
Ġev olution
Ġopt ed
Ġtop ic
y ou
ut osh
un ction
Ġle nding
ĠHous es
ĠA w
Ġ18 0
ĠItal ian
m ind
Ġassoci ates
ĠM ike
App le
Ġform ally
Ġ199 2
k ey
Ġmer it
Ġs ake
Ġby poll
ĠTe ch
S eptember
ĠM ines
od hi
Ġunder go
Ġrep air
Ġang le
ĠN CR
ĠL iber
Ġk in
port ed
und ai
Ġlist ening
Ġdev ast
Dire cted
T P
ĠW al
Ġcooper ate
q bal
ĠY atra
II I
Ġfre ight
ĠB in
Ġha b
Ġprotest ors
M oses
an ya
Ġstrate gies
Ġbroad cast
ĠINDI A
K S
M ain
Ġcal am
Ġdeploy ment
Ġfram ed
ĠSant osh
Ġconvin ced
J une
al uation
Ġme anwhile
ra pped
ĠJ EE
ĠO ld
ain t
Ġinter ior
ĠMad hav
Ġmass es
Ġlad y
ĠYuv raj
r ana
Ġe pic
ist or
os it
Ġposs ibly
ĠMah ab
c hest
ĠR is
Ġst im
Ġme ters
Ġserv es
ĠAm ethi
Ġprior ities
Ġst y
ow al
Ġtrans lation
Ġrep utation
ĠR iders
ĠAr m
er ut
Ġf og
ĠS outhern
Ġagg reg
Ġmarty red
ĠE id
Ġconvers ion
ort ion
li er
Ġfamil iar
ĠTrib es
Ġdiss em
Ġtransl ated
S achin
ĠRaj e
ĠS riv
Ġaccept ing
sc reen
E l
L ist
Ġg y
ot ions
ĠD isc
Ġcateg or
Ġengine ers
Ġpers ist
Ġl est
ĠMa ul
Ġcar ries
Ġproject ed
ot ics
Ġinter ventions
Ġcomple ting
Ġever lasting
Ġsuggest ion
O pposition
ĠS aina
ut va
ĠN A
Ġ19 80
com pass
al so
ĠU k
ĠUS B
L ocal
ĠB ish
Ġretal i
ric ks
ĠGand hinagar
ĠMah al
Ġengine er
ag i
Ġres ume
Ġsm ugg
Ġfat alities
Ġbag s
Ġce ment
an ing
st able
Ġenjoy ing
Ġn an
Ġne arest
own load
Ġlay er
Ġpled ge
g ical
ans h
ĠG il
af ar
ĠHam id
Ġqu eries
ĠKo ch
ĠN ax
ĠMis ra
i h
ab ha
Add itionally
Ġinsp ire
ell ate
ĠBab ylon
ĠN umber
Ġdif f
S rin
b rid
he ra
ĠD ad
Ġexp osure
Ġinnov ations
Ġk ms
Ġinst ant
V A
j al
ĠI yer
ĠF oot
ĠPr adeep
Ġposs ibilities
chi ef
ĠD era
ĠMoh ali
ĠStud ies
Ġrep ay
ĠZ ak
ĠBob de
Ġfood s
Ġpronoun ced
Ġe ars
Ġar rog
ĠChaut ala
har raf
Ġdec or
Ġbusiness man
ĠOn line
ĠS SC
Ġsub stance
Ġtw in
Ġs ung
ĠRa ipur
Ġat tain
Ġmon itored
pp o
Ġsign al
Ġcontro ll
n ah
ĠDal its
ĠDel his
a e
ĠOffic ial
T op
r ats
Ġres urrection
Ġart isans
Ġoccup ied
ĠH ass
ĠBudd ha
k al
Ġ *
Ġrece ives
Ġre ign
Ġquar ters
ĠRel ief
ĠB ipin
Ġun ions
Ġdis ag
ĠR ule
ĠW omens
Ġab ide
Ġlegisl ator
Ġclos ure
ĠBe ijing
Ġtestim ony
hu a
ud s
Ġrele asing
Ġhard ly
O M
Ġw ai
ĠNG Os
Ġexem ption
ĠBans al
Ad v
ĠPerson s
Ġign ored
K olkata
st e
ĠSan j
Ġw ine
ĠK ol
Ġ199 1
Ġpopular ity
Ġmemor ial
Ġmotiv ated
ĠD om
ĠGar g
Ġdistin ction
ĠBh ub
Ġaccess ible
N H
iv as
fere nt
n et
ant ra
Ġlik ed
Ġmain stream
" (
ĠY uzvendra
Ġfl ows
Ġpriv acy
Ġn ortheast
ĠFar idabad
Ġacknowled ged
d ney
f elt
ri k
Ġdispers e
Pres ently
ri ved
Ġcur b
Ġaffect s
ĠStat istics
Ġapparent ly
he ed
ĠC amb
ĠP res
Ġab ol
ĠCha pter
ĠDire ctors
Ġscient ist
Ġo cean
aw az
ĠBh uv
ĠIs ha
ĠPat ani
Ġfocus ing
hank ot
ĠPro verbs
Ġdes p
Ġcommission ed
Ġlevel led
ĠGaur i
ĠYam una
c ol
Ġcrit ically
Ġliter ary
Ġap ology
ĠTim othy
Ġconscious ness
il pa
ĠAl igarh
Ġsa ff
Ġev alu
Ġfeat uring
ĠCr iminal
Ġsubsid iary
Ġrans om
W ould
ou ri
Ġflow ing
' d
Ġen orm
Ġinv ent
Ġregard s
Ġd ues
ĠPr ith
Ġsc ores
ĠHer itage
Gl obal
S ar
U K
Ġd rew
ĠSh re
Ġer u
Ġal ter
th y
Ġassum ed
ĠR ob
Ġbar rel
Bhar at
Cong rat
iss ue
Ġh ire
Ġexpect ing
ĠS ibal
om pe
ile e
ĠAb h
Ġhelp ful
Ġdeb it
Ġcompet ent
Ġadj ust
an ish
Ġth inks
ĠJ im
olog ist
According ly
Ġconclud e
k umar
x ual
Ġsm oke
IS RO
ortic ulture
L ove
Ġhor se
Ġcollaps ed
ĠTok yo
E le
Ġvolunte ers
ĠS AD
ĠL i
Ġwor s
ĠRe velation
Ġcomp osition
agra ph
Ġmin im
Sh ould
Ex press
c ow
ig ent
Ġcoun cill
ĠAt omic
H as
Ġp ushed
Ġexper iment
CO VID
ĠSind h
ous es
rop olitan
Ġmil estone
Ġa uth
ident s
Ġpen al
Ġbrief ed
Ġfeed back
Ġfin als
Ġviol ated
umm ins
B al
Ġd ict
ĠSh inde
Ġcomplain ant
Ġsc re
Ġ10 4
Ġent ers
Ġdo zen
Ġass ure
Shah id
ĠSeh wag
B SE
ug opal
Ġ10 8
C ar
Ġp harmaceut
ater nity
Ġh ills
ĠA ware
Ġpre jud
Ġprov iders
AS A
re a
Ġst ick
Ġen acted
Ġadj ud
Ġtra ctor
Ġchief s
Ġrad ical
ĠR ab
Ġpublic ly
Ġdelight ed
ĠN iger
Ġmon etary
Ġpurs uing
Ġlegend ary
Ġsubscrib ers
Ġoct a
ĠAirl ines
7 00
Ġag ed
Ġ199 7
ĠMot o
H z
ot y
li k
Ġforward ed
Ġmom ents
Ġprin ted
Ġtas ks
ĠU mar
ĠCapital s
or i
Ġsoc ieties
Ġdepos ited
ĠFl ag
Ġdescrib e
Ġschol ar
ĠGovern ance
K am
R ain
Ġf er
um al
ĠCom mercial
Per haps
Ġmineral s
ĠHarb hajan
ĠR ave
Ġoff end
M arch
ure auc
ĠX iaomi
Ġsw ing
Ġpregn ancy
Ġwhe el
Ġopen ly
Ġg orge
And hra
Ġgirl friend
Ġnut rition
is er
Ġhe ights
Ġinc red
Ġtravel led
Ġbapt ized
k in
ust ers
ub a
Ġrem ake
Ġ16 0
go vernment
Ġtreas ure
Ġid ols
Ġb ull
ĠS IM
ud h
ĠW here
a uthor
ĠV odafone
Ġmod ule
ĠPat han
K rish
u els
Ġhas t
Ġver ification
Ġgener ating
Ġneut ral
ĠP ink
Ġco ffee
D onald
ĠT ibet
all ist
In itial
ĠGurd aspur
ĠT ihar
B et
v o
Ġocc urs
Ġobvious ly
ĠCan adian
Ġsurpr ising
t age
ang al
Ġtechn ique
Ġcash back
Ġsepar ated
ĠArab ian
Ġg ro
ĠG aj
Ġdead line
c est
Ġt act
Ġs ample
Ġe ighth
Ġdis b
Ġsw ift
Ġ199 5
Ġrang ing
ĠGujar ati
ĠT re
AN DI
IM IM
Ġautonom ous
A z
ĠC ultural
ĠRa hane
ĠKar un
Ġcad re
ĠCath olic
A G
Ġiss uing
Ġlabor atory
ĠS ch
ĠKar achi
AI L
Ġd row
ĠB ath
Ġcook ing
N av
Ġde le
i ents
ĠT and
Ġpo ems
Ġgif ts
Ġd ub
Ġre op
art ered
Ġder ived
Ġth ieves
Ġsh ocking
ĠV ihar
Ġform ula
E r
en i
Ġres erve
Ġbas eless
ĠHimal ayan
Ġc ous
Ġb ones
us se
ĠF our
Ġtal ented
Ġdev oted
ĠVid ya
pher d
Ġdynam ic
ĠNave en
P T
Ġcontrib uting
Ġsubject ed
H im
Ġs idelines
law ful
Ġturn over
Ġcomprom ise
ens ity
ĠC eleb
ow ers
Ġfinal ised
ĠHard eep
Ġtid ings
O ct
Ġs q
Ġto b
ĠS em
ĠR and
Ġconf ig
Ġthreat ening
Ġc ab
Ġacc um
Ġcirc ular
Ġ0 8
CS O
Ġholid ay
N on
Ġp el
ĠB or
ail able
Ġaccom pany
ĠPanchay ats
ĠE p
Ġtr illion
ĠFar han
as ha
Ġrequest s
Ġinvest ing
Ġinf ilt
Ġvent il
jud ge
B ar
f ection
Ġart ificial
Ġcelebr ates
Ġcoun s
ĠPrab h
ĠMit tal
ĠStrate gic
Ġle nd
Ġle ak
ĠF er
ĠO P
Ch rist
ĠKish ore
St art
ĠSeng ar
E d
I IT
Ġconf usion
Ġiniti ate
c um
Ġsy n
Ġab du
Ġmer ger
Ġspin ner
L ord
ĠV icky
ĠSh op
Ġfelicit ations
Ġsear ches
ĠText iles
ĠC ummins
pp y
ĠBS NL
Ġult imately
d rop
t ical
Ġb ik
Ġm aker
ve en
Ġdiscuss ing
ĠPl ant
ĠCl inton
Ġ199 3
Ġincur red
ov iet
Ġcountry men
ĠBhuv neshwar
id ences
os a
av an
Ġreal ized
adhy ay
ad ia
ul f
ĠChandr ayaan
ĠHen ry
w eta
Ġ =
Ġst al
F s
K ap
Ġp ocket
ĠL uke
ĠE nd
Ass am
Ġascer tain
m ap
Ġc ivic
ĠR ishabh
se en
ĠEntrepreneurs hip
H on
ĠL anguage
Ġacc using
ĠGandhi ji
Ġaccount ability
Ġinstru ction
im ala
ĠAr gent
ĠAdvis er
Ġforgot ten
ay ed
Ġapply ing
ĠS ale
Ġl ux
ĠE very
Ġam en
ĠT B
ĠJ ind
Ġboy c
Ġneighbour hood
V is
ĠP ie
Ġ11 5
ĠJag d
Ġproc ured
ĠK V
Ġappr ised
Ġus ual
Ġtra gic
ĠReg ulatory
Mo U
H U
Ġinvest or
Ġaffect ing
Ġkil ome
ĠSri k
Ġdi amond
E lect
ew ari
Ġweek ly
Ġmiss ed
Ġpion e
ĠRath ore
ĠLeg al
Ġbelief s
ĠJ et
Ne xt
D U
ĠS witzerland
Ġfail s
Ġtob acco
ĠW ay
Ġche aper
Ġtre nds
Ġass urance
Ġrul er
ĠShe khar
Rail way
Ġf ate
Ġland ed
Ġin qu
ĠK ang
ere r
ĠE ve
Ġpost ing
Ġdes cription
b at
ĠPanchay ati
Ġad ults
Ġhy gi
S te
Ġd inner
ĠN ortheast
ast y
ath on
ĠJam ia
Eff orts
Ġw re
ĠInf osys
Ġsurround ed
Ġre ndered
Ġsecond s
ĠMas ood
ĠD utta
Ġem otions
Ġdest inations
anth apuram
R ather
S om
Ġche ating
ĠAsh ish
ateg ory
C E
Ġg est
Ġfe ared
Ġo re
Ġst range
ĠJay ant
ĠChem icals
ĠI qbal
ĠPr ashant
Ġ19 47
Ġdemonst ration
Ġh oney
ent le
Ġsome where
Ġtrib es
Ġcampaign ing
Ġinhabit ants
d es
Ġcross ing
Ġboard s
Ġbad minton
ĠBaj wa
st on
iv est
Ġsaff ron
ist ical
Ġr ush
Ex pl
Ġvirt ually
anes war
ĠMaul ana
Ġan cest
Ġass ail
Ġ14 0
l isted
ĠG os
ĠGu est
Ġattack ing
ĠComple x
Ġrev ision
Soc ial
Ġg ates
Ġst ip
Ġsp ell
ĠFate h
ompe o
t ure
Ġcou pled
Ġlight ing
c ap
ud es
sh ad
Ġelectric al
ĠFran c
J NU
w art
ed ia
Ġtr an
Ġele ph
Ġhand led
Ġyoung est
ĠRe juvenation
Cons ider
ĠHot el
ecess ary
Ġth rew
Ġcon qu
Ġcut s
Ġelim inate
t ower
ĠS adh
Ġgu ides
Ġdoub ts
ĠMor gan
De cember
ĠLegisl ature
ĠKris han
Ġcreat ures
ĠCr ude
ole c
Be ing
ul um
op p
Ġ0 5
ĠGovern ors
Ġblast s
ĠJord an
Ġor bit
Ġstring ent
Ġse am
ĠH our
Ġ19 50
i el
Ġproceed ing
Ġ198 4
Ġlic ense
Ġconting ent
por a
Ġvacc ination
ĠAch arya
Ġw ire
ĠEx port
ĠTy pe
Ġcommence ment
Ġg arn
ĠColle ctor
Ġsatell ites
Ġprohib ited
ĠSriv astava
ĠD oval
) -
Ġc ave
Ġreg ulation
Ġsw im
ĠI RC
at ched
ĠF at
ĠU jj
ĠDub ey
ang g
ĠAnd erson
ww w
Ġpill ars
Ġst ro
ĠH istory
ĠVish al
Ġfelicit ated
ĠB ri
Moh ammad
Ġb er
Ġl ashed
Ġcould n
Ġpublic ations
Ġdet ect
Ġh am
ĠProdu cts
it ch
Ġenter prise
io x
Ġupload ed
ain e
ag n
iti us
Ġleg it
F ood
o op
Ġs orrow
Ġbook ing
Ġhusband s
GAR H
k an
Ġemp owered
Ġ ump
Ġm ask
ĠStand ards
ck ing
ud ra
ĠU d
Ġprot ocol
im p
part y
Ġexpress ing
ĠD ate
Ġr ation
ĠRaj inikanth
ĠSy dney
ĠHy d
Ġstead y
Tel angana
Ġconf essed
ĠLal it
Ġb ureauc
ĠS essions
re ach
ĠP C
ĠV o
ĠAr ts
Ġdisbelie ved
re c
as y
ĠB edi
ak ti
aw ar
Ġdiscl ose
Ġincorpor ated
os er
Ġbenef ited
Ġpres ents
ĠPers ian
Ġd ating
ĠP ensions
od der
Ġanx iety
B rit
hi ka
oint ment
Ġexp elled
Ġrecogn ise
Ġreject s
Red mi
Ġviol ating
Ġjaw an
ĠExcell ence
ot ism
miss ions
on ial
ot ive
ard ing
Ġpar allel
l ined
Ġon wards
Ġfold er
l aim
u ity
ill y
ĠF A
ĠF I
Ġ20 30
rid i
Ġauthor ised
ĠT ask
Ġhand ic
Ġlit eral
ĠIS IS
Ġcycl one
Ġha ven
ash wi
ĠIM D
Ġowners hip
Ġdeliver ing
Ġlabor atories
a is
Ġsex ually
ĠBi j
ik sh
Ġrel iable
Ġdivide nd
Ġexem pl
Ġcome back
Ġinst ances
ĠCommun ist
uvan anthapuram
Ġs weep
Ġ5 000
Ġro ots
N ovember
t es
y ang
ĠEx cise
Ġcheck ing
Ġsens it
ĠLa unch
Ġinterpret ation
l igence
ĠR oot
Ġsp r
Ġtro phy
M uk
ĠP on
Ġcan cel
ĠB ai
Ġcommit s
Ġheart felt
ĠTer m
ĠHan uman
ĠL og
ĠV all
ĠButt ler
b ank
c or
IM D
Ġ197 1
Ġsport ing
Ġtear s
Ġout comes
Ġappre he
ĠUnt o
Ġtrans ition
es is
ĠR hea
ess ing
ĠV s
Re acting
L ife
ĠG op
ĠAT M
PR ESIDENT
Ġth irty
Ġharm ful
ĠRajk ot
us hi
Ġpar ade
ĠS H
um s
Go vernor
Ġstun ning
ĠAmrit a
Ġcap ac
the re
Ġ0 9
Ah med
Ġsequ ence
ig a
Ch inese
ĠAssist ance
id war
oot er
ĠTe achers
ĠSun risers
Ġmemor andum
ĠKoch har
Ġdis pl
aim ur
ĠNeh wal
Ġdisrupt ed
ĠC ant
ĠFIR s
Ġer r
ĠRav ichandran
Ġcondol ed
ro ther
ĠS ax
ĠN iz
ĠN arm
Ġall ied
Ġup ro
Ġob st
P ass
Ġto days
ĠCommit tees
"""" ."""
N epal
Ġbrid ges
S elect
m ate
Ġon to
Ġfail ing
ĠMuzaff arpur
ĠM ach
Ġscre ens
Ġreflect s
Ġentr usted
arn agar
Ġden ies
Ġded uction
ĠPalest in
ĠH ash
Ġsh ad
Ġdemonst rated
Ġpublish ing
ri ages
ĠAg g
the y
ĠVen k
Ġconvention al
at urally
ĠM B
ĠE t
Ġcompr ised
D ef
O ff
ĠM I
Ġdec ent
Ġ0 2
nect ivity
Ġw ond
ed ing
Ġro lled
ĠCommission ers
ĠPar am
medi ate
oa ib
Ġbe ef
oy a
ĠHind utva
Ġmen ace
roc ities
ĠCo operative
Ġstat istics
ĠJy ot
Ġtransg ress
Ġsemin ar
Ġm el
ĠN air
Ġsal aries
Ġcomment ed
K L
is ance
ĠSp anish
Ġenthus i
L a
R upee
b u
ĠS ug
ĠG S
ĠU l
Ġbit ter
Ġelabor ate
Ġhards hip
ĠN eg
Ġoutl ook
S y
Ġdec ree
ĠApp lication
Ġelse where
in tal
ĠY oung
ĠSwed en
ĠSustain able
Ġt ense
re y
Ġpl enty
af e
ĠNe eraj
Ġslow down
ĠCertific ate
ĠL iter
Ġmar ch
Ġregul ator
Ġra ping
Ġamount ing
Ġcontain ment
Dep artment
ĠG PS
Ġr ide
Ġout rage
Ġcro wn
C ount
is ma
Ġb reat
ĠS oviet
ĠV irender
Ġcontact s
Ġabrog ation
N et
Ġr iding
ĠSan itation
Ġjump ed
l ings
Ġb are
ĠF ertilizers
ust om
Ġcan al
Ran bir
Ġtri umph
Ġcraft s
ineet i
ĠS DM
ĠAb u
Ġpolitical ly
Ġassign ment
H ard
ĠL ong
Ġcar rier
Ġ0 6
ĠScript ure
Ġic onic
ĠAngel es
Ġsome body
ĠMa ha
Ġsaf ely
ĠRajk umar
Ġinspe ction
itha a
ĠKed arnath
E ight
Ġo dd
ĠJay alal
ĠOper ations
ĠKi ara
n on
Ġw rath
Ġprogress ive
ic ular
Ġi OS
ig are
ĠK riti
ĠSk y
ĠLa un
Son ia
ĠWatch tower
ĠVa ish
E lection
ĠCol in
ĠMor cha
ĠVis akhapatnam
it am
ĠM A
Ġsuper vision
Ġbur ied
Ġfalse hood
Dav id
ANDI GARH
i en
ĠP ot
ig e
ab lish
Ġche cked
Ġsw ord
ĠRom ans
P rior
ĠA ug
Ġdes ert
Ġhelicop ters
Ġtaxpay ers
form ance
Ġlaw ful
Ġprev al
ĠChrist mas
Ġprevent ed
AD MK
K han
ĠB o
Ġv ain
ub ble
ĠHindu ism
hai ya
Ġtoil et
S election
ĠKnow ing
ĠA aryan
Ġhost ing
undred s
ĠP uja
ĠW ild
ĠS ome
Ġg arb
ĠPM s
amb oo
Ġdecre ase
us uf
ĠH ir
Ġbu ff
Ġland mark
Ġscen es
i os
Ġun us
ĠBank ing
ĠBar ack
Ġm ines
Ġgl or
eddy urappa
ĠRajk ummar
CH ANDIGARH
Oct ober
M W
Ġapp lies
Ġlong est
Ġearn ing
ĠPuj ara
en ance
Ġoff s
Ġgovern ing
Res pond
Pre vious
Ġobl igation
Ġf asc
ĠC ross
Ġut most
S il
Ġdisc over
ffic i
Ġcord oned
ĠR ampur
Ġcolle ctions
Ġche ap
Ġprotest ed
AR D
ĠE ss
Ġcr ashed
Ġtw elve
Ġexerc ises
ĠBah ujan
amil itary
Ġhospital ised
ĠPat hankot
Ġintim id
ut ors
ĠSh am
ĠK end
ĠMus ic
F acebook
Ġp aram
y e
Ġsw ear
Ġexcept ional
Ġsecret aries
ĠR it
Ġqu ery
Ġhel med
ĠBh umi
Ġautom atically
r ous
ĠPar v
ĠCol omb
Ġh ind
Ġno ise
Ġgrant ing
Ne ither
ĠBro ther
D ec
ĠS ach
Ġconf ront
J uly
ĠMar c
Ġgear box
K at
N m
ens ely
Ġorgan ism
Ġche que
Ġperiod s
aly st
Cha irman
ĠD id
Ġgr ade
Ġaccept ance
O pen
ĠI ts
Ġk ick
con s
Ġwid er
Ġawa iting
ĠKes hav
ur bed
Ġpl ate
ĠIs a
ĠVen ugopal
b bl
Ġbl og
Ġexpl anation
ĠEngine er
Ġw ards
ĠS R
ĠC ost
Ġcirc le
Ġcult ures
op y
Ġro cket
Ġchem icals
ĠS ridevi
ch ud
Ġcred ited
ĠHead quarters
igil ance
Ġmisle ading
Ġpro bed
ĠT han
ĠV lad
Ġreplace ment
Ġf ame
aram aiah
Pakistan i
Ġwrong ed
bh p
B ad
Ġast ron
Ġrecomp ense
Ġcur few
Ġsur gical
Prov ided
ĠB ol
ID S
Ġpilgrim age
A ut
Ġchar ity
ĠVi j
ĠIm plementation
ĠN O
umb ent
aff ected
Ġcompuls ory
z ar
Ġorgan izing
SE s
M embers
o ors
Ġv oc
ne kar
Ġnod al
Ġsh am
fit ting
ocon ut
u ct
ĠDe ve
ĠPad m
ĠKhur rana
o vers
Ġincent ives
Ġrem oving
Ġ198 9
Ġdeliber ations
ĠHass an
C L
ĠH ero
ank i
ven cy
Ġorgan ising
Ġmiss iles
Ġe ternal
Ġsus pic
Su pp
h on
t m
om ach
ĠBar oda
ĠMath ura
Ġb on
Ġform ats
Ġmus ical
ar ge
Ġm olec
Ġth under
ĠT able
Ġdes erve
Ġmind set
Ġs tern
ĠS ut
id ency
ĠC JI
ĠE ven
ĠO N
olog ists
Ġcompr ise
arc ane
ĠR S
Ġcur ric
Ġgl orious
Ġpion eer
Ġto w
Ġmy st
Ġsl ams
raft s
y ard
Ġappro aches
Ġev aluation
ogra pher
lip se
Ġbe re
ĠK or
Ġsp ite
ip ality
ĠCh hat
Ġacc us
ib a
Ġconsult ations
ens ing
Ġlast ing
ĠTh ree
ĠKhar ge
Ġtheat res
ĠGay le
ĠS ony
per ty
Ġtal uka
Mar ket
Ġwai ver
ra it
Ġtra pped
Ġrel ates
Ġp alm
Ġst ored
Ġfun eral
Ġchips et
ĠK umble
Ġcons cience
ĠIsh ant
ra ine
Ġwh oles
Ġback s
Ġpa ired
Shar ma
Ġconcent ration
ploy ed
Ġl ung
ĠHa asan
v als
Ġp ed
ĠM alaika
Ġ0 3
Ġre ct
ĠM ural
Ġcomp ound
Ġcor ona
ĠQual ity
ĠNT PC
ĠD on
Ġentrepreneurs hip
Ġtoler ance
Ġforeign ers
Ġp ara
IS F
ĠTra ffic
Im ran
Ġhop ing
Ġcru el
Ġbas ket
Ġrest oration
Ġdoub ling
ĠEV Ms
ĠTay lor
is ers
qu eline
Ġlog istics
A c
ig ate
ĠT ik
D T
Ġtrib unal
Ġpain ting
Ġmort ality
ĠKot ak
Ġinspe ctor
Ġh ung
ter ing
ĠH IV
ens ed
ĠKal am
ĠFa ctor
friend ly
Ġsor ry
Ġvirt ue
Ġinconven ience
g l
Ġ4 50
ĠHigh lights
ĠPort al
Ġshell s
Ġamen ities
ĠV ivo
Ġconf lic
itor ing
Ġthr one
ĠSt ore
Ġqu intal
Ġvac ation
Ġkil ogram
Ġshop ping
he rent
Ġk its
ple te
ĠCha w
Ġdesign s
PC L
Ġvacc ines
roll er
T ell
Ġ 00
Ġcapt ure
ĠPoll ution
Ġremind ed
Ġnav al
ĠUn nao
ĠSaw ant
r us
Ġcomp are
ĠAb hin
Ġneg ligence
b ek
c itation
ow ard
Ġcl uster
Ġconsist ently
Ġarbit ration
ĠMaur itius
ĠS ep
Ġl osers
ĠS uk
Ġl oud
ĠMe erut
Ġextend s
ĠShan g
Ġ195 6
in h
Ġo uter
ĠG un
ĠW rit
ĠTra in
Ġhol istic
Ġprevent ive
Ġfort un
ĠN CC
vern ight
Ġprin ting
lik ely
A V
ic ity
Ġtreat ing
Ġcampaign s
Ġaffili ated
T R
g in
Ġde ity
ram a
Ġir re
M ax
ress al
D ay
Ġpresent ing
Ġliber ty
ed a
ĠT hane
Ġind efin
ars i
ĠAn imal
or se
K al
V ery
ia c
Ġ0 7
ĠId ent
ib e
St rict
ĠSund ar
Ġer ad
Ġprophe ts
g or
Ġc ensus
ĠMuk er
Ġ199 4
Ġsolid arity
ĠAn alysis
Ġban ner
Ġlink ing
Ġs ar
Ġapplic ant
Pl ay
ĠR amp
Ġwat ched
Ġclass ical
Ġhit ting
Ġbrief ing
Ġcultiv ation
Ġen compass
Ġpleas ant
Ġcast es
ĠIS I
is o
ĠLe one
Am id
Ġessential ly
Ġfacilit ating
Ġprosper ous
Respond ing
? '
ic on
Ġd airy
N O
P o
ro x
ran e
ĠB ridge
act s
Ġco aching
unic ipality
ĠJun ior
W as
ĠD ise
Ġcomb ine
Ġfre ely
ivest ock
ug s
Ġenorm ous
Ġw ings
Ġrepe at
ĠRev olution
c ling
wal ior
ĠKh and
ĠRegist ration
iksh it
Ġor p
Ġinter face
Ġhik ed
ĠBhub aneswar
Ġpros pects
ĠScient ific
Ġhab its
, ...
Ġres il
Ġpresident s
Ġaccommod ation
ĠTand on
Ġproduct ive
Ġrespond ing
ĠVir bhadra
ĠM ass
aw are
ee van
ĠCy cl
Ġex ha
ĠMaur ya
ĠK aul
Ġspot s
Ġallow ance
ĠAdv anced
Ġsurre nder
Ġeg gs
Ġha z
ĠMus harraf
ĠAf ridi
ot es
Ġcolle ague
Ġext rad
ĠPed nekar
C ourt
Ġt rop
Ġdefe ating
De velopment
hans i
ĠAnup am
ĠRaj inder
Ġb orne
ol vency
ĠP ompeo
ut ure
ĠF C
hold er
H undreds
Ġobserv ations
al ia
Ġra ises
Ġeconom ically
Ġdifferent ly
ĠSar asw
Ġmut ually
F S
Ġt ail
an ge
Ġth ro
Ġrem inder
ĠCha van
Ġprep aid
Ġtele ph
uz z
w ada
st one
ĠB ha
Ġdescrib es
ĠHe avy
Ġins isted
Ġdeal ers
ĠMadh uri
ĠLo C
Ġbreath ing
T our
d ul
it ative
Ġp ink
oy alty
Ġfulf illing
K angana
b uilding
Ġsh alt
ĠWor ks
Ġment ally
Never theless
ĠIRC TC
Ġf odder
ĠI V
ill er
ev a
Ġbul k
ĠJy oti
Ġf illing
th ird
ĠF air
ag arh
ĠEmb assy
ĠPr am
Ġpal ace
S IT
ĠA ust
Ġass ume
Ġem issions
ĠBal och
ĠGl enn
Ġfib re
d oor
ĠB ody
ĠPict ure
Ġbrib e
P acific
w ini
Ġen ables
Ġloc ality
ĠHar idwar
Ġhost el
Ġpers u
ops y
ar imala
Ġan onym
ĠG ree
ĠJ ak
Ġdec ides
Ġthr ust
S it
ab s
Ġdra in
Ġpo em
Sa if
ĠK om
ĠO man
Ġbet ray
Pr incipal
Ġ11 2
Ġspirit ually
Ġinstall ation
Ġcasual ty
Ġm ans
ĠF rank
Ġsp ring
Ind ust
abad di
ID AI
ĠNa resh
ĠLat in
er i
Ġg ut
ink ya
Ġoper ates
isc o
ĠPolit ical
Ġc ows
Ġref use
Ġrev ival
ĠOper ation
ĠTej ashwi
A nt
A pril
J harkhand
Ġa ver
Ġab st
com p
Ġdep rived
az ar
Ġexam ining
ĠChandra chud
Ġpersec ution
Ġyour s
ele cted
Ġdele ted
P U
Ġb ars
Ġg earing
ĠH oli
ĠMinister ial
C har
he er
Ġl yn
ĠB air
ĠZ afar
Ġneighb or
ĠHow ever
ĠLaksh mi
arn a
Ġsec urities
Ġm ood
ra w
ack ed
Ġcor re
Ġrej oice
O il
in em
Ġmult ilateral
Ġsal ute
ĠSw amy
ĠAccount s
Ġattrib uted
ain ing
ĠCh ok
ĠAnd rew
ĠVill iers
Ġpip eline
Ġcomp uted
ĠMoh it
ĠSax ena
ĠW ood
Ġst uff
Ġ10 7
che m
igh ter
Ġtrib e
ier ce
ĠAsad uddin
Ġinter fere
NG C
Ġoblig ations
ĠHaf iz
Er ror
Ġl ob
ĠG az
Ġdo ers
Ġshare holders
bh aya
Ġad ul
ig yan
ump s
ĠComp etition
b ad
b ra
ĠC D
ran ath
Son am
Ġevac uated
Ġcapac ities
Ġn urt
Ġgu ys
Ġaccompl ish
ar ly
ĠO x
urs h
Con f
ĠK iren
ĠH appy
ain ted
Ġper ception
Ġtru cks
Ġmeaning ful
th rough
ĠMan u
Ġpan chay
ĠSche mes
Ġdepart ed
Ġant ib
Ġattra cted
ol er
ĠR if
ĠK ey
Ġinform al
ĠJan m
Ġdepart ure
St ates
Ġprof ound
ĠTurk ish
lic ted
ĠAn j
Ġsadd ened
Ġcl imb
Ġfem ales
Ġprophe cy
ĠRup ani
b ind
ĠSt an
ĠJa han
ĠComp uter
reprene ur
ĠT aran
Ġtit les
Ġavo ided
un als
Ġle af
Ġup grade
Ġdep ict
Ġread s
Ġ0 4
Ġord inance
I mp
Ġ9 00
ĠCast es
est ing
Ġcl othing
ĠY SR
Ġredu ces
Ġmeas ured
S O
m other
u pp
im ir
ĠK av
ĠH ad
ru ly
Ġaccount ing
lar gest
end ing
for ced
ĠI ss
Ġtop ics
Ġcorpor ations
ĠFilm fare
Srin agar
re kar
ve ment
ri x
Ġadvert ise
D iv
E s
ĠInd er
Ġrev ive
Ġcirc ulation
Ġcapt ion
Ġcompan ions
k ot
ash kar
Ġdecre ased
ĠSt arc
ĠP aper
ul pt
ĠAd il
Ġexpand able
ĠM ith
ĠSh ab
Ġsy nt
ĠI de
ĠO NGC
Ġsp ons
Ġl iable
ĠF inal
Ġmis con
Ġfrequ ent
ĠVivek ananda
ak i
ian a
Ġdes ir
bs p
Ġdon ated
D ig
K h
T om
f ight
k el
l ist
Ġse w
Rel ations
ĠEPF O
ĠPark ash
ĠPr in
Ġvar iable
ĠCor p
Ġsal vation
Ġquant um
G s
Ġc os
im ary
Ġpost ers
Ġtreat y
Ġc ried
ĠDh aka
Ġsuper intendent
ĠSud hir
ĠMos cow
ertiliz er
E xt
V C
if ferent
Ġcont rad
ĠMr s
Ġbench mark
ĠRef orms
div ision
ĠAurang abad
ĠS ix
ĠA ra
Ġdet ection
Ġmiss ions
Ġconf ined
Ġexpl oration
Ġide als
Ġexpect s
N awaz
Ġapplic ants
ĠEle ctoral
ĠChe ck
Ġhygi ene
K an
Ġmechanism s
Ġly rics
Ġvib rant
Ġo vernight
ĠP ush
ĠW ire
ĠMax well
Ġhypoc rit
B usiness
ĠM illion
urn ing
ĠAnn iversary
ĠD iesel
ĠJ o
Ġl ord
av at
Ġdes per
ĠSC O
ĠM ong
ĠRec ruitment
T han
Ġl unar
Ġsh ame
Ġsp ir
Ġassault ed
ĠAyushman n
Ġembar rass
N umber
ĠP NB
Ġinc umbent
ĠN aj
Ġprec aution
Ġon ions
ĠL ock
irs a
ĠMen on
Express ing
Ġmot ive
ĠRepublic an
Ġic on
ov ic
ĠRan ge
ĠNav ratri
ass i
Ġf t
ĠC ities
ab out
D el
w hen
ĠK un
Ġor g
ĠBer lin
Ġvess el
p ad
Ġs ib
ĠT am
Ġvar ieties
ĠPS Us
ĠPal ace
ĠEst ate
ĠCamp aign
ic ating
Ġfav ourable
Ġaccompl ished
bour ne
ĠGav askar
hi ya
ĠPresident ial
ĠTechn ologies
Ġdiver ted
Ġsubstantial ly
ĠT on
c ue
f its
ub ilee
ret ion
Ġclass ified
Ġmer ged
Ġinaugur ates
K aran
on ia
ĠH ars
ĠTw enty
Ġm erciful
orm al
Ġbe ars
Ġilleg ally
Ġbount y
Ġbe fitting
ĠB E
ĠW aq
Ġown s
Ġworth y
Ag riculture
Ġintens ity
Ġrid ic
ĠWork ers
ĠD ial
form ing
ĠBal ak
Ġsed ition
ĠThir uvananthapuram
Ġsumm ons
v inder
Ġanal ys
Ġrevel ation
ĠD M
Ġte h
Ġf ishing
Ġd ancing
ĠT otal
aw e
Ġref in
het ra
ĠBill s
Ġimmun ity
Ġt ables
Ġv itamin
ĠU dh
Ġmat urity
Ġlit igation
cl ave
201 1
Ġenvis aged
ch al
Ġbl ank
Ġindu cted
ĠLax man
N RC
Ġo ught
ĠC andidates
et us
ĠJ hansi
Ġexp orters
Ġlif etime
ikar jun
Ġb oun
ac cept
ĠJos h
Ġ vel
on der
ĠB han
Ġcomp uters
Ġun ex
Ġnational ism
ĠArgent ina
ĠC ook
Ġno ble
eng ue
so re
Ġfair ly
ĠKart hik
Ġstre ams
Ġrecover ies
J oh
P arliament
ĠD im
ĠF re
Ġen act
Ġdom inated
Ġdeliber ate
Hind u
M O
AT E
Ġunf air
ĠI ll
Ġdis abled
Ġless er
Ġinflu ential
U nt
on el
Ġb ore
ĠE mir
Ġdef ect
ĠAgg arwal
ĠN okia
Ġme als
Ġab ode
Ġ197 0
ĠSukh bir
Ġs ir
ĠN anda
Ġcop per
G ur
ar as
ab we
ĠT us
ĠV eer
Ġtem por
Ġfund ed
ĠAsh utosh
ic ians
Ġsur pass
Ġsl aves
Ġign ore
K ul
at re
om y
Ġ1 19
ĠT ab
In cre
Ġstruct ural
Ġf o
ĠA R
ap h
Ġvar ied
quir ing
Ġflu id
W E
Ġt ries
as th
ĠR K
ĠV ers
Ġpolice man
Ġthorough ly
ph al
ĠSh yam
Ġupgrad ation
ĠShre yas
Ġd yn
Ġn ose
ian ces
Ġun likely
Ġ5 12
ĠSh weta
Ġcancell ation
J et
oc ratic
ĠSA ARC
T ech
od ara
Ġ198 6
ĠAdd ress
Go a
Ġcontroll ing
ĠBath inda
Ġha v
Ġpartners hips
h ag
ra o
ĠU GC
Ġsh ots
ĠUn ity
Ġc rying
Ġe pid
Ġpro long
ĠN R
ĠMe gh
Ġobs er
Ġchop ped
Ġirres pective
Ġh umb
aut ions
Ġcloud s
ĠNE ET
V ill
g al
Ġsa b
Ġpre ach
ĠChaw la
L C
c am
g one
st ri
ĠK hel
Ch hattisgarh
Ġdirector ial
C ertain
b urg
ov a
Ġpar amilitary
Ġvers ions
ĠMas ters
ĠP PP
iv an
ĠTest ing
Ġur ges
Ġpar ks
P I
Ġp ose
ĠH it
oc ity
Ġint r
Ġresum ed
ĠSubram anian
Ġman power
Ġsome what
Ġre charge
ĠM ata
ĠU t
Ġ12 4
Ġspin ners
ĠEmp ire
ĠSav arkar
Ġthe rmal
ĠK hat
Ġsh r
Ġend ure
ĠAg ainst
Ġprevail ed
ĠShang hai
ĠP reet
ol ved
ĠK oh
ĠL ibrary
grad ation
ĠChaud h
ĠEd en
ĠPerson al
ĠTele vision
Ġto pped
ĠD ikshit
ĠO bs
mar ked
Ġintens ified
Ġchampions hip
Ġmis use
is ons
Ġaut opsy
Ġsimilar ly
B ack
u ctions
ĠK umb
ĠRat an
Ġassail ants
at oes
ĠM M
Ġmis cre
Ġappre hens
ĠKnow ledge
ĠJack ie
ir ms
ith m
Ġl oses
Us ers
ĠIr rfan
as in
Ġm ock
ah u
ĠThe ir
Ġo x
ĠD uring
kar a
Ġo un
per or
Ġdefend ing
Ġoverwhel ming
Ġkilome ters
G en
ĠH u
ha il
ign ment
Ġcl usters
ĠSand hu
Ġvo ices
he astern
H F
ĠS hip
Ġv andal
ĠCh ir
Ġshoot er
Ġflag ged
T rad
Ġhospital ity
aug ur
ĠVid yal
u its
ĠTh r
Ġland sc
Ġgen etic
Ġbes ide
ogra p
Ġstead fast
ĠMult i
A ugust
He res
Ġang u
u art
Ġst omach
ĠMan i
ĠGu pt
Ġswit ch
ĠV igilance
Ġve ter
it udes
ast ar
ĠQ atar
ĠChar an
Ġidentify ing
F ans
S id
Ġin ch
Ġright ly
Ġref uses
urved i
Ġeager ly
ĠNis hank
P arents
Ġre ndering
im s
ĠR oss
ĠN ich
Ġpric ing
ĠChat ter
Ġju ice
ĠP rices
ik i
ĠSe va
Ġstrugg ling
se e
Ġprop oses
ĠAt ul
ĠNarm ada
Ġsuspic ion
Ġm ills
Ġe co
Ġal ike
oc us
Ġinter ference
ĠAk ash
Ġlev ied
Ġd ip
Ġsm oking
Af ghan
Ġambul ance
Ve teran
er ts
Ġp our
ir ts
ail ing
Ġemploy er
ĠHy undai
Ġappoint ments
ĠVall abh
ĠS amb
ĠY usuf
stitut ed
ĠRan jit
Ġ198 8
ĠBel gium
J ud
Ġcirc ulated
ĠSen ate
Ġdo ct
ĠMay ank
he en
er ting
ĠN il
em en
Ġun p
Ġtrust ed
ades hi
ĠFoot ball
Ġ rivals
Ġoper ator
Ġsl ot
Ġexc ise
Ġgod ly
E at
ĠP oint
Ġresign s
Ġc ub
Ġb ids
Ġsuccess ive
Ġcaptain cy
Ġpetition ers
Ġcongreg ations
Keep ing
A k
Ġon board
ĠG walior
Ġinst al
Ġwild life
ĠVeh icles
P olitical
Ġn aturally
Ġst eal
Ġst ray
ĠKh adi
ĠVijay an
Ġwal ks
Ġce iling
ĠNiz am
he arted
ĠT urn
Ġrep rodu
gra ins
ĠIniti ative
ĠJ aya
con f
ek a
Ġobject ed
actor y
Ġvend ors
Ġsurf aced
Ġbere aved
Ġre acted
ĠAut om
o z
Ġdis cont
Ġsl aughter
N or
P NB
ĠD os
ĠO ber
Ġun g
ĠElectric ity
Ġwh olly
ore n
Ġass ert
Ġbur st
Ġarm ies
Poll ing
L ik
ĠP arm
Ġair b
Ġn erv
Ġconsid ers
sp ace
ĠLead ers
Ġoffs pring
p ons
ĠI ST
Ġsent iment
Ġsus picious
v in
at in
Ġd ying
In formation
An n
Ġirregular ities
Ġor al
Ġcre m
imb abwe
DM A
Ġbact eria
Ġf erv
Ġb one
ĠT aimur
Ġback ing
Ġtal aq
Ġfore nsic
Ġcho ices
Ġguard ian
b ur
Ġw aves
R ight
Ġha ils
Ġsil k
W rit
Ġmod ified
Ġmagn itude
b es
ab il
ĠF ram
Ġdo gs
Ġ30 2
Ġexchang ed
e ath
urs ed
Ex cept
Ġcharacter istics
D i
ĠAI ADMK
ĠWilli am
ĠMang al
Ġl unch
ĠU z
ĠV igyan
arn i
ven ile
ĠSp okes
Ġrepent ance
Ġstab il
G R
s he
u an
w k
ĠSt ory
erv ices
itor ious
Ġcous in
le ep
em i
ĠW in
Ġag es
ide en
ub lished
ĠY eddyurappa
ĠNet aji
Ġhyd ro
ĠTai wan
Ġc her
ĠF OR
ven ge
ĠComm issions
ĠVis it
i ate
Ġpl ug
Ġup held
Ġinv iting
Ġprocess ed
Ġliter acy
Ġsear ched
Ġ4 000
Ġdemonst rate
ĠJayalal ithaa
st while
ear ning
ĠVeh icle
Ġch ase
ĠNe el
ĠNG O
Muslim s
L eg
L aughter
Ġbe ll
ĠF ield
Ġshe pherd
ĠSu hana
crib e
Ġdisp osed
Ġscreen ed
Ar un
Ġse asons
Ġgu ards
Ġcomple ment
Ġeng aging
Ġforg iving
p ers
ĠT RS
Ġamid st
ĠMall ikarjun
Initial ly
E nt
P erson
y ar
ĠL ee
ens ively
Ġd ump
ĠBhar d
ĠRec ords
Ġaff lict
Ġlo vers
Ġadvant ages
fortun ately
li x
Ġsp are
ĠSh oaib
Ġpar agraph
Ġallot ment
ĠW asim
Ġcommemor ate
Ġoppon ents
ĠVlad imir
Ġcurric ulum
ian g
Ġadop ting
rie ved
Ġres ent
less ness
ĠMu jah
ĠIN X
rif ied
Ġdw elling
Ġfant astic
Ġunt oward
Ġintrodu cing
B rother
c alled
it he
ĠC ad
ĠR as
Ġtheir s
ĠGroup s
ĠBand ra
ĠMicro soft
Ġcontem pl
st ow
ĠD war
Ġha il
ĠT R
ha ve
ele ctions
Every body
Ġslog an
a o
in ator
Ġc lip
ĠCon struction
ĠSc ott
Ġvol umes
ĠM ighty
ĠBh oj
Ġterrit orial
Ġre ass
Ġben eath
Ġopin ions
I r
am ber
iv ities
Ġthem es
Ġdraw s
V oting
f ire
ic king
ĠH al
Ġspec ulation
Ġsleep ing
e ven
ĠUn its
ĠEx po
ĠInt erest
E ducational
at ers
ew orthy
ĠIT C
with standing
P arty
Ġcon ced
Ġch rom
Ġ10 2
Ġplan es
Ġmemor ies
Ġult imate
irat ory
Ġcomplic ated
ĠSqu ad
W S
ĠN i
ĠJ K
Ġres iding
Ġfl ower
Ġsub mar
erc ise
Ġprec autions
ĠGaur av
Ġbe ach
ul ent
ĠJ ong
ĠU NE
Ġint ell
Ġob taining
Ġdisc overy
With in
Ġprevent ing
Ġpurs ued
ĠSidd aramaiah
Ġhect are
Ġelev ated
Ġlux ury
Ġadvertise ments
ĠW ales
Ġsc ulpt
B eh
E M
l oom
ĠV V
ĠPay ments
ess ment
ĠMus a
Ġnecess arily
Ġmed allist
Ġeconom ics
ĠSub s
ĠLad y
Ġsovere ign
iche ver
ĠBhard waj
ter ies
ĠR adh
Ġgun s
Ġcalc ulated
is ations
Ġse al
ĠJ ul
Ġdiv isions
Ġdisob ed
ĠK er
Ġhas ten
oll ar
amp a
ĠGu idelines
Ġcontest ants
Ġge ographical
Congrat ulations
Ġunus ual
T w
al gam
Ġn inth
ĠL ashkar
Ġcont ents
ĠRam dev
Ġwind ows
Ġshar ply
Ġtun nel
Ġre actions
Ġimp acted
Ġbel t
ĠGurd wara
Ġcli ent
Ġvis as
app ropri
Ġbra nds
ĠDistrict s
An and
Ġfr aternity
Further more
ĠAT Ms
Ġh ors
ĠH om
Ġdec isive
ĠIIT s
N R
ed eration
et u
). """
Ġacknow ledge
ĠS ood
Ġdef ine
than ol
ĠCount y
ĠDec l
Ġexempl ary
t ered
qu ate
ĠBhatt acharya
ĠAj mer
Ġre ly
ac re
ur ious
sp inner
p ose
Ġinspir ing
e ment
es ar
Ġre aff
if er
ras he
Ġadvis or
Ġevol ved
oc ols
ans hi
Ġaccount able
Ġtouch ing
Ġcommod ity
Ġan ch
ĠH o
ĠY et
Ġnurs es
Ġber th
ĠC H
ĠL MT
Ġmin i
Ġscrutin y
Kap il
T ax
Ġd har
ĠJ eevan
u is
Ġl ok
Ġlit res
ore st
ub ar
Ġac ute
Ġent repreneur
Ġ17 0
Ġsound s
Ġinter actions
Ġinde pend
Prot ests
Ġluck y
Ġalarm ing
Ġoun ce
nd om
Ġb rown
ĠS el
Ġhas n
Ġim pe
ĠPar ineeti
ĠStand ing
Ġconsequ ence
ĠK unal
ĠO sc
ĠSab arimala
Ġutil ization
c ar
t ar
re ation
Ġch ains
ĠSc ot
Ġmob ility
Ġtravel ing
enn is
ĠOber oi
ĠP RO
ĠR ome
Ġcur se
Sh ort
ĠReg ulations
Bengal uru
r ase
ro oms
Ġad orable
Ġch ol
ĠAnant apur
Ġrub ber
ĠGos wami
Ġpain tings
Ġut ility
ĠElect ronic
chang ed
un i
Ġback drop
Ġkill ings
d ig
Ġl ists
Ġnerv ous
ĠJud gment
W el
ĠN ature
Ġ12 6
Ġmod es
ĠSa ul
Ġimm une
Ġtrack ing
ĠAB VP
Ġacceler ate
ĠHebrew s
ag s
Ġexist ed
Ġimpl ications
B an
at al
od al
lud e
App lication
Ġunanim ously
chest er
ĠJyot ir
Ġp airs
ĠN ig
Ġlaw makers
Ġcert ification
Ġexcess ive
li ers
Ġout fits
Ġcr ush
ĠCo ord
ĠWind ows
id ar
ay i
ĠR ock
ĠT ak
ĠAj inkya
Ġpropag anda
ĠI R
Ġar riving
G ive
j oin
ĠN ep
av ari
ict ory
Ġ11 4
Ġgriev ous
Ġmiscre ants
up ied
Ġannoun cing
Ġstra in
Ġpush ing
Ġbidd ing
L ondon
h uman
Ġle aked
Ġsug arcane
Ġrev oked
ĠBid en
ĠChok si
I AF
cil iation
ĠDev il
m ans
Ġsec uring
ĠAct ive
ĠMar itime
Ġfactor ies
ĠR CB
ĠL ook
ĠF ile
Ġtem pt
Ġ196 2
Ġfle et
Ġric hest
N DRF
ĠV P
Ġgod dess
Ġok ay
Ġf ertil
em on
Ġob jections
ĠMar riage
Ġindic ators
Ġdisob ey
Ġc ure
Ġp ard
Ġrel ate
Ġarg ue
Ġencourage ment
ĠManj rekar
Ġcyl inder
on ment
at ia
ĠAd arsh
ĠAh uja
in ely
tal ion
Ġext ensively
ĠFa ith
Sm t
Ġmotorcy cles
c ia
d as
Ġhor iz
cont inent
Ġpanchay ats
C ome
Ġde af
Ġwhat s
ĠPram od
ter rorism
ĠN as
Ġcl oth
Ġtax ation
crib ing
ĠSam uel
ĠEk ta
N ag
Ġf ierce
ĠKashmir is
Ġstri king
ĠNS G
F eb
Ġun ha
Ġaud iences
D isc
ch air
Ġphotograph y
ande z
Ġexempt ed
Ġrestra int
ĠKaj ol
Ġre nder
ell a
ĠUP SC
F ree
z ed
ers ey
ĠL ib
Ġgr id
ĠSa ha
Ġhuman itarian
Is rael
Ġra id
Ġfear ing
ĠBair stow
ĠAn na
an is
Ġf ro
Ġnot able
Ġunder lined
Jehovah s
anj h
it ated
ĠG ita
ĠPan nu
Ġtyp ical
B as
ĠR ub
ru p
Ġdis gra
Ġint ensive
Ġfe as
Ġcolle ctor
Ġconsum ing
Ġcollect ing
Ġtank s
ĠF az
Ġins ight
Ġequ als
Tra ffic
at ile
Ġare nt
ap id
Ġar ises
ĠMy sore
Ġbom bs
i Go
Ġa il
Ġre de
ut ra
ĠB BC
ĠU ma
Ġdecl aring
ĠMon itoring
Ġwarn er
Ġtext iles
do ing
L P
aw at
Ġform ulated
ĠKarn al
ĠS ak
ac ular
Ġdis ability
ĠAnant nag
Ġcomp ly
Ġsc andal
Ġdes k
rid ges
Ġbo ats
ĠSon i
Ġdirect ing
ĠS r
Ġl i
ef f
Ġout lets
Ġdoub led
star rer
ĠB io
per ts
Ġ10 9
ĠMand al
Ġautom obile
Ġshowc ased
Ġf ertilizers
ĠH ai
Ġle ase
ci um
ĠIC U
Ġincor rect
rific ation
ĠK ev
Ġk i
MB AI
rolog y
Ġ19 60
ative ly
U C
Ġst rang
Nit ish
G e
T HE
ĠI IM
ap ati
Ġun w
Ġmar riages
aur i
Ġce ase
dh ury
Ġoutl ay
ĠA mir
Ġver se
Ġh arn
Ġh alt
ĠBoard s
Ġpeace fully
ĠAsh wini
Ġdesign er
ero z
NI A
A head
m u
Ġl oyalty
ĠT CS
Ġj e
M ad
ĠS D
ur ia
aw an
ames e
ĠReg ulation
Ġmagn etic
Ġque ues
ĠS ons
Ġl apt
ĠU da
Ġpar adise
Ġpros pect
Ġgarb age
n ote
ch ildren
ore r
Ġle ts
the m
Ġimm ensely
ĠEconom ics
b az
on na
if ier
ĠSw iss
Ġdeep en
ĠCS K
r ons
Ġra ndom
Ġpen ned
ak ings
ĠT it
Ġoffer ings
ĠShan e
Ġadvers ely
ĠTrump s
ĠKan haiya
ĠSha w
Ġbenefici ary
Rail ways
German y
ĠChatter jee
ĠDos anjh
ĠC oun
ĠB ilas
Ġde ed
ĠDr inking
Ġdam ages
ĠNawaz uddin
Ġd an
ĠSt uart
Ġcoord inated
ĠChat urvedi
k ins
ĠN B
Ġqu ake
ĠMe ena
Ġin mates
Ġd ensity
ĠAm arnath
Ġ17 5
ĠBas u
Ġindic ating
Ġec lipse
apse e
Ġbrother hood
Ġsemif inals
ĠMarc us
id ity
Un fortunately
Ġenter tain
Ġplant ed
Ġcollect ively
Ġdomin ant
ĠDh umal
ĠTrans fer
Ġpack s
C y
C lear
N ote
ĠRaj ouri
Ġcaptain s
ast ed
Ġwarn s
Ġspeak ers
Ven kaiah
Ġincred ible
Ġcount ed
Ġimp ression
Ġconsum ed
ĠBhat ia
L ong
Ġh arsh
und hara
Ġsur plus
IC MR
ĠSchool s
ĠKab ul
Ġworksh ops
ro se
Pro visional
Ġuncon stitutional
Ġimmig rants
Ġm oist
op anna
Ġdist ant
ĠAs ht
ĠPar as
Ġpat ent
amir pur
anj ali
Ġupgrad ed
ĠManufact uring
ĠPrag ya
L ucknow
Ġdeep er
Ġsust enance
ĠJac queline
Ġstip ulated
A uthor
ĠC ourse
Ġg entle
ĠConstitution al
Ġkn ife
L TE
ĠC lick
ĠT rent
Ġsc iences
Ġinherit ance
ĠTah ir
Ġdrow ned
T a
n ected
Ġtre m
u h
ĠTeh sil
ĠCro res
Ġinse cts
an eous
ĠC G
ĠA ccess
Ġal gor
ĠD aily
ĠK ur
ĠF reedom
Ġtal uk
ĠShe h
ĠAz iz
Ġer stwhile
Ġshout ed
ĠC ore
ĠT abu
ĠMuzaff arnagar
ĠFram ework
ĠC hen
ĠB oy
and an
ĠN uclear
Ass embly
ĠSign s
S ing
s ub
ĠE s
St ud
Ġd ad
ĠT ower
Ġrob bery
ĠMahar aja
ĠKaz akh
Ġliteral ly
ĠP oor
ĠE ver
Ġunder m
ov able
AN I
ĠDil jit
at ore
is ht
Ġre ferences
ĠD w
ĠF M
Ġrem ed
Ġpat ron
Ġnorth west
Ġbroad er
Ġpattern s
ar ai
om a
ĠH ab
Ġoff line
Ġun author
cent ury
Ġfunction aries
Ġdeterior ated
Ġwas hed
ĠAllah s
ĠSon u
Ġcontrol s
quar ter
win ning
ĠProv ince
ing a
Ġun like
Ġdef ense
Pat na
ĠC N
ut s
ĠL it
Ġdon ation
ĠRav inder
ĠKhal id
Ġdow ry
Ġwom ans
Ġwrit ings
ĠSha ikh
Ġmix ture
pend ing
Im port
Ġmathem atics
Ġt ent
Ġd awn
Ġre struct
ew a
ĠComm od
Ġsett ings
Ġadvert isement
ĠFern andez
W A
d ep
ĠB aram
Ġclass ification
op ing
Ġ20 25
ĠDip ak
Ġrespons es
chol ars
Ġemb assy
ĠSud an
ĠPoon ch
ob i
Ġtext ile
Ġrestaur ant
ĠVad odara
ol as
pl ant
oy ota
Ġprov en
ĠSan ju
ung al
Ġcry st
as ure
ĠJ air
Ġwork force
ĠKashmir s
Ġcert ified
Mar uti
Ġun c
Ġfore t
edd ed
Ġnurs ing
B D
Ġf ond
Ġcr ushed
Ġhold er
ĠDigvijay a
B ra
ĠL in
ya an
Ġworld ly
Ġcommun icate
ĠMin imum
Ġnar rated
ĠKnow er
Y oung
o ffic
ub ali
Ġ"" %
ĠTh ird
Ġexec ute
Ġsacrific ed
C ricket
p ath
ĠS i
ĠSh ort
ĠAr cher
ĠKe ndra
l ining
ĠR est
hi e
qu ently
ĠO verse
Ġdif fer
Ġbel oved
Ġabund ance
Him achal
ush y
Ġprot ocols
ĠHar ry
Ġ198 7
Ġhum ility
Ġl ivestock
Ġst ance
Ġst eep
Ġsh oes
ell ite
vers ity
Ġassemb led
Ġassist ed
Ġvigil ant
Ġt issue
Ġh iding
ach and
Ġte eth
Ġjust ified
c ost
ĠH usband
ĠTax es
roll ing
MU MBAI
Ġres orted
When ever
cl usive
Ġenjoy s
ĠPaul s
a ith
ĠH iz
wor ks
ĠAp ost
Ġexplo itation
ĠEmir ates
) ?
Ġt abled
or ient
ad weep
Ġshe ets
Ġsign ature
ĠNav deep
Ġtransform ed
Ahmed abad
T ok
ĠP harmaceut
Ġte ch
Ġch it
ound ing
rid ors
Ġcounterpart s
School s
Ġanalyst s
L arge
s m
Ġ10 1
Ġadjour ned
ĠJagd ish
Ġh unt
sc ale
ĠMod ern
m ity
Ġc ough
Ġre vers
ĠJ h
What sApp
Ġharm on
ĠUp d
Ele ctions
Ġconsider ably
Ġ198 5
spe c
Ġinterven e
ĠP F
ĠG rowth
Ġv ic
ome ver
Ġswit ched
ĠShop ian
J io
T ele
ig ating
em ale
ĠE up
Ġfin ed
Ġfound ing
Ġeru pted
ĠIsa ac
f lix
ad er
vern ance
Ġoff ensive
Ġkid ney
ĠBalak ot
S earch
V ivo
en ge
Ġcomp ens
Ġqu oting
Ġavail ed
ĠHel p
Ġsli pped
S ol
Ġth in
ĠF IF
Ġcur s
ĠAlm ighty
ĠUk raine
Ġvel ocity
Ġwill ed
Ġent ries
Ġem ission
Ġlink ages
Ġsew age
ĠC WC
od aya
Ġen rolled
Ġang les
Ġing red
ĠL ak
Ġpart ly
ĠLaw s
Ġmos ques
ĠHem ant
ĠR ohan
ĠK m
Ġun re
Ġnut ri
B O
Ġal umin
Ġsp ared
oh ra
bh ushan
Ġd uly
ĠE MI
Ġch ant
Ġ12 2
the ir
Ġimper ative
mand u
an er
an as
ĠB ir
ĠD S
ĠK arti
Ġsurv ival
Ġconce al
ĠPoon am
B udget
R est
ĠM l
ol ia
Ġread ers
Ġshi eld
iy ar
ĠR oll
ĠExpress way
Ġrob bers
ĠFa iz
ĠSure ndra
M other
p age
ĠPan ipat
Ġexerc ised
ĠSe ason
Ġsuccess or
Ġconsum e
ĠPict ures
in f
ro ach
am per
Ġrec ited
ĠCon stable
ĠMel bourne
Ġthe rapy
E v
t urned
ĠC ensus
ĠB odies
Ġimprove ments
Ġpension ers
accept able
ĠS ame
ĠH ur
qu er
Ġle ather
One Plus
Ġspec ify
ĠIC MR
Ġkit chen
Ġm ales
ĠO ri
Ġpre ference
aus es
Ġtrib als
Ġtraffic king
Ġhur d
Ġcoin s
Ġscal ped
ort ium
Ġ10 6
ĠWor ksh
Ġstead ily
VP AT
ĠO p
Ġappro aching
Ġ23 0
ĠSpe c
t able
Ġroad map
Ġdisbel ief
Ġdro ps
Ġoccup ation
ĠSarasw ati
Ġd ense
ĠSan ia
ĠProdu ct
uff le
igor ous
L oc
S ign
b order
Ġse wer
Ġcl ock
Ġequ ation
Ġstream ing
Ġexped it
Ġaer ial
Ġtort ure
Ġf reed
Ġup right
Ġun changed
Ġadv ances
Ġinstitut ed
Ġmechan ical
Ġori ented
Ġlegit imate
ed ed
Ġd read
ĠO li
ĠNational ist
Ġnecess ity
ĠDab angg
Ġt ired
ĠM ust
Ġsa ith
Ġelect ronics
Ġdim ension
ĠKen ya
re ate
ĠM ak
im rat
Ġen mity
Ġsp aces
Ġprovision al
Ġadvoc ates
ĠP ack
Ġout reach
ĠLe v
Ġfulfill ment
ĠM umb
Ġvict orious
B aj
Ġw et
Ġsp onsored
form ed
au ndering
ĠChand rashe
Ġagg ression
Ġadvert ising
ĠBh im
ĠChand er
ĠCM s
Ġshi pping
M en
or igin
op athy
Ġup s
Ġ5 50
ĠDe velop
Ġdecl ining
Ġemploy ers
Ġcha irmanship
Ġtempor arily
D ownload
G irl
ĠA N
ist ence
ĠN AB
Ġmay or
Ġview ers
Ġcommand s
ĠAt l
ĠJ og
Ġ13 5
Ġsouth west
Fin ancial
ĠH P
Ġpl ural
Ġup hold
Ġfood grains
Ġwarn ings
urt hi
Ġpreced ing
li e
ĠZ imbabwe
erem iah
ĠProv ident
ĠOx ford
Ġ3 000
ran i
Ġresp ite
oub ted
d ire
g har
r uled
ag u
Ġtoler ate
ĠStud y
ĠRichard son
- )
Ġwh ichever
ĠK ota
Ġat rocities
ĠV ib
Ġour s
Ġrequest ing
rupt cy
Ġth ras
Ġhe ated
Ġdisc retion
Ġinf ant
ĠUs man
Ġdim ensions
Som ething
d rew
ure rs
ĠCan cer
Y e
es c
id an
ew is
ell ion
ific ent
ĠMess age
oe ing
ĠAI CC
ĠGr aduate
I ON
Ġr ig
God s
Ġrevolution ary
oult ry
2 50
Ġmar vel
AS H
pan ch
ĠNe ha
Ġgri eve
Ġhero es
ĠOverse as
us ions
ĠCh ic
Ġdist urbed
Ġ7 50
Ġprom ising
reng then
ĠApp ellate
Ġutil ised
B ook
R av
ost ic
ĠGovern ing
C ond
ias pora
ĠSan on
Ġrenew ed
Ġclub s
Ġcoin c
ĠChandr ase
k arni
ĠG all
ĠMe chan
Ġimpro ves
ĠGur ud
Ġscholars hip
ĠChow dhury
Ġanticip atory
le nd
ĠN ut
Ġun ite
row ing
ession al
Ja itley
W HO
ric al
Ġimp etus
Ġclar ity
B ig
Ġconven ed
Ġdeliber ately
Ġabund ant
Ġrough ly
K V
ĠD ass
Ġorgan ise
s uch
Ġd rives
Ġm ate
ĠS eth
ĠC ome
ĠP ow
ĠP lease
et ta
ef fect
Ġins erted
Ġfront line
wa it
Ġexc luded
ĠHon or
ĠKK R
T y
Ġa venues
Ġwith drew
ĠRan ji
Ġkey s
FC s
ĠCons ervation
Can not
Ġattra ction
Ġgest ure
Ġfoc uss
DP S
Cl ass
Ġimmig ration
ĠTus har
s ervice
Ġm unicipality
Ġg ren
Ġat tained
Ġsc attered
Ġany more
Ġser ial
Ġwrong doers
Ġji had
ĠAtt orney
Ġshad ow
N AM
ĠK em
Ġcl ay
Ġsepar ation
Ġflag s
ĠUp adhyay
ĠJyotir aditya
A ng
ĠK utch
Ġhard ware
Ġindul ging
ĠPath ak
ĠJab alpur
E V
ch o
Ġmarty r
ic itor
Ġearth ly
Ġtoler ated
Ġcolon ial
f our
ĠK ashi
Ġdis asters
Ġgu y
Ġconven ience
Ġphenomen on
Ġm art
ĠA man
Ġ11 1
Ġprocess ion
Ġpub lis
arb ha
Feb ruary
Ġaccept s
Ġ37 6
Ġbroad band
le ys
ĠAn anya
ĠDhar ams
imb atore
ĠKris hi
G iven
ĠA SI
Ġg usting
Ġdram atic
Ġwrest ler
ĠVo LTE
T ri
ĠGu arant
ĠMahab har
Ġsham eful
re liant
ĠD V
ĠO S
Ġfeed ing
Ġbooth s
Ġbe fall
Ġsha ped
Ġbenefit ted
Ġtourn aments
odi versity
amb ers
Ġ197 3
ĠDrug s
ĠNiger ia
ol t
ĠH ub
Ġman agers
Ġattempt ing
ĠVar ma
ĠTy agi
ĠBob by
ĠUNE SCO
oubted ly
abh oomi
ĠAdv ocate
ĠRamp al
Ġl ays
ĠPol and
ĠTrib une
Ġpurs uit
bre aking
ĠCy ber
Med ical
ĠDen mark
p olit
il ak
ĠS K
ir bhar
ous ing
ĠHis ar
ĠMuk ul
Ġearn est
Ġapprehe nded
Ġexp ir
Ġear marked
ĠWh ile
ĠVas undhara
Ġharvest ing
id as
ĠN PR
ĠF ord
Ġspe ar
Ġfin est
ĠUz bek
C onse
ist rates
Ġdis order
odi um
Ġro d
ĠLok pal
ĠCha ir
S cient
Ġt iger
ur ai
ĠBa at
Ġa ide
ĠT s
Ġsp y
Ġden ying
Kat rina
Ġconflic ts
e ved
od ed
Ġy atra
Ġte aser
Ġleg ally
ĠTr ad
Ġgrow s
Ġpublic ity
Al most
law s
Ġsib lings
a eda
k ant
z ek
Ġlast ed
Ġhel per
Ġjust ices
ĠHospital s
ĠOff ices
Ġnav igation
ĠIF FI
Ġt witter
tain s
ĠSa heb
ĠBaj rang
ĠScot land
res pect
ud u
Ġ19 48
amp ed
Ġclim bed
ĠB C
"" )
Ġpast e
Ġsens ors
Ġpurch asing
ĠEd ition
B ab
at an
Ġun aware
Ġ11 7
ĠAl am
Ġwid ow
ĠW he
He at
osp ace
ĠLord s
ĠSur ya
Ġneg lect
Ġcal cium
Ġrestaur ants
Ġun rest
Pre vention
Jan uary
M ult
Ġpl ains
Ġim itate
Ġsy nd
Ġhead lines
Ġsuper v
Invest igation
ffici ency
H RD
ĠS op
Ġrem un
cl osed
Ġaltern ate
Var un
Pak istans
Ġcompan ion
Ġfost er
ul ars
Ġfort night
Cent re
p ol
Ġo w
ĠN PS
St ar
ĠAg encies
Ġpen et
ĠEnt rance
ĠMah mood
Ġliquid ity
Ġunn ecessary
Ġassass ination
Ġl iver
ĠO l
Ġen force
ite ish
ĠGod avari
ĠCor ruption
ĠVi ew
Ġcalam ity
C ivil
N ar
P rote
Ġf ract
ĠP ent
ĠR T
ĠSh ilpa
oun i
ĠAb out
Ġreview ing
Ġbar red
Ġdisapp ear
Ġh al
ĠS port
ĠE ase
Ġadv enture
Ġcast ing
Ġtext s
v ance
it ting
Ġp ics
ĠF isheries
Ġpres erved
mar ket
Chan ge
n ant
ur ches
od ing
cc a
Ġ10 3
Ġsurviv or
P and
T MC
Ġun le
Ġac re
ati ya
Ġform ulation
Pro p
th al
pe ndra
Ġur ging
ĠIm am
ĠSub has
Ġbar rier
Ġpsych ological
Ġin ception
Ġto wer
ĠD CP
Ġwh omever
ĠK eep
ĠSt ations
Ġrec y
Ġgre y
Ġlab el
Ġmus cle
Ġvers us
as hank
ĠB ali
est ions
Ġenhan cement
ĠNaw ab
ĠRegist rar
Joh n
O disha
is p
ĠM E
ĠB hi
ĠK und
ind ers
Ġconstru ctive
Pre par
ĠPO CSO
Ġt um
ĠJ N
ĠW ang
Ġint ra
ĠCol ony
Ġteac hes
Ġdeliver ies
Ġund ers
ĠFern and
Ġprolong ed
G iving
v as
Ġf iction
Ġrel ent
Ġmat ure
Ġintend s
ĠMB BS
t aking
Ġpos es
Ġ11 8
ĠC NG
Ġfor ty
Ġrequ isite
Ġ14 5
Ġ28 8
ĠCS R
Ġload ed
ĠT un
ĠV aid
ĠSy rian
ĠSur inder
uck y
Ġgrand father
Ġexped ite
ĠAst hana
ĠJama at
Ġres emb
Ġspec s
Ġdiss ent
Ġtend ers
u ce
ĠS ita
Ġshould nt
Ġwater log
Ġadv ise
ĠMin eral
ĠIde a
Ġin ev
Ġsa il
ĠAre as
ĠMer kel
Ġalt ogether
ĠSanj iv
Than ks
T rue
a it
Ġk not
hah r
Ġcommit ments
sw er
Ġder iv
Ġbott les
Ġa x
om ination
SS C
Ġ195 1
ĠLaksh adweep
ĠA ri
hi re
Ġdis abilities
cri ber
Ġlandsl ides
Ġc able
Ġb und
ĠS ac
ĠM ale
NRE GA
g ers
ĠGu j
ĠSo ft
ĠClass es
Ġevol ving
ĠBaloch istan
Lik ewise
Ġresent ment
o ons
Ġb inding
ĠM ela
ĠD ia
ach ar
Ġqu een
ĠJon ny
Ter ror
Ġcogn iz
ĠLy on
Ġin equ
ort heastern
Ġwar riors
Ġclar ify
Ġauth ors
v ak
ĠAb e
ĠGen esis
Ġrememb rance
ĠLot tery
Ġtroub led
ĠPalestin ian
ĠK and
ĠU ri
all ow
Ġsaf er
MC G
ĠCommand ing
ĠNirm al
Ġfurn ish
Ġhypocrit es
S ad
Ġal erted
ĠD aman
ĠH aq
Ġvol tage
ĠPrab has
ĠL if
Ġele vation
Ġfl oral
ĠZ a
Ġgra ced
ĠSha heen
ĠS ams
Ġn aught
av iya
Ġen join
Ġcomm uters
ĠX II
Ġhy brid
lig ibility
s har
Ġsent ences
Ġair space
hra f
Ġpract ition
ester ol
Ġnar rative
Sun il
ĠGree ce
ĠT ake
ĠE c
Ġdel ays
Ġfrequ ency
Ġexceed ing
Ġsole mn
Ġpoly the
Ġhelpl ine
Ġrif le
j ung
on ies
Ġun acceptable
ĠHas ina
Ġextrad ition
e nder
Ġd rast
ot ers
ĠU se
Ġconclud ing
P rivate
ĠD ha
hi es
rug han
Ġvia ble
Ġregul ate
Ġsustain ability
ĠEd itor
awe i
ĠE ducational
ats on
Ġspecial ist
Ġinternational ly
ĠSam iti
Ġcirc les
erman ent
Ġess ence
Eng lish
Ġobed ient
S H
ite ment
Ġbi ological
Ġgain ing
ĠS oren
ĠP ract
Ġab ilities
Ġcont am
ced es
Ġind ices
Ġdep reci
Ġel ite
CP I
ĠNar asim
ĠKar im
ĠRad hika
Ġdhar na
ĠUda ipur
O D
T T
Ġmar ine
ĠSat ya
Ġpill ar
A mar
d ef
Un like
ĠSaur abh
J itendra
K ey
a ired
ig ure
Th ings
Ġcred ibility
ĠSar kar
Raj iv
ĠS ana
ac ent
ĠF it
Ġdec iding
Ġinf ect
Ġresp iratory
Ġcontrib utes
ĠMess iah
Ġspar ked
ĠR R
Ġprov ider
ĠMa he
Ġdestro ying
Ġlandsc ape
U NI
"" "",
Ġtra ced
ĠEx hibition
Ġill icit
ĠKaus hik
ĠEconom y
Ġthras hed
Ġc oconut
ĠP urn
ĠH ope
han kar
ĠSh ub
ĠSh ram
Ġauthor ized
Ġphilos op
Ġuncertain ty
Ġritual s
Unt il
E urope
Ġw ore
al in
ĠM ut
im ates
Ġst ays
BS F
Ġadvis er
ĠIM F
Ġgar lic
ĠJin nah
ĠHold er
ĠOrd inance
Ġconfig uration
Ġen light
Ġman ip
ĠMo een
Ġelim inated
Ġnetwor king
Ġaug ment
ĠC erem
ĠP et
ĠK he
Ġfl ames
ful l
Ġcor p
Ġfield ing
Ġqual ifying
Ġdub bed
L R
te enth
We ve
As ian
ĠShiv akumar
Ġtrad ed
ĠMic hel
M D
al id
ove re
arch y
Ġadminist rator
Ġcivil ization
Ġexpress es
H uman
ĠI ve
ĠP U
ĠG T
Ġpol ar
ber t
Ġ6 50
comm unications
cha e
Sil ver
ĠSon owal
Ġabs ent
Ġbar riers
ĠEp hes
B R
Ġe uro
Ġiss uance
air a
ĠSat ans
aks a
Ġsin ners
Ġrestrict ion
Ġdescend ants
z ech
ĠL ic
ind s
ĠCh amp
ĠChr ists
Ġprovin cial
Ġfor ged
ĠL an
Ġ12 1
Am b
Ġc ope
we ek
ĠCoast al
ĠPa resh
Ġash amed
V id
Ġb rows
ĠC rown
ĠH ay
ind i
Ġfl ock
As ia
ĠMuk htar
Ġsubs cription
ĠChristian ity
May be
Ġprivile ges
Ġeg g
Ġ !
ĠJ eremiah
Ġcap ita
Ġalle ges
Ġmagaz ines
Ġpromot ers
ĠCham ber
Ġpartial ly
ĠDial ogue
ushy ant
way am
Ġbr ide
Ġpo ets
Ġplain t
ĠConf ederation
en er
ol ation
Ġwhe els
ĠY e
Ġbapt ism
ĠPray ag
Ġimp osition
Ġgra v
Ġenjoy ment
Ġmand ated
ĠCam eron
Ġbypoll s
op ping
Ġsp ike
Ġafter wards
iction ary
Ġdiscipl ines
ĠBib les
P ut
ĠMu ghal
Ġdocument ary
Ġhtt p
Ġt ips
Ġn ights
Ġrec ite
ĠPro perty
Ġignor ance
ĠL os
Com menting
Ġremar ked
ĠHimal ayas
Ġobed ience
Ġprovin ces
ĠWaq f
o ists
ut ives
Ġacc laim
Ġsl apped
Ġded icate
P resent
Ġf ires
Ġg inger
mit a
rupt ed
ĠMc C
E ver
ou ston
qu et
Ġtrans it
Ġveget able
chand ra
iox ide
ari ya
Ma hendra
De ath
p ent
Ġm antra
Ġreward ed
Ġcli ents
Ġtran qu
1 50
ĠR un
em ics
ĠCon clave
PC B
ĠBag hel
Ġintell igent
N ame
ĠR ain
Ġper ish
av il
ĠAs ha
Ġmater nal
Ġ197 2
Ġgrand son
k ers
Ġth res
ur c
op ard
Ġalt itude
Ġbrut al
Ġpharmaceut ical
ĠV I
ĠY S
ĠTra vel
Pe ace
Ġcommend able
Ġadmon ition
ĠNax al
ithe cia
ĠEup ithecia
ut a
Ġtra p
ĠMan ik
Ġcard iac
ĠChar les
Ġdial og
ĠProt ocol
ĠChic ago
C ap
Ġh i
ĠSo C
B at
R oyal
m ila
Ġt bsp
Ġg onna
itiz ation
Ġwicket keeper
Ġorg ans
Ġl ingu
ĠU day
Ġgovern ed
Ben ef
Ġh orn
ĠS akshi
ĠB ase
ĠJ ubilee
Ġint oler
US U
ĠTej as
ĠDecl aration
ĠNig am
M at
ĠA L
Ġunder ground
St ay
Ġresol utions
Ġpray ing
Ġexpect ation
ic ides
Ġsele ctors
ĠFIF A
ĠR C
ĠH amirpur
Ġrec ur
Ġhon ours
Ġlight ning
Ġconnect s
ĠHow rah
ĠForest s
Ġinteract ive
Ġp salm
il ation
ad vant
ur der
Ġv ocal
qu isition
Ġmount ed
Ġperpet rators
ĠRave esh
H rithik
Ġs lip
ĠN ana
Ġ11 6
Ġtradition ally
Ġsanct uary
e ared
Ġgood will
Ġsurre ndered
ĠRif les
er ial
Ġp ious
ĠS us
ĠP y
ĠJa is
ĠMaj esty
Ġren amed
ĠBack ward
Ġprecaution ary
P al
Ġme ter
ĠGur meet
ER T
ĠK haw
Ġsub urban
Sam aj
ĠGuarant ee
f old
ĠH aw
ĠCEO s
ĠCar l
Ġconcept s
ĠSaf dar
Ġdescrib ing
Ġgar ments
ĠMujah ideen
c a
e em
Ġm ile
gan wadi
ĠHealth care
ĠNet flix
pro f
Ġmarg ins
Ġreb ellion
Ġpossess es
ĠUnivers al
Ġdesir able
O A
S ave
Ġin ade
ĠJ asw
ential s
Ġboyc ott
N P
ĠP less
Ġproceed s
off s
wor king
Ġscript ures
ĠPhys ical
, "
art s
ĠF uture
ĠHe g
oot ing
Ġlove ly
To o
Ġradi ation
O per
Ġboy friend
Ġkidna pping
ĠApost le
ah ubali
Ġev idences
man irbhar
ĠRam ayana
Ġtim ing
Ġnam ing
C ustom
E st
M am
M andi
ĠB und
Ġgu iding
Ġconf used
Ġdr unk
Ġcust od
Ġden ial
ĠAsh ram
Ġdr one
Ġrespond ents
pro of
Ġe thanol
ĠF eroz
ov en
Ġru in
Ġutil ized
ĠAry a
, -
L alu
Ġw are
ĠB JD
ĠD Y
ĠD j
Ġle nder
ĠW ard
Ġwork place
au ge
BJP s
hav an
Ġtre k
Ġ198 3
Ġimp osing
ĠCouncil s
Ġver ified
ste in
Ġhors es
ĠPless is
Ġn ick
aw al
Ġconduct s
Ġguarant eed
B E
ĠP ixel
In ternet
Ġequ itable
Ġstrength s
Ġpump s
b us
ul us
Ġsc ooter
Ġpres ervation
Ġref rain
Te achers
ĠPer formance
Ġtroub les
Ġunha ppy
F ind
Ġb oss
Ġ' .
ĠCol or
ĠBas ic
Ġcru ise
Ġunem ployed
) (
S l
t wo
Ġb ases
ĠD arshan
Ġde ities
ud ing
Ġsc uffle
Ġset back
Ġdirect ive
Ġ197 6
ĠMet ropolitan
Shar ing
ĠN IT
ĠW all
Ġ20 24
Ġpres um
ĠCo imbatore
Ġport rait
ĠIr rigation
step s
Ġth read
ĠF arm
any ahu
Ġsin ful
Ġelig ibility
Ġerr ors
Ġd engue
ĠM HA
ay ak
im ental
op t
Ġen rol
aw ada
ĠDe g
Ġgood ness
Beh old
d ist
j amin
Ġsa ints
Ġun seen
Ġind ication
Ġinaugur ating
Ġa rose
Ġg amb
osp el
Ġp ave
Ġal ien
ĠG unt
ĠH ol
ĠJa ff
ĠPS U
ba az
whe el
Interest ingly
Brit ish
Ġp ressed
ang i
They re
Ġdig it
iz er
Ġch amber
ĠAs hraf
ĠDi u
K ab
Ġc ess
ĠB ush
ĠB rad
Ġ17 4
ĠSal es
ĠAnt ony
ĠChaudh ry
v ard
Ġcomp uting
Ġdefend ed
Ġchol esterol
Ġ( ""
ĠH ills
Ġv oid
ĠSh at
Ġin herent
ĠN ase
ĠN ASA
ues e
Ġorgan ize
Ġtravel lers
ĠSur aj
Ġcontain er
ĠFl or
Ġmonu ments
Ġincom plete
ou g
ig ion
up am
ĠDay al
201 0
ores aid
P TI
ĠAn anth
ĠBh askar
Ġdeb ris
ĠSon ali
ayan ad
Ġcomplim ent
p ublished
ar o
Ġsome how
ĠS irsa
ĠB opanna
ĠAg ni
ĠScript ural
ĠGirl s
Ġgorge ous
er b
th ree
ĠCA G
ĠPay tm
ĠKazakh stan
ĠM ont
ot er
Ġgu ess
Ġadm issions
ĠShe k
ĠHar ris
je nder
ĠBet hel
ĠJind al
L V
Ġse iz
mar ks
Ġtransport ed
keep ers
Ag ain
E astern
Ġun lawful
Ġ10 80
Ġinterview s
occ upied
Samaj wadi
Y C
as m
ĠB B
Ġrep o
ĠRe ce
ĠMal ini
Ġlo ose
M obile
T em
V ik
Ġb amboo
Ġsign als
Ġincl ined
ĠG rants
ĠT en
ip her
ĠRuss ell
Kam al
S ind
w oman
Ġt one
ent ions
ĠB illion
em ployment
ath am
ĠDo ing
ĠK C
Ġmar king
Ġdevelop ers
ĠState ment
ĠGl ass
vious ly
Ġautonom y
Ġl one
Ġse ct
Ġv ested
Ġpur ported
New s
Un able
Ġcollabor ative
Bank s
ĠS CC
ak ha
Ġph osp
Ġcap s
Ġ15 00
ĠAl war
Ġbur d
L ight
S ports
d ec
ra pping
ĠPl atform
Who ever
ĠSaj id
Ġangu ish
ER S
Ġlimit ations
haw at
Ġrej o
ĠGaz ette
4 99
l ime
Ġl al
ĠJ S
Ġres urre
Ġconvers ations
Ġmotiv ate
Reg arding
ĠMa hav
Ġlist ing
Ġcompet ing
Ġaf oresaid
ĠSit aram
Ġexh orted
h ost
l adeshi
Ġt sp
ub hai
Ġcha p
Ġdisqual ified
ĠSpokes person
W F
Ġs our
Ġd ose
ĠG et
Ġbut ter
Ġend ors
ĠEx penditure
cent ral
vent h
c ut
ĠP IL
Ġle ct
ell er
ĠAn th
Ġsm ile
Ġmis er
Ġobserv ing
inar ayi
Ġlandsl ide
T ek
ĠRaj ap
Ġcor n
Ġfac ie
arb on
Ġcolon ies
Ġm amm
od ox
iv asan
se eds
av al
Ġlist ened
uru ks
L O
Y oga
u i
ĠE uro
Ġhard er
vest ment
Ar vind
ĠKhar if
Ġintens ify
re ated
ĠU pper
Ġdo om
Ġch ick
Ġloc ally
Ġ15 3
Ġsports persons
Ġlog in
Ġintent ions
Ġenvis ages
Ġthro at
ĠKhaw aja
ĠM ob
ĠA V
Ġsh irt
ĠY o
Ġdes ce
ĠX in
ĠIm port
Raj nath
Ġweb inar
ĠKath mandu
g iya
ob e
ĠShar dul
Ġhang ed
Russ ian
C ases
M G
O h
c ive
ĠM K
ĠR ound
ĠD I
ĠMa idan
be an
Ġempower ing
Ġmonu ment
Ġstro ke
K art
in ates
Ġre jection
ĠL ou
ĠPr imary
Ġ' '
Ġsm ashed
ĠZ ero
Ġlic ences
Ġrelax ation
P rices
ent ation
ĠTh ak
Ġdirect ives
Ġpra ises
ĠVid arbha
h om
Ġt rick
Ġse ize
ĠH S
Other wise
ĠHaz are
ĠVallabh bhai
M er
up on
ĠTe x
Ġconver gence
ĠMath ur
ĠDom estic
Ġpreval ent
l ift
Ġunder lying
Ġquarter finals
Ġcho osing
Ġfurn iture
Ġpermit s
ĠTa apsee
c ard
ĠL ewis
Ġab et
Ġra j
ĠKumar s
Ġmod est
Ġmaintain s
ĠAgra wal
ĠAud itor
N a
ĠP orts
ĠDhar ma
Ġdisapp ointment
ĠKang ra
Ġhung ry
F ather
ed e
Ġn it
ra kash
ĠSingh vi
Ġpred omin
Ġdis advant
ĠRes ident
uruks hetra
M ic
ĠC oll
ĠSt one
Ġcelebr ity
Ġprotect ive
omet ric
Ġfest ive
ĠPortug al
Ġhaz ard
Ġdis hon
ĠSh ams
Ġpost al
ĠDi plom
Sm all
c ra
ĠCh adha
Ġbusiness men
ĠB oult
ks ha
ug itive
ĠKar isma
Ġrepl acing
ĠKul karni
g age
Ġe man
Ġyou re
ĠMan eka
Ġcondu cive
ĠGe eta
Ġassum ing
Ġcad ets
Ġaggreg ate
Ġarrog ant
Ġoffend ers
ĠWild life
J EE
ĠBal bir
Ġteh sil
D etails
H AR
is ible
th ren
Ġbr ass
ĠCon duct
ĠPh D
Ġred ressal
Ġgarn ered
I ll
Ġg am
Ġwas hing
Ġrel uct
Ġident ical
ĠCol umb
ĠDef ense
Ġcouns elling
Ġp in
Ġunder gone
Ġjud gments
ĠRajput s
Con nectivity
ĠGupt ill
Ġp urely
ĠV AT
Ġ4 20
pro v
comm un
Ur ban
Ġprejud ice
Ġ umb
or age
Ġb if
ĠMan chester
Ġext ract
ĠShe ila
ĠRoh ing
al k
ĠMan preet
Ġref uted
tle ment
Ġturn out
Ġthreat en
ĠKir ti
ĠNob le
ĠP CB
rom ani
Ġdes erves
ĠMe ga
ĠBal an
Ġmagn ificent
Ġimag ination
Ġpled ged
Ġcomplim ented
Ġdisgra ce
ra pati
Ġrec ru
Ġlik ewise
ĠWar riors
Ġcoord inate
Ġconven ient
Ġs na
ĠB ud
Ġdisc ourse
Ġpar ked
Ġdon ate
Ġconst rain
ĠKumb h
b ps
Ġmet als
ĠStat us
ĠNor way
Ġre nov
ĠP inarayi
Ġcongrat ulations
ĠDis abilities
Ġsincere ly
Ġtariff s
Ġswim ming
Ġf uels
ĠC all
ank ind
Ġobs c
Ġdirector y
Cons id
icks haw
Ġdiagn osis
w ear
Ġd ressed
Ġre fere
ĠA G
ĠB ond
os ity
Ġpos ing
ĠMos que
c urement
l ay
ĠB atra
un ci
ĠN F
Ġplant ation
Ġboost ing
Uttar akhand
ĠGir iraj
D ata
F ailed
b et
Ġp ig
Ma hesh
Ġproc ure
Ġexperi encing
Ġperce ived
achel or
M ot
T est
Ġt ube
Ġd ioxide
Ġ( )
ĠBab ri
ent ures
Ġsa cked
Ġu rea
oun ced
ĠPar ade
Ġstop ping
Do NER
Ġfocus es
ĠCP SEs
Ġuncle an
ĠA IDS
vers ion
Ġopt ical
ĠRagh uram
F ED
Ġp urity
Ġmat rix
Ġ197 5
Ġchem istry
ĠHusband ry
h r
Ġg al
ul c
Ġpro x
ĠT ob
ĠPro g
ĠNot ification
Ġinteract ing
Ġsmugg ling
s en
Ġst riving
ĠD et
est ation
ĠFin land
Ġphys ics
ĠMeh ul
Ġconsolid ated
ĠLabor atory
ĠC ards
Ġmet re
Ġflood ed
ĠDivision al
ĠSupp ly
ĠWorksh op
ĠM O
ĠP riy
Ġst ubble
are l
ost on
ĠSh in
ĠKap oors
ĠHim self
ĠShiv pal
ĠPra veen
Ġassess ed
N ay
ĠH arm
ashi k
ĠPost s
ĠMedia Tek
cam era
z ens
Ġa xis
ĠW inter
Ġinter pre
Sa udi
Ġalt ar
Ġresurre cted
F rench
ĠA ge
Ġby e
ĠL iving
Ġsc rap
cy cl
Ġmy ster
az z
Ġexpl oring
Ġdon ations
ĠBirth day
Ġunex pected
m ig
Ġp orn
ĠB oeing
Me et
leg al
Pro ject
Ġpossess ed
ĠPadm avati
Ġt iny
ĠN urs
ĠH ouston
Ġgriev ance
haran pur
Ġdiscont in
s ome
Ġse as
Ġab used
Ġcomp act
In spector
Ġsc ar
Ġcontin uation
Ġaccount ed
Ġhon esty
Ġmission ary
Ġrecover ing
U D
k o
el i
Ġcl inch
Ġch ronic
ĠShiv am
Ġgener ous
Ġdistrib ute
Ġarch ae
ĠTreat y
Ġbif urc
G roup
M uch
as ma
ol ent
Ġad mir
ne ys
ĠAd mit
ĠAir craft
Ġshi fting
Ġbab ies
Ġdecor ated
M et
P op
Ġc ere
ĠD ib
oc racy
Ġag ro
Ġatt achment
ĠMon soon
uck er
Ġcrowd s
Ġinfl amm
ĠF ellow
Ġsle w
Ġapolog ised
J os
K ing
P une
Ġs outheast
ĠC ru
ĠL oh
Ġwould nt
Ġsub ordinate
ĠPan jab
ĠBah rain
Ġfruit ful
ĠUzbek istan
S k
Ġf ing
Ġto xic
Ġh alted
Th ink
Ġfl aw
Ġdisc ern
Ġexper iments
Ġtransf ers
Ġemp ire
Ġindefin ite
ĠCerem ony
f ive
n ik
ĠR og
ĠB u
ĠChand a
Ġjail ed
Ġroll ing
ĠBox ing
Ġa uctions
Ġs owing
un ami
ech ury
Ġ197 8
ĠBad minton
Ġ195 2
Conse quently
w estern
as se
ĠS wayam
ĠD ance
ĠW atson
oin is
ai ya
Ch idambaram
Ġstrate g
ex cept
ĠInter ior
ĠGunt ur
n or
Ġd ur
Ġfore front
Ġviol ates
iab ilities
ĠAbh ay
Ġh o
ĠK ala
ep ur
Ġres id
pl ing
ine a
Ġinv oke
Ġpopular ly
ĠVict oria
C ity
ĠJ ams
Ġch urches
Ġinv ites
Ġref lection
Ġdecl ares
Ġmis chief
ĠArjun a
Ġthrow back
ĠIr fan
Ġrare ly
Ġdwell ers
V in
ĠD IG
Ġdis m
ĠAuthor ities
ĠKul bhushan
Ġsatisf y
San ia
ĠB ec
Ġadm inister
char ges
Ġaccess ed
ĠMur li
Ġaccus ations
ar ter
Ġh ole
ĠS earch
Ġst iff
ĠG ates
Ġ19 14
ins ula
Ġ11 3
ĠPh ul
Te chn
ount ed
ani um
ĠMeh ra
Ġquant ities
ĠDa wood
Ġlyn ching
ĠHiz bul
T M
ĠIn stru
ie ve
ots av
Ġric hes
Ġdemol ition
ĠR ace
ĠD utch
Ġdis k
Ġwar fare
sc ious
Ġconfident ial
ĠStep hen
h our
on ly
ĠW uhan
Ġpan els
Ġpic king
C ase
Ġf isheries
ĠC zech
Ġha ul
ĠW ayanad
ell ar
Ġenv oy
F IR
R aksha
V E
ĠP in
ul g
ĠG aya
ast ics
Ġfilm makers
Ġbet a
Ġrele vance
Ġjud ged
Ġactress es
G ang
m ath
ĠM ater
ĠD ushyant
Ġ18 2
Ġess ay
Ġwarm ing
) !
P s
T rib
Ġh ired
ic ent
ĠB us
od d
Ġcon gest
ha ji
Ġappro ve
Ġtop s
ĠMon th
Ġin tern
om atic
ĠI TI
ĠInd ra
eral d
Ġelect ron
Ġmer chant
Ġproceed ed
Ġbul lets
ĠFranc isco
E conomic
ĠK ag
hi op
ath ic
ĠChan nel
Ġgrand mother
ĠHill ary
ĠBik aner
Ġfortun ate
Ġs ang
ĠC PM
ĠG rant
ĠK abaddi
Ġball ot
ela ide
V I
b oth
st ars
ist ant
ĠAd ani
rate ful
rant i
ĠVid y
Austral ian
Ġannounce ments
Brother s
Ġ2 20
ort ing
Sh r
Ġexerc ising
Ġperfect ly
ĠCur ran
Ġkne e
Ġaccompany ing
Ġdyn asty
ed ian
ĠB assi
ĠSat ellite
ĠEV M
Ġw rapped
ĠC II
Ġ3 60
lic ations
Ġval uation
ĠQ amar
ĠCont ract
cipl inary
ĠMer cy
Ġtend ency
Sun ny
Ġrecip ient
ĠLaun ched
ablish ment
Ġcor ridors
rell a
ĠAsht on
ĠA chie
ah o
rest ling
ĠMi G
shar ing
Ġp uja
ĠB MC
Ġcont ention
ĠY emen
Ġcred entials
Ġimm ort
ĠDiv ine
Ġmig ration
BS NL
ĠYear s
Ġaccommod ate
ĠGir ish
Ġanonym ity
m ala
ĠCh att
ĠBen jamin
Ġmid night
Ġp oultry
le ments
ĠSt oinis
ec ation
man preet
As k
Ġdiscl osure
Ġdivor ced
Ġf ert
om p
Ġl ag
th ur
han pur
Ġcomp elled
AT F
Ġcred ible
Ġhands et
Ġpunish able
ĠD etails
ĠN P
ĠE oin
ap u
ind ranath
ine es
Ġtrans mitted
On line
ĠAl t
ĠIC AR
ĠAnt on
ĠChat urthi
Ġadjud ged
ĠD awn
St and
Ġthr iller
ĠNeg i
ĠO ft
Ġloc ate
ĠPlay er
Ġrang es
Ġchill i
F rance
J oint
Ġf ertilizer
Ġb ol
ib en
sh ore
Ġfinancial ly
Ġoverse e
Ġath lete
Ġconcent rate
Ġh orticulture
Ġre venge
Ġn ode
ĠP etrol
Ġj ute
ib ha
ĠFund s
Ġforet old
o akes
ĠC AP
eal ous
ĠMah ila
Ġdeal ings
Ġstop s
Ġlog ic
Ġpit ted
Ġdiagn osed
N ine
s an
is en
ĠC ond
ĠI OC
Ġdownload ed
ĠR iteish
Ġregard less
ĠCon v
Ġwhom soever
ĠOn ly
PP AC
ĠSaur ashtra
Ġh alls
ĠE S
ep at
Ġacc red
Ġ13 9
Ġhistor ian
Ġfif teen
var giya
I ss
Ġt enth
Ġdis ruption
Ġmas ters
N F
id el
Ġl ac
em e
Ġinc omes
og at
ĠMan y
Ġeffect iveness
ĠGur preet
Ġinstrument al
ĠLax mi
ĠB ell
ĠD omin
Ġor ange
ived i
ĠChall enge
A K
n om
ĠB MW
ĠG rid
ef fic
Ġeduc ate
ĠIC T
Ġcompassion ate
ri ver
erv ative
Ġac quiring
Ġfew er
Ġcha irs
hand ed
cript ions
Ġbot tle
in ath
qu it
Ġstart ups
Ġdr inks
Ġqual ifications
Ġpotential ly
"""" """
Ġincent ive
Ġprost rate
Kul deep
ĠS ays
up wara
Ġcar riers
m ic
z ab
Ġb ias
ĠS cholars
ĠB oney
Ġgen e
Ġsw ept
eed s
Ġmort al
I d
r gy
ĠT H
Ġobjection able
in ite
Ġrec ons
AN D
ĠRep orts
Ġindirect ly
H istory
l an
o qu
Ġt ire
Ġm aj
ĠB ased
Ġch ased
Ġdemonst rations
Ġdesp air
ĠFactor y
in ous
Ġb oot
Ġar ray
Ġconf ron
Ġcandid ature
Ġver ify
Te xt
ĠPay ment
Ġp act
Ġint imate
ĠAr shad
Ġbre thren
ĠArt icles
let ics
Ġexpress ions
Ġment ions
ĠBhand ari
itam ins
D il
Ġb ord
Ġref resh
Ġrepe al
Ġimper fect
ĠPalest ine
ĠTex as
T ry
ĠC inema
ĠD ays
od ha
Ġcon form
aw ay
ual ity
ĠBang ladeshi
ĠMadh u
ĠSik ri
Ġreb els
Ġdeterior ating
ĠBiote chnology
I ST
es y
Ġp oured
ĠL av
ge nds
Ġover look
ĠColle ges
Ġdisqual ification
ĠMuker ji
Ġpublis hers
AR T
asc ular
ĠJanm abhoomi
ĠRadh akrishnan
ĠR D
ĠN DPS
ĠU RL
Ġinter cept
ull u
Ġmen u
head s
ĠIT BP
ĠReh man
S aina
Ġt s
ill ong
Ġsp lend
Ġunderstand s
Ġ196 5
Ġunfortun ately
Ġloot ed
Ġbik es
C s
Ġc ens
ak ulam
ĠD K
ĠF ox
Ġapp la
mit tee
Ġinter f
Ġread er
Ġ198 1
Ġ197 4
vir aj
Ġconstruct ing
Ġfool ish
Ġeleph ant
Ġb h
um per
ĠJ eh
Ġle verage
ĠCom b
Ġcre ed
Ġplun ged
er ness
ĠN odal
Ġins ur
ĠHel io
Ġanx ious
ĠVidyal aya
Ġc igare
ĠP ermanent
ĠY echury
Ġcontra cted
Ġcontend ed
Afghan istan
S ame
Ġinc idence
Ġdis ple
ĠTer rorism
f ounder
Ġh atch
Ġacc uses
Ġsp ray
ĠSun ni
Ġfav ours
ĠAdv ance
ĠCr PC
Ġorganism s
w ife
ous ed
Ġ14 9
Ġ13 2
Ġple aded
Raj ya
ĠYuv a
B a
in se
ĠP all
th odox
Ġfilm ing
Ġtax i
ĠFa isal
Ġgrass ro
Ġescal ated
ĠOsc ar
A IMIM
Ġa ce
Ġr hy
Ġsy ll
Ġmeas uring
Ġjournal ism
ĠSol anki
Ġcorrect ly
Ġmeant ime
Ġdim in
Ġsurviv ors
Clear ly
ĠV ision
hat i
ared ev
Ġstrong est
Ġbre asts
iab les
Ġpatri otism
ĠImp ro
T rain
h igh
ĠSt ra
Ġsatisf actory
ĠEngine ers
Rep orts
Ġevol ve
Jan hvi
Ġevac uation
Ġlev y
Ġhards hips
ter ror
el le
Ġst em
ĠJ eff
), ""
Ġpartic les
Ġconv ince
Ġmedic inal
Ġfle w
Air tel
Ġlect ures
Ġc inem
ĠA FP
Ġr ated
ĠF le
Th ird
ĠPradesh s
ull s
oph ist
Ġsomet ime
Ġmemor able
ĠBiote ch
ĠColomb o
i ology
o ose
Ġcon ferences
ack s
Ġpr one
ĠEnvironment al
ĠJais wal
ĠDeg ree
ot ted
and ana
ĠAd elaide
Ġcol ors
Ġflood ing
Ġharass ed
Ġcart ridges
Ġwors ened
oty pe
ĠShek hawat
ĠI ron
ĠE ff
Ġins pected
Ġwrong doing
ĠVal ue
ĠEst imates
Ġthres hold
I sh
y av
ĠP riya
ĠV VPAT
ĠIn stitution
ĠSh ashank
Ġra ided
Ġnational ist
ĠCM D
Ġexec utives
Ġcurren cies
Ġdissem ination
b one
z one
Ġp y
ĠC ounter
ĠC ategory
ĠGo bind
Ġconf irms
ream ing
IP C
Ġcontrovers ies
Ġkidna pped
K K
Ġ24 0
Ġmus cles
ĠDo es
Ġ197 7
ĠFl ood
Ġresol ving
ĠJos hua
Ġborrow ing
ĠHave li
ĠFlor ida
ĠD own
Ġare na
Ġsa int
Ġstation ed
ĠDi was
p i
ĠS out
Ġth ine
ad o
ĠC T
ear n
ass ium
ĠPh ogat
Ġinse ct
nut rition
osit ory
ĠA BS
Ġnew born
Ġro cks
ins on
Ġcr ashes
Ġru ined
Ġorig inated
Ġfat al
Ġsn atch
ĠDar bar
ĠSah u
ĠRajap aksa
H T
Ġa qu
Ġdisc iple
Ġcricket ing
ĠMad urai
keep ing
Ter rorism
rgy z
al o
Ġle ver
Ġapp l
Ġqu iz
uss ions
Ġpar ad
ĠSar ban
ĠNet anyahu
Ġinterrog ated
ill on
Ġbeli ever
Ġmet ric
Ġpress ing
Ġprogress ing
Ġmer itorious
Ġpo orest
Or gan
Ġmaster mind
Film maker
er ations
ĠH et
ard ly
ok ovic
ĠTh am
ĠCha irmanship
Ġconv ocation
Ġprison er
Ġspect acular
Ġwrest ling
Ġhav oc
Ġb ungal
ĠM otion
Ġl iabilities
ĠP rah
ĠR u
ĠL G
Ġsub stances
tt es
ĠSe xual
Ġ30 4
Ġlog ical
Ġfat ality
Cont in
Ġb icy
ĠL aundering
ung le
Ġassist ing
Ġpack ed
Ġpack ages
Ġwild erness
ĠJack son
Ġinher ited
ore y
Ġsubmit ting
Ġund oubtedly
Ġepid emic
T urk
in ash
Ġb other
Ġsp ices
ĠT oyota
ĠO d
Ġam algam
ĠAn y
ĠAn ir
Ġrequ iring
Ġcongrat ulates
ĠMund e
Ġpl ots
ĠMa z
Ġsocial ly
Ġprob ability
Ġcollabor ate
Tr ade
Ġillust ration
ĠYash want
ĠPop ulation
Ġdoct rine
ĠV ande
Ġinv ented
ĠSc reen
Ġhost ile
Ġthrow ing
ĠID BI
Ġg aps
Ġfront s
Ġelect ro
eg is
ĠHead s
ĠPrabh akar
. ),
y d
ĠG er
Ġph ased
ĠAn nex
uc le
medi ately
ĠNe il
Ġcondem ns
Ġadvance ment
Ġmargin ally
A A
A ishwarya
g ood
k ars
in ence
ha pur
ian o
Ġout going
ĠBab bar
ĠNe etu
hik esh
Ġwood en
Ġgrab bed
ĠPrayag raj
N DA
in agar
Ġb ash
te ch
Ġph rase
Ġ12 3
ĠPand ay
ĠMand eep
Ġclin ched
Ġcouncill ors
Ġlend ers
ĠBaram ulla
Ġvic inity
at isf
ab ilitation
Ġcar ved
Ġconcer ted
Ġself ish
ene z
ĠStud ent
ĠChet eshwar
Ġsensit ivity
M ary
r ise
Ġd ouse
ĠG ol
Ġad ap
Ġad oles
Ġfr ight
Ġcomb ating
ĠKul gam
Ġsn atched
Ġdow nt
Ġignor ant
orient ed
D iesel
ig hest
ĠCh artered
Ġen ric
Ġvar iables
ĠZ ampa
ĠCol onel
Ġsupply ing
ha vi
aj an
ru kh
Ġdis orders
Ġinv alid
ĠRes olution
Ġ195 5
ĠCeleb rations
ĠJair am
L F
le wood
ĠM ira
el ight
ĠT aw
ĠT ilak
Ġwould n
Ġneg lected
hik ode
Ġprosec utor
ĠMary am
Ġexplos ive
writ er
ĠPortug uese
ĠBilas pur
Ġspear head
P ort
ĠI l
Ġex alted
Ġ19 0
wa ha
ĠSp ice
Ġrat ings
ĠRis k
D ele
ĠSt alin
udi os
Ja ipur
ĠD airy
ĠH i
Ġr ites
ĠL JP
Ġimp ress
ĠZ onal
Ġstand off
Ġord ained
ĠHar vard
ĠRec overy
Ġcycl onic
Ġconstrain ts
D har
at ta
it iveness
ch ron
Ġme g
ack ing
Ġqu o
ip ment
Ġgen es
Ġgra cious
ĠVijay vargiya
ĠSte ven
RI FED
Ġretail ers
Ġimpart ial
ĠKu wait
Bet ween
ĠSame er
ĠP ah
ĠB ak
ĠK ock
Ġall oy
Ġcar ing
Ġcerem onial
ĠVis a
ĠB on
Ġreg ulated
Ġfl av
ĠSol icitor
Ġlog o
ĠSukh dev
M ove
Ġs we
ang ers
Ġtr ig
ĠPart ies
Ġpop ulations
Ġtrib ulation
nam ents
ĠSum it
tr ans
Ġc alf
ĠK upwara
ust s
ĠCh it
Ġshould ers
Ġ7 20
ĠAct ivities
Ġes p
ĠUdh ampur
Ġferv our
Ġingred ients
Ġt orn
Ġs orts
ĠH ung
Ġcount y
Ġfore most
Ġdisturb ing
H R
e ast
Ġl ib
am ous
ear l
igh ters
Ġformer ly
Ġextrem ism
Rep resent
ĠBat tle
Ġsymp athy
ĠPon ting
U G
ĠN SS
ĠH ema
Ġexp on
Com merce
Ġmir ror
Ġcogn isance
B L
ĠS M
us cript
Ġsu its
ship s
ĠSar ab
ĠKo z
Ġhelpl ess
Ġdisag ree
M aking
Ġwire less
Ġmyster ious
N okia
ĠS overe
av ane
ĠMoh d
Ġcreat ivity
Ġ\"" """
akrish na
in ct
Ġpr ince
ĠMo Us
Dr ink
Ġmour ning
ĠSrik anth
Ġmiscon duct
M icro
b ath
res ults
ĠSt orm
ĠPl ace
Ġ198 2
Ġdiscipl inary
ĠResp ons
ĠKath ua
R o
ou za
ĠR on
Ġst up
her ing
pt ions
ck ers
Ġcondu ctor
ĠSo hail
wor ld
Ġfort une
Ġpromot ions
Ġshout ing
Ġabdu cted
g it
Ġens ures
Ġple ases
ĠCl ark
Ġscholars hips
Ġsole ly
Med ia
ĠMill er
Ġchrom os
Ġf i
ĠC lear
ĠInd iGo
Ġen forced
Ġeff ici
Ġreck oning
D al
an idhi
ou ble
Ġve ctor
Ġdeb ates
Te chnology
Ġshut down
ĠNir bhaya
ĠBenef it
D RDO
ĠM ars
Ġfor cing
Ġen qu
Over all
Ġeditor ial
whe eler
ĠShat rughan
he res
ĠS G
ĠS odhi
om er
ĠP ain
cc an
ome ter
Ġstud io
ĠRa ig
Ġtele cast
ĠBra vo
Ġclar ification
Ġpatri otic
agon ist
polit ician
ar ound
Ġn ic
ri p
Ġinc ulc
Ġfl ats
Ġchild s
Res cue
Ġdisapp eared
Ġpromot es
ĠAware ness
Mam ata
J ag
ed iy
Ġpre y
ĠEx ercise
Ġpress ures
a ire
art hi
Ġch ore
up ur
Ġmed iation
Ġpoll uted
m oil
Ġo l
ĠW il
lud ge
Ġatt ach
Ġend urance
Ġgre ets
Ġcha os
CR PF
ĠCar ol
ĠSant ner
Ġoppon ent
ĠG ross
ĠK urukshetra
% ).
Ġun com
Ġsur ged
ĠGe org
ĠRec ord
Ġsymb ols
Ġtransform ing
P DP
ĠS ul
ĠH oney
In come
hat a
Ġele ven
Ġair stri
Ġmust ard
Con struction
Ġfit ting
ĠEr n
ĠG arh
ĠT at
ag ainst
Ġno on
Ġcur ve
ĠGu inea
Ġelect rification
ĠIslam ist
Ġdepartment al
Ġbox ing
Ġrelax ed
Ġmisle ad
Ġhtt ps
Ġa egis
Ġd ances
ĠS ury
Ġl ent
gh at
Ġlit ig
ĠSur ve
ĠBaj payee
ĠPoll ard
Ġcultiv ate
oub ey
Ġd al
ĠB H
so or
ear chers
Ġviol ate
Ġdiplom at
Ġuns u
ĠBuddh ism
Ġsurve ys
ĠDise ase
B ring
s aid
t an
Ġag rees
Ġro pe
Ġexc use
R R
ac ies
Ġk iss
ire ndra
ens itive
Ġbl aze
Ġfail ures
ĠJagan nath
ĠChandrashe khar
w ary
Ġa ught
Ġb usted
ĠB P
ha an
ĠRe uters
Ġsuggest ing
Ġsemif inal
Ġp estic
ĠP A
ĠN ight
Ġlod ge
ĠPo K
ĠRepresent atives
ĠJams hed
L ab
ĠC op
ĠD ok
ĠCh itt
Ġcor ners
ĠSa haranpur
be arers
Ġhighlight ing
ĠHeg de
W ar
l ater
or ic
am as
olog ically
ccess ful
Ġgamb ling
G E
S uresh
riv ile
Ġtal ents
Ġfaith less
Ġap artment
miss ible
ĠSain t
ĠND TV
Ġcouncill or
ĠBhoj puri
ĠS as
Ġn agar
ĠD att
ĠSt udios
Ġcritic ized
Bh opal
Ġgradu ates
ĠDw ivedi
enez uel
n ament
ig o
Ġref using
ĠRoad s
Des cribing
Ġpostp one
Ġprest ige
o ft
y our
el and
ĠV ide
Ġpe as
form er
Ġexp ense
Ġcre am
ĠRa e
ĠGal wan
ĠMit ra
Ġeth ics
aredev ils
Ġex ting
ure r
ocu ment
Us ing
Ġprompt ly
ĠSwed ish
ĠFat ima
P olit
Ġk h
He ad
Ġab n
Ġmed itation
ĠAr chae
wan ath
Ġbra very
Ġsqu ared
ĠPe ters
Ġbox es
Ġburn ed
Ġsymbol ic
ĠKon kan
Ġrestruct uring
zab eth
B re
n ation
Ġs ter
Ġn a
ĠHir ani
t ic
re qu
Ġpro active
ard ed
Ġtest ify
ĠCha har
Ġspace craft
Ġgrad uation
Ġexplos ives
Ġfix ing
D eb
S SP
ĠB ron
Ġqu ote
Ġ19 20
Ġtri o
Ġclos est
ĠPR ESIDENT
b ecause
ĠM EA
Ġj ury
iss an
Ġsick ness
ĠN ashik
Ġare n
ha ul
Ġsuff ers
Spe c
ĠLiber ation
ĠSams on
ĠSwayam se
t aker
Ġs ne
ĠS ap
ĠD ra
Ġde lete
ont o
Ġsol ving
Ġwilling ness
Ġeth ical
Ġawa its
L I
W ash
w ent
ĠT ara
Ġ19 30
IC ICI
Ġpar as
ĠCo ach
ĠHaz lewood
Ġanticip ated
ĠBare li
J M
N eed
S che
Ġt ub
ĠW as
Ġj inn
ĠBab ul
ikh il
Ġpurch ases
hap a
ĠEt hiop
ĠChandrase khar
W arn
f acing
ch in
Ġsp here
Ġcons ortium
ĠMan ali
ĠShi romani
Ġrest ed
Res idents
Ġ195 7
Ġuncle ar
ĠH ath
ĠL earning
Ġ19 49
Ġdel ivers
AT CH
ĠKak kar
ĠZak ir
ĠNarasim ha
R ad
al is
Ġcomp iled
Ġaff licted
Ġcommun icated
Ġval our
ĠMon etary
Ġaward ees
ĠNar avane
Ġton ight
Ġload ing
Mus ic
Sat an
ĠKed ar
B rah
R en
Ġpath s
Ġbrief ly
Ġproof s
Ġseparat ist
Ġcord ial
ĠCare y
Ġre un
Ġpl ight
ell ore
ĠAss essment
Ġimportant ly
organ isation
ĠIdent ification
amper ing
ĠA x
ĠInd u
ĠHe art
Ġvis ibility
az i
Ġdecl ines
Ġide ological
Ġcontest ant
Ġconv oy
Ġped est
Ġobser vers
) ]
N irm
ĠB ot
ag pur
art a
Ġag ri
ĠSh illong
Ġsub stituted
ĠMa oists
Ġpot assium
Ġsecret ly
Ġendeav ours
M il
M oney
Ġm ic
ĠM BA
ĠT rue
ĠL as
ĠV K
Ġen lar
ath ing
Ġra c
ĠMe en
Ġplac ing
Ġban ning
Ġfurn ished
Ob viously
Ġproclaim ed
A rab
ok a
app ointed
Ġconv entions
Ab hishek
Ġprop ose
ĠSar ah
ĠCont roller
Ġretali ated
A mazon
ĠO k
Ġexc itement
ĠProdu ctions
Ġcyl inders
Ġmit igate
ĠBare illy
Ġobst acles
ĠA er
ĠD P
Ġk er
avil ion
Ġt ip
Ġshift s
ĠNaz eer
ĠHars imrat
Ġalumin ium
ĠSout hee
ediy urappa
C itizens
ad y
ĠDi amond
ĠCount ries
Ġcul m
tra ck
Ġscan ner
Ġbon us
ĠK r
ĠAnd re
pr us
ĠDh abi
ĠEgypt ian
S ikh
Ġc m
Ġfor c
ist ent
ject ed
ĠGod se
Ġpriv at
Ġpack aging
ĠQual ification
B M
Ġc ove
Ġl ion
Ġde pendence
Ġcomp osite
Ġpre ached
ĠSe ema
Ġmess aging
Ġneighb ors
Ġconstitut es
ĠChhat rapati
Certain ly
F F
Ġw ound
or ous
ri ous
Ġdem ographic
Ġrun ner
Ġpromotion al
far az
Ġconcess ion
ig ers
wa ite
ĠAsh wani
Ġsens ation
ĠPol y
Ġlif ting
Ġequip ments
ands hahr
il er
ĠP har
ĠR iz
ĠD urg
ĠD aredevils
Ġsh utt
Ġoath s
ĠMarat ha
ĠConstitu ency
Ġrepay ment
r ame
ĠP ap
ĠK el
ĠT ennis
ĠArt ificial
Ġ197 9
Ġund es
ĠAT S
Expl anation
Ġwond ered
Ġcorp us
. -
R ak
s al
Ġha ply
Ġra ge
Ġbu yer
ĠIN LD
Ġholid ays
uber cul
Ġump ire
he ri
Ġn inet
Ġl ips
ĠP ate
ĠU g
Ġpres erving
wal ia
Ġadm ire
ĠSu nder
Ġfinal ized
Ġpat rol
Ġmax im
uls ion
ĠAcad emic
Ġrom ance
Ġju venile
HD FC
Ġdrag ged
M eh
R ural
Ġd ams
ĠP WD
ĠO val
Ph ot
eful ly
ĠLo an
ĠBrahm astra
B hu
M ix
n ab
ĠB end
ĠL u
ĠSal im
Ġadj acent
Ġgun fight
ĠMaj lis
Bel ievers
ov o
Ġdist ressed
Ġimp ounded
of ra
Ġeat en
Ġweigh s
Ġpsalm ist
d on
Ġs own
ĠD ream
ĠL ate
ĠL ines
Ġexp orter
Ġimpact s
ĠNad al
Y adav
Ġs ophist
ro ph
Ġn ortheastern
ĠR onald
ly n
og an
Ġsp at
mit t
app rox
book s
Ġdeterm ining
, ''
ĠN ain
umb ered
Ġflex ibility
Ġexpir y
Ġinade quate
ĠH erald
Ġsub stitute
my er
Ġprote ins
Ġspiritual ity
Ġpromot er
Ġperce ive
L t
g as
Ġp ond
ad an
Ġup ward
ĠAr ms
Ġsuccess ion
ĠSun ita
Ġshoot s
ĠGor illa
Ġdevast ating
Ġli ars
Consid ering
R ishi
i ov
Ġp harma
Ġsh ine
ĠYadav s
Ġdro ve
Ġexport ed
Rep ublic
Ġconcent rated
Ġfing ers
ad hi
ĠB ima
ĠT uls
ĠU IDAI
az ir
Ġroad show
erve z
Ġwid ows
Ġnovel s
Bhar atiya
Ġadapt ation
ursh id
Ġunauthor ised
J ob
z apur
th ose
Ġinc ub
Ġab dom
Ġend uring
Ġdest iny
ĠPh one
Ġrecommend s
Ġcharacter istic
ĠTour ist
Ġalgor ithm
S in
Ġw ounds
Ġin ex
ĠR IL
ĠJ r
ĠW oakes
Ġj ealous
ip h
Ġknow eth
Ġfore father
ĠSwar a
Ġindigen ously
ĠMC X
P V
ĠS I
ĠM ade
ear s
Ġpos it
Ġstab bed
Ġancest ors
p ha
Ġt el
al an
ote chnology
Ġstrugg led
Ġmort uary
E arly
Ġbe arers
ys ical
Ex p
AT A
ĠTra ins
Ġshowc asing
Ġimper ial
Chan cellor
l esh
Ġh oard
Ġh over
im ity
ĠW oman
Ġpresent ations
ft y
Ġallow ances
Ġspread s
par able
Ġbudget ary
Ġvigil ance
a el
ĠH os
Ġso ap
ved i
Ġrest ing
char ging
ĠSar oj
Ġvolunt arily
Hard ik
ĠKev in
ĠNAB ARD
Ġchap ters
ĠKoz hikode
F e
it ating
ĠB arn
Ġafter math
abad a
Ġsystem atic
ĠPand emic
ĠAbhin av
b est
Ġf als
ĠS outheast
ĠAs im
ĠFor bes
Ġkind ly
ĠNH AI
Ġrum oured
Ġportray ed
conf idence
Prepar ations
O ppo
f irst
h um
s eries
is ely
es ome
urn ool
ins pe
St rong
Ġcross es
Rep lying
Ġepic ent
D a
E PF
S ervices
c ourse
Ġany way
Ġdevelop s
Ġcle ans
Ġalong with
ĠAz mi
AB AD
Ġbreed ing
ĠIndus Ind
ĠUjj ain
B G
g ian
ov ar
ĠMan isha
Ġdeep est
ĠSpe ech
Ġdesper ate
T en
h alf
t ake
ard ari
Ġorganis ers
Ġdispl ays
Y uv
b les
ro b
ig inal
Ġ13 8
Ġread ily
Ġbroad casting
ĠRepresent ative
ĠKy rgyz
Ġcogniz ance
ĠHet myer
C reate
Ġn aked
et he
ĠCh oubey
ctor ate
Ġra cket
Ġdef ines
Ġinter cess
Ġ14 7
arm ati
Ġbreak through
Ġelim ination
Ġdiscount s
Ġtur moil
Ta iba
a ic
p iece
ĠK ier
Ġspecial ized
Ġfav oured
Ġaim ing
ĠThere fore
Ġhyd rogen
Ġmurd ers
ĠChem ical
Ġassemb lies
E vent
ĠD ST
ĠW TO
Ġpati ently
off ee
ĠMat hem
oli os
urse ment
ĠAry an
Ġstal wart
ubercul osis
G I
s aying
ĠA IMIM
ĠCh hab
ĠMo z
Ġhandic rafts
ĠTik Tok
Ġnutri ents
B ah
G reen
Ġth rong
ast es
Ġim mers
Ġ13 7
Ġassum ption
C al
Ġa ided
ce ans
Ġhe inous
ab us
Ġexp ose
cl ause
Ġtruth s
CT C
ĠGen eration
ĠPrith viraj
Ġseam less
Ġst int
ith i
ĠK um
Ġor naments
Ġsn ake
Ġvoc ational
Ġwholes ale
b ow
os ene
ric ity
Ġexped ition
Ġsty les
Krish n
ĠSac red
L S
T DP
Ġhe aling
un s
ord arshan
Ġend orse
ĠTe acher
Ġfight s
Ġreason ing
ĠComp rehensive
ĠDiv yang
Ġcapt ive
Ġdefin ite
Ġutter ly
ĠAnk it
m atic
Ġthe ore
ĠM ouni
ĠG om
Ġwor n
ĠTeh reek
Ġlamp s
ĠSarban anda
Ġext ortion
ĠOff ences
Ġindul ge
ĠSafdar jung
O p
Ġa pt
Ġto urs
Ġcan e
Ġfin ishing
ots p
Ġpositive ly
ĠBab ar
je eling
ĠAlex ander
appropri ate
ĠSoft ware
r ade
in formation
ic able
Ġha cked
um ns
pl an
Ġind ec
ĠRe kha
Ġview ing
PM C
ĠComp et
Ġdisplay ing
Ġir rit
Ġprivile ged
Prot esters
Ġteen ager
Ġm emb
ĠD ew
Ġnew er
Ġdef erred
ĠEx p
Ġ[ ]
Ġprof ess
Ġdesign ing
Ġjail s
ĠTri vedi
ar ians
Ġsupp liers
Ġpo le
Rem ove
Ġpist ols
Ġpersec uted
Interest ed
ĠPate kar
2 000
S ir
l on
Ġ ib
in ning
ĠK M
te chn
Ġsc arc
ĠBra nd
ĠD uty
ĠF ab
du e
Ġam ple
ĠIN R
Ġconce ived
Ġouts k
ĠPrith vi
S idd
ĠP ip
ĠH ost
Ġmod ules
ĠBl air
ĠAssoci ations
Ġconsist ed
Ġdisapp ointing
ĠAp oll
ĠPrah lad
A jit
D aily
M os
Ġd ressing
ĠMa han
ĠWe ather
ĠMar ath
Ġconst ables
j inder
Ġt uss
Ġf ont
ĠL ink
ĠL IC
Ġcomp oser
Ġcl ashed
als a
En able
Ġshell ing
Ġrecon struction
Islam abad
v ol
z i
ĠO ppo
Ġdis reg
Ġchildren s
Ġexpl icit
AT O
Ġresign ations
ĠMad rid
Ġeld est
Son akshi
ĠMer cedes
Ay ushman
J ay
g ah
i ot
Ġst icks
Ġun e
Ġsc rib
Ġindu ction
g roup
id able
ĠC aste
ĠR az
ac ious
Ġdec reed
Ġposs essions
ĠPl ans
ĠMeh mood
ĠSwach hta
Ġnod es
Ġtur meric
Ġtow ers
Ġtrem ors
ĠColumb ia
T ar
Ġd iaspora
Ġle ap
ast i
ile ad
Ġgl ac
Ġvent ures
Ġven ues
ucker berg
Ġb ri
ĠP K
ig hed
Ġwh opping
ĠN adi
ink le
12 8
ĠVijay a
ĠTurn er
ĠDwar ka
F O
k at
n ar
Ġst alled
Ġbl own
ĠBh uj
Ġdismiss es
Ġblock b
Ġdiplom ats
Ġmos quit
ĠShim ron
V ideo
Ġh orm
ĠR icky
ĠB ala
Ġex pend
Ġra cial
ĠAir ports
Ġmult itude
Ġconsult ing
Ġimag ined
Ġment or
ĠWarn ing
ĠChak ra
Ġcategor ically
Scient ists
A khil
Ġv itamins
ĠF riend
ĠV C
ĠAr bit
ĠTrib unals
chand ise
Ġacclaim ed
Ġoutsk irts
) /
Ġnot ion
Ġper fection
Ġfun ny
Ġprof itable
Ġconfirm ing
eron aut
it u
ĠS O
ĠS ept
Ġse ated
ĠAr thur
Ġhy per
ĠAnand iben
Ġ196 9
ĠSom nath
ĠJe M
Ġglor ify
Ġenrol ment
e xt
Ġl iar
ĠO pp
Ġprogram ming
Ġfund ament
Ex perts
Ġflo ating
Ġdisb ursed
d aughter
et an
ĠR apid
ha j
Ġman uscript
Ġra b
Ġmig rated
Ġavo iding
ĠCamb ridge
M alaika
ĠM ig
ĠB od
Ġj am
Ġsupport ive
ĠSab armati
ils on
ĠEqu ipment
Hel p
al p
ra ined
ĠD BT
ĠK P
ĠF af
Ġrem edy
IC E
Ġreject ing
200 9
Ġcoast s
cr iminal
Ġexting u
in er
ĠS AR
ĠP overty
Ġint ake
Ġpar able
Ġmis led
ĠIns olvency
Ġperman ently
Ġplaint iff
Ġd irty
ad ors
ĠM ining
ĠG W
ĠK od
Ġr ider
ĠL ite
ĠAn sh
Ġdam aging
ĠOrgan izations
Ġquarter ly
Where as
Ġsell s
Ġutil isation
Ġexplain ing
Ġble eding
Ġdepreci ation
J S
Ġl over
ĠN CB
ap utra
Ġwater ways
Ġadv ent
udd en
Ġcontent ious
Col le
oshi arpur
usse hra
ĠJak har
Ġcaption ed
B i
f ix
g us
ĠA was
Ġcame o
ĠCap acity
Ġgri p
Ġaband on
Ġintimid ation
Benef its
Sind hu
E nd
ĠB A
ĠTh y
to o
Ġclear ing
Ġri ot
Ġreserv ations
Ġconsolid ation
Ġimpe achment
Ġumb rella
1 20
Y ogi
Ġprim a
App ly
Ġbox er
ĠAv inash
Ġmultip ly
G ov
m or
Ġa ired
Ġto oth
Ġm apping
Ġl ane
ĠB ru
ĠH ald
Ġlet ting
Ġri ft
IN D
ĠCy prus
ĠRet ail
commun ication
H M
ĠS oh
ĠP ara
ĠH um
Ġtre nding
awa ited
Ġoutl ined
okh ale
Ret d
Ġmyst ery
as ures
ĠP ervez
con nected
Ġvar ies
ĠZ e
ĠPat ra
Ġ24 3
ĠMand aviya
Ab raham
Ġfacilit ation
Ġsound ed
Ġguard ians
Ġuncon scious
Ġventil ators
Ġp ointing
ĠM ode
Ġv ine
Ġte asp
ĠDe an
cer y
Ġ13 6
Ġhon ourable
Ġencoura ges
ĠNe xt
Ġvari ations
ĠNep ali
Ġw ilt
if iers
ĠComp are
Ġmention ing
Ġhor ror
Ġcook ed
Ġdiagn ostic
ĠKad apa
ĠG abri
Ġcl ue
Ġstart up
Ġeconom ist
Ġgr im
Ġaud itor
Ġrespond ent
Ġinflu ences
Ġindustrial ists
Ġpurs uance
ĠCirc le
Ġconfront ation
Ġconced ed
re al
iz ational
Ġop ined
Ġsl um
ump ing
ĠMah as
Ġill iter
Islam ic
ĠEli zabeth
Ġevalu ate
ĠBri j
T iger
ĠR iaz
ble ms
ĠRe qu
Ġref res
ĠMah ade
ĠIslam ia
ĠAdminist rator
Ġcourage ous
Ġung rateful
. ).
Ġc and
un ath
ĠJ ohan
au very
Ġ14 2
ĠRo om
ĠBro ok
ĠBrahm aputra
ĠJim my
Ġtact ics
Muk esh
r h
at ical
as ad
Ġre ap
Ġclass ic
ĠBe ing
Ġassum es
El abor
U M
ct ic
Ġapp ell
Ġunder went
ĠSur i
ĠProp he
Ġprohib it
g uru
it ic
ĠP ard
ch ants
ere rs
Ġfound ations
Ġdiv iding
sc he
ĠLank esh
Ġforefather s
P rab
b ah
ĠP ill
ĠAss amese
ĠNag a
sy stem
Vi ew
Imp ro
ĠAnth ony
r ur
ĠF iro
Ġschool ing
Ġcommand ments
MS ME
ĠMac ron
Ġpard on
f isher
l akh
ĠH earing
Ġrec ruit
Ġrob bed
Tal iban
Ġprompt ed
Bl ack
S ridevi
T ogether
g eneral
w ere
ĠR abada
ĠW is
Ġsupp orter
bs ite
Ġpot ato
othe ism
hom me
yav ardhan
s a
Ġs ludge
ri ven
ĠK ok
Ġimm ovable
Ġunf old
Ġmir acle
Ġash ram
Lead ers
ĠCant onment
P AN
ĠR od
hes is
ĠCent ers
ĠBhar g
ĠPra j
Ġcreat ure
sec urity
Ġworship ers
Ġbi odiversity
Ġmission aries
ĠBharti ya
Dep artments
Ġspr ings
ĠHash mi
Ġanalys ed
F und
er k
Ġf ugitive
Ġcol ony
bel ievers
ĠBet i
Ġinfilt ration
A IR
C iting
re nd
is k
Ġr igorous
ress es
Ġrepl ies
ĠMat hew
ĠBrah min
ĠGrand homme
Ġembra ce
ĠSwayamse vak
i ants
or ry
ar us
ĠC itizen
Ġsha ping
Ġbetter ment
ĠTri vendra
IV E
ĠKish or
Ġbrut ally
ĠD aw
ĠEx pert
anth a
off ice
ĠZa heer
T ER
Ġd angers
ĠS uman
Ġfor s
ĠN M
ĠN oor
th ala
op es
con struction
Ġdep ressed
Ġtable ts
Ġeth os
ĠKush waha
ĠT ap
ĠT ool
Ġter rain
Ġinform ing
ush ree
Ġret ribution
oss il
Ġthreat ens
ĠOrgan isations
Ġorp han
ĠLou is
" [
n ish
Ġb ans
il kar
im ely
ul u
Ġdef aul
Ġcontin ent
ĠShah s
Ġsan itiz
Ġbreak fast
ĠSrin ivasan
Bh ag
show room
Ġresil ience
ar se
Ġth irst
ĠK osh
Ġde vi
Ġv ow
ha wa
Ġsh ore
Ġla ure
Ġdiv ul
ĠIraq i
Vi olence
Ġdistingu ish
su pp
Ġagit ating
istor ic
ĠG y
ĠF ast
ĠPro sec
ĠDh illon
Ġdr ones
Prot est
Ash ok
Vill agers
D et
I OC
M ill
f in
Ġup lift
Ġinv oked
velop ed
Ġsl ide
Ġwelcom es
sha re
ĠAud it
Ġaccum ulated
J e
m urder
he nd
ĠJ ofra
Ġunder graduate
Ġgu ilt
Com m
ĠSrin ivas
isal mer
rengthen ing
V ER
p our
ĠA eronaut
ang el
ĠAr baaz
Ġcol oured
Ġavail ing
Ġfa ction
Ġupro ar
T ensions
ad ays
ĠT ewari
ag ine
if a
ĠO wn
Ġthey re
ĠSh ree
Ġbomb ing
ĠKot wali
Ġinterrog ating
Ġsumm ary
Ġdan cer
Ġtuss le
T an
li ous
ĠAd iti
Ġform idable
Ġneg lig
Am ritsar
ĠGuard ian
ĠTar un
itan ya
Ġtall est
ĠReh abilitation
Ġma ize
Start ing
Ġinstal ment
z an
Ġin und
ĠR ich
Ġcons p
Ġord in
ĠBagh d
Ġfocuss ed
ĠMut ual
Ġseiz ure
en ec
ĠH AL
ĠJ MM
Ġtrans mit
IC A
Ġ196 7
ĠRank ings
ĠCamb odia
Dig ital
> >
w als
Ġc oc
ad ak
ĠC ISF
ĠD um
ĠH or
Ġle an
ĠF light
ĠU tt
Ġres ide
iss ance
ĠY ediyurappa
Ġfe ud
Ġclean er
ĠProgram mes
Ġpronoun ce
Ġretal iation
Prom inent
ĠNeel am
Ġindepend ently
effect ive
r ayaan
or p
os c
Ġsub t
Ġshow ers
Ġesc ap
Ġaccur acy
Ġp harm
ri ans
her ic
ĠV HP
Ġunder p
Ġsc rapping
ĠRam achand
Ġappro vals
ĠVi jender
Ġbi om
Ġfacilit ated
ĠFed erer
ĠRic ha
Ġpip es
ĠMund a
ĠBor is
ĠEphes ians
hapa ak
T ha
Ġd ried
ĠR A
ĠB uild
ĠCh ile
Ġsm ell
aul i
Ġgather ings
Ġbeha ve
Ġexcl usion
Ġepis odes
ĠKha re
ĠDeath s
Ġhumili ating
Produ ction
Ġsh orter
ah al
ĠModi ji
Ġdes cent
Ġagg rav
Ġfit ted
ĠGan esha
Cor ruption
ĠRag hu
ĠNax als
ĠBai jal
f oot
i ander
er m
ĠR O
Ġas leep
Ġk a
Ġbet ting
Al ways
Ġoccur ring
CS IR
Ġconven er
Mah atma
j ha
ac et
ass adors
Ġfil ter
ip ora
Ġfl own
Ġver tical
ĠAhmed nagar
Ġvision ary
ĠJust in
Offic ial
C alling
E arth
Ġm erc
Ġe re
ĠLe ban
Ġdeal er
ator ium
ĠAk ad
ĠSum mer
Ġthr ice
Ġharass ing
ĠBhup esh
ĠLiter ature
E k
J ai
Ġro oted
Ġhere by
ĠShah baz
Ġmor ale
lif ting
ĠMahabhar ata
w omen
ĠP harma
Ġopp ression
rish na
Ġreflect ing
Ġsemin ars
ĠAw ake
ĠCycl one
Ġdesk top
H AL
Y S
r ata
og y
St op
Pr int
ĠDes am
Ġmodern ization
ĠDis p
Ġbroad c
Ġthr illed
Ġre wards
Ġat omic
ĠEx alted
Ġexc av
Im mediately
light ing
Ġdismiss al
Act ually
Ġroll s
Ġpione ers
ĠOri ental
Ġlingu istic
C ur
M iss
Ġpres iding
Ġrest s
Ġclear ances
Ġsing ers
ĠPan el
Ġhusband ry
Ġfoot steps
ĠGaj endra
ĠFI CCI
V ol
er ated
Ġto ug
ĠJ enn
ĠW edding
ĠV enezuel
Ġshould n
ug al
Ġfa res
ĠFor ward
Ġfraud ulent
upe es
Part icip
b orne
j o
ro val
Ġv owed
Ġsh un
Ġnow here
ĠCl in
Ġtri ps
ĠBish n
S inger
Ġm i
Ġth umb
Ġn ucle
"" .
ĠCh itra
Ġcol umns
ĠWorld s
ĠAhmed garh
Ġill um
Ġearn s
ĠSupp lies
Ste ve
ĠBend re
U l
Ġg auge
ĠP sych
ut her
ĠB ash
os i
ĠL ect
Ġk icked
Ġ19 40
Ġdem ons
Ġart istic
Ġ196 3
ĠWho ever
ĠTerm inal
ic op
ĠSh ir
Ġdist ra
ĠSy nd
Ġfram ing
ĠAng ela
Ġband s
Chand rayaan
ĠTeh ran
Ġmir acles
ĠAnton io
ĠRaig ad
um ni
Ġsu icides
ost an
ie val
Ġche ated
Ġreal istic
Ġkn ocked
ĠShak ib
Ġsupplement ary
Ġbureauc rats
A ctors
M ass
p olitical
Ġc hi
esh am
Ġ12 7
IC EF
ĠMah ira
oj na
Ġexec uting
Man ipur
Ġconclud es
Ġhur led
akumar i
ĠDj okovic
Ġhe ars
ĠG ive
ĠK ullu
Ġsp ur
ĠShi ksha
Ġmis be
riy at
ĠSar faraz
ĠMor ris
Ġconcl ave
ĠGar ib
ĠVed ic
unci ation
Ġn erve
ĠJ oy
Ġsp o
Ġ6 000
up ati
Ġrep ublic
Ġstrengthen s
Ġblock ade
ĠMalays ian
Ġworshi ppers
ĠSer b
Di wali
ĠFernand es
es ity
ad abad
ĠL oc
cept ive
Ġkill ers
ĠRam ana
Ġperform s
ĠPal m
Ġprec ise
ĠAcc ording
Ġrif les
L T
ist a
ĠG O
Ġwe aken
ild o
Ġacad emia
Tra vel
Ġcool ing
id i
est ro
Ġqu its
Ġmin ors
Ġ22 4
ĠAcc ident
Ġdiss olved
Ġassault ing
Ġattract ing
Ġadul tery
Author ities
H aq
Ġc odes
ĠM ini
ĠD ollar
Ġdef iciency
Ġread iness
Ġconcer t
Ġpros pective
Ġparam ount
Ġspir its
re ars
ĠR i
Ġ( %
ĠJ ersey
Ġu g
Ġ- .
ĠAl so
Ġdeb ts
Ġcast s
ĠSir aj
Ġinhab ited
Kab ir
Ġbri bery
in ted
Ġbe ats
em an
ĠW ould
Ġwe a
ans hu
Ġev asion
gan as
Ġsec re
Ġ15 1
Ġcommand ment
ĠKrish nan
ĠAc quisition
Ġfat ig
Ġmotiv ation
Ġgif ted
wheel ers
B rief
ĠM istry
ĠC AR
ĠR ole
if th
MC H
rin ath
Ġconsult ant
ĠAp te
Shar if
Ġarbit rary
Ġrecip roc
ĠBeh old
Ġphenomen al
ĠGil git
Ġeleph ants
H ope
ĠP ith
ir ala
ĠCent ury
ĠZ uckerberg
Ġpur view
Ġvict ories
Ġspeed ing
PP P
Ġvari ation
M adh
ar med
Ġl aps
ĠP age
ĠR upee
ĠH oll
Ġcent enary
Ġcar b
St at
Ġdirect s
AI IMS
Ġconsider ations
ĠGang war
Ġsubsid ies
ĠUl tra
Ġbare ly
Ġrhy th
ed ar
ĠL atham
ub ai
Ġcam el
Ġsatisf ying
ĠBhag alpur
Ġlack ing
Ġfavor able
ĠJha j
imp se
W G
s l
Ġa we
Ġp lying
ĠW aste
Ind ira
Ġgl impse
Ġwa ived
ĠSha il
Pl an
ĠJon athan
Ġcomplic ations
Ġdemol ished
Ġflex ible
ĠJamshed pur
t ons
Ġw it
Ġtra ject
end ers
Ġdr um
ĠAccount ants
wicket keeper
H ouse
ĠA id
av as
ĠAn ita
Ġinter mediate
Ġgre ed
ĠMar ia
ĠHon our
Ġdro pping
Ġder og
Ġinteg rate
ĠGul zar
ĠKend ras
Ġsubmar ine
ĠH ina
ust a
eng es
amp ered
ĠPakistan is
Ġhelp ers
Ġche er
lu walia
ĠMur ug
Ġimpart ed
Ġbatt les
Ġprox imity
Krishn apuram
ĠN SA
Ġun organ
ĠSan ge
Ġtrib ut
ĠDo ordarshan
Ġcra zy
ĠDan ish
ĠFac ility
Ġshr ines
ĠNich olas
Wel coming
ĠConv ocation
t te
ĠC a
Ġle gends
Ġwhere by
Ġspecial ised
Ġtrad es
Reg ist
ĠMang esh
Ġbrows er
Ġgrassro ots
Ġc ares
ĠP PF
Ġne uro
av en
Ġast on
Ġartist es
ĠIsha an
Ġtrop ical
Ġlapt op
S ays
h ala
Ġm es
Ġper t
ang ular
ĠIn ternal
reat ing
Ġeff ig
AM E
Ġboard ing
Ġgener ic
Ġforb id
Ġpatri arch
HF W
c apt
g un
r itional
t ics
Ġs eni
ĠM ills
ĠC ID
ĠG ospel
pp le
pl ate
Ġwell s
ĠTh or
ĠMon otheism
Ġprotect s
Ġdi pped
ĠBat talion
Ġbatt ling
Ġremed ies
Ġhurd les
ĠShram ik
V eh
ĠK urnool
Ġspe eds
Ġur ine
Com mon
Ġoccup y
Yuv raj
t iaz
al am
ĠC at
Ġby pass
ĠJ ones
ne um
isc rim
enn ial
gen eration
ĠBrazil ian
ĠLi am
Event ually
ĠChhab ra
C EO
Ġg ases
qu akes
Ġinc ess
ge nder
ME NT
Ġdigital ly
Ġbidd ers
ĠMural i
ing e
ĠS ard
Ġfin ances
Ġhand ing
ĠPun ia
Ġinf inite
Ġmal nutrition
Ġpione ering
Bra zil
' ."
p owered
Ġm ated
ol is
if iable
Ġprom ulg
ĠBr ath
Ġresearc her
Ġattrib ute
ĠAV SM
! ""
R ev
Ġe go
ĠT ur
ĠRaj at
Ġbl iss
ĠShah ja
Ġoccasion ally
Ġded u
Ġtank er
Ġovert urned
Ġhill y
Look ing
D D
j ad
he alth
Ġm ud
Ġn urse
ĠD ed
Ġprov es
Ġloc om
cent ric
Ġreal ities
rast ruct
Ġmer ge
Ġdeep ening
Ġdig est
ĠNar c
ott am
ĠBook s
ĠDhar am
ĠStat ue
Ġauthent ic
Ġdisobed ience
C all
D in
F riday
ĠG ilead
Ġv ars
Ġdo zens
ov ie
Ġar k
Ġass ent
Ġref usal
Ġopen ers
ST EC
ĠAh ir
ĠHar manpreet
ĠGhaz ipur
ĠCert ification
Ġacceler ated
Ġdisturb ance
Ġsewer age
Ġf ores
ĠR ena
ĠG ame
Ġprog ressed
Ġkill er
Ġrun way
Ġconf er
ĠSam ar
Ġguarant ees
ĠFA ST
ĠParm ar
d ed
j is
k ok
ad as
""" \""
Ġtra uma
uss ion
An swer
Ġreal isation
Ġcommission ers
Ġagg ress
Ġque ue
Ġcorre ction
Ġail ments
R ele
R DA
Ġd oth
Ġm aps
ig m
ĠD ave
Ġoff ender
Ġim b
ĠPro curement
Ġhand les
ĠVir gin
Ġtreas ures
esha war
ĠTreat ment
Ġintoler ance
ĠES IC
ĠBrath waite
A li
ĠS ME
arch and
Ġwant ing
Ġcoun ters
agra ha
f ilm
Ġs weets
id y
ĠM ail
ĠR ud
Ġsc ales
ĠDe leg
Ġcur t
Ġ14 3
Ġlay ers
ĠAust ria
ĠMong olia
ĠNut rition
Ġendors ed
an jan
ĠN eed
Ġsh ade
Ġpl asma
Ġpe nd
ĠCont in
Te j
ĠHindust ani
Ġtack ling
ĠStrate gy
Ġgradu ated
Ġwe ighed
og ging
Ġsc rapped
ren cy
ĠSub odh
ex am
Ġ35 4
mb a
ĠEm peror
Ġvirt uous
ĠIndones ian
ĠOther s
Ġtrig ger
Ġ ..
en za
ĠD ash
Ġan them
Ġle mon
ĠF ollow
ĠW ik
Ġcomp at
Ġsix ty
ĠChrist end
ĠBe ach
Ġpractition ers
n adu
s in
Ġg hee
Ġev ildo
ild ar
Ġele ctors
ĠHind ostan
Ġstat istical
Ġpat rolling
ĠCar ib
aza ar
L and
c ase
i ated
Ġf oul
ĠC E
Ġinc hes
Ġbl asp
Ġrep atri
Ġens uing
ential ly
ĠKh urshid
Ġund is
Ġtouc hes
Ġimpart ing
r ust
at ric
Ġqu ot
Ġatt itudes
Ġshe er
Ġcomplain ing
ĠKh y
Ġ27 0
Ġconver ting
ĠDar jeeling
Ġhero in
Ġreceipt s
Ġfet ch
Ġcater ing
ĠMI UI
g reg
l oc
Ġal ia
Ġwe ep
ail ability
St ating
Ġdev il
Ġcollabor ated
Shar ad
Ġarchitect ural
Ġtong ues
Dev otees
ĠPP E
bu ilt
J N
b id
n als
Ġe cho
Ġas p
ank ar
end ayal
Ġ15 5
Ġconf isc
Ġdisp atched
Ġfast ing
ĠIC J
Ġprin ces
Trad ers
S ervice
ad ri
ĠD AV
Ġha i
ĠW ilson
Ġrec alls
Ġadv ancing
ĠMiss ile
Akhil esh
S pan
j am
ater ing
Ġass ures
Ġter ra
lu ent
Ġcad res
Ġorp hans
Ġresil ient
P ol
ow ards
ĠSh al
ĠY ami
Ġfin ale
rent ices
ĠUP I
ĠTal uka
ĠFac ilitation
Ġinsult ing
Ġvary ing
Ġexha ust
Ġsynd rome
Ġinev itable
z ai
Ġd up
us arai
ĠH orticulture
ĠF CI
ĠIn augur
Ġmod ification
ĠPat t
Ġterm inated
US A
Ġacad emy
Ġsurround ings
ĠRab indranath
Prote ction
ĠS W
ĠR abri
Ġmedia persons
Ġbo iling
Ġcertain ty
Ġimm oral
Ġdiver t
Ġrenew al
ĠMinor ities
ĠCham oli
Ġgy mn
Ġdispl aced
G reat
f und
ĠAr aria
Ġoper ative
ĠZ ar
sh ot
iqu ity
ĠQu inton
ĠHa at
ii i
b se
Ġc ute
Ġpe pper
Ġmin imal
ĠKh il
Ġsecret s
Mah indra
Ġori entation
S aid
Ġa ids
as al
Ġe tern
Ġon set
ĠG okhale
ĠN ab
Ġwor rying
Ġoff set
ĠIm phal
Ġportf olios
Bl ood
Ġtempt ation
p y
Ġal igned
Ġj ibe
Ch in
IC TE
Go vernance
Ġlabou rer
Ġpredomin antly
Ġs ou
Ġc uis
art ala
ge ndra
ec essor
Ġevil s
ĠBrah ma
Dire ct
Ġreop en
Ġthe ories
Ġl t
ĠP ere
Ġinv isible
Ġrep uted
Ġpartic le
ĠPart ys
Ġweakness es
Ġabol ished
Ġrefin ery
Ġs its
ĠP ir
ĠZ ee
Ġ14 8
Not ably
Ġrecon ciliation
P ress
ut ic
ĠN ikhil
Ġ19 45
Ġpract iced
IS A
Ġquar rel
ĠTra ck
ĠDav is
ĠGen eva
May awati
Ġl akes
ĠA uction
ĠB rown
han ga
Ġmod ifications
Ġche cks
Ġcost ing
ĠNav i
ilater ally
En c
Ġprem ature
Ġpocket s
ĠHash im
C lean
Ġw ax
Ġm ould
am ma
ĠR abi
all ic
ĠFe atures
ĠPhar ise
Ġsophist icated
y ari
ĠC C
ĠA qu
ĠT ier
ĠE T
amp s
Ġbl ocking
ĠShri v
Ġprev ents
Ġview point
ĠSw ift
Tra ining
Ġchick en
Ġtrans plant
ĠPh ot
Ġmass acre
Ġpred ecessor
Bh arti
ĠBul andshahr
D om
m ons
r ays
w l
ĠR ice
ĠB ow
ister s
Ġland l
Ġvirus es
Ġendeav or
Nirm ala
L og
L ucky
O bs
it z
ĠR ewari
ĠT hank
har if
Ġwhere with
Ġinf ants
Ġattack er
Ġinst antly
Ġlow ered
Ġbill ions
Ġpersist ent
ĠThe atre
Ġland er
Ġprote ctor
Me Too
Ġsuper b
ĠKo irala
Ġhun ting
Ġgrav ity
Shr addha
S af
Ġb rick
Ġal ign
ĠO cc
Ġman ages
ne et
cept ions
Ġsuper vis
ĠTer ror
Ġcat ches
wag en
Ġoptim istic
i ors
Ġg uru
av anshi
Ġun cond
Ġ50 6
Ġart ic
Ġphot osh
Ġhur ting
ĠSim on
Ġcontra ctor
ĠAnk ita
Ġvandal ised
ĠDharams ala
ĠFiro z
F orm
S us
Ġd a
us hes
ĠE ll
Ġun ified
ĠPh al
Ġbirth place
ĠPal ghar
PC R
UP SC
ĠHand s
ĠPres idency
Ġtraject ory
D era
H ell
Ġsh y
ĠSh ould
ĠChand an
AP A
Ġselect ing
Ġcurs ed
Ġeffici ently
an jay
ĠW ah
oc ative
Ġcomm encing
Ġform ulate
Ġbo ast
Ġstat ues
Man oj
Ġcondol ence
Ġjoy ful
Ġdefend ant
Ġimprison ed
ĠBron ze
C rit
h o
ur thy
ĠP ool
Ġwh ip
Ġpro hibition
ĠN ex
Ġchar itable
ĠAl le
Ġmet ab
Ġport ions
sy chi
Pat el
b ro
f a
v ardhan
ĠS amp
et t
ĠD adra
Ġcomp rehens
Ġlaw maker
Ġfact o
Ġinnov ators
ĠSen ator
ĠBr igade
ĠYam un
Krish na
Ġinequ ality
Ġt ens
Ġh otsp
Ġfor ge
arn ika
ĠGu ter
Ġbat ted
Man mohan
ĠAtl antic
Custom ers
ĠRohing ya
B Y
ot ten
ig an
ĠD ussehra
Ġk ar
rict ion
Ġexpl ored
ĠVijay awada
ricke ter
Ġinfl ows
ĠRag hav
Ġauthent ication
ĠDok lam
or ama
ment al
ow k
ĠW restling
Ġen rich
Ġthere with
ob iles
Ġfl ame
Ġback bone
Ġ18 00
CC TV
Ġbas in
ĠDiv ya
Ġ196 6
Le ave
ĠMill ia
Ġblockb uster
ĠA pr
Ġhe irs
ak pur
Ġan nex
Ġnot eworthy
ĠE co
ru b
Ġemer gence
ĠAy at
Ġcerem onies
Res earchers
alt hi
Ġsmooth ly
Ġelement ary
ĠPack age
Ġgren ade
I J
S um
l isher
v ised
ĠP aksha
ĠG ok
ĠL yn
aw ad
ĠDe ad
get s
Ġrep orter
Ġopp ressed
com b
ĠMal inga
Ġshort listed
Ġste am
ĠAra bs
ĠLoh ia
ant y
te had
Ġun lock
IR CTC
Ġhar bour
ĠEli jah
ĠPhys ics
Ġcongest ion
P haraoh
l ane
Ġg hat
im la
ht t
ĠL ower
pt o
ma an
ĠShar mas
ĠPar ganas
Ġadminist rators
mar ried
ĠSid h
Bengal i
ricks haw
Ġswift ly
Tw enty
ks wagen
SE B
Ġpract icing
Ġlod ging
ĠInvest ors
Ġ196 8
Res earch
ĠProt est
Ġconcess ions
is y
Ġp est
Ġst ature
ĠV enture
ĠSh u
Ġatt aches
ĠCha itanya
Ġbest ow
cl usion
Ġbra cket
ĠWar rior
ĠInter view
Ġborrow ers
Ġpassion ate
Ġpharmaceut icals
Ġts unami
ĠGuter res
N am
ĠC rit
el ani
ĠE CI
ĠV ohra
ang ible
ĠAll ow
Ġsupp lier
ĠAn war
Ġjust ify
Ġinter vals
Ġlot tery
Ġconsult ed
Ġcorpor ates
Ġutil ize
.... ..
ĠCarl os
ĠB Y
Ġac ids
Ġcompet itiveness
Ġwel coming
Ġcaution ed
Ġpenal ties
Ġump ires
ĠMeen akshi
ĠAkad emi
ĠKhy ber
h ouses
v ille
w orthy
ĠD arb
ri ke
ĠG iri
ĠH T
ĠAg ar
Ch oose
ivid ually
Ġphys ician
onom ous
Americ a
Ġfabric ated
Ġastron aut
Ġinfect ious
ĠP DF
ĠG au
ĠJa isalmer
AS I
Ġlad ies
ĠMumb ais
cycl op
Ġsyll abus
Ġre imb
ĠC ash
ĠK arm
ĠAct ing
ĠAh luwalia
Ġdest abil
Ġprec isely
Ġwealth y
ĠKhar agpur
V s
ab e
ac o
ĠF old
rees anth
ĠVir t
Ġsequ el
Ġlivelihood s
Ġmol estation
Min or
ĠHom oe
Ġanch or
Mot or
ĠTham ud
ĠNadi ad
T ension
ĠB apu
ĠT ell
se y
ĠE ligibility
Ġhel m
Ġdisc reet
ĠIs ra
Ġbeli ed
Ġed ible
ĠMar ine
quir ies
RC B
back ed
Act ing
Ram esh
Ġcommend ed
ĠRay udu
Ġrebel lious
B ase
G ra
W ATCH
m aster
Ġa iling
Ġre he
ĠP it
Ġwas ted
ĠU pendra
ĠZ oya
ĠEn field
Te ams
Ġfra ction
Ġdocument ation
Ġtransgress ors
ĠMahav ir
Ġc ake
ĠC ris
ĠC ape
ĠG hani
Ġdis ast
ank s
ĠCongress s
Ġbat teries
Ġmis under
Ġadmit s
ĠNot ice
ĠNam ami
Count ing
ĠThr one
Span ish
r aries
ay er
ĠL K
Ġra ces
Ġ19 46
way ne
Ġ13 3
Ġ17 6
Ġsw ine
ĠSum itra
Ġweak ened
cont rolled
Ġattrib utes
ĠKor an
ĠShin zo
c ro
er ative
Ġ( *
ĠH ack
ĠE ric
ĠDe ccan
Ġaff irm
ĠFar id
Ġwid th
Ġcloud y
ĠNal anda
ĠKV IC
ĠSpec ifications
ĠSovere ign
ĠCarib bean
D han
G ad
O ft
S qu
Ġpe g
Ġend ang
Ġlook out
Ġprop ri
Ġenc ry
Ġterm inals
ĠMoh amed
ĠInt eg
Ġrad ar
hot ri
ĠJam nagar
7 50
Ġhe ating
ul ing
ĠF O
ĠW a
ĠE fficiency
Ġ20 23
ont al
Ġsy nergy
ump ed
ĠTan war
Ġabdu ction
Ġgut ted
r m
z h
ar u
Ġ13 4
Ġexper imental
ames war
ĠSha un
ĠGra ce
ĠAar adhya
Ġelim inating
acc used
Road s
ĠRand hawa
ĠLib ya
M ir
M ess
R IL
Ġo ceans
ĠC hel
od us
ĠL odhi
Ġun av
ĠUn ique
man uel
Ġ16 1
ĠCo chin
Ġmodern isation
Ġsecret ariat
Ġdial ect
Ġcrowd ed
Ġunbel ie
ĠRob in
Ġveter ans
ĠA F
ur bs
Ġdis respect
Ġro ped
Ġhand loom
Ġconf ine
Ġsmall est
ĠAmeric as
ĠNar iman
ĠBe z
ĠPrat ibha
Ġhur ry
writ ten
Ġdisin vestment
is hers
Ġp up
Ġd oses
st op
ĠC urrent
ĠP or
ĠJ JP
em o
qu artered
Ġra ging
ĠAll en
Ġ16 5
Ġamb ition
Ġburn s
Cl ose
ĠVenk ates
H Y
S eries
ed uc
ĠI v
res pass
ĠD ow
un kh
ĠN IC
ĠH un
Ġcom eth
Ġne arer
ĠF BI
ru z
""" (
Ex am
IP S
200 8
Ġimpl ies
ĠArch itect
ĠLabor atories
S ug
u er
Ġl ined
ĠP L
ĠP eshawar
Ġnot ch
Ġprov iso
Ġ13 1
Ġgovern ors
Ġwilling ly
poll s
ĠChir ag
Ġhazard ous
ĠApoll o
E X
f ighters
Ġab iding
ĠZ ardari
Ġmer chants
ĠLad en
ĠDan cer
ĠAzam garh
Ob ama
ĠHyd ro
Ġsar panch
dig it
Europe an
a que
Ġa fore
Ġin k
Ġto mb
ĠS ince
Ġg m
ab en
ĠRaj asth
ĠDe en
Ġopp oses
ĠSa hara
ĠSe bi
Com pl
ĠBhag wan
Max imum
ĠH oshiarpur
Ġv ind
Ġgo ats
Ġ12 00
Ġback up
Ġ16 4
Ġpoll ut
Ġple ad
Ġundert ook
Ġpack ets
hap atra
Ġgar ment
Ġenact ment
pons ible
offic ial
. ]
R un
n ered
Ġin appropriate
Ġhe al
Ġat e
ĠO re
ee b
Ch ild
ĠMah otsav
Ġlegisl ations
Ġassign ments
DM K
ĠRet urn
Ġsimpl ified
Ġembar ked
N eh
V ish
o os
p aid
om inations
ĠR ose
Ġper missible
ĠO TP
oun ters
ĠMal i
Ġvac ancy
Ġorganis ational
Ġinstall ment
Ġrival ry
Ġvo iced
Ġfrust rated
M HA
W ind
Ġp ir
Ġn avy
ĠN are
ĠF ace
ĠGo als
cl amation
ĠTO I
ĠTaj ik
government al
Ġhorn s
Ġsp oil
ĠY ous
Ġpr ud
Ġem ig
ĠPat anjali
Ġpain t
Ġste pping
ĠScholars hip
J K
b ig
Ġm alls
ad ip
so cial
ĠL ion
ĠF ee
Ġany time
une i
ĠKh ushi
Ġsan itary
iab ly
Ġpra ising
Ġsell ers
ĠHaz ar
Ġcompar able
ĠElectric al
Ġoverwhel med
M i
Ġ ul
ar ms
Ġsc athing
ĠMe cca
Ġexplo ited
Fl ood
Ġsteal ing
Ġreaff irmed
B ri
T witter
ĠG hana
Ġar rears
Ġhapp ily
Ġmor ality
ĠKal an
Ġdiplom acy
Ġhyp othes
M oto
Ġb og
ĠG ab
ĠT ony
iz z
ip ro
Ġtra cing
Ġexcept ions
See ing
lime en
Ġderog atory
T endulkar
d uring
Ġt ale
ĠR aza
ĠD ownload
ere na
Ġsh ower
Ġprov ing
Ġmis used
ĠJasw ant
ĠMathem atics
B u
C ash
l oy
Ġhe ir
ĠK any
ĠV itamin
Ġdisc oura
angu ages
Ġ195 8
ĠOper ating
Ġmal icious
Ġwicked ness
ĠMil ind
Ġpolythe ists
G DP
P a
Ġh iring
Ġn ets
ĠV andana
Ġcount s
Ġearth quakes
ĠVal ent
ĠMor occ
ĠQu estion
Ġband h
ĠCell ular
Ġresum ption
Mod ern
Ġbot hered
ĠCN N
Ġsna pped
c els
n ame
Ġb udd
ĠS ound
ul ia
ĠG PU
umb ling
Ġ12 9
app iness
ĠTamil nadu
ĠAbhi yaan
ĠLiter acy
Ġboun ce
R F
ĠS iv
ag iri
ĠL ow
ew itness
Ġsp heres
Ġbu zz
Ġrev ived
ingh am
Ġmal aria
Sush ma
N SS
S ep
U ST
m is
z eb
nd ers
ĠM ala
ot ri
ĠD W
Ġman go
Ġcourt esy
Ġeng ulf
less ed
Ġsens ational
Ġpo ised
ĠSar v
Com mission
Ġhol es
apur i
ĠBel arus
ĠGan ge
pert ension
1 30
B ath
D ifferent
H AN
V ir
ĠA head
Ġr am
au x
Ch ris
ĠPl ants
Raj esh
ĠKrish nam
Ġfam ine
Ġexceed s
fl ow
S udden
s elling
or agarh
Ġb unch
ĠM aken
ĠT RIFED
ap alli
ect ive
Ġpre text
ĠAr men
ĠSab ka
ĠBh upe
Ġoil seeds
Ġconstitu ent
ĠBar cel
Ġvol can
ĠSqu are
ĠKend riya
st ill
Ġper f
Ġint est
ey ond
ĠGe o
Ġnormal cy
eshwar i
Ġautom otive
Ġemb edded
ĠConsult ative
ĠSug ar
ĠPhul pur
ĠKier on
L ED
ĠL S
ĠW arsi
Ġcl auses
ĠSh ia
ĠUn iverse
ĠBank ruptcy
Ġextrem ist
200 4
Ġtend ered
Ġupgrad ing
ĠConstitu ent
rivile ged
unkh wa
E U
od s
ĠV IP
Ġapp ointing
Ġ15 4
Ġreve aling
Ġcoll ided
Ġexc luding
Com mun
ĠProf essional
Ġacad emics
Ġawa it
ĠScient ists
Ġscan ning
ĠBeg usarai
w ilkar
vi olence
ele bs
Ġ14 6
put es
nag iri
ĠVaish nav
u ate
Ġc hip
ra g
ĠG har
ĠN atar
ag ne
Ġav atar
Ġremain der
Sh ilpa
ari um
Ġver b
Ġoil s
for cing
Ġadvoc ated
Ġstret ches
Ġsafegu ards
Ġchop per
Ġcler gy
Ġkne es
Ġafflict ion
ĠMl A
Ġbungal ow
Ġdisast rous
1 10
H AM
b ani
d eg
ro t
ĠY ojna
ruct ive
Ġwa ited
Ġvol atile
Ġcommission ing
Ġassured ly
ĠProv in
Ġsele ctor
Ġwaterlog ging
iov ascular
G PS
S cience
he art
Ġth ief
os ion
Ġ( -)
ĠL en
Ġun res
ĠRe lease
Ġstri p
Ġtro lled
En vironment
onom y
Ġengage ments
ĠSE BI
Nir av
ĠAgni hotri
m ayan
w atch
ic ient
ĠA ks
Ġr het
Ġ8 55
ĠAs k
Ġins ured
12 5
Ġnut ritional
Ġrefuge e
Ġexpedit iously
Ġburd ens
Ġforc ibly
Ġs izes
Ġw ag
ro ved
ĠS ource
Ġout set
Ġam ass
man n
Ġtra inees
ĠAr p
ĠMa oist
Ġmethod ology
CS K
Ġliber ation
Ġfavor ite
produ ction
Ġnomine es
Ġdivers ion
Ġcruel ty
Ġw rist
as ia
id har
ĠC ana
ĠC ases
Ġsh ake
Ġch lor
tend ed
Ġaccident al
Ġimm or
Ġdistrib uting
Ġbar ric
Ġbound s
Ġindic ator
Ġslow ed
ĠShak t
lin ked
ĠEnt ry
ĠKhel o
Short ly
Ġrecru ited
G F
ĠKhan wilkar
iet h
idd ing
Ġmeas urement
riy o
Ġtravel s
Ġtravel ed
Ġmer chandise
ĠBab asaheb
Co al
Ġsecular ism
ĠAnj ali
Ġdrast ically
Oft en
B o
m esh
ĠB il
Ġinc ons
Ġur gency
Ġproc uring
araj an
Ġn our
ĠTh rough
Ġret iring
aid er
rem ely
Ġsubs criber
apur a
Ġoccur rence
ĠVish w
Ġmanif old
ĠTan z
ĠKha j
Ġbreat hed
alyst s
Ġbasket ball
G K
U E
x ist
Ġw oe
ig ma
are th
Ġad here
Ġcolle gium
Ġtrust s
ĠBan aras
Ġcash less
ĠSem inar
ĠRand hir
cor ruption
Ġmolec ules
Ġharn ess
ĠMoz amb
M SP
p indi
ĠM ud
ĠM end
ĠG ha
ĠJ ogi
ant ed
ĠL AC
ĠF ashion
Ġup holding
ĠSing le
ame ter
ket t
Ġstrong hold
ĠDis ney
ĠLa ure
Ġformal ities
Ġflu ct
ĠObs er
ĠUpd ates
Ye ah
S andeep
im ani
ĠB efore
Ġat om
ĠL ata
Ġpol led
Ġinter course
ĠIS O
ĠSpe ed
Ġadequ ately
ĠMun ro
Ġfestiv ities
Ġambul ances
ĠBarcel ona
t rick
Ġb out
ĠS ew
ill ery
oun cing
ti ary
Ġstat utes
Ġdom inate
ĠPal anis
ĠCB DT
yl um
Wor king
Ġcab in
Ġt ape
ĠG agan
mer ged
ĠCorpor ations
Ġthr illing
ĠDemoc racy
ĠHC L
ĠGr ade
cul iar
H op
J ac
S hes
Ġw and
ic ates
hi v
ab et
Ġint act
Ġind ividually
Ġplace ment
az ing
Ġveh icular
Ġground water
Ġball istic
Ġillust rious
ĠSupport ing
Ġphosp hor
Techn ical
Ġthe ta
ĠB IM
ht unkhwa
ĠL il
Ġpe culiar
cy l
Ġsoc iet
Ġrun ners
ĠBh ima
ĠNar inder
Ġstra w
Ġ195 4
Ġoverse er
Ġmit igation
ĠDass ault
D O
J awahar
P ati
u ar
Ġd ash
ĠS V
st rong
Ġpro se
ĠH E
Ġcolle ctors
ĠIm tiaz
Ġrepe aled
Ġsevent y
Ġconvin cing
Ġbetray ed
P RO
S end
S wami
Ġbe ast
ĠH usse
ĠJ ung
Ġpol io
ĠDe endayal
Ġsub du
Ġbl aming
ĠGu ards
Ġcar pet
Ġgr asp
Ġdiv isive
Ġenc ounters
Ġstat ute
Ġreli eved
Ġundert akings
dis play
Pass engers
Ġunw illing
effic ient
n ia
os itive
Ġsp ouses
aw ah
Ġdiplom a
Ġnut s
ĠPharmaceut icals
B us
Ġ q
Ġ ),
Ġan th
th ink
Ġnot ing
Ġdep icted
Ġ37 7
rant ed
AL L
ĠMir zapur
grad ed
ĠCirc uit
v am
Ġwh is
ĠV it
Ġtra its
ĠWe bsite
mi um
Ġdisp ensation
IS L
Ġsad ness
High lighting
Ġcalam ities
an u
ĠB eth
ĠN RI
Ġmed ieval
Ġmon key
Ġinf rastruct
Ġsl ay
ĠPar ks
Ġseason al
Ġdu pl
Sm art
Ġcontra ctors
Ġcomprom ised
obi ography
ĠDiplom a
L al
v ani
v ashi
ar ams
Ġst umps
ep age
It tehad
Ġcare ers
Ġkey note
MC s
Ġamend ing
Ġwid ening
Ġregul ating
Ant i
e z
ĠC IA
ĠC ement
ib re
com pet
Ġreve red
ĠSo il
enn ium
Ġmal ign
ĠNG T
Cont rol
nom inal
Ġp onder
ter ior
Ġst ing
Ġ16 6
Ġrest art
ĠSoc ieties
Ġquarant ined
ĠNay ak
Ġbuff er
ĠAnnex ure
b as
al one
ic ine
ĠB onds
ĠD A
ere nce
um ulative
ĠL odha
per m
pt on
We ather
ai res
Ġdes ist
Ġarrest ing
Ġfig ured
Ġcorrespond ent
Ġflo ated
Ġdomin ion
ĠBik ram
B H
B orn
F lipkart
U GC
d riven
Ġp ounds
ĠK ut
In augur
Ġte nds
ret d
ĠBh asin
ĠTe a
Ġappear ances
ĠGang es
Ġce ased
Ġguard ing
ĠWell ness
ĠRE AD
ĠGeorg ia
gus on
Ġug ly
Ġsecre cy
O ld
V odafone
Ġm ocked
ĠM om
el ves
ĠR yan
ĠR PF
ĠB ern
Ġst agn
ĠCan ara
Cr ime
m ay
s ur
v able
he ro
Ġp aved
ro li
ĠI L
ĠB azar
Ġ3 20
Ġhom eless
Af ric
prof ile
T ON
h ol
h unt
m inister
Ġf ur
He aring
Ġen zy
aw i
ble m
ĠMor adabad
Ġign oring
Ġmoist ure
ĠCommod ities
Jos eph
B ill
a ctors
Ġa est
ra an
hed e
Ġtra ct
ĠSu fi
Ġdeb ated
ĠBang kok
Ġlim itation
utt ack
Ġexplo it
ĠPhil ist
Ġsli ps
Ġsymp athi
inspe ctor
ĠMangesh kar
S AD
T B
Ġto ken
ap ans
Re pe
Ġdiss olution
Ġpremi ere
Ġhabit ations
ĠMans ukh
ĠHur riyat
Ġcustod ial
ĠRog er
Ġphotosh oot
H and
m ond
y es
Ġt ier
ĠS AI
op ar
em ption
Ġsh ining
Ġsh aken
und ers
ĠRam l
ĠGe M
ĠRef orm
Ġattra ctions
Ġlaugh ing
Ġfeas ibility
Ġbord ering
Arab ic
C eleb
S war
ĠC VC
ĠA ksh
ut able
ĠK it
ĠE rd
Ġad s
Ġsc are
oun ce
Ġsupp ose
Ġbuild ers
Ġparame ter
ĠHu awei
Ġscarc ity
G ar
R ashtriya
Ġf ossil
ĠD ie
ĠG ib
ĠUn ani
Ġ19 39
Ġinf er
Sh all
hel p
ĠTri ple
Rec ogn
EC H
Ġdemonst rators
Ass istant
Ġtight ened
ĠDeb t
ĠRis hikesh
e astern
m ph
Ġt respass
Ġd ent
ĠC old
ĠC auvery
ĠN idhi
Ġme gapixel
Ġshort fall
yl van
Ġgang ster
ĠComb ined
Ġf ount
Ġth ir
st ra
if i
ĠF ir
Ġspe nds
Ġrem embers
ĠAs aram
Ġmatch ing
Ġcontract ual
Ġdeliber ated
ĠStat istical
Ġworshi pping
ĠSav ings
ĠGa uba
Ġexhib itions
Ġarrog ance
ĠSadh vi
ĠWrit ten
ĠSquad ron
! '
D ab
L os
t est
Ġt ric
ov ak
ĠAs hes
Ġmet eorological
Ch ouhan
Ġyield s
M it
ĠC over
ĠD AY
ĠK ay
ĠW ag
ĠCh al
Ġout ward
Ġsc aled
ĠSh all
ĠAd hir
Ġhost els
Ġbroad ly
Ġge ared
GS Y
Ġaw ake
ĠKol hapur
Ġwond ers
Ġlung s
Ġcryst al
fix ing
M as
g g
ul in
ĠN ars
ĠL ara
Ġcampaign ers
ĠKing fisher
SC s
Sm ith
ĠCamp us
ocol ate
ĠTibet an
ĠDV D
Ġimmor ality
w orth
Ġl amb
ver ted
el eration
cond ition
ĠRan e
ĠPan ama
Ġobserv es
Ġtit ular
Ter ming
Ġerad icate
ĠKag iso
M uz
Ġt ide
ĠN ak
Ġsa ves
pl ine
Ġfe ast
Ġeconom ists
Ġadminist rations
Ġterm ing
Am bedkar
AL SO
Ġpit ched
ĠRonald o
cyl inder
ĠP ars
ĠB ind
ĠD raft
so ver
ĠPr ison
Ġ19 19
Ġpur ify
Ġens hr
Ġcost ly
Ġdev ised
Ġ22 5
DA Y
ĠKann ur
ĠSet hi
Ġminim ize
ĠTre as
ĠPush kar
ĠCoord ination
ĠArchae ological
Sin ha
G h
L earn
j ured
ĠC ov
ĠC oul
ĠR P
Ġinc ap
Ġrec ession
Pr adhan
Ġimpro per
ĠBal asaheb
Res ults
Ġcalc ulate
Ġevident ly
ĠJog inder
ĠBishn oi
U IDAI
ig uri
ĠE X
ĠAn ganwadi
ush ing
Ġgreat ness
Ġvac ated
Ġimm inent
ĠMarket s
ĠSah ni
P ict
in ational
il st
Ġbe er
ĠV ic
umb led
Ġinvestig ators
Ġ18 8
Ġcou p
ĠVed anta
ĠRoh ini
Ġpull ing
aun ting
ĠSheh na
Ġow es
Meet ing
Ġimmort al
Represent atives
ylvan ia
v ia
Ġw ipe
ĠS ong
ĠS ivan
ight ing
Ġann oy
ple t
ĠAm in
ĠOffic ials
Ġplant ing
ĠProdu ce
Ġremind s
Em ployees
Ġtreasure r
ĠAbhin andan
H old
Q I
c ity
h un
Ġh ook
Ġbe hest
ĠC ars
im ated
ĠR OM
Ġas cribe
Ġhas s
ĠE cc
Ġthere on
oll s
Ġple asing
Ġaspir ants
ĠBuddh ists
Ġparam ed
third s
S er
b efore
ĠC e
Ġcom ic
Ġthere to
ĠAss emb
Ġargu ing
ĠBrah man
ĠMang alore
inter rupted
ĠSank ranti
Loc als
Ġol ive
e enth
Ġs ul
Ġp ly
ĠR udra
ĠB achelor
ĠK air
Ġr ings
ass es
Ġlik eness
ĠMan ju
oint ments
Ġed itions
Ġmen stru
Raj inikanth
Ġcomment ary
Ġcoord inator
Ġhopeful ly
ĠHit ler
K ot
Ġw il
ĠM ys
ĠD rive
ĠJ ess
Ġso y
Ġfar ms
Ġsub division
Ġcamp uses
Go ing
ĠSte yn
Ġteen age
Leg al
s k
ur ate
ĠG aza
Ġpro xy
ag hat
pt s
ĠSh ad
ĠSu le
Ġcred its
know ing
Ġcharacter ized
ĠMot ilal
ĠVish wa
Ġregister s
ingu ished
Any one
ĠHel icop
elect ric
produ ced
Ġbom ber
opp osed
dire ctor
Ġfatig ue
at ter
ĠMa a
Ġed ited
Ġtrad er
Ġkey board
Ġmot ives
ĠMil an
ĠStart up
Ġsweep ing
ĠDise ases
spec ific
Ġreluct ant
Ġincess ant
Ġh ier
ĠB oth
Ġst alls
Ġcount less
ĠIn cre
Ġpass ports
Ġspecial ists
Acc used
sh ould
Ġgain ers
Ġinstall ations
ĠScient ist
Ġdevast ated
ĠCycl onic
K s
S ab
W oe
Ġs land
Ġin ability
Ġm ah
Ġ( /
ĠDh am
IN A
ĠRef in
ĠChet an
ĠRawal pindi
ĠTon nes
ĠMust af
ĠAx ar
Ġevildo ers
F DI
Ġc ups
ĠM issions
iv ansh
ĠAs pir
Ġevery ones
Ġins ert
ĠCol lection
Ġz oom
Ġdi ar
spe ction
DR A
ĠJD U
Ġteleph onic
ĠVide ocon
at ry
Ġp icks
ĠN Y
ĠL NG
Ġab l
Ġpart nered
ĠMan ch
AR I
Ġdra fted
Ġcoord inating
ĠMach ine
Ġneighbor hood
chem icals
Ġbicy cle
ĠS hai
ĠM aking
ag ger
Ġpol es
Ġper ipher
Ġcomp re
ĠCom pl
Ġsub continent
ific ant
ĠMinistry s
Ġdisp ro
lu ence
Ġmer its
Ġpot atoes
Ġgun ned
Ġattract s
ĠPen ns
ĠSaj jan
Ġvars ity
E qu
Ġst ellar
ident ally
ĠPart icip
AN G
Ġreli eve
ĠTV S
aly mp
Ġdrain age
Ġremun eration
L it
ri ka
ĠT as
Ġpres ide
Ġra p
Ġins pect
por ters
Ġprop hes
ĠPra v
Ġhor rific
Ġnut rit
ĠAth letics
ĠAchie vement
Ġconfron ted
ĠBaghd ad
H onda
c ation
k it
Ġg urd
ĠN umbers
ĠShi kha
Ġ24 5
Ġport als
Ġunt imely
ĠDo ctors
Ġappropri ately
Ġutil ise
ĠDemoc rats
ĠLit tle
ĠMozamb ique
J ames
R ape
d ing
h ya
Ġ ."
ĠR w
ĠD un
Ġrem nant
ĠShar an
Ġgen ius
ĠGur jar
ĠPer u
ĠBr ar
ĠKhur ana
Ġflo ors
Ġgy m
ĠFer guson
Ġenthusi astic
Ġhumb ly
Ġepicent re
C ategory
p athy
or ks
Ġbe arer
ĠL amb
Ġcho oses
ĠAyurved ic
Ġc elebs
Ġf iber
Ġin land
ĠC ool
Ġout ing
Ġro aming
ory avanshi
act iv
ret ched
Ġfinal ise
rug arh
ĠKh alsa
Ġcommand ers
Ġexpress way
Ġhistor ically
ĠRel igion
Ġregul ators
Ġwithdra wing
ĠQu ick
ĠPass enger
Ġappell ant
K ings
z ad
Ġdra ins
Ġansw ering
Con cer
ĠUs ha
Ġjun ction
Americ ans
Ġsurf aces
Ġexha usted
ĠBIM STEC
L ock
c ount
d eal
ol an
ĠB K
Ġpro port
Ġnot ifications
Ġres ur
Ġapp le
ĠRaj yavardhan
ĠBhar uch
Ġ28 0
Ġprin ter
ĠNepal ese
Ġpred iction
ĠCommand ant
ĠAnt ar
ĠSure nder
Mon day
Ġunderm ine
Ġwea vers
D ate
L B
d og
he rence
Ġl ip
ĠJ ang
ĠF est
Ġk harif
ne ath
Ġwar rants
Ġdefe ats
ĠUN ICEF
ĠDo NER
Ġhistor ians
Ġtom ato
Ġ195 9
Through out
Ġbread th
Ġrecip ients
ĠVenk at
Ġcontam inated
N aidu
Ġo we
Ġg ay
ĠK in
Ġy ard
Ġsh attered
Ġhand ful
Ġur g
Reg ulation
ĠPoll s
Ġincent iv
ĠKapur thala
lif ted
Pad ma
Ġfrust ration
ĠDim ple
ĠNase er
mayan and
J un
N ile
ĠB ecause
ag hi
Ġk ins
Ġen cl
ose xual
aw ale
iss ues
Ġinv ention
ĠAg ri
Ġstrugg les
Ġpoet ic
ĠMain tenance
Prof essor
Ġodd s
Ġthunder storm
ĠBharg ava
ĠJhaj jar
ĠVirt ual
O k
c luding
ĠE zek
ĠO DF
ip als
Ġra kes
ĠThe rmal
ĠRe le
Ġwarm th
ĠRash ami
Ġturb ine
ĠTak ht
Ġfeas ible
ĠChamp aran
Ġmemb rane
he im
at ility
st ation
Ġdis g
Ġsc our
ĠMus limeen
Ġcampaign ed
Ġlack s
ĠRet urns
ĠChem istry
ĠWi Fi
ĠHold ings
ĠPow ell
Pop ular
ĠPharise es
b en
Ġm ouse
ĠN TA
ĠV III
ĠAn other
Ġbank ers
adi ya
reet ings
Ġpain ted
ĠSP G
Ġacqu ainted
Ġtim eline
Ġrestra ined
ĠKhat ter
ĠClark e
D GP
F R
ol ve
ade em
ob o
Ġmod alities
ĠAm la
ĠAg ro
ĠIP O
Ġbreak down
Ġyield ed
Ġcrack down
Ġventil ator
Indust rial
ograp hed
ĠLeban on
M or
Ġp ixel
Ġre eling
ĠD og
ĠL ike
ree ments
Ġmed ication
Ġfl ies
Ġtransl ate
Ġamaz ed
ĠMil k
ĠPhil ip
Az am
Ġrecy cling
ĠCarol ina
Polit ics
d s
on is
Ġal umni
ab ar
Ġapp ra
Ġob esity
ID BI
ĠCo oper
ĠHar inder
Ġmount ing
Ag ainst
Ġillust rate
Ġsubscrib e
. %
A ar
M LA
N CA
f earing
Ġ ion
Ġde gradation
em ma
ĠL anguages
Ġor b
Ġmar rying
Ġplan ets
ĠSam man
Ġap iece
ĠTal war
Ġrent ed
Ġchart s
Ġgraph ics
ĠTor onto
ĠTrad itional
ĠTajik istan
Ġw oes
ĠS aran
ĠS iva
Ġg ran
el oad
Ġdes erving
Ġhon ored
ĠReg iment
ĠBach ao
Ġtro op
Ġconcept ual
ĠBr unei
Ġexhib ited
ĠFaiz abad
Ġpestic ides
ĠPenns ylvania
A adhaar
S IM
u ations
Ġb ind
ĠS anta
ad har
st art
ĠC uttack
ĠG ov
ĠE th
ĠSing la
ĠRed uction
ĠGe elani
Ġsup ers
Ġaver ted
Ġteasp oon
M ark
m ud
ĠDe al
Ġser pent
ĠAss urance
oot ers
Ġmet ropolitan
Ġreal m
Ġden omination
Ġsell er
Ġsett ling
ĠRak ul
Know ing
Ġdistan ces
Ġflee ing
Ġelabor ated
G ul
W ishing
Ġw ip
ĠS ree
ĠJ or
iv ar
ĠW ank
Ġj oke
Ġra pes
ĠRaj am
ĠFor g
Ġserious ness
Ġmis using
Ġgener ates
ĠGST R
Ġlin ear
ĠAdminist rators
Ġcomplex ity
Ġindul ged
Pe ter
ĠPoor an
X IP
n ani
in ness
Ġb ent
ĠA yan
Ġde arth
og h
Ġch ron
ĠIn form
Some one
Im agine
Ġdepos itors
Ġgreet ing
Ġtransfer ring
ĠSk ills
Ġtim ings
dis ciplinary
Ġrefund s
ĠSup riyo
Sid harth
Ġfals ely
ĠHomoe opathy
F ate
V ivek
Ġw ed
en na
Ġc arn
it ar
ĠS DG
ĠB PL
iz ers
Ġafter ward
Ġwell ness
ee z
Ġsk illing
ouhan i
ĠSad ak
Ġsem is
ĠConsult ation
Stud ent
Ġrecons ider
ĠArbit ration
L ad
in atory
am ana
ĠP DS
ĠJ ude
ĠDe ora
Al ready
Ġrespons ive
Ġwar rior
ĠBal ram
Ġess ays
Ġspect ators
Ġramp ant
Ġenthusi ast
Ġblasp he
y ani
ion age
ĠW ani
Min imum
Lead er
Mill ions
Muz aff
r uddin
Ġh ij
ĠS amm
ĠS oon
ĠJ anta
ĠF ounder
Ġres ides
Ġun opposed
Ġprov ocative
ĠDe o
Ġret rieved
Ġrest rain
Ġcentral ly
ĠBa ahubali
Ġconce aled
Qu estions
ĠSultan pur
othe rapy
C redit
F ortun
G al
N ick
p oor
ĠM ush
Ġn ull
Ġg ur
Ġr ickshaw
ĠF ortun
Ġsh ook
ost er
Ġab oard
Ġdef ecation
ĠSe oul
Ġactiv ated
Ġforg iven
ĠNe esham
Ay odhya
Ġfasc inating
ĠFre ight
Brief ing
ĠCoul ter
K im
S ardar
T arn
ĠA DC
Ġ19 08
Ġco at
Ġcre ase
ĠCol oss
Ġund ue
Ġdram atically
Ġtort ured
Es pecially
Ġcontrad ict
p un
in stein
ĠT ill
ĠV iz
ĠV oting
Wh ite
Ġdel ta
Ġbook ings
Ġmot to
ĠAut onomous
ĠNain ital
I l
M ul
P rep
c ry
re mes
ĠS lam
ĠG M
Ġper tains
Ġtr ump
Ġra cing
Ġsub tle
ĠChief s
Ġfin es
Ġret reat
ĠAg artala
PM LA
Ġdest ructive
Ġwrong ly
Ġworship ed
Ġcultiv ated
TION AL
ĠManufact urers
Ġsplend id
Ġurg ently
g is
n as
v ice
on ance
Ġo mitted
it ably
ĠD ul
ĠG ent
Ġph il
ĠBh alla
ĠAm y
Ġprop osition
Ġsens es
Ġ26 0
Man ufact
Sub hash
Ġcopy right
Ayushman n
M ission
Ġse greg
ĠSa q
Ġsk ies
ĠJoh ri
Man ish
under abad
Ġgreen house
Ġsort ed
ĠDG CA
Ġrein force
N M
R ash
ad waj
ĠN y
ĠN ah
Ġr ammed
ĠSh ant
Ġ19 42
les i
Ġcor iander
Ġgl am
Ġrain y
ĠBl oom
ĠTax ation
Ġ196 4
ĠKat aria
Ġmem o
Ġreservo ir
ĠMel ania
Ġmartyr dom
Ġpeg ged
M and
N TA
Ġnot withstanding
Ġar isen
Ġrem oves
ug una
.. ."
ĠTh ings
ĠZ ub
Ġ16 2
Ġgen re
ĠFar ah
ĠMotor cy
B abri
m iki
Ġn u
Ġn arc
Ġas y
ĠL ux
all ah
pl a
Ġ' ,
Ġdiscuss es
band han
ĠAssoci ate
Ġreply ing
Ġmouth s
rie ve
ĠCana an
R M
Ġo v
Ġm af
ĠB ok
Ġde pl
Ġpl ates
Ġra v
Ġgl oves
ari q
Ġeas ing
Ġcompet ence
Ġhar b
Ġadvis ories
Ġoverse ers
Ġobey ed
Ġstim ulus
ĠVV S
J E
S ik
Ġst it
ĠN ish
ire ment
[...]
