{"<s>":0,"<pad>":1,"</s>":2,"<unk>":3,"<mask>":4,"!":5,"\"":6,"#":7,"$":8,"%":9,"&":10,"'":11,"(":12,")":13,"*":14,"+":15,",":16,"-":17,".":18,"/":19,"0":20,"1":21,"2":22,"3":23,"4":24,"5":25,"6":26,"7":27,"8":28,"9":29,":":30,";":31,"<":32,"=":33,">":34,"?":35,"@":36,"A":37,"B":38,"C":39,"D":40,"E":41,"F":42,"G":43,"H":44,"I":45,"J":46,"K":47,"L":48,"M":49,"N":50,"O":51,"P":52,"Q":53,"R":54,"S":55,"T":56,"U":57,"V":58,"W":59,"X":60,"Y":61,"Z":62,"[":63,"\\":64,"]":65,"^":66,"_":67,"`":68,"a":69,"b":70,"c":71,"d":72,"e":73,"f":74,"g":75,"h":76,"i":77,"j":78,"k":79,"l":80,"m":81,"n":82,"o":83,"p":84,"q":85,"r":86,"s":87,"t":88,"u":89,"v":90,"w":91,"x":92,"y":93,"z":94,"{":95,"|":96,"}":97,"~":98,"¡":99,"¢":100,"£":101,"¤":102,"¥":103,"¦":104,"§":105,"¨":106,"©":107,"ª":108,"«":109,"¬":110,"®":111,"¯":112,"°":113,"±":114,"²":115,"³":116,"´":117,"µ":118,"¶":119,"·":120,"¸":121,"¹":122,"º":123,"»":124,"¼":125,"½":126,"¾":127,"¿":128,"À":129,"Á":130,"Â":131,"Ã":132,"Ä":133,"Å":134,"Æ":135,"Ç":136,"È":137,"É":138,"Ê":139,"Ë":140,"Ì":141,"Í":142,"Î":143,"Ï":144,"Ð":145,"Ñ":146,"Ò":147,"Ó":148,"Ô":149,"Õ":150,"Ö":151,"×":152,"Ø":153,"Ù":154,"Ú":155,"Û":156,"Ü":157,"Ý":158,"Þ":159,"ß":160,"à":161,"á":162,"â":163,"ã":164,"ä":165,"å":166,"æ":167,"ç":168,"è":169,"é":170,"ê":171,"ë":172,"ì":173,"í":174,"î":175,"ï":176,"ð":177,"ñ":178,"ò":179,"ó":180,"ô":181,"õ":182,"ö":183,"÷":184,"ø":185,"ù":186,"ú":187,"û":188,"ü":189,"ý":190,"þ":191,"ÿ":192,"Ā":193,"ā":194,"Ă":195,"ă":196,"Ą":197,"ą":198,"Ć":199,"ć":200,"Ĉ":201,"ĉ":202,"Ċ":203,"ċ":204,"Č":205,"č":206,"Ď":207,"ď":208,"Đ":209,"đ":210,"Ē":211,"ē":212,"Ĕ":213,"ĕ":214,"Ė":215,"ė":216,"Ę":217,"ę":218,"Ě":219,"ě":220,"Ĝ":221,"ĝ":222,"Ğ":223,"ğ":224,"Ġ":225,"ġ":226,"Ģ":227,"ģ":228,"Ĥ":229,"ĥ":230,"Ħ":231,"ħ":232,"Ĩ":233,"ĩ":234,"Ī":235,"ī":236,"Ĭ":237,"ĭ":238,"Į":239,"į":240,"İ":241,"ı":242,"Ĳ":243,"ĳ":244,"Ĵ":245,"ĵ":246,"Ķ":247,"ķ":248,"ĸ":249,"Ĺ":250,"ĺ":251,"Ļ":252,"ļ":253,"Ľ":254,"ľ":255,"Ŀ":256,"ŀ":257,"Ł":258,"ł":259,"Ń":260,"Ġt":261,"he":262,"Ġa":263,"in":264,"re":265,"Ġthe":266,"on":267,"er":268,"nd":269,"Ġs":270,"at":271,"Ġo":272,"is":273,"Ġw":274,"en":275,"Ġc":276,"ed":277,"an":278,"or":279,"ar":280,"it":281,"es":282,"Ġp":283,"Ġf":284,"Ġof":285,"Ġb":286,"Ġin":287,"al":288,"ing":289,"as":290,"Ġto":291,"Ġand":292,"Ġh":293,"ou":294,"ion":295,"ic":296,"Ġd":297,"Ġm":298,"il":299,"ent":300,"ro":301,"le":302,"ĠS":303,"Ġth":304,"id":305,"Ġre":306,"Ġbe":307,"ve":308,"ad":309,"ct":310,"st":311,"ĠM":312,"Ġn":313,"om":314,"Ġis":315,"The":316,"Ġe":317,"Ġl":318,"ĠC":319,"ĠA":320,"am":321,"ur":322,"ĠI":323,"Ġg":324,"ĠP":325,"Ġfor":326,"ation":327,"ol":328,"ay":329,"ot":330,"Ġon":331,"ver":332,"ter":333,"im":334,"ir":335,"el":336,"et":337,"ut":338,"ce":339,"ĠR":340,"ĠB":341,"ill":342,"Ġst":343,"us":344,"ra":345,"ly":346,"ment":347,"ig":348,"Ġal":349,"ch":350,"ow":351,"Ġhe":352,"Ġthat":353,"\"\"":354,"ak":355,"res":356,"ĠD":357,"ith":358,"ri":359,"ist":360,"ul":361,"od":362,"Ġwh":363,"un":364,"ĠG":365,"and":366,"ĠK":367,"ia":368,"ers":369,"Ġy":370,"Ġwith":371,"Ġas":372,"Ġhas":373,"Ġwas":374,"Ġcon":375,"Ġpro":376,"Ġde":377,"ate":378,"Ġha":379,"hi":380,"ĠN":381,"Ġ1":382,"Ġan":383,"ĠInd":384,"os":385,"ere":386,"Ġare":387,"est":388,"Ġat":389,"her":390,"Ġit":391,"Ġsa":392,"th":393,"ab":394,"Ġ2":395,"Ġ(":396,"Ġby":397,"Ġwill":398,"Ġse":399,"op":400,"ld":401,"ĠH":402,"ĠT":403,"ain":404,"ag":405,"our":406,"Ġhave":407,"art":408,"Ġv":409,"um":410,"Ġcom":411,"rom":412,"if":413,"pp":414,"ĠJ":415,"Ġsaid":416,"ice":417,"Ġfrom":418,"Ġnot":419,"ort":420,"ity":421,"ies":422,"nt":423,"ha":424,"em":425,"ess":426,"so":427,"ac":428,"Ġsu":429,"Ġex":430,"pe":431,"Ġthis":432,"iv":433,"ud":434,"Ġu":435,"ant":436,"ht":437,"Ġne":438,"ive":439,"Ġr":440,"ction":441,"ong":442,"se":443,"ister":444,"ore":445,"ĠL":446,"har":447,"Ġor":448,"ĠIndia":449,"ial":450,"Ġalso":451,"qu":452,"ure":453,"Ġbeen":454,"Ġle":455,"Ġgo":456,"ĠF":457,"inister":458,"cc":459,"ard":460,"Ġyou":461,"Ġhis":462,"ry":463,"ĠU":464,"ust":465,"Ġk":466,"Ġsh":467,"ould":468,"all":469,"ĠW":470,"ian":471,"han":472,"oc":473,"ĠE":474,"ress":475,"00":476,"Ġwere":477,"ther":478,"Ġwor":479,"Ġpol":480,"are":481,"vern":482,"ap":483,"Ġag":484,"Ġall":485,"ated":486,"ident":487,"Ġwe":488,"ast":489,"ef":490,"Ġinc":491,"ric":492,"ime":493,"ĠMinister":494,"ok":495,"ary":496,"Ġpl":497,"ep":498,"'s":499,"ire":500,"Ġhad":501,"ge":502,"ous":503,"Ġtheir":504,"ff":505,"vernment":506,"ich":507,"ight":508,"ah":509,"ind":510,"ount":511,"ome":512,"He":513,"rou":514,"ost":515,"ase":516,"Ġ20":517,"Ġad":518,"Ġres":519,"Ġper":520,"ĠV":521,"Ġj":522,"aj":523,"ear":524,"Th":525,"Ġme":526,"li":527,"nder":528,"Ġab":529,"Ġcomp":530,"ĠO":531,"Ġwho":532,"Ġwhich":533,"av":534,"Ġpart":535,"age":536,"te":537,"port":538,"ik":539,"Ġpe":540,"one":541,"ew":542,"Ġoff":543,"Ġthey":544,"Ġthem":545,"Ġim":546,"out":547,"Ġcan":548,"ĠPr":549,"ru":550,"ber":551,"ide":552,"Ġdo":553,"\"\"\"":554,"ell":555,"ect":556,"ople":557,"ations":558,"Ġup":559,"wo":560,"ĠCh":561,"orm":562,"ult":563,".\"":564,"ence":565,"ord":566,"It":567,"Ġacc":568,"fter":569,"du":570,"og":571,"Ġen":572,"Ġus":573,"ans":574,"In":575,"Ġ3":576,"ail":577,"Ġun":578,"Ġwhe":579,"ition":580,"vel":581,"Ġdis":582,"Ġapp":583,"Ġother":584,"ance":585,"ue":586,"ctor":587,"ake":588,"ile":589,"ical":590,"Ġunder":591,"Ġpeople":592,"Ġcont":593,"pl":594,"ov":595,"per":596,"Ġint":597,"Ġ-":598,"ĠSing":599,"Ġman":600,"ach":601,"pt":602,"Ġagain":603,"gh":604,"ĠSt":605,"ays":606,"very":607,"Ġpolice":608,"ll":609,"Ġits":610,"Ġout":611,"ational":612,"ĠSingh":613,"ine":614,"Ġsp":615,"Ġar":616,"Ġreg":617,"ish":618,"hed":619,"ĠRs":620,"ĠIndian":621,"ank":622,"ose":623,"ree":624,"Ġte":625,"Ġone":626,"ame":627,"ack":628,"Ġover":629,"Ġgovernment":630,"ates":631,"This":632,"Ġ201":633,"ign":634,"Ġcount":635,"ath":636,"Ġcl":637,"iz":638,"ub":639,"ade":640,"Ġam":641,"mit":642,"ass":643,"ions":644,"Ġsc":645,"red":646,"Ġso":647,"Ġstate":648,"able":649,"ace":650,"ang":651,"JP":652,"Ġthere":653,"esh":654,"day":655,"Ġagainst":656,"Ġwork":657,"ater":658,"Ġfil":659,"Ġch":660,"Ġbut":661,"hief":662,"Ġtwo":663,"ens":664,"Ġrec":665,"form":666,"Ġfir":667,"Ġpres":668,"Ġtr":669,"Ġafter":670,"ib":671,"Ġany":672,"Ġhim":673,"elhi":674,"Ġabout":675,"me":676,"Ġ\"\"":677,"erv":678,"ious":679,"Ġwould":680,"aw":681,"ted":682,"Ġ5":683,"ĠIn":684,"Ġyear":685,"Ġnew":686,"ĠSh":687,"Ġno":688,"ered":689,"con":690,"Ġqu":691,"now":692,"ash":693,"odi":694,"uring":695,"ip":696,"Ġ4":697,"Ġher":698,"we":699,"old":700,"ings":701,"iss":702,"Ġlead":703,"Ġev":704,"ever":705,"ourt":706,"Ġcase":707,"Ġro":708,"ĠDelhi":709,"Ġour":710,"ĠGo":711,"Ġinv":712,"ities":713,"Ġdec":714,"ove":715,"Ġfirst":716,"erson":717,"oin":718,"ĠY":719,"We":720,"lic":721,"Ġtime":722,"ongress":723,"mer":724,"ket":725,"ces":726,"Ġyour":727,"lud":728,"ĠBJP":729,"Ġcent":730,"ual":731,"Ġ'":732,"igh":733,"cted":734,"ild":735,"rit":736,"ĠModi":737,"tern":738,"Ġpre":739,"),":740,"Ġspe":741,"ec":742,"oy":743,"Ġfilm":744,"Ġoffic":745,"ob":746,"Ġbet":747,"ss":748,"Ġcountry":749,"ĠCom":750,"Ġra":751,"ook":752,"istan":753,"velop":754,"Ġcro":755,"ital":756,"ĠUn":757,"oll":758,"ced":759,"inist":760,"ied":761,"Ġlik":762,"ents":763,"Ġprov":764,"ĠRaj":765,"man":766,"Ġinclud":767,"Ġpr":768,"Ġdist":769,"ise":770,"ased":771,"Ġadd":772,"Ġshould":773,"hat":774,"reat":775,"Ġbeing":776,"Ġmore":777,"ai":778,"rict":779,"Ġind":780,"Ġbec":781,"ite":782,"ren":783,"cial":784,"ely":785,"ĠDe":786,"hip":787,"oun":788,"ward":789,"ĠThe":790,"ĠCongress":791,"ged":792,"amil":793,"ram":794,"stit":795,"vers":796,"ory":797,"Ġknow":798,"Ġtak":799,"ndra":800,"aus":801,"ks":802,"ie":803,"Ġwhen":804,"tain":805,"ject":806,"Ġinto":807,"ife":808,"Ġ6":809,"Ġtra":810,"ya":811,"act":812,"Ġrel":813,"20":814,"ood":815,"Ġele":816,"Ġmade":817,"Ġperson":818,"Ġimp":819,"emb":820,"Ġ19":821,"up":822,"Ind":823,"ments":824,"akistan":825,"Ġsuch":826,"Ġmar":827,"Ġrem":828,"oth":829,"rib":830,"Ġmat":831,"ound":832,"cy":833,"arn":834,"eng":835,"Ġiss":836,"Ġthese":837,"ma":838,"Ġwhat":839,"Ġsome":840,"urn":841,"Ġmy":842,"Ġmed":843,"ĠAr":844,"Ġcomm":845,"Ġco":846,"adesh":847,"ral":848,"ution":849,"Ġcons":850,"Ġatt":851,"Ġact":852,"Ġass":853,"ne":854,"ating":855,"Ġac":856,"Ġonly":857,"der":858,"Ġduring":859,"ĠAll":860,"ana":861,"Ġmeet":862,"resident":863,"oh":864,"ci":865,"ons":866,"own":867,"hen":868,"eral":869,"med":870,"There":871,"amp":872,"Ġget":873,"ission":874,"ctions":875,"Ġter":876,"ween":877,"ower":878,"fere":879,"Ġreport":880,"ict":881,"rough":882,"olice":883,"How":884,"Ġif":885,"But":886,"used":887,"Ġbetween":888,"ug":889,"Ġlike":890,"ision":891,"Ġneed":892,"Ġph":893,"fore":894,"Ġinvest":895,"ĠGod":896,"end":897,"Ġthan":898,"ting":899,"akh":900,"ures":901,"gan":902,"ised":903,"Ġsupp":904,"Ġfl":905,"ked":906,"Ġfar":907,"Ġthose":908,"Ġthree":909,"Ġstud":910,"Ġplay":911,"Ġ10":912,"Ġ7":913,"les":914,"elf":915,"ĠHe":916,"way":917,"They":918,"eh":919,"Ġthrough":920,"Ġfe":921,"ĠGovernment":922,"alth":923,"Ġthen":924,"Ġsub":925,"ĠChief":926,"Ġdevelop":927,"Ġwhile":928,"ited":929,"ĠPrime":930,"Ġent":931,"ured":932,"ally":933,"row":934,"und":935,"ful":936,"Ġday":937,"ĠPakistan":938,"ors":939,"ont":940,"ific":941,"And":942,"inistry":943,"ret":944,"umb":945,"Ġshe":946,"Ġpresent":947,"Ġworld":948,"Ġwom":949,"umar":950,"Ġvery":951,"ved":952,"Ġdistrict":953,"ĠPresident":954,"Ġem":955,"ause":956,"Ġdid":957,"Ġmon":958,"Ġ8":959,"osp":960,"Ġgiv":961,"000":962,"get":963,"ck":964,"Ġcrore":965,"ases":966,"olog":967,"Ġpos":968,"ĠPradesh":969,"ness":970,"Ġbl":971,"Ġcap":972,"ars":973,"Ġofficial":974,"Ġdire":975,"Ġserv":976,"als":977,"Ġprodu":978,"ax":979,"ĠState":980,"ublic":981,"Ġlast":982,"Ġsec":983,"Ġfin":984,"ters":985,"ĠKhan":986,"oor":987,"arli":988,"other":989,"ĠShri":990,"Ġset":991,"ata":992,"round":993,"Ġfamil":994,"Ġhow":995,"pect":996,"..":997,"As":998,"ĠAn":999,"ollow":1000,"Ġtake":1001,"ative":1002,"cess":1003,"Ġwhere":1004,"Ġhel":1005,"ible":1006,"hes":1007,"ĠMan":1008,"Ġinform":1009,",\"\"":1010,"Ġminister":1011,"ft":1012,"ix":1013,"arendra":1014,"Ġgood":1015,"Ġhere":1016,"led":1017,"uk":1018,"ĠAs":1019,"Ġaccused":1020,"Ġwell":1021,"ph":1022,"Ġtoday":1023,"Ġdif":1024,"vi":1025,"ran":1026,"ĠKumar":1027,"Ġcall":1028,"Ġsay":1029,"Ġsoc":1030,"Ġstart":1031,"oint":1032,"Ġevery":1033,"ats":1034,"eep":1035,"rest":1036,"ues":1037,"ĠGand":1038,"ility":1039,"ati":1040,"Ġtaken":1041,"Ġsee":1042,"Ġmany":1043,"Ġeff":1044,"wn":1045,"Ġcourt":1046,"ĠPro":1047,"ices":1048,"Ġyears":1049,"ĠNarendra":1050,"uth":1051,"ospital":1052,"ble":1053,"air":1054,"xt":1055,"Ġdem":1056,"ink":1057,"ĠAllah":1058,"ven":1059,"Ġinj":1060,"ody":1061,"ural":1062,"Ġhelp":1063,"ĠCent":1064,"Ġteam":1065,"ries":1066,"Ġchan":1067,"Ġmay":1068,"Ġparty":1069,"Ġincident":1070,"Ġloc":1071,"ool":1072,"Ġexp":1073,"ĠMa":1074,"Ġpost":1075,"Ġdes":1076,"ants":1077,"Ġchild":1078,"Ġnum":1079,").":1080,"Ġla":1081,"Ġtrans":1082,"ism":1083,"tend":1084,"ng":1085,"Ġbefore":1086,"Ġser":1087,"ĠCourt":1088,"ided":1089,"ĠGandhi":1090,"India":1091,"Ġ&":1092,"Ġvar":1093,"ĠComm":1094,"ning":1095,"ather":1096,"Ġcould":1097,"Ġann":1098,"ared":1099,"cond":1100,"Ġlife":1101,"ives":1102,"Ġright":1103,"any":1104,"Ġrep":1105,"Ġshall":1106,"On":1107,"ĠShar":1108,"So":1109,"Ġocc":1110,"ond":1111,"Ġmake":1112,"uss":1113,"aking":1114,"Ġjust":1115,"Ġvis":1116,"ee":1117,"its":1118,"Ġsy":1119,"Ġarrest":1120,"Ġchief":1121,"Ġvi":1122,"Ġ9":1123,"ĠAd":1124,"Ġ12":1125,"chn":1126,"ines":1127,"Ġcur":1128,"ular":1129,"ty":1130,"Ġfollow":1131,"However":1132,"Ġnumber":1133,"Ġob":1134,"Ġdef":1135,"Ġmeeting":1136,"ght":1137,"mir":1138,"Ġcor":1139,"ms":1140,".\"\"\"":1141,"Ġhapp":1142,"ĠGu":1143,"Ġhand":1144,"ĠNational":1145,"Ġregist":1146,"Ġhigh":1147,"uch":1148,"conom":1149,"Ġdisc":1150,"Ġcol":1151,"Ġcome":1152,"Ġincluding":1153,"Ġfamily":1154,"kar":1155,"Ġfour":1156,"ave":1157,"ouse":1158,"Ġsha":1159,"uc":1160,"Ġcar":1161,"ics":1162,"ember":1163,"ĠUS":1164,"Ġeven":1165,"Ġprog":1166,"Ġincre":1167,"read":1168,"Ġav":1169,"ivers":1170,"hah":1171,"Ġmost":1172,"Ġlakh":1173,"cer":1174,"Ġsm":1175,"Ġpass":1176,"Ġback":1177,"arch":1178,"pur":1179,"Ġimport":1180,"Wh":1181,"eneral":1182,"Ġgiven":1183,"cept":1184,"amm":1185,"Ġmonth":1186,"Ġbr":1187,"ior":1188,"Ġchar":1189,"Ġop":1190,"rent":1191,"Ġsit":1192,"Ġrele":1193,"Ġboth":1194,"Ġsupport":1195,"Ġkill":1196,"Ġlaw":1197,"riv":1198,"Ġinter":1199,"ĠNew":1200,"Ġdown":1201,"Ġbu":1202,"stem":1203,"Ġcases":1204,"19":1205,"ists":1206,"ĠSab":1207,"ute":1208,"tal":1209,"Ġamong":1210,"ĠPun":1211,"ĠRam":1212,"ĠKash":1213,"Ġfac":1214,"ides":1215,"ĠMinistry":1216,"Ġinf":1217,"Ġgu":1218,"ording":1219,"ĠSec":1220,"ways":1221,"urity":1222,"ploy":1223,"ĠKap":1224,"ĠTh":1225,"ror":1226,"Ġappro":1227,"Ġopp":1228,"ĠRe":1229,"ush":1230,"ince":1231,"ĠAct":1232,"ple":1233,"ins":1234,"Ġsent":1235,"Ġben":1236,"Ġhospital":1237,"Ġrun":1238,"ĠWe":1239,"roup":1240,"Ġregistered":1241,"Ġshow":1242,"Ġinvestig":1243,"ĠKashmir":1244,"chool":1245,"Ġpolit":1246,"com":1247,"Ġcontin":1248,"jab":1249,"ĠBh":1250,"Ġret":1251,"asht":1252,"Ġprom":1253,"ges":1254,"Ġresp":1255,"Ġ15":1256,"Ġplace":1257,"Police":1258,"Ġconf":1259,"ĠIs":1260,"Ġrequ":1261,"ament":1262,"Ġwater":1263,"na":1264,"What":1265,"retary":1266,"Ġpartic":1267,"Ġdep":1268,"Ġbeli":1269,"ĠUnion":1270,"Ġformer":1271,"pend":1272,"Ġend":1273,"Ġdiffere":1274,"umbai":1275,"outh":1276,"Ġ200":1277,"iness":1278,"ina":1279,"ency":1280,"Ġref":1281,"Ġdeath":1282,"ey":1283,"Ġorgan":1284,"ternational":1285,"andid":1286,"ner":1287,"Ġrece":1288,"Ġsecond":1289,"embers":1290,"king":1291,"Ġbus":1292,"ele":1293,"tt":1294,"ired":1295,"Ġattack":1296,"ĠTr":1297,"Ġlar":1298,"ĠEx":1299,"ified":1300,"ĠSabha":1301,"Ġheld":1302,"Ġway":1303,"Ġcr":1304,"Ġsign":1305,"She":1306,"rong":1307,"Ġeach":1308,"osed":1309,"ĠAnd":1310,"Ġresult":1311,"Ġins":1312,"Ġpower":1313,"Ġed":1314,"Ġform":1315,"Ġsur":1316,"Ġwant":1317,"Ġlaun":1318,"BI":1319,"Ġdevelopment":1320,"ued":1321,"war":1322,"Ġwomen":1323,"rol":1324,"Ġcre":1325,"urther":1326,"oard":1327,"pr":1328,"Ġleaders":1329,"Ġarrested":1330,"Ġlook":1331,"Ġproject":1332,"Ġdoes":1333,"ale":1334,"Ġmov":1335,"Ġinjured":1336,"Ġhealth":1337,"Ġspot":1338,"Ġnow":1339,"Ġsame":1340,"ology":1341,"You":1342,"ched":1343,"ĠAss":1344,"Ġstudents":1345,"Ġsocial":1346,"Ġgrow":1347,"Ġcle":1348,"Ġalle":1349,"ĠBank":1350,"Ġpublic":1351,"ĠSharma":1352,"Ġavail":1353,"Ġgl":1354,"Ġair":1355,"ention":1356,"Ġmedia":1357,"Ġleader":1358,"ough":1359,"ently":1360,"aim":1361,"Ġpresident":1362,"ashtra":1363,"Ġear":1364,"ull":1365,"jay":1366,"Ġcomple":1367,"az":1368,"Ġbro":1369,"ten":1370,"Ġaff":1371,"Ġfound":1372,"Ġeconom":1373,"ani":1374,"ts":1375,"gest":1376,"ĠShah":1377,"stru":1378,"au":1379,"ĠHind":1380,"Ġexam":1381,"Ġlong":1382,"wal":1383,"ination":1384,"ĠPunjab":1385,"Ġmatter":1386,"Ġoccas":1387,"Ġdue":1388,"ages":1389,"Ġdays":1390,"Ġbecause":1391,"Ġcond":1392,"ctors":1393,"Ġoper":1394,"artment":1395,"Ġtook":1396,"Ġmembers":1397,"ross":1398,"Ġ11":1399,"land":1400,"iet":1401,"An":1402,"Ġvill":1403,"Ġown":1404,"Ġregard":1405,"Ġcommit":1406,"mers":1407,"abad":1408,"arat":1409,"Ġvarious":1410,"Ġchildren":1411,"eration":1412,"Ġused":1413,"Ġopen":1414,"ized":1415,"ving":1416,"ehov":1417,"ehovah":1418,"Ġsystem":1419,"ĠCon":1420,"Ġprocess":1421,"ock":1422,"Ġcurrent":1423,"Ġmod":1424,"Ġmain":1425,"Ġnext":1426,"Ġsays":1427,"Ġalong":1428,"ĠDep":1429,"lim":1430,"Ġadv":1431,"ĠAm":1432,"ĠZ":1433,"Ġorder":1434,"ĠKapoor":1435,"wards":1436,"Ġtold":1437,"ration":1438,"Ġcandid":1439,"Ġoccasion":1440,"Ġtal":1441,"Ġannoun":1442,"ahul":1443,"enior":1444,"Ġremain":1445,"ĠPM":1446,"imes":1447,"ves":1448,"Ġothers":1449,"Ġwon":1450,"uation":1451,"ived":1452,"Ġtoo":1453,"eth":1454,"els":1455,"ĠWor":1456,"Ġmin":1457,"Ġdifferent":1458,"ĠLord":1459,"Ġmust":1460,"Ġquest":1461,"Ġgreat":1462,"ĠCommission":1463,"rat":1464,"Ġland":1465,"Ġfore":1466,"uthor":1467,"ature":1468,"ote":1469,"Ġve":1470,"ajor":1471,"ished":1472,"Ġgoing":1473,"oot":1474,"embly":1475,"Ġsl":1476,"Ġwrit":1477,"If":1478,"Ġbank":1479,"Ġinformation":1480,"Ġhead":1481,"All":1482,"ĠPat":1483,"gy":1484,"riend":1485,"For":1486,"ĠRes":1487,"ality":1488,"Ġterror":1489,"Ġwin":1490,"erest":1491,"ĠMumbai":1492,"Ġadded":1493,"St":1494,"Ġfurther":1495,"Ġdet":1496,"ias":1497,"Ġprogram":1498,"After":1499,"Ġcountries":1500,"to":1501,"nce":1502,"Ġfive":1503,"ĠJehovah":1504,"eld":1505,"ason":1506,"ID":1507,"Ġstand":1508,"Ġaround":1509,"ttar":1510,"Ġest":1511,"ract":1512,"ling":1513,"Ġ14":1514,"Ġstarted":1515,"ĠTe":1516,"Ġissue":1517,"Ġcommun":1518,"ricket":1519,"ffic":1520,"Ġtechn":1521,"illion":1522,"Ġbelie":1523,"ihar":1524,"ried":1525,"Ġval":1526,"Ġtem":1527,"Ġnational":1528,"Ġkilled":1529,"tee":1530,"Ġcalled":1531,"Ġpur":1532,"Ġ13":1533,"harashtra":1534,"ned":1535,"Ġ18":1536,"Ġaccount":1537,"Ġdel":1538,"ys":1539,"Ġsecurity":1540,"Ġprev":1541,"Ġimportant":1542,"Ġvide":1543,"'t":1544,"Ġclaim":1545,"mber":1546,"Ġlevel":1547,"Ġfa":1548,"reme":1549,"ĠAb":1550,"ached":1551,"Ġseen":1552,"Ġtest":1553,"ĠAg":1554,"engal":1555,"Ġvisit":1556,"arh":1557,"Ġarea":1558,"Ġmarket":1559,"ering":1560,"Ġsever":1561,"Ġacross":1562,"Ġlet":1563,"Ġposs":1564,"Ġbody":1565,"ilit":1566,"ump":1567,"the":1568,"Ġreported":1569,"Ġgr":1570,"Ġcolle":1571,"aid":1572,"Ġgroup":1573,"por":1574,"arlier":1575,"uman":1576,"Ġgive":1577,"Ġmuch":1578,"ark":1579,"Ġprop":1580,"ulture":1581,"Ġrespect":1582,"Ġaction":1583,"my":1584,"Ġseveral":1585,"ĠJan":1586,"Ġbenef":1587,"Ġdecl":1588,"Ġplan":1589,"Ġschool":1590,"io":1591,"Ġsche":1592,"ĠPolice":1593,"ield":1594,"ined":1595,"Ġanother":1596,"ĠHigh":1597,"ccess":1598,"ird":1599,"Ġequ":1600,"ĠLok":1601,"ising":1602,"iod":1603,"ressed":1604,"Ġjud":1605,"Ġavailable":1606,"Ġhome":1607,"ke":1608,"Ġindust":1609,"Ġcompl":1610,"Ġstates":1611,"Ġuse":1612,"Ġdemand":1613,"ick":1614,"CC":1615,"Ġinterest":1616,"Ġdecision":1617,"Ġspecial":1618,"Ġmajor":1619,"Ġtotal":1620,"Ġread":1621,"ours":1622,"agar":1623,"ought":1624,"ek":1625,"ammu":1626,"stitution":1627,"iti":1628,"Ġche":1629,"Ġyet":1630,"Ġdone":1631,"Ġeduc":1632,"Ġcame":1633,"orth":1634,"Ġext":1635,"ĠBengal":1636,"ĠUttar":1637,"ĠCha":1638,"ala":1639,"Ġproble":1640,"oss":1641,"Ġcondu":1642,"arliament":1643,"ĠPart":1644,"Ġnear":1645,"irl":1646,"airs":1647,"Ġcompany":1648,"ĠSa":1649,"Ġ16":1650,"Ġpay":1651,"Ġasked":1652,"adh":1653,"ĠShi":1654,"ĠSe":1655,"Sh":1656,"iversity":1657,"ena":1658,"ession":1659,"Ġlit":1660,"era":1661,"Ġhouse":1662,"Ġperiod":1663,"tle":1664,"Ġpersons":1665,"icket":1666,"Ġfarmers":1667,"Ġleg":1668,"Ġsituation":1669,"ĠChand":1670,"Ġaway":1671,"chan":1672,"aryana":1673,"Ġ25":1674,"ĠSecretary":1675,"Ġprot":1676,"Al":1677,"Ġexper":1678,"Ġroad":1679,"Ġareas":1680,"ĠRahul":1681,"Ġconsid":1682,"Acc":1683,"Ġbest":1684,"Ġrole":1685,"When":1686,"jarat":1687,"ĠLe":1688,"ĠCor":1689,"Ġbig":1690,"ept":1691,"ĠEng":1692,"ĠDr":1693,"Ġpolitical":1694,"Ġbas":1695,"Ġsk":1696,"Ġdiscuss":1697,"ĠWorld":1698,"rate":1699,"Ġofficials":1700,"bs":1701,"Ġcomplain":1702,"oney":1703,"ĠCentral":1704,"uty":1705,"Ġsuccess":1706,"Ġson":1707,"Ġthink":1708,"ĠMus":1709,"Ġsince":1710,"atch":1711,"Ġens":1712,"Ġlater":1713,"Ġlist":1714,"Ġbecome":1715,"Ġelections":1716,"Ġpoint":1717,"ready":1718,"ĠChr":1719,"99":1720,"ĠAl":1721,"ience":1722,"ĠAf":1723,"No":1724,"Ġhig":1725,"ĠMaharashtra":1726,"ĠStates":1727,"Ġcity":1728,"stand":1729,"Ġreturn":1730,"Ġallow":1731,"New":1732,"ames":1733,"itiz":1734,"eal":1735,"Ġconcer":1736,"ually":1737,"soci":1738,"ĠDay":1739,"Ġemploy":1740,"Ġhappen":1741,"ĠQ":1742,"Ġattend":1743,"ption":1744,"Ġtop":1745,"Ġparticip":1746,"Ġname":1747,"Ġfr":1748,"Ġalready":1749,"Ġrecord":1750,"Ġput":1751,"Ġbook":1752,"ĠJammu":1753,"ources":1754,"Ġnever":1755,"inal":1756,"not":1757,"Ġident":1758,"Ġthings":1759,"velopment":1760,"Ġkeep":1761,"Ġ2020":1762,"Ġsoon":1763,"ĠMP":1764,"Ġmet":1765,"According":1766,"self":1767,"Pr":1768,"Ġvict":1769,"ining":1770,"wood":1771,"cent":1772,"Ġcer":1773,"Ġgot":1774,"Ġactiv":1775,"Ġseats":1776,"ĠAir":1777,"Ġ30":1778,"ĠFor":1779,"mi":1780,"Ġsim":1781,"ging":1782,"ports":1783,"Ġrest":1784,"Ġ24":1785,"Ġview":1786,"Ġsector":1787,"Ġsix":1788,"ĠCO":1789,"Ġturn":1790,"Ġbuild":1791,"Ġfew":1792,"ortun":1793,"ĠSan":1794,"Ġheav":1795,"Ġfriend":1796,"view":1797,"Ġeffect":1798,"Ġprice":1799,"ĠTest":1800,"icle":1801,"...":1802,"These":1803,"Ġ2019":1804,"oad":1805,"Ġvideo":1806,"cing":1807,"rid":1808,"Ġmen":1809,"Ġpop":1810,"Ġ[":1811,"ets":1812,"itness":1813,"wh":1814,"olly":1815,"stitut":1816,"Ġgen":1817,"ruct":1818,"upreme":1819,"Ġalleged":1820,"Ġinde":1821,"Ġcondition":1822,"Ġsenior":1823,"Ġcamp":1824,"Ġhold":1825,"iving":1826,"Ġcost":1827,"Ġbusiness":1828,"ĠHaryana":1829,"ient":1830,"icy":1831,"cl":1832,"Ġadm":1833,"than":1834,"Ġtru":1835,"Ġgre":1836,"Ġbat":1837,"ork":1838,"Ġfun":1839,"augh":1840,"line":1841,"ĠML":1842,"ustral":1843,"Ġ0":1844,"ĠBihar":1845,"ĠGujarat":1846,"orts":1847,"aug":1848,"Ġeng":1849,"BJP":1850,"Ġviol":1851,"lish":1852,"ST":1853,"Ġfather":1854,"Ġmove":1855,"Ġprovide":1856,"Ġspok":1857,"sel":1858,"ĠMe":1859,"ately":1860,"ĠDevelopment":1861,"ustice":1862,"Ġannounced":1863,"Ġevent":1864,"Ġwife":1865,"ĠSu":1866,"Ġvillage":1867,"obal":1868,"Ġupon":1869,"Ġpric":1870,"Ġperform":1871,"Ġcare":1872,"Ġnews":1873,"Ġstatement":1874,"lement":1875,"ference":1876,"angu":1877,"agement":1878,"be":1879,"Ġbased":1880,"Ġfire":1881,"urs":1882,"Ġtreat":1883,"ancial":1884,"reng":1885,"Ġ17":1886,"idence":1887,"Ġcam":1888,"Ġpoll":1889,"arm":1890,"ense":1891,"Ġregion":1892,"At":1893,"Ġdied":1894,"Ġwithout":1895,"ĠWest":1896,"ĠHim":1897,"Ġservices":1898,"GB":1899,"Ġ50":1900,"mitted":1901,"pected":1902,"Ġseries":1903,"eleb":1904,"ises":1905,"cil":1906,"Ġtoget":1907,"Ġtogether":1908,"Ġmaking":1909,"Ġinvestigation":1910,"Ġauthor":1911,"Ġquestion":1912,"ily":1913,"Ġreached":1914,"ĠFin":1915,"Ch":1916,"Ġpet":1917,"itional":1918,"ury":1919,"Ġlaunched":1920,"ĠSc":1921,"Ġbel":1922,"Ġsol":1923,"Ġbring":1924,"ollywood":1925,"iety":1926,"ĠSupreme":1927,"VID":1928,"Ġinst":1929,"Ġclear":1930,"ĠBhar":1931,"Ġimpro":1932,"aka":1933,"ĠGeneral":1934,"ĠChrist":1935,"Ġhist":1936,"Ġearth":1937,"ivil":1938,"Ġprof":1939,"asthan":1940,"inder":1941,"Ġrelations":1942,"here":1943,"Ġapplic":1944,"Ġissued":1945,"ĠRail":1946,"Ġur":1947,"less":1948,"Ġstreng":1949,"une":1950,"Ġworking":1951,"ĠDire":1952,"Ġreceived":1953,"ĠAmit":1954,"Ġpriv":1955,"Ġart":1956,"itive":1957,"ners":1958,"Ġword":1959,"thing":1960,"pecial":1961,"Ġgrowth":1962,"ĠRa":1963,"Ġinternational":1964,"ari":1965,"Ġheart":1966,"Ġcha":1967,"Ġbetter":1968,"Ġiniti":1969,"amb":1970,"Ġstrong":1971,"Ġtax":1972,"ĠMay":1973,"Ġknown":1974,"Ġgra":1975,"ones":1976,"Ġlove":1977,"Ġfund":1978,"Ġchall":1979,"of":1980,"ara":1981,"mend":1982,"adav":1983,"Ġdri":1984,"arent":1985,"ected":1986,"Ġissues":1987,"Ġrelig":1988,"Ġstill":1989,"Ġgirl":1990,"ĠChina":1991,"Ġfield":1992,"ĠMal":1993,"Ġfind":1994,"Ġbo":1995,"cies":1996,"Ġbeg":1997,"ĠDepartment":1998,"Ġplac":1999,"iron":2000,"ĠParty":2001,"Ġaddress":2002,"irus":2003,"His":2004,"Ġstor":2005,"Ġceleb":2006,"ĠAff":2007,"ches":2008,"Ġinformed":2009,"gr":2010,"Ġdev":2011,"ĠSouth":2012,"Ġrespons":2013,"Ġinclude":2014,"Ġphone":2015,"Ġmoney":2016,"Ġtimes":2017,"ony":2018,"Ġcricket":2019,"ouncil":2020,"Ġcannot":2021,"Ġple":2022,"Ġprep":2023,"Ġthird":2024,"ĠCOVID":2025,"Ġfood":2026,"Ġsing":2027,"ification":2028,"nel":2029,"ĠSat":2030,"Ġ2018":2031,"Ġ/":2032,"isation":2033,"Ġtowards":2034,"SP":2035,"Ġbeh":2036,"Ġimplement":2037,"Ġhuman":2038,"Ġhowever":2039,"Ġfollowing":2040,"Ġtrad":2041,"aring":2042,"Ġlarge":2043,"Ġwoman":2044,"Ġlocal":2045,"Ġeducation":2046,"Ġcurrently":2047,"Ġprote":2048,"Ġtill":2049,"ams":2050,"Ġrul":2051,"app":2052,"IC":2053,"ĠPar":2054,"ential":2055,"Ġbrother":2056,"anka":2057,"Me":2058,"Ġdaugh":2059,"ĠYadav":2060,"idd":2061,"ium":2062,"ĠMed":2063,"ĠAffairs":2064,"resent":2065,"Ġjoin":2066,"ences":2067,"Ġruns":2068,"iance":2069,"Ġlot":2070,"Ġreal":2071,"Ġcust":2072,"ically":2073,"Ġ100":2074,"Ġfiled":2075,"ulation":2076,"ĠIndias":2077,"ron":2078,"ĠParliament":2079,"Ġprotest":2080,"ternal":2081,"Ġmatch":2082,"Ġsaying":2083,"Ġmovie":2084,"ĠShiv":2085,"chie":2086,"ĠJa":2087,"Ġweek":2088,"Ġcomes":2089,"Ġdeb":2090,"ians":2091,"Ġtaking":2092,"reed":2093,"Ġdetail":2094,"Ġdiv":2095,"Ġdata":2096,"rought":2097,"Ġfut":2098,"Ġactor":2099,"Ġnation":2100,"Ġclass":2101,"ĠCentre":2102,"ards":2103,"Ġsaf":2104,"Ġdead":2105,"Ġcandidates":2106,"ively":2107,"overed":2108,"PM":2109,"ĠAustral":2110,"ĠPl":2111,"go":2112,"Ġreleased":2113,"ĠCol":2114,"Ġexpl":2115,"ĠUniversity":2116,"sh":2117,"rying":2118,"ĠBoard":2119,"Ġwithin":2120,"ructure":2121,"Ġ2017":2122,"Ġproduct":2123,"Ġincrease":2124,"ify":2125,"Ġstep":2126,"ilities":2127,"esus":2128,"Ġchange":2129,"hatt":2130,"Ġveh":2131,"osition":2132,"Ġpeace":2133,"hav":2134,"medi":2135,"ither":2136,"201":2137,"ĠJustice":2138,"Ġbelieve":2139,"dd":2140,"Ġopportun":2141,"oura":2142,"itizens":2143,"ibility":2144,"TI":2145,"over":2146,"Ġalways":2147,"arnat":2148,"ĠRan":2149,"irit":2150,"ps":2151,"atives":2152,"inet":2153,"ĠMah":2154,"DI":2155,"Ġservice":2156,"adu":2157,"ger":2158,"Ġfull":2159,"Ġgeneral":2160,"aff":2161,"Ġsmall":2162,"Ġshared":2163,"Ġinvol":2164,"ohli":2165,"Ġyoung":2166,"weet":2167,"Ġfight":2168,"That":2169,"ĠRajasthan":2170,"while":2171,"Ġru":2172,"ĠMuslim":2173,"Ġfinal":2174,"iqu":2175,"Its":2176,"mes":2177,"ĠBang":2178,"rial":2179,"Ġaccident":2180,"Ġachie":2181,"ĠAssembly":2182,"aged":2183,"Ġvot":2184,"iding":2185,"arnataka":2186,"ained":2187,"rab":2188,"One":2189,"Ġproper":2190,"To":2191,"lect":2192,"ĠDirector":2193,"ĠMo":2194,"part":2195,"Ġentire":2196,"ali":2197,"pril":2198,"Ġdeal":2199,"Ġoffice":2200,"aram":2201,"eb":2202,"ĠHome":2203,"ances":2204,"Ġmother":2205,"band":2206,"ĠSon":2207,"iver":2208,"Ġprovided":2209,"ĠCommit":2210,"ples":2211,"Ġinn":2212,"selves":2213,"SE":2214,"Ġsus":2215,"Ġfeat":2216,"Prime":2217,"Ġestab":2218,"put":2219,"Ġcomplaint":2220,"Ġes":2221,"ti":2222,"ware":2223,"Ġearlier":2224,"Ġ21":2225,"kh":2226,"int":2227,"Ġcrit":2228,"50":2229,"Ġleft":2230,"Ġredu":2231,"Ġwhy":2232,"Ġfinancial":2233,"irman":2234,"Ġcamera":2235,"ĠIP":2236,"ilar":2237,"ointed":2238,"Ġconstru":2239,"Ġenc":2240,"ĠHealth":2241,"Ġpati":2242,"pped":2243,"jee":2244,"Ġord":2245,"Ġtre":2246,"Ġcertain":2247,"Ġserious":2248,"abinet":2249,"Ġwent":2250,"Ġbrought":2251,"eople":2252,"Ġrate":2253,"ev":2254,"Ġdecided":2255,"ultural":2256,"rug":2257,"Ġmess":2258,"Un":2259,"meric":2260,"ĠMar":2261,"Ġspec":2262,"Ġsug":2263,"ka":2264,"fic":2265,"aries":2266,"Ġet":2267,"stitute":2268,"Ġdate":2269,"Ġaccept":2270,"Ġlive":2271,"IR":2272,"Ġtreatment":2273,"Ġpress":2274,"men":2275,"anies":2276,"Ġfree":2277,"ope":2278,"Ġri":2279,"rast":2280,"Ġfront":2281,"ĠMadh":2282,"Ġeconomic":2283,"ĠApril":2284,"ĠAh":2285,"wit":2286,"irth":2287,"Ġunderstand":2288,"Ġcontrib":2289,"Ġcontinue":2290,"Ġfuture":2291,"Ġelect":2292,"ĠCouncil":2293,"Ġelection":2294,"Ġbre":2295,"raft":2296,"Ġmonths":2297,"Ġmillion":2298,"ĠDh":2299,"Ġsom":2300,"ĠCM":2301,"Ġpri":2302,"mp":2303,"Ġensure":2304,"Ġfeel":2305,"Ġpar":2306,"Ġglobal":2307,"esides":2308,"Ġspirit":2309,"anwhile":2310,"ĠCo":2311,"Ġplayed":2312,"ability":2313,"Ġscheme":2314,"Ġlangu":2315,"viron":2316,"ley":2317,"Ġpolicy":2318,"ban":2319,"\"\".\"":2320,"inc":2321,"uf":2322,"rah":2323,"wan":2324,"Ġstorage":2325,"hold":2326,"Ġdirected":2327,"ĠCBI":2328,"alf":2329,"Ġdont":2330,"ĠCommittee":2331,"Ġold":2332,"With":2333,"ĠArmy":2334,"la":2335,"Ġetc":2336,"Ġmight":2337,"Ġimmedi":2338,"ize":2339,"Ġprices":2340,"isions":2341,"Ġwicket":2342,"Ġadminist":2343,"Congress":2344,"amed":2345,"ead":2346,"ĠKohli":2347,"Ġ.":2348,"vironment":2349,"AN":2350,"cell":2351,"Ġindustry":2352,"ship":2353,"Both":2354,"Ġworkers":2355,"Ġpast":2356,"orn":2357,"ober":2358,"ored":2359,"lished":2360,"Ġparties":2361,"ĠServ":2362,"ĠMarch":2363,"ung":2364,"Ġefforts":2365,"ĠRep":2366,"Ġmeas":2367,"hra":2368,"Ġeas":2369,"Ġamount":2370,"AM":2371,"irc":2372,"Ġyouth":2373,"Ġmis":2374,"Ġfaith":2375,"rodu":2376,"Ġcontrol":2377,"ĠInternational":2378,"irat":2379,"erred":2380,"Ġdoing":2381,"side":2382,"ees":2383,"Ġtar":2384,"nes":2385,"Ġshort":2386,"reen":2387,"Ġfact":2388,"Ġexpected":2389,"erala":2390,"Ġtweet":2391,"Ġmilit":2392,"Ġide":2393,"Ġkind":2394,"Ġfunction":2395,"Ġhaving":2396,"Ġlo":2397,"lam":2398,"Ġ22":2399,"Ġstat":2400,"Ġrecently":2401,"uary":2402,"Ġlearn":2403,"Ġprojects":2404,"ization":2405,"oj":2406,"ĠAli":2407,"imum":2408,"operation":2409,"Ġjob":2410,"Ġpict":2411,"Ġresults":2412,"ĠTamil":2413,"crib":2414,"hu":2415,"Ġphot":2416,"Ġrepresent":2417,"Ġself":2418,"duc":2419,"Ġprogramme":2420,"ude":2421,"Ġless":2422,"ĠUnited":2423,"ert":2424,"ĠOr":2425,"Ġface":2426,"Ġofficers":2427,"Ġprivate":2428,"Ġnon":2429,"Ġfail":2430,"During":2431,"Ġdaughter":2432,"Ġmind":2433,"ĠJesus":2434,"Ġdest":2435,"Ġdom":2436,"ĠMon":2437,"ĠKarnataka":2438,"uly":2439,"Ġhon":2440,"ension":2441,"Ġden":2442,"hers":2443,"Meanwhile":2444,"Ġpercent":2445,"Ġlikely":2446,"ledge":2447,"ĠMr":2448,"Ġver":2449,"ipal":2450,"Ġshare":2451,"Ġmur":2452,"Ġmeans":2453,"10":2454,"Ġgave":2455,"leg":2456,"Ġdou":2457,"isl":2458,"ĠVi":2459,"While":2460,"Ġcelebr":2461,"person":2462,"Ġsmart":2463,"Ġcapital":2464,"Ġforeign":2465,"ample":2466,"Ġpossible":2467,"ĠX":2468,"ĠHis":2469,"ĠEn":2470,"ĠShe":2471,"Ġreason":2472,"Ġsection":2473,"Ġsuff":2474,"ator":2475,"ode":2476,"Ġwebs":2477,"riculture":2478,"Ġrese":2479,"ĠPh":2480,"Ġaward":2481,"Ġwar":2482,"Ġtour":2483,"ĠNav":2484,"ights":2485,"ceed":2486,"Ġport":2487,"Ġconne":2488,"erc":2489,"IM":2490,"itor":2491,"edd":2492,"dom":2493,"Ġstation":2494,"Ġrelease":2495,"IT":2496,"wa":2497,"usband":2498,"Ġdirect":2499,"af":2500,"Ġwritten":2501,"Ġcompet":2502,"Ġpract":2503,"ains":2504,"Ġbasis":2505,"Ġlost":2506,"ĠGur":2507,"Ġassoci":2508,"Ġvictim":2509,"ika":2510,"Ġled":2511,"Ġside":2512,"Ġcompanies":2513,"Ġtruth":2514,"Ġlim":2515,"aster":2516,"Two":2517,"Ġmor":2518,"ĠAsh":2519,"then":2520,"iting":2521,"Ġrev":2522,"Ġmedical":2523,"Ġable":2524,"Ġener":2525,"asing":2526,"ĠNorth":2527,"Ġmult":2528,"Ġtechnology":2529,"stitu":2530,"ring":2531,"Ġcontest":2532,"aker":2533,"Ġproduction":2534,"Ġcause":2535,"eptember":2536,"cember":2537,"Ġdon":2538,"akes":2539,"icles":2540,"ĠFinance":2541,"ĠAustralia":2542,"Ġposition":2543,"Ġfall":2544,"Ġel":2545,"otion":2546,"Ġaccording":2547,"Ġneeds":2548,"aign":2549,"Ġhigher":2550,"Ġpan":2551,"Is":2552,"ival":2553,"ama":2554,"Ġbecame":2555,"sw":2556,"ĠSal":2557,"ĠTrump":2558,"riy":2559,"Ġresol":2560,"Ġful":2561,"hest":2562,"Ġbirth":2563,"ern":2564,"ada":2565,"head":2566,"efence":2567,"Ġbow":2568,"ĠOct":2569,"ukh":2570,"AR":2571,"ogn":2572,"Ġgold":2573,"Ġstop":2574,"order":2575,"Ġcong":2576,"Ġparent":2577,"adi":2578,"Ġnet":2579,"Why":2580,"Ġmob":2581,"ufact":2582,"Ġhard":2583,"Ġfear":2584,"Ġclose":2585,"Ġdesign":2586,"acity":2587,"uge":2588,"mar":2589,"Ġcaptain":2590,"Ġoil":2591,"Ġcoun":2592,"ĠJune":2593,"engers":2594,"Ġcaus":2595,"ĠCl":2596,"Ġjour":2597,"Do":2598,"Ġtravel":2599,"Ġprevious":2600,"Ġclaimed":2601,"ection":2602,"ovember":2603,"ĠReg":2604,"Ġ23":2605,"Ġfoc":2606,"Ġparts":2607,"Ġrain":2608,"by":2609,"Ġstudy":2610,"Ġsal":2611,"hing":2612,"Ġlives":2613,"Ġextend":2614,"Ġterm":2615,"coming":2616,"Shri":2617,"ĠAmeric":2618,"Ġcommunity":2619,"aut":2620,"ĠKh":2621,"Ġsw":2622,"vernor":2623,"Ġdeclared":2624,"ĠPan":2625,"ĠSy":2626,"Ġgetting":2627,"uro":2628,"Ġrelated":2629,"aran":2630,"ĠWh":2631,"Ġofficer":2632,"Pakistan":2633,"rem":2634,"Ġwrong":2635,"Ġdistricts":2636,"Ġsens":2637,"ĠAfric":2638,"avirus":2639,"Ġconv":2640,"ormer":2641,"ĠMoh":2642,"Ġsure":2643,"Ġ2016":2644,"ĠMuk":2645,"Ġincreased":2646,"ĠIndust":2647,"Ġlab":2648,"ĠSam":2649,"aks":2650,"oses":2651,"aur":2652,"Ġusing":2653,"rastructure":2654,"ourse":2655,"Ġenergy":2656,"Ġforces":2657,"Ġdisp":2658,"Ġstated":2659,"Ġsociety":2660,"ĠDist":2661,"ĠBollywood":2662,"Ġreve":2663,"Ġaut":2664,"garh":2665,"onavirus":2666,"ĠIm":2667,"Ġever":2668,"SS":2669,"Ġtarget":2670,"Ġconn":2671,"CP":2672,"Ġcoming":2673,"Then":2674,"empt":2675,"ĠSw":2676,"uted":2677,"Ġ28":2678,"Ġstar":2679,"Ġtrib":2680,"ĠSm":2681,"for":2682,"Ġpoints":2683,"Ġproblem":2684,"People":2685,"Ġwitness":2686,"Ġexist":2687,"21":2688,"rote":2689,"encies":2690,"Ġwebsite":2691,"come":2692,"udd":2693,"ivid":2694,"Ġinstitut":2695,"ĠMadhya":2696,"Ġlight":2697,"Ġwhom":2698,"Ġhusband":2699,"Ġty":2700,"Ġobs":2701,"ducation":2702,"Ġconducted":2703,"Ġexample":2704,"Ġassist":2705,"Ġsold":2706,"ĠDecember":2707,"Ġmember":2708,"Ġcoll":2709,"Ġcitizens":2710,"ipur":2711,"ĠUP":2712,"Ġdirector":2713,"aya":2714,"ĠTechn":2715,"Ġactivities":2716,"play":2717,"Ġcreated":2718,"Ġleast":2719,"ĠNo":2720,"Some":2721,"ĠBible":2722,"Ġ40":2723,"Ġkey":2724,"ĠSeptember":2725,"ugust":2726,"ison":2727,"Ġnight":2728,"ficult":2729,"Ġunt":2730,"lection":2731,"Ġdra":2732,"ource":2733,"itation":2734,"Ġplaces":2735,"Ġloss":2736,"Ġcirc":2737,"Ġcampaign":2738,"Ġcommon":2739,"Ġfeatures":2740,"Ġbuilding":2741,"ĠKerala":2742,"Ġdetails":2743,"ething":2744,"Ġnecess":2745,"Indian":2746,"Ġvir":2747,"ĠHy":2748,"ushed":2749,"30":2750,"Go":2751,"Ġconstitu":2752,"Ġi":2753,"Ġcard":2754,"Ġconnection":2755,"Ġproblems":2756,"Ġprogress":2757,"ĠJuly":2758,"Ġrecom":2759,"ĠJanuary":2760,"udget":2761,"Ġparticular":2762,"Ġstri":2763,"ery":2764,"Ġappear":2765,"hib":2766,"Ġdifficult":2767,"Ġtrade":2768,"rs":2769,"rael":2770,"bel":2771,"ĠNovember":2772,"Ġcentral":2773,"ogra":2774,"ĠHar":2775,"Ġabove":2776,"Ġenter":2777,"Ġ,":2778,"Ġrail":2779,"Ġ31":2780,"Ġstars":2781,"Ġknowledge":2782,"Ġreports":2783,"Ġseven":2784,"Ġpray":2785,"Ġforward":2786,"Ġreview":2787,"aled":2788,"ateg":2789,"Ġ26":2790,"Ġeconomy":2791,"Ġtrue":2792,"olk":2793,"Ġtemple":2794,"emic":2795,"lu":2796,"phone":2797,"Ġattended":2798,"ĠOctober":2799,"ĠCorpor":2800,"Ġcapacity":2801,"Ġexpressed":2802,"eg":2803,"ami":2804,"Ġhost":2805,"ĠSci":2806,"Ġhours":2807,"Ġhit":2808,"Ġlaunch":2809,"atory":2810,"vest":2811,"ĠSp":2812,"nding":2813,"Ġbehind":2814,"elfare":2815,"Ġmaintain":2816,"ication":2817,"Ġsuggest":2818,"Ġbenefit":2819,"aul":2820,"Ġnor":2821,"Ex":2822,"ĠHouse":2823,"ĠSur":2824,"ops":2825,"Ġpurp":2826,"Ġsuper":2827,"ladesh":2828,"ĠMu":2829,"Ġhistory":2830,"Ġspread":2831,"eed":2832,"Ġ27":2833,"Ġhimself":2834,"Ġnothing":2835,"Ġtell":2836,"ĠHindi":2837,"12":2838,"ividual":2839,"ĠAndhra":2840,"Ġstrengthen":2841,"AP":2842,"witter":2843,"Ġground":2844,"Ġtraining":2845,"Ġsil":2846,"ĠHindu":2847,"Ġlow":2848,"Ġmus":2849,"Ġsan":2850,"Ġreach":2851,"Ġpoor":2852,"Ġtown":2853,"ĠCup":2854,"Ġreally":2855,"Ġsum":2856,"erve":2857,"ĠBill":2858,"Ġsingle":2859,"Ġcivil":2860,"ier":2861,"Our":2862,"ĠFeb":2863,"Ġvac":2864,"Ġansw":2865,"ĠBharat":2866,"bed":2867,"ped":2868,"Ġboard":2869,"My":2870,"Ġspokes":2871,"uck":2872,"Ġemer":2873,"isha":2874,"Ġdies":2875,"Ġrequest":2876,"Ġinaug":2877,"Ġquality":2878,"MP":2879,"ĠFore":2880,"Ġparents":2881,"rish":2882,"Ġrelationship":2883,"Ġfilms":2884,"Ġidentified":2885,"Ġhappened":2886,"ĠSri":2887,"ousand":2888,"jit":2889,"irm":2890,"Ġmurder":2891,"ilt":2892,"Ġcandidate":2893,"ots":2894,"Ġrequired":2895,"Ġcheck":2896,"Ġbra":2897,"ĠAugust":2898,"onse":2899,"jan":2900,"Also":2901,"US":2902,"vey":2903,"ĠSena":2904,"Ġmer":2905,"ators":2906,"Ġrecovered":2907,"Ġcommittee":2908,"ĠComp":2909,"Pro":2910,"ĠTel":2911,"Ġpun":2912,"Ġlargest":2913,"ĠIsrael":2914,"Ġresearch":2915,"Ġmanagement":2916,"reg":2917,"Ġsomething":2918,"abh":2919,"Ġassembly":2920,"ruary":2921,"Ġsuccessful":2922,"Ġwrote":2923,"ĠSun":2924,"Ġagree":2925,"nath":2926,"Many":2927,"ji":2928,"Ġmiss":2929,"ĠKe":2930,"ĠEducation":2931,"Ġfav":2932,"Ġhappy":2933,"Ġpositive":2934,"ĠInstitute":2935,"Ġwhether":2936,"Ġmanufact":2937,"Ġage":2938,"AT":2939,"Ġstay":2940,"ĠKing":2941,"Ġcred":2942,"ike":2943,"SC":2944,"ohit":2945,"ĠPand":2946,"Ġonline":2947,"Ġimprove":2948,"Ġabs":2949,"Ġ199":2950,"ns":2951,"Ġindividual":2952,"Ġincome":2953,"achal":2954,"ĠDefence":2955,"Ġthreat":2956,"Ġonce":2957,"Ġpot":2958,"uries":2959,"par":2960,"Ġ2014":2961,"Ġnorm":2962,"Ġcast":2963,"ĠVice":2964,"Ġpetition":2965,"oon":2966,"ĠSub":2967,"Ġviolence":2968,"add":2969,"Ġpo":2970,"Ġthough":2971,"Ġfast":2972,"Ġsources":2973,"ta":2974,"Ġdise":2975,"Ġsignific":2976,"char":2977,"ĠNadu":2978,"term":2979,"igarh":2980,"Ġthought":2981,"ocu":2982,"Ġpassed":2983,"Ġdr":2984,"Ġsecretary":2985,"year":2986,"ĠConstitution":2987,"Ġthemselves":2988,"Ġwords":2989,"Ġapplication":2990,"Ġgrant":2991,"nal":2992,"earch":2993,"acy":2994,"ĠRuss":2995,"Ġmater":2996,"Former":2997,"Ġconduct":2998,"ĠIslam":2999,"Ġworks":3000,"Ġadmitted":3001,"Ġearly":3002,"Ġwhole":3003,"Ġpersonnel":3004,"ĠPublic":3005,"derabad":3006,"Ġrecommend":3007,"ton":3008,"ĠLal":3009,"Ġcooperation":3010,"Ġmot":3011,"Ġcateg":3012,"ĠPra":3013,"formation":3014,"most":3015,"Ġgame":3016,"Ġseat":3017,"Ġhous":3018,"Ġap":3019,"Ġbegin":3020,"ream":3021,"ĠMLA":3022,"erman":3023,"cri":3024,"Ġdriver":3025,"Ġpersonal":3026,"uled":3027,"ĠOffic":3028,"Ġsat":3029,"ĠBal":3030,"Ġobject":3031,"Ġexcept":3032,"Ġsubject":3033,"Ġallowed":3034,"Ġban":3035,"omes":3036,"Ġye":3037,"ĠHospital":3038,"Ġ37":3039,"Ġenvironment":3040,"Ġteams":3041,"Ġey":3042,"ĠDev":3043,"ills":3044,"Ġconsum":3045,"verage":3046,"ler":3047,"Ġthing":3048,"Ġraised":3049,"DA":3050,"Ġball":3051,"Ġdam":3052,"ĠDistrict":3053,"Ġforce":3054,"yan":3055,"DP":3056,"ĠVijay":3057,"11":3058,"ammad":3059,"ĠFebruary":3060,"Ġplayers":3061,"Ġopt":3062,"pir":3063,"estic":3064,"ĠEngland":3065,"Ġaccess":3066,"ĠKan":3067,"Ġcourse":3068,"apan":3069,"oice":3070,"het":3071,"Ġ2015":3072,"Ġtele":3073,"rop":3074,"Ġinvestment":3075,"Ġteac":3076,"ety":3077,"atural":3078,"Ġcharge":3079,"Ġdepartment":3080,"Ġanything":3081,"emor":3082,"ĠYou":3083,"ened":3084,"Ġterms":3085,"ĠTwitter":3086,"ga":3087,"Ġproducts":3088,"down":3089,"AI":3090,"Ġrecogn":3091,"Ġaccom":3092,"icial":3093,"resh":3094,"Ġbanks":3095,"Ġachieve":3096,"ĠCabinet":3097,"ems":3098,"Ġneg":3099,"odies":3100,"80":3101,"mission":3102,"ech":3103,"ĠGods":3104,"ici":3105,"Ġz":3106,"Ġpolls":3107,"omen":3108,"Ġjoint":3109,"Ġdeep":3110,"Ġvalue":3111,"Ġlat":3112,"Ġimmediately":3113,"Ġrights":3114,"ivity":3115,"Ġsearch":3116,"Ġaim":3117,"ĠArt":3118,"dra":3119,"Ġinfrastructure":3120,"Ġincluded":3121,"ney":3122,"Ġintrodu":3123,"Ġmean":3124,"ĠJud":3125,"Ġpartners":3126,"Ġimm":3127,"Ġshoot":3128,"Ġfollowed":3129,"Ġlanguage":3130,"ĠBangladesh":3131,"ortem":3132,"ĠAdv":3133,"Ġoften":3134,"jri":3135,"Ġsimilar":3136,"Ġpatients":3137,"angana":3138,"sequ":3139,"Ġten":3140,"Ġbelong":3141,"Ġlod":3142,"ulated":3143,"ĠPras":3144,"ĠYog":3145,"Ġunto":3146,"ĠAhmed":3147,"Ġchalleng":3148,"riyanka":3149,"Ġdeg":3150,"NE":3151,"going":3152,"Ġresident":3153,"Ġ29":3154,"ĠMinisters":3155,"Ġprobe":3156,"ĠVirat":3157,"ald":3158,"abor":3159,"utive":3160,"Ġletter":3161,"Ġnecessary":3162,"Ġtri":3163,"Ġfriends":3164,"igation":3165,"Ġmag":3166,"Ġheavy":3167,"Ġschools":3168,"Ġdisplay":3169,"Ġsust":3170,"pecially":3171,"IS":3172,"Ġupcoming":3173,"Am":3174,"Ġcommand":3175,"henn":3176,"Ġrushed":3177,"bit":3178,"Ġdocu":3179,"eds":3180,"Ġ\"\"\"\"":3181,"Ġshi":3182,"ĠAy":3183,"ĠPatel":3184,"Ġstory":3185,"ĠApp":3186,"Ġmom":3187,"Ġexamination":3188,"ids":3189,"Ġconstruction":3190,"Earlier":3191,"ĠAfrica":3192,"Ġsister":3193,"ĠSche":3194,"ĠBrit":3195,"Ġfamilies":3196,"Ġhands":3197,"Ġaffected":3198,"Ġquar":3199,"Ġdemoc":3200,"ja":3201,"Ġinstitutions":3202,"Ġfell":3203,"Ġfocus":3204,"ological":3205,"Ġbegan":3206,"Ġincludes":3207,"Ġdig":3208,"Ġreserv":3209,"Ġactive":3210,"Ġcou":3211,"ĠBl":3212,"ograph":3213,"Ġpaid":3214,"Ġmessage":3215,"Ġgener":3216,"oul":3217,"Ġresign":3218,"work":3219,"IP":3220,"Ġmaterial":3221,"Ġmention":3222,"evers":3223,"Ġplaying":3224,"Ġclean":3225,"Ġinaugur":3226,"Ġgovernments":3227,"ilater":3228,"Ġkm":3229,"Ġthousand":3230,"MC":3231,"Ġdeveloped":3232,"Ġrecent":3233,"Ġcreate":3234,"jriwal":3235,"Ġcharges":3236,"oms":3237,"Ġhighest":3238,"urance":3239,"iah":3240,"omb":3241,"Ġline":3242,"ĠLt":3243,"Ġpopulation":3244,"hennai":3245,"Ġengine":3246,"ghan":3247,"Ġcoronavirus":3248,"Ġtrying":3249,"Ġtransf":3250,"vision":3251,"ĠSar":3252,"Ġang":3253,"Ġappointed":3254,"aper":3255,"ĠSanjay":3256,"Ġworth":3257,"Ġprim":3258,"pper":3259,"Ġseason":3260,"Ġcities":3261,"unic":3262,"Ġappre":3263,"Delhi":3264,"Ġpow":3265,"Ġstrate":3266,"Ġoffer":3267,"ĠPad":3268,"Ġguid":3269,"ĠArun":3270,"Ġwickets":3271,"ĠODI":3272,"ĠRajya":3273,"Ġbench":3274,"ita":3275,"Ġaware":3276,"Ġinte":3277,"quir":3278,"ĠRailways":3279,"ying":3280,"ĠAk":3281,"ĠMLAs":3282,"15":3283,"Ġministry":3284,"Ġnamed":3285,"Every":3286,"ĠColle":3287,"Ġwa":3288,"ĠJag":3289,"ex":3290,"Ġdefe":3291,"Ġhope":3292,"arsh":3293,"joy":3294,"ories":3295,"atic":3296,"ĠSo":3297,"ĠJos":3298,"Ġliving":3299,"Ġinstru":3300,"Ġdoub":3301,"Ġwarn":3302,"Ġlittle":3303,"vere":3304,"Ġinvolved":3305,"Ġleave":3306,"Ġbad":3307,"range":3308,"Ġreject":3309,"ĠCorporation":3310,"Ġpolitics":3311,"oved":3312,"Ġlegisl":3313,"Ġcharact":3314,"Ġtrain":3315,"Ġris":3316,"change":3317,"Ġsteps":3318,"Ġhuge":3319,"Ġthank":3320,"Ġpopular":3321,"Ġpub":3322,"inese":3323,"Ġexperience":3324,"Ġproduced":3325,"ĠGroup":3326,"ĠSush":3327,"Ġsmartphone":3328,"urope":3329,"Ġorig":3330,"hood":3331,"Ġexec":3332,"pendent":3333,"ĠGovernor":3334,"riday":3335,"Ġmass":3336,"val":3337,"iber":3338,"erem":3339,"ĠEast":3340,"Add":3341,"atform":3342,"Ġahead":3343,"ĠBab":3344,"ĠJehovahs":3345,"ĠAz":3346,"Ġoutside":3347,"Ġsession":3348,"ilateral":3349,"Ġmeasures":3350,"fall":3351,"Ġespecially":3352,"uru":3353,"App":3354,"aging":3355,"ĠHyderabad":3356,"ĠTechnology":3357,"Ġactress":3358,"Ar":3359,"Ġeight":3360,"reet":3361,"17":3362,"Ġresponsibility":3363,"Ġopportunity":3364,"iers":3365,"Ġeither":3366,"Ġded":3367,"Ġwind":3368,"ĠRoy":3369,"action":3370,"Ġconcerned":3371,"enger":3372,"Ġresponse":3373,"ĠNit":3374,"let":3375,"ites":3376,"Ġhearing":3377,"Ġfoot":3378,"Ġregarding":3379,"Now":3380,"Ġcut":3381,"Ġcontro":3382,"ĠPrasad":3383,"Besides":3384,"Ġtweeted":3385,"olkata":3386,"rance":3387,"eous":3388,"ĠWhat":3389,"Ġmobile":3390,"Ġboy":3391,"Ġvehicles":3392,"Ġemployees":3393,"Ġrequire":3394,"18":3395,"ksh":3396,"Ġuntil":3397,"ĠSuper":3398,"ĠFIR":3399,"Ġleading":3400,"Ġappeal":3401,"ikh":3402,"ĠForce":3403,"oid":3404,"AS":3405,"Ġscreen":3406,"ĠIran":3407,"Ġtw":3408,"Ġproviding":3409,"ĠDal":3410,"ĠBar":3411,"Ġadministration":3412,"Ġcal":3413,"Ġrank":3414,"Ġperformance":3415,"ĠSchool":3416,"khand":3417,"ĠIndians":3418,"ĠResearch":3419,"Ġsignificant":3420,"based":3421,"orters":3422,"Ġill":3423,"Ġjail":3424,"ĠTra":3425,"Ġones":3426,"ĠSund":3427,"Ġsupply":3428,"ĠLaw":3429,"Ġenhan":3430,"Ġcreat":3431,"new":3432,"icated":3433,"Ġcompleted":3434,"Ġcommitted":3435,"Ġ60":3436,"Ġapproved":3437,"RC":3438,"Ġsong":3439,"Ġmorning":3440,"Ġobserv":3441,"Ġlodged":3442,"Ġgone":3443,"Ġministers":3444,"Ġfel":3445,"Ġaud":3446,"Ġpain":3447,"Spe":3448,"Ġer":3449,"Ġconsidered":3450,"Ġbodies":3451,"estival":3452,"Ġreligious":3453,"Ġrural":3454,"icro":3455,"Ġestablish":3456,"ĠInst":3457,"Ġ32":3458,"ĠTrans":3459,"ĠCommissioner":3460,"ĠCont":3461,"Ġroles":3462,"Ġprior":3463,"ĠPol":3464,"Ġvol":3465,"ris":3466,"ohar":3467,"Ġindeed":3468,"Ġexpress":3469,"Ġdece":3470,"aily":3471,"Ġexc":3472,"Ġreli":3473,"ague":3474,"Ġscient":3475,"Ġblood":3476,"Ġpat":3477,"Ġauthorities":3478,"ĠMonday":3479,"Ġborder":3480,"oni":3481,"cement":3482,"Com":3483,"Ġtrust":3484,"ĠBan":3485,"aching":3486,"hips":3487,"Ġcomb":3488,"ĠRav":3489,"ĠPal":3490,"iple":3491,"ED":3492,"ĠFriday":3493,"ĠJapan":3494,"cle":3495,"ze":3496,"agram":3497,"Ġconnect":3498,"Ġpresented":3499,"riage":3500,"Ġconsider":3501,"CCI":3502,"orrow":3503,"Ġpunish":3504,"ĠAssoci":3505,"ĠIt":3506,"ĠNath":3507,"Ġspace":3508,"ohan":3509,"ĠNar":3510,"ĠChairman":3511,"Ġfacilities":3512,"Ġencoura":3513,"ĠDeep":3514,"ĠBach":3515,"anda":3516,"ĠCap":3517,"utes":3518,"Ġcomplet":3519,"Ġphys":3520,"stant":3521,"ĠAssam":3522,"Ministry":3523,"ĠEurope":3524,"Ġchallen":3525,"imate":3526,"raj":3527,"iful":3528,"pite":3529,"Ġess":3530,"ĠFar":3531,"Ġenjoy":3532,"Ġdistrib":3533,"Ġmilitary":3534,"Ġut":3535,"illed":3536,"Ġquestions":3537,"rin":3538,"Ġsought":3539,"Ġgroups":3540,"Ġmovement":3541,"Ġwanted":3542,"Ġnom":3543,"Union":3544,"Ġcash":3545,"Ġjudge":3546,"\"\",":3547,"ras":3548,"Ġregular":3549,"rog":3550,"ruption":3551,"Ġgiving":3552,"reedom":3553,"II":3554,"ĠAfghan":3555,"gn":3556,"Ġsqu":3557,"Ġplatform":3558,"16":3559,"ably":3560,"Ġattempt":3561,"Ġpropos":3562,"road":3563,"Ġdefence":3564,"Ġreligion":3565,"Ġ35":3566,"Ġrecorded":3567,"ĠGST":3568,"Ġoperation":3569,"Ġlower":3570,"Ġconference":3571,"irst":3572,"Ġexerc":3573,"Ġwhose":3574,"Ġalleg":3575,"Ġsaw":3576,"Raj":3577,"Ġconditions":3578,"craft":3579,"Ġlooking":3580,"Ġsubs":3581,"Ġelectric":3582,"Ġadditional":3583,"body":3584,"vent":3585,"Ġsex":3586,"ĠTV":3587,"Ġdomestic":3588,"ĠKejriwal":3589,"Ġqual":3590,"ĠSalman":3591,"ĠSP":3592,"Ġready":3593,"ĠInstagram":3594,"hai":3595,"ĠSoc":3596,"rief":3597,"ĠOff":3598,"inated":3599,"Ġdoctors":3600,"Ġaddition":3601,"Chief":3602,"Ġapply":3603,"Ġprime":3604,"ĠIC":3605,"25":3606,"ĠKar":3607,"isc":3608,"Ġwis":3609,"ira":3610,"Ġ$":3611,"Ġincreasing":3612,"Ġtemper":3613,"dict":3614,"Ġearn":3615,"Ġtit":3616,"ĠChinese":3617,"Ġhy":3618,"Ġacqu":3619,"Ġtransport":3620,"mortem":3621,"ĠJoh":3622,"Ġ--":3623,"Ġcompr":3624,"cribed":3625,"Ġcover":3626,"RD":3627,"jun":3628,"Ġanti":3629,"load":3630,"Ġcomplete":3631,"Ġvers":3632,"ĠChennai":3633,"ighb":3634,"sc":3635,"Ġcross":3636,"adha":3637,"book":3638,"ĠEnglish":3639,"Ġcustom":3640,"Ġclos":3641,"Ġrevealed":3642,"Ġran":3643,"Ġbillion":3644,"ĠPe":3645,"Ġlegal":3646,"irmed":3647,"icide":3648,"nam":3649,"Ġcompared":3650,"Ġtherefore":3651,"oted":3652,"Ġhalf":3653,"ĠDeputy":3654,"ĠGerman":3655,"Ġlocated":3656,"opal":3657,"ĠCan":3658,"Ġanyone":3659,"Ġneeded":3660,"Ġworked":3661,"cast":3662,"etro":3663,"Ph":3664,"ĠDav":3665,"Ġjoined":3666,"ĠAmb":3667,"harkhand":3668,"Ġbar":3669,"ĠMedical":3670,"Ġsports":3671,"Im":3672,"Ġevidence":3673,"ĠRAM":3674,"ows":3675,"Ġask":3676,"Ġoperations":3677,"Ġshar":3678,"ray":3679,"ĠKal":3680,"Ġopposition":3681,"Ġmakes":3682,"ĠCricket":3683,"ĠAsia":3684,"tery":3685,"Ġimpact":3686,"ĠBen":3687,"lied":3688,"oting":3689,"bir":3690,"Ġexpect":3691,"quiry":3692,"chay":3693,"Ġround":3694,"itude":3695,"ĠRed":3696,"iant":3697,"Ġquite":3698,"Ġmoment":3699,"Ġagency":3700,"ĠIN":3701,"Ġpurpose":3702,"Ġcy":3703,"aught":3704,"Ġitself":3705,"Ġbur":3706,"light":3707,"Ġpotential":3708,"Ġculture":3709,"Ġpassengers":3710,"iab":3711,"22":3712,"Ġpen":3713,"ĠIPL":3714,"Ġsepar":3715,"Ġdeploy":3716,"Ġproposed":3717,"Ġking":3718,"ĠKolkata":3719,"Ġprotect":3720,"hel":3721,"sec":3722,"Ġtalks":3723,"Man":3724,"Ġconstituency":3725,"ER":3726,"ĠPre":3727,"iminal":3728,"PF":3729,"Ġprepared":3730,"after":3731,"Ġclosed":3732,"Follow":3733,"iles":3734,"Ġstrength":3735,"Ġwel":3736,"ĠSte":3737,"inary":3738,"Ġminor":3739,"Ġcentury":3740,"Ġcarried":3741,"Ġcustody":3742,"Ġjustice":3743,"lected":3744,"ĠRoad":3745,"yal":3746,"ĠUN":3747,"isgarh":3748,"Ġprovisions":3749,"ires":3750,"ĠDo":3751,"Ġvehicle":3752,"ĠDes":3753,"Ġwal":3754,"ĠRajnath":3755,"Ġhistor":3756,"Ġwatch":3757,"Ġrupe":3758,"Ġtalk":3759,"ĠAt":3760,"ĠPakistani":3761,"his":3762,"Ġkept":3763,"Ġimplementation":3764,"Ġsafety":3765,"Ġphase":3766,"Ġrise":3767,"More":3768,"FC":3769,"ĠRailway":3770,"Ġneighb":3771,"Ġinnov":3772,"40":3773,"ĠLtd":3774,"Ġcerem":3775,"Ġworship":3776,"Ġspeed":3777,"racy":3778,"urt":3779,"Ġinvestigating":3780,"Ġbats":3781,"uesday":3782,"Ġrespectively":3783,"Ġopportunities":3784,"ene":3785,"Ġstatus":3786,"ĠUr":3787,"Ġhol":3788,"Ġundert":3789,"att":3790,"Ġspeak":3791,"asons":3792,"pta":3793,"ĠBachchan":3794,"inent":3795,"Ġmodern":3796,"apur":3797,"merce":3798,"pan":3799,"Ġton":3800,"undred":3801,"achin":3802,"press":3803,"ĠAdity":3804,"Ġmodel":3805,"Ġchanges":3806,"ĠGang":3807,"Ġcultural":3808,"Ġstaff":3809,"Ġbelow":3810,"Ġfirm":3811,"Ġorganised":3812,"uel":3813,"de":3814,"ĠRepublic":3815,"IN":3816,"incipal":3817,"disha":3818,"back":3819,"Ġleadership":3820,"Ġlock":3821,"Ġgets":3822,"ĠMad":3823,"Modi":3824,"conomic":3825,"Ġcredit":3826,"Ġtakes":3827,"Ġprevent":3828,"Ġdeceased":3829,"Ġbuilt":3830,"Ġterrorists":3831,"Ġadop":3832,"usion":3833,"ĠGl":3834,"ĠTuesday":3835,"Under":3836,"Ġstra":3837,"Ġproceed":3838,"rant":3839,"ĠMy":3840,"ĠIT":3841,"know":3842,"enced":3843,"ruit":3844,"Ġrules":3845,"Ġharm":3846,"odh":3847,"Apart":3848,"ĠRel":3849,"Ġspokesperson":3850,"Ġseeking":3851,"Ġhouses":3852,"bar":3853,"ĠMand":3854,"onald":3855,"Ġpil":3856,"Ġalliance":3857,"ĠServices":3858,"Ġdeaths":3859,"Ġdrug":3860,"ĠBe":3861,"ednes":3862,"Ġfunds":3863,"opra":3864,"PC":3865,"Ġfulf":3866,"elines":3867,"EO":3868,"Mumbai":3869,"Ġpicture":3870,"oday":3871,"ening":3872,"Ġunderway":3873,"ursday":3874,"Ġlate":3875,"ĠMuslims":3876,"Ġsigned":3877,"ĠSin":3878,"udents":3879,"Who":3880,"Ġappreci":3881,"Ġstake":3882,"Ġconc":3883,"igg":3884,"Ġ70":3885,"gment":3886,"Ġmanner":3887,"mb":3888,"ĠThis":3889,"ott":3890,"vind":3891,"Ġsend":3892,"Ġdiesel":3893,"ĠOne":3894,"Ġforg":3895,"ĠTri":3896,"Ġdi":3897,"Ġemployment":3898,"Ġamend":3899,"ednesday":3900,"Ġnotice":3901,"ĠBut":3902,"Ġdaily":3903,"Ġwants":3904,"ampions":3905,"Ġdirection":3906,"Ġpresence":3907,"ĠTha":3908,"Ġinjuries":3909,"hattisgarh":3910,"Ġterrorism":3911,"Ġfourth":3912,"elling":3913,"Speaking":3914,"Ġsuicide":3915,"Ab":3916,"Ġcongrat":3917,"Ġestim":3918,"ĠScheme":3919,"Ġfreedom":3920,"ique":3921,"ĠHD":3922,"ĠSunday":3923,"ĠNe":3924,"kshay":3925,"ora":3926,"Three":3927,"Ġformed":3928,"Ġblack":3929,"Ġviral":3930,"Ġdiscussed":3931,"ĠZeal":3932,"Those":3933,"Ġmarried":3934,"ĠBritish":3935,"ĠCivil":3936,"Ġcharacter":3937,"ĠChandigarh":3938,"Ġestablished":3939,"Ġjournal":3940,"ĠCollege":3941,"Ġhar":3942,"Ġways":3943,"ĠKore":3944,"Ġ198":3945,"Ġplant":3946,"Ġrepl":3947,"ades":3948,"ĠZealand":3949,"Ġdemanded":3950,"ĠMission":3951,"EL":3952,"Ġfile":3953,"ammed":3954,"Ġconfirmed":3955,"Following":3956,"pond":3957,"Ġlaws":3958,"estern":3959,"ĠWednesday":3960,"Ġeveryone":3961,"ĠThursday":3962,"Ġbi":3963,"ĠAssociation":3964,"ini":3965,"Ġdisease":3966,"Ġvictory":3967,"Ġvs":3968,"14":3969,"Ġanim":3970,"ĠRohit":3971,"ĠMess":3972,"Ġrespond":3973,"Ġcontinued":3974,"ixed":3975,"Ġprofession":3976,"Ġpros":3977,"Other":3978,"AL":3979,"urday":3980,"Ġmusic":3981,"Ġassistance":3982,"Ġappe":3983,"hawan":3984,"che":3985,"ĠChristian":3986,"ĠSection":3987,"Ġrelief":3988,"60":3989,"Ġ2013":3990,"Ġgod":3991,"Ġnorth":3992,"pping":3993,"akhand":3994,"CT":3995,"ask":3996,"uter":3997,"Ġarri":3998,"ables":3999,"gram":4000,"Ġflood":4001,"Ġspecific":4002,"ĠJharkhand":4003,"Ġ80":4004,"miss":4005,"Ġschemes":4006,"Ġplans":4007,"Ġcommission":4008,"Ġvotes":4009,"Ġtraffic":4010,"alled":4011,"ĠPaw":4012,"Ġaverage":4013,"ĠSha":4014,"vention":4015,"Ġanswer":4016,"Ġprovision":4017,"lymp":4018,"ĠAnil":4019,"ĠChopra":4020,"epal":4021,"ector":4022,"ternet":4023,"Ġmax":4024,"Ġpath":4025,"Ġgas":4026,"ĠScience":4027,"Ġ197":4028,"ĠNag":4029,"ES":4030,"Ġlif":4031,"Ġcaused":4032,"lear":4033,"Ġassess":4034,"Ġdestro":4035,"ĠKrish":4036,"Ġhanded":4037,"Ġpack":4038,"Ġstage":4039,"ĠAuthor":4040,"AD":4041,"Ġoccur":4042,"ĠSaturday":4043,"Ġste":4044,"ault":4045,"Ġshot":4046,"use":4047,"rad":4048,"ixel":4049,"ĠService":4050,"where":4051,"Ġeverything":4052,"tained":4053,"Ġexpand":4054,"mercial":4055,"Ġir":4056,"Ġsite":4057,"uri":4058,"Ġseized":4059,"Since":4060,"Ġrates":4061,"Ġnames":4062,"ĠInformation":4063,"Later":4064,"ĠMot":4065,"ĠOur":4066,"ester":4067,"ager":4068,"Ġpressure":4069,"Ġdemon":4070,"ĠLanka":4071,"Ġsched":4072,"ilm":4073,"Ġevil":4074,"Ġfailed":4075,"Ġmarriage":4076,"ricke":4077,"Ġallegedly":4078,"atever":4079,"Ġreform":4080,"pendence":4081,"Ġago":4082,"Ġmatches":4083,"ovid":4084,"Not":4085,"ĠSC":4086,"Ġarg":4087,"Ġexisting":4088,"Ġproperty":4089,"Ġsource":4090,"Ġoffered":4091,"Ġinflu":4092,"Ġreferred":4093,"Ġgives":4094,"Ġ2011":4095,"Dr":4096,"ĠSpecial":4097,"ĠForeign":4098,"Ġrally":4099,"umbers":4100,"Ġcoal":4101,"ĠArab":4102,"ĠOdisha":4103,"Ġagriculture":4104,"Ġimportance":4105,"everal":4106,"Ġmoved":4107,"Ġnations":4108,"Ġarrange":4109,"Ġbilateral":4110,"ovind":4111,"RO":4112,"Ġprin":4113,"Ġextended":4114,"aidu":4115,"ĠInt":4116,"Ma":4117,"Ġmentioned":4118,"Ġduty":4119,"Ġlatest":4120,"Ġdeterm":4121,"Ġpromote":4122,"Ġaircraft":4123,"Ġrule":4124,"Ġmajority":4125,"Ġeffective":4126,"Ġnatural":4127,"Ġparticipated":4128,"ĠLim":4129,"itions":4130,"Ġresc":4131,"ĠTer":4132,"Ġthou":4133,"Ġheard":4134,"Ġanal":4135,"Ġcentre":4136,"pects":4137,"Ġchanged":4138,"Ġdidnt":4139,"Ġ500":4140,"ĠSecurity":4141,"MS":4142,"ĠOlymp":4143,"ĠTrib":4144,"Ġfig":4145,"Ġlink":4146,"Ġpictures":4147,"Ġmand":4148,"Ġbox":4149,"Ġinside":4150,"Ġtried":4151,"osh":4152,"By":4153,"ĠOrgan":4154,"Even":4155,"oud":4156,"itial":4157,"Ġprovides":4158,"ĠAmerican":4159,"ĠDiv":4160,"Ġplea":4161,"co":4162,"olution":4163,"ĠPaul":4164,"Ġsides":4165,"ĠShan":4166,"Ġalmost":4167,"Ġsurely":4168,"Ġextrem":4169,"Ġdenied":4170,"Ġ2012":4171,"Ġvia":4172,"Ġinternal":4173,"Ġpers":4174,"Ġceremony":4175,"Ġalone":4176,"Ġpurch":4177,"ĠDi":4178,"ĠArticle":4179,"ĠMod":4180,"venue":4181,"Ġred":4182,"Ġvillages":4183,"Ġbiggest":4184,"que":4185,"rep":4186,"ĠKul":4187,"JD":4188,"ĠCons":4189,"ĠBhatt":4190,"osing":4191,"Ġallegations":4192,"ondon":4193,"utions":4194,"ĠHimachal":4195,"rew":4196,"Several":4197,"Ġremained":4198,"Ġturned":4199,"istic":4200,"Ġbail":4201,"Ġpetrol":4202,"ayan":4203,"Ġcontinu":4204,"Ġriver":4205,"uv":4206,"ĠGe":4207,"Ġmatters":4208,"ĠGupta":4209,"kash":4210,"Ġtrains":4211,"ĠNagar":4212,"Ġbenefits":4213,"ME":4214,"ĠRao":4215,"spe":4216,"ĠOn":4217,"Ġbless":4218,"Ġscored":4219,"Ġforth":4220,"chi":4221,"Ġprogrammes":4222,"Ġroads":4223,"Ġleav":4224,"Ġscheduled":4225,"Ġunits":4226,"Ġseek":4227,"ript":4228,"'.":4229,"Ġwid":4230,"ĠRukh":4231,"Ġnearly":4232,"Ġstudent":4233,"Ġpand":4234,"ĠDis":4235,"ĠPlan":4236,"Ġpunishment":4237,"Ġteachers":4238,"Ġshows":4239,"Ġbrothers":4240,"Ġgoods":4241,"Ġtourn":4242,"Ġreasons":4243,"Ġcell":4244,"ĠVer":4245,"Ġfans":4246,"indra":4247,"Ġresources":4248,"Ġprimary":4249,"Ġaccounts":4250,"ĠJanata":4251,"ĠIS":4252,"Ġspeech":4253,"phas":4254,"ĠUttarakhand":4255,"Ġrailway":4256,"Ġcrime":4257,"ĠDhoni":4258,"Ġusers":4259,"though":4260,"Ġunit":4261,"ĠArvind":4262,"Ġflow":4263,"ĠAbd":4264,"Ġrape":4265,"Ġcop":4266,"Ġsouth":4267,"Ġresponsible":4268,"ĠWelfare":4269,"Of":4270,"ox":4271,"Ġmark":4272,"icked":4273,"Ġnature":4274,"Ġbill":4275,"Ġcategory":4276,"iy":4277,"anger":4278,"Ġhot":4279,"ties":4280,"Ġbudget":4281,"Ġtry":4282,"Ġvisited":4283,"Ġfacing":4284,"Ġpublished":4285,"Ġsale":4286,"ĠGoa":4287,"Ġapproach":4288,"akur":4289,"ĠFund":4290,"ĠMukher":4291,"ĠManagement":4292,"Ġpra":4293,"ĠChhattisgarh":4294,"Ġcritical":4295,"Ġchallenges":4296,"Ġdrink":4297,"999":4298,"ĠNaidu":4299,"aches":4300,"Ġgirls":4301,"ĠOfficer":4302,"ĠElection":4303,"Ġnormal":4304,"udi":4305,"Her":4306,"Ġdepart":4307,"mon":4308,"Ġeasy":4309,"Ġdemocracy":4310,"Ġcounter":4311,"Ġdigital":4312,"gic":4313,"Ġessential":4314,"Ġvote":4315,"unt":4316,"Ġappoint":4317,"Ġsuspend":4318,"Ġopening":4319,"ball":4320,"oper":4321,"ĠPriyanka":4322,"ĠDavid":4323,"ĠTax":4324,"ĠHow":4325,"Ġhundred":4326,"CA":4327,",\"\"\"\"":4328,"iddle":4329,"ental":4330,"Ġagreement":4331,"ously":4332,"Ġcouple":4333,"Ġ|":4334,"ĠKam":4335,"Ġdisbel":4336,"Ġreceive":4337,"ĠAfghanistan":4338,"oo":4339,"Ġgreater":4340,"ĠSpe":4341,"Ġcomment":4342,"Ġeyes":4343,"Ġcricke":4344,"Ġhum":4345,"Ġinitiative":4346,"gap":4347,"Ġbal":4348,"Ġgrowing":4349,"Ġsoldiers":4350,"Ġrisk":4351,"Ġreply":4352,"deep":4353,"Ġindustrial":4354,"Ġ64":4355,"ĠBook":4356,"Ġcontain":4357,"Sim":4358,"ĠInvest":4359,"Ġchallenge":4360,"ĠNa":4361,"standing":4362,"ĠSector":4363,"ĠPower":4364,"Ġmaximum":4365,"Ġsilver":4366,"Ġenough":4367,"Ġregul":4368,"ĠChar":4369,"ratic":4370,"ĠGB":4371,"anced":4372,"Ġtro":4373,"President":4374,"Ġdeleg":4375,"Ġlockdown":4376,"ĠMS":4377,"ricultural":4378,"ili":4379,"Ġurged":4380,"ĠKingdom":4381,"Ġemp":4382,"Ġevening":4383,"Ġsoul":4384,"acebook":4385,"Ġcareer":4386,"Ġesc":4387,"Ġfre":4388,"Ġfavour":4389,"ming":4390,"igence":4391,"eness":4392,"stitutional":4393,"Ġnumbers":4394,"Ġopened":4395,"eddy":4396,"ping":4397,"Ġarmy":4398,"hem":4399,"Ġpandemic":4400,"ĠPTI":4401,"Ġnetwork":4402,"ĠSonia":4403,"astern":4404,"Ġlin":4405,"ĠTelangana":4406,"ranch":4407,"Ġbesides":4408,"Ġspiritual":4409,"Ġelected":4410,"Ġrange":4411,"ĠSinha":4412,"Ġtext":4413,"Ġrejected":4414,"mohan":4415,"arc":4416,"rees":4417,"Ġplayer":4418,"veer":4419,"Ġattention":4420,"ĠEm":4421,"otal":4422,"Ġordered":4423,"Ġfine":4424,"13":4425,"CB":4426,"ĠMukherjee":4427,"ĠTour":4428,"Ġmarkets":4429,"Ġlevels":4430,"Ġinnings":4431,"uls":4432,"wide":4433,"Ġlay":4434,"Ġscience":4435,"ĠWitness":4436,"Ġcorruption":4437,"Ġbroad":4438,"ĠAshok":4439,"Ġposted":4440,"Ġsave":4441,"Ġequal":4442,"je":4443,"isf":4444,"Ġurban":4445,"ĠThey":4446,"Ġdestroy":4447,"Ġprob":4448,"ĠAgriculture":4449,"erjee":4450,"Ġcollabor":4451,"ĠCovid":4452,"hap":4453,"Ġmount":4454,"ĠNet":4455,"Ġconsult":4456,"Ġknows":4457,"Ġattacks":4458,"ON":4459,"Ġnote":4460,"Ġbeat":4461,"Ġcrores":4462,"gency":4463,"Ġhop":4464,"Ġchairman":4465,"Ġcelebrated":4466,"iversary":4467,"Ġfacilit":4468,"ĠJay":4469,"Ġsections":4470,"Ġtemperature":4471,"rupt":4472,"itley":4473,"ĠSol":4474,"ĠNeh":4475,"ĠConference":4476,"Ġfelt":4477,"ĠAuthority":4478,"Ġ48":4479,"Ġadj":4480,"Ġvision":4481,"unicipal":4482,"Ġwithdra":4483,"ĠNepal":4484,"Ġfif":4485,"Ġmil":4486,"ĠRussia":4487,"Ġexercise":4488,"alse":4489,"Ġhear":4490,"Ġagencies":4491,"emy":4492,"Ġsetting":4493,"overy":4494,"Ġeld":4495,"ĠCEO":4496,"Ġproposal":4497,"ĠCr":4498,"ĠBas":4499,"Ġthus":4500,"Ġspoke":4501,"Ġstrike":4502,"ĠSum":4503,"Ġsafe":4504,"irs":4505,"ented":4506,"Ġactually":4507,"Ġbound":4508,"Ġsystems":4509,"oured":4510,"Ġevents":4511,"Ġbreak":4512,"Ġmonitor":4513,"Ġgovern":4514,"Ġfresh":4515,"respond":4516,"Ġ2010":4517,"uddin":4518,"Ġgoes":4519,"Rs":4520,"pro":4521,"Ġlog":4522,"Ġsons":4523,"Ġtrial":4524,"icit":4525,"ĠBhav":4526,"Ġpred":4527,"ĠSports":4528,"Ġquarter":4529,"ĠJohn":4530,"Ġremains":4531,"Ġticket":4532,"oe":4533,"vt":4534,"cient":4535,"Ġinquiry":4536,"anth":4537,"asi":4538,"Ġdeployed":4539,"500":4540,"Ġvictims":4541,"ĠOffice":4542,"Ġannual":4543,"Ġfestival":4544,"off":4545,"iled":4546,"ĠInf":4547,"Ġminimum":4548,"Ġreceiving":4549,"Ġsin":4550,"Ġwish":4551,"ĠWater":4552,"ĠExpress":4553,"\"\"\"\"":4554,"ethod":4555,"HI":4556,"Ġcontrovers":4557,"Ġcriminal":4558,"ĠChan":4559,"ĠLimited":4560,"ĠChandra":4561,"Ġunf":4562,"ĠProgram":4563,"yer":4564,"ciples":4565,"Ġaccepted":4566,"ounter":4567,"anath":4568,"gapixel":4569,"Ġfled":4570,"Ġemphas":4571,"Ġstations":4572,"ĠClass":4573,"Ġpayment":4574,"Ġ33":4575,"Ġrear":4576,"Rec":4577,"Ġcert":4578,"ĠBad":4579,"va":4580,"ĠBCCI":4581,"Ġinterview":4582,"Ġparliament":4583,"Their":4584,"vant":4585,"Ġsevere":4586,"AC":4587,"Ġdepos":4588,".,":4589,"inch":4590,"Ġmission":4591,"Ġjudicial":4592,"Ġcapt":4593,"Ġshown":4594,"ensive":4595,"Ġairport":4596,"Ġshooting":4597,"Ġcoach":4598,"Ġreturned":4599,"ĠDhar":4600,"Ġ90":4601,"aken":4602,"Ġdraw":4603,"Ġexchange":4604,"ĠWar":4605,"ressing":4606,"ema":4607,"Ġvice":4608,"Ġapproval":4609,"Ġmeetings":4610,"ĠThakur":4611,"ĠAI":4612,"Ġsectors":4613,"Ġflag":4614,"Ġserve":4615,"Ġbelieved":4616,"ĠTo":4617,"Ġgrand":4618,"inations":4619,"ĠAward":4620,"apt":4621,"Ġcritic":4622,"Ġmut":4623,"Let":4624,"Ġcris":4625,"Ġbase":4626,"Ġtournament":4627,"Ġneither":4628,"Ġsensor":4629,"lip":4630,"Ġhospitals":4631,"Ġcalls":4632,"pri":4633,"mendment":4634,"Ġfully":4635,"adhan":4636,"Ġmedic":4637,"Ġloan":4638,"Ġauthority":4639,"Ġsubmitted":4640,"Ġcontribution":4641,"ĠChristians":4642,"Ġcant":4643,"ĠDonald":4644,"Ġnine":4645,"Ġhelped":4646,"Ġprotection":4647,"ĠAjay":4648,"Ġ45":4649,"ane":4650,"Ġagreed":4651,"Ġselected":4652,"ela":4653,"ĠTata":4654,"Rahul":4655,"Ġcertainly":4656,"Ġfem":4657,"Ġil":4658,"rative":4659,"ĠMat":4660,"Ġorders":4661,"Ġmicro":4662,"vert":4663,"ero":4664,"Ġcorrespond":4665,"Ġterrorist":4666,"Ġcorpor":4667,"ĠChild":4668,"Ġseparate":4669,"Ġcolour":4670,"pen":4671,"Ġterrit":4672,"under":4673,"ĠBharati":4674,"uclear":4675,"EC":4676,"Ġbag":4677,"ju":4678,"Ġcrisis":4679,"minist":4680,"ashing":4681,"ĠGovernments":4682,"Ġdiscussion":4683,"PS":4684,"een":4685,"ĠLondon":4686,"eful":4687,"amily":4688,"Ġplaced":4689,"Ah":4690,"Ġliter":4691,"time":4692,"ĠAsian":4693,"Ġrepe":4694,"Ġfeature":4695,"Ġsurv":4696,"Pl":4697,"Ġ2009":4698,"Ġprec":4699,"ols":4700,"Most":4701,"eshwar":4702,"Ġfacility":4703,"ny":4704,"Ġ36":4705,"ĠVid":4706,"Ġheavens":4707,"nergy":4708,"ĠProject":4709,"ĠAdd":4710,"Ġcru":4711,"inate":4712,"Ġconcern":4713,"ĠUK":4714,"Sal":4715,"ĠBanerjee":4716,"Ġintroduced":4717,"Ġinitiatives":4718,"ĠICC":4719,"Ġremember":4720,"oman":4721,"Ġoffers":4722,"ĠCity":4723,"ĠRajput":4724,"Ġrunning":4725,"Ġcommercial":4726,"ĠWomen":4727,"Ġappeared":4728,"ĠRegion":4729,"Ġphoto":4730,"ils":4731,"Ġtom":4732,"oming":4733,"ĠAnand":4734,"Ġcontact":4735,"acted":4736,"Ġpartnership":4737,"Ġshares":4738,"vendra":4739,"equ":4740,"utt":4741,"ĠVik":4742,"Ġproduce":4743,"ĠIf":4744,"CR":4745,"Ġgranted":4746,"AF":4747,"ĠLad":4748,"ishra":4749,"areena":4750,"Thats":4751,"Ġcarry":4752,"rel":4753,"riya":4754,"ila":4755,"ĠKa":4756,"leum":4757,"rene":4758,"Ġreduce":4759,"Ġdebut":4760,"Ġcompletely":4761,"Ġelse":4762,"Ġrich":4763,"Ġvacc":4764,"ĠPran":4765,"Ġ196":4766,"ores":4767,"Ġeffort":4768,"Ġinitial":4769,"fully":4770,"ĠCommand":4771,"Ġinitiated":4772,"Ġrighteous":4773,"Ġheaded":4774,"fted":4775,"alore":4776,"ĠSrin":4777,"ocks":4778,"Ġmanufacturing":4779,"ĠKrishna":4780,"ĠRBI":4781,"izing":4782,"Bollywood":4783,"Ġposts":4784,"ĠLeg":4785,"Ġge":4786,"edding":4787,"Ġgeneration":4788,"Ġdegree":4789,"Ġsuspended":4790,"Ġsense":4791,"Ġplays":4792,"ushka":4793,"Ġscore":4794,"iter":4795,"hens":4796,"ĠWill":4797,"Ġextremely":4798,"Ġsatisf":4799,"Ġfalse":4800,"ashi":4801,"megapixel":4802,"Ġestimated":4803,"agh":4804,"Ġclaims":4805,"Ġdespite":4806,"ĠEconomic":4807,"ĠPrakash":4808,"Ġilleg":4809,"Ġconfidence":4810,"ĠBhag":4811,"Ġrefused":4812,"pposition":4813,"ĠSystem":4814,"eks":4815,"Ġarrived":4816,"andeep":4817,"200":4818,"Ġdevice":4819,"Ġ:":4820,"Ġfair":4821,"Ġphysical":4822,"Ġsigns":4823,"ĠAcc":4824,"ĠProf":4825,"Ġcontinues":4826,"NI":4827,"Ġidea":4828,"Shah":4829,"Ġmethod":4830,"holders":4831,"Ġpage":4832,"Ġresolution":4833,"Your":4834,"ĠFood":4835,"esterday":4836,"45":4837,"ume":4838,"arti":4839,"ĠNCP":4840,"Ġparticularly":4841,"Ġindic":4842,"bh":4843,"Here":4844,"Res":4845,"Te":4846,"Ġpurs":4847,"Ġroom":4848,"Ġproc":4849,"ĠIndustry":4850,"quar":4851,"yle":4852,"ĠAkshay":4853,"Ġinstead":4854,"hara":4855,"Ġdocuments":4856,"Ġbattery":4857,"roid":4858,"ologies":4859,"ocation":4860,"Ġthee":4861,"Further":4862,"Ġongoing":4863,"ĠInter":4864,"Ġtyp":4865,"tty":4866,"Ġski":4867,"atma":4868,"Ġant":4869,"ĠJaitley":4870,"ĠCP":4871,"Such":4872,"wise":4873,"Ġvirus":4874,"rated":4875,"Ġquick":4876,"Ġoptions":4877,"Ġcontract":4878,"Government":4879,"charge":4880,"Ġsuffered":4881,"Ġappropri":4882,"Ġsacri":4883,"fect":4884,"iture":4885,"Where":4886,"pid":4887,"Over":4888,"ole":4889,"Ġsomeone":4890,"bl":4891,"ĠBS":4892,"ĠLeague":4893,"ĠKaur":4894,"ni":4895,"ula":4896,"Ġavoid":4897,"ĠVal":4898,"lands":4899,"ĠYork":4900,"35":4901,"hammad":4902,"Ġlaid":4903,"Ġdecisions":4904,"Ġexperi":4905,"ĠFacebook":4906,"ĠControl":4907,"roud":4908,"ĠGal":4909,"Ġruling":4910,"Ġhearts":4911,"Ġmotor":4912,"Ġtype":4913,"ĠFed":4914,"ift":4915,"cker":4916,"Ġimplemented":4917,"'re":4918,"pal":4919,"ĠSid":4920,"Tr":4921,"Ġlack":4922,"chol":4923,"omet":4924,"ĠGh":4925,"ĠManmohan":4926,"rect":4927,"hank":4928,"Ġbecomes":4929,"Similar":4930,"Among":4931,"ardhan":4932,"pay":4933,"ĠYogi":4934,"Ġfra":4935,"ĠMin":4936,"Ġintegr":4937,"Ġserved":4938,"Today":4939,"andidates":4940,"Ġ75":4941,"Ġwinning":4942,"pati":4943,"ĠAc":4944,"Ġsle":4945,"Ġregional":4946,"Ġgreet":4947,"law":4948,"Ġboost":4949,"Ġwhatever":4950,"viation":4951,"ĠMishra":4952,"Ġ195":4953,"Ġaffect":4954,"Ġoption":4955,"face":4956,"Ġsea":4957,"reprene":4958,"ĠWitnesses":4959,"Ġdanger":4960,"Ġwelfare":4961,"star":4962,"ĠMor":4963,"arily":4964,"rim":4965,"Ġgather":4966,"usiness":4967,"Ġdeveloping":4968,"ĠPune":4969,"ĠTransport":4970,"Ġjourney":4971,"Ġtechnical":4972,"Ġweap":4973,"itable":4974,"Ġassociated":4975,"ĠSwar":4976,"Ġcentres":4977,"ĠAmar":4978,"Con":4979,"Ġgreen":4980,"with":4981,"Ġ34":4982,"Ġpartner":4983,"Ġbuy":4984,"ĠAdityanath":4985,"Ġeat":4986,"Ġdepend":4987,"Ġforest":4988,"ĠFilm":4989,"Ġtouch":4990,"ĠIndies":4991,"Ġdismiss":4992,"urrent":4993,"Ġbasic":4994,"24":4995,"Ġbooks":4996,"ievers":4997,"Ġawarded":4998,"ulate":4999,"ĠBoss":5000,"Ġsecret":5001,"ĠAdminist":5002,"Ġvoice":5003,"Ġanniversary":5004,"Ġsustain":5005,"ogle":5006,"Ad":5007,"ĠPort":5008,"Ġcompetition":5009,"EN":5010,"Ġproced":5011,"ĠChampions":5012,"set":5013,"Ġfinance":5014,"ocked":5015,"Ġjobs":5016,"Us":5017,"ĠElect":5018,"Ġmarks":5019,"amir":5020,"rugg":5021,"ĠVish":5022,"ape":5023,"Ġ2008":5024,"kari":5025,"Ġhousehold":5026,"Ġcoast":5027,"oples":5028,"Another":5029,"agers":5030,"Ġconsist":5031,"Ġtransfer":5032,"awa":5033,"ucknow":5034,"aman":5035,"ĠPatna":5036,"Ġassured":5037,"ĠKovind":5038,"Ġreporters":5039,"Ġtruck":5040,"ugh":5041,"DR":5042,"Ġopin":5043,"Ġstock":5044,"ese":5045,"pic":5046,"From":5047,"Ġweeks":5048,"Ġnoted":5049,"Ġlanguages":5050,"ĠSidd":5051,"ĠVar":5052,"IL":5053,"Ġcreation":5054,"Ġbatsman":5055,"stances":5056,"Ġcircum":5057,"Ġdirectly":5058,"Ġreward":5059,"Ġorganized":5060,"ĠTal":5061,"Ġinaugurated":5062,"ĠGad":5063,"Ġsoft":5064,"Ġtesting":5065,"rain":5066,"eries":5067,"Ġbehalf":5068,"Ġbeginning":5069,"Ġtonnes":5070,"Ġaddressed":5071,"Ġverdict":5072,"sequently":5073,"ida":5074,"omi":5075,"Ġdeliver":5076,"Ġthroughout":5077,"Ġapost":5078,"Ġorganis":5079,"Ġremar":5080,"ĠReddy":5081,"lled":5082,"China":5083,"Ġrainfall":5084,"75":5085,"Ġupd":5086,"Ġimmediate":5087,"Ġmid":5088,"Ġhonour":5089,"Ġchaired":5090,"ĠFrance":5091,"ĠKat":5092,"CS":5093,"ĠMohan":5094,"23":5095,"Ġborn":5096,"Ġweak":5097,"ĠCode":5098,"akers":5099,"rd":5100,"Ġseriously":5101,"elligence":5102,"ĠSunil":5103,"pex":5104,"rench":5105,"Ġgri":5106,"oi":5107,"alty":5108,"Students":5109,"Ġproud":5110,"usive":5111,"aji":5112,"Ġguest":5113,"Ġyesterday":5114,"Ġpractice":5115,"Ġplanning":5116,"Ġincl":5117,"lation":5118,"Ġsound":5119,"Ġce":5120,"Ġrob":5121,"Ġcarrying":5122,"Ġcongreg":5123,"Ġvalues":5124,"ĠMant":5125,"arya":5126,"Ġgoal":5127,"ona":5128,"Ġconclud":5129,"Ġdie":5130,"Ġdispute":5131,"Ġ150":5132,"Re":5133,"lying":5134,"Ġcondem":5135,"iling":5136,"Ġtor":5137,"Ġfactor":5138,"hab":5139,"ĠBhavan":5140,"rang":5141,"Ġhealthy":5142,"Ġsitu":5143,"lers":5144,"ĠDhawan":5145,"Ġinvited":5146,"Ġacad":5147,"Therefore":5148,"State":5149,"Ġstrugg":5150,"idamb":5151,"nds":5152,"Ġunivers":5153,"Ġlitre":5154,"Ġbeaut":5155,"ĠAAP":5156,"Ġobserved":5157,"Ġautom":5158,"Ġextra":5159,"Ġbattle":5160,"ĠGen":5161,"Mr":5162,"Ġdelay":5163,"Ġequip":5164,"riving":5165,"Ġcourts":5166,"Ġlimited":5167,"Ġbit":5168,"ĠMet":5169,"Ġslow":5170,"Ġsubmit":5171,"Ġlearning":5172,"Ġmechan":5173,"ĠAnt":5174,"ĠDig":5175,"unal":5176,"Ġkeeping":5177,"ĠEnergy":5178,"ression":5179,"Ġsitting":5180,"ĠBah":5181,"iger":5182,"Ġfat":5183,"sy":5184,"Ġencounter":5185,"ĠBi":5186,"Ġpriority":5187,"ĠImran":5188,"Ġji":5189,"Ġbirthday":5190,"adium":5191,"icted":5192,"Ġpm":5193,"ĠRajiv":5194,"Ġdial":5195,"Ġpolic":5196,"Ġfee":5197,"ĠBengaluru":5198,"ET":5199,"Ġrather":5200,"Ġrains":5201,"ullah":5202,"Ġstands":5203,"HO":5204,"ĠEd":5205,"Ġincidents":5206,"Ġlimit":5207,"ashed":5208,"actions":5209,"Ġregister":5210,"za":5211,"ĠRaw":5212,"Ġcho":5213,"Ġunderstanding":5214,"BC":5215,"Ġmultiple":5216,"Ġmanaged":5217,"well":5218,"Ġspeaking":5219,"ĠHon":5220,"ĠPranab":5221,"Ġties":5222,"ĠArjun":5223,"Ġholding":5224,"Ġ+":5225,"Ġfram":5226,"chayat":5227,"Thus":5228,"Ġ2021":5229,"essor":5230,"Ġarticle":5231,"Ġcollect":5232,"araman":5233,"ĠSk":5234,"ĠAhmedabad":5235,"Ġguidelines":5236,"De":5237,"Ġpaper":5238,"Ġremaining":5239,"Ġkg":5240,"Ġgain":5241,"hary":5242,"ĠPawar":5243,"urb":5244,"Ġappropriate":5245,"Ġwedding":5246,"ĠBSP":5247,"Ġtrack":5248,"Ġskipper":5249,"aps":5250,"ĠVen":5251,"Ġ370":5252,"Ġshifted":5253,"ĠBharatiya":5254,"):":5255,"ĠGanga":5256,"ĠGames":5257,"Ġflight":5258,"ĠNews":5259,"ĠMas":5260,"Ġcustomers":5261,"Ġdefin":5262,"oned":5263,"ĠGermany":5264,"astic":5265,"Ġconstitut":5266,"ojana":5267,"Ġwishes":5268,"Ġbeha":5269,"Ġsurpr":5270,"ĠMam":5271,"Ġconstant":5272,"47":5273,"Ġ%":5274,"Ġthy":5275,"Ġimposed":5276,"adra":5277,"aced":5278,"ĠRai":5279,"Ġsupported":5280,"ĠPaduk":5281,"ĠRec":5282,"Ġast":5283,"Ġdouble":5284,"khar":5285,"inals":5286,"Ġstone":5287,"Ġcommitment":5288,"Ġdro":5289,"ĠBra":5290,"ĠPradhan":5291,"ĠMeh":5292,"ĠGold":5293,"iction":5294,"plom":5295,"haps":5296,"ĠBudget":5297,"God":5298,"Ġaccord":5299,"Ġbey":5300,"win":5301,"rits":5302,"Ġmig":5303,"cipl":5304,"Ġtested":5305,"Ġbeyond":5306,"ĠEnter":5307,"ĠKorea":5308,"Ġund":5309,"Ġsquad":5310,"Ġcat":5311,"ogue":5312,"Ts":5313,"ply":5314,"ĠHead":5315,"arth":5316,"ensation":5317,"ĠTom":5318,"uction":5319,"nces":5320,"ĠPer":5321,"asw":5322,"Ġwide":5323,"Ġfam":5324,"ĠPolicy":5325,"ĠJD":5326,"Ġtrading":5327,"Ġarch":5328,"Ġkilling":5329,"Ġawareness":5330,"Ġinsurance":5331,"Ġstood":5332,"ĠPadukone":5333,"oti":5334,"dule":5335,"oring":5336,"Ġcollege":5337,"ushan":5338,"Ġforms":5339,"Ġprison":5340,"oph":5341,"adhaar":5342,"Ġactors":5343,"ĠDEL":5344,"Ġloans":5345,"RB":5346,"Ġshowed":5347,"Ġentered":5348,"Ġdoubt":5349,"Ġtomorrow":5350,"endul":5351,"ĠManohar":5352,"Ġthr":5353,"wadi":5354,"Ġtim":5355,"NEW":5356,"Ġnuclear":5357,"Ġended":5358,"Ġseem":5359,"Ġdedicated":5360,"apers":5361,"ĠCar":5362,"Ġviews":5363,"Ġnotification":5364,"istics":5365,"90":5366,"Ġemb":5367,"nap":5368,"Ġresidence":5369,"Sub":5370,"ĠMahatma":5371,"ĠCommerce":5372,"ĠEngine":5373,"Ġsharing":5374,"ima":5375,"Ġadvoc":5376,"Ġmeaning":5377,"Ġfoundation":5378,"ĠTourism":5379,"'m":5380,"ĠProdu":5381,"ronic":5382,"PP":5383,"Ġbond":5384,"ĠKapil":5385,"Ġindependent":5386,"Ġparticipation":5387,"Ġapex":5388,"Ġresidents":5389,"Ġcreating":5390,"ĠJav":5391,"ĠKaran":5392,"Ġbeautiful":5393,"Ġpolicies":5394,"ĠCA":5395,"arty":5396,"vis":5397,"Ġfighting":5398,"lies":5399,"Ġpanel":5400,"Ġcricketer":5401,"Ġaddressing":5402,"Ġmedal":5403,"Ġfaced":5404,"Act":5405,"Ġrepresentatives":5406,"uresh":5407,"Ġgames":5408,"ancy":5409,"ĠDELHI":5410,"da":5411,"inance":5412,"Ġheaven":5413,"nav":5414,"Ġcorresponding":5415,"ĠAndroid":5416,"Ġspent":5417,"Ġblast":5418,"Ġcommunication":5419,"Ġrelating":5420,"Ġamb":5421,"ensions":5422,"Ġindividuals":5423,"Ġfixed":5424,"Ġactivity":5425,"Ġ300":5426,"Ġmarg":5427,"ĠPak":5428,"ules":5429,"RE":5430,"Ġhurt":5431,"Ġtrou":5432,"ĠDem":5433,"itharaman":5434,"sp":5435,"pura":5436,"Ġimage":5437,"Ġweather":5438,"Ġcontent":5439,"ĠSocial":5440,"wd":5441,"Ġprotests":5442,"ĠAmerica":5443,"ervation":5444,"run":5445,"Ġregistration":5446,"Ġliqu":5447,"fort":5448,"Ġreduced":5449,"Ġsuffering":5450,"NU":5451,"Ġtable":5452,"ĠNI":5453,"ckeray":5454,"Ġdocument":5455,"cks":5456,"iff":5457,"wari":5458,"BS":5459,"Ġworlds":5460,"alls":5461,"Ġpermission":5462,"Ġcomplex":5463,"Ġuniversity":5464,"ĠQu":5465,"Ġpostmortem":5466,"Ġblock":5467,"panied":5468,"ota":5469,"Ġunique":5470,"ovt":5471,"Ġvariant":5472,"ĠNavy":5473,"Ġwarm":5474,"Ġsexual":5475,"Ġdemonst":5476,"Ġreality":5477,"Ġexcell":5478,"Ġwaste":5479,"Ġtalking":5480,"Ġbrief":5481,"Ġinterests":5482,"care":5483,"nic":5484,"Ġnam":5485,"ĠNehru":5486,"Ġmill":5487,"ĠNaw":5488,"ĠLa":5489,"Ġfle":5490,"ecause":5491,"Ġconvers":5492,"Ġagg":5493,"Ġnone":5494,"ĠRana":5495,"quarters":5496,"Four":5497,"Ġprosper":5498,"70":5499,"aste":5500,"Ġorganisation":5501,"Ġaffairs":5502,"Ġvent":5503,"Ġpollution":5504,"ĠPerson":5505,"Ġx":5506,"Ġparticipate":5507,"ĠQual":5508,"Ġcosts":5509,"Ġlooked":5510,"',":5511,"enty":5512,"Ġthrow":5513,"ĠPost":5514,"essions":5515,"hern":5516,"Ġbooked":5517,"Ġstructure":5518,"Ġtoll":5519,"endulkar":5520,"ĠSamaj":5521,"Ġstrict":5522,"Senior":5523,"Ġnegative":5524,"Ġrescue":5525,"Ġcancell":5526,"wara":5527,"ĠFl":5528,"ĠInde":5529,"Ġrelevant":5530,"Ġargu":5531,"Ġcoord":5532,"Ġdescribed":5533,"Ġraise":5534,"Ġtreated":5535,"Ġmach":5536,"ĠMag":5537,"ĠRashtra":5538,"penditure":5539,"ĠVin":5540,"odhya":5541,"Ġsubsid":5542,"ĠNitish":5543,"Ġtourism":5544,"Ġrupees":5545,"ĠRSS":5546,"yn":5547,"Ġstopped":5548,"ĠMir":5549,"Ġthinking":5550,"Ġpleas":5551,"Ġrequested":5552,"Ġdemands":5553,"Ġentry":5554,"Ġremoved":5555,"imately":5556,"Pun":5557,"Ġguard":5558,"Ġattacked":5559,"Ġguidance":5560,"Ġsimple":5561,"Ġbecoming":5562,"rore":5563,"Ġknew":5564,"wor":5565,"Ġbul":5566,"ĠCR":5567,"ĠOpen":5568,"Ġbelievers":5569,"Ġgun":5570,"Ġaccompanied":5571,"ider":5572,"Ġdamage":5573,"Ġvirt":5574,"ule":5575,"ĠBaj":5576,"Ġpriced":5577,"Ġweight":5578,"Ġelectricity":5579,"Ġarrangements":5580,"Ġadmit":5581,"Ġmercy":5582,"van":5583,"oli":5584,"arpur":5585,"Ġservants":5586,"ĠJew":5587,"Ġmanif":5588,"Ġholds":5589,"Ġdoll":5590,"ilty":5591,"Ġ44":5592,"En":5593,"ĠEastern":5594,".)":5595,"ĠPark":5596,"Ġcondol":5597,"Ġinsp":5598,"ĠProgramme":5599,"ĠNirm":5600,"Ġtitle":5601,"Far":5602,"orthern":5603,"ĠUs":5604,"Ġillegal":5605,"ĠMPs":5606,"ĠUrban":5607,"Ġprofit":5608,"ooth":5609,"ĠCal":5610,"Ġfemale":5611,"ĠBangalore":5612,"arb":5613,"iable":5614,"ugu":5615,"Ġeducational":5616,"Ġsell":5617,"Ġoverall":5618,"ults":5619,"ĠEuropean":5620,"Can":5621,"ishing":5622,"ĠPandey":5623,"known":5624,"ulations":5625,"26":5626,"Ġtraditional":5627,"avy":5628,"ĠSachin":5629,"Candidates":5630,"Ġassets":5631,"Ġdelegation":5632,"ĠSecret":5633,"verse":5634,"mier":5635,"ĠSikh":5636,"min":5637,"Ġmiddle":5638,"aptain":5639,"repreneurs":5640,"Ġabroad":5641,"Ġhappiness":5642,"Ġrespective":5643,"Ġkil":5644,"ĠAmitabh":5645,"Ġign":5646,"Ġpending":5647,"Ġoriginal":5648,"Ġdisapp":5649,"wali":5650,"ĠFamily":5651,"ĠJoint":5652,"Ġrevenue":5653,"Ġidentify":5654,"Ġexams":5655,"Ġovers":5656,"Ġstandards":5657,"Ġdegrees":5658,"Ġhighlight":5659,"oving":5660,"nded":5661,"Similarly":5662,"ivery":5663,"ĠOpposition":5664,"Ġmem":5665,"Ġcolleges":5666,"ĠThere":5667,"Ġancient":5668,"Ġdecide":5669,"Ġbrid":5670,"ĠOF":5671,"comm":5672,"Ġ>":5673,"text":5674,"kind":5675,"Ġmulti":5676,"Ġdrive":5677,"urement":5678,"Ġproceedings":5679,"oke":5680,"idambaram":5681,"ĠIndustries":5682,"urk":5683,"ĠRural":5684,"ĠPrab":5685,"Gu":5686,"ĠUnder":5687,"Ġvalid":5688,"ĠThackeray":5689,"ĠCCT":5690,"ĠYojana":5691,"hana":5692,"earing":5693,"Ġstandard":5694,"Ġ38":5695,"taining":5696,"amy":5697,"Ġguilty":5698,"Shi":5699,"Ġopinion":5700,"ĠSik":5701,"inger":5702,"Ġburn":5703,"ĠWho":5704,"Ġapplications":5705,"Ġachieved":5706,"ĠBest":5707,"ront":5708,"alm":5709,"Ġexport":5710,"Ġfuel":5711,"ĠAadhaar":5712,"Ġmilk":5713,"ĠDeepika":5714,"Ġcountrys":5715,"Ġencourage":5716,"Ġpoet":5717,"ĠLegisl":5718,"illing":5719,"erted":5720,"Ġclar":5721,"ĠExternal":5722,"ĠVis":5723,"Ġmonitoring":5724,"axy":5725,"CO":5726,"aland":5727,"Ġannouncement":5728,"Ġsize":5729,"Ġdifference":5730,"Ġpowerful":5731,"Ġcrowd":5732,"hered":5733,"ĠLucknow":5734,"Ġobjective":5735,"Ġdoesnt":5736,"ĠGadkari":5737,"National":5738,"Or":5739,"Only":5740,"Ġcollection":5741,"Ġmassive":5742,"Ġpromise":5743,"vious":5744,"ĠNitin":5745,"intend":5746,"aration":5747,"ĠPetro":5748,"Ġlic":5749,"Be":5750,"Ġconfident":5751,"Ġhappening":5752,"keep":5753,"ĠSitharaman":5754,"ĠSind":5755,"lict":5756,"Ġscale":5757,"ĠTem":5758,"Ġsuggested":5759,"Ġwhite":5760,"Ġrad":5761,"Ġcircumstances":5762,"Ġjoy":5763,"rival":5764,"ube":5765,"Ġsanction":5766,"Ġrestrict":5767,"Ġversion":5768,"Say":5769,"Ġadvised":5770,"Ġdiss":5771,"Ġoffering":5772,"Ġmissing":5773,"Ġdefeat":5774,"Ġsun":5775,"Ġsacrif":5776,"rary":5777,"Ġconvey":5778,"ĠSrinagar":5779,"Ġtransp":5780,"Ġder":5781,"ouhan":5782,"ĠCCTV":5783,"ĠMit":5784,"aq":5785,"Ġagricultural":5786,"Ġhelps":5787,"Ġpowers":5788,"Des":5789,"olit":5790,"ĠKart":5791,"Ġinteg":5792,"Ġrecovery":5793,"Ġremarks":5794,"SD":5795,"ĠCitizens":5796,"Ġsurvey":5797,"Ġfellow":5798,"Ġcomments":5799,"Ġrapid":5800,"itage":5801,"ius":5802,"ĠMohammad":5803,"Ġclimate":5804,"Ġdesire":5805,"iya":5806,"ingh":5807,"65":5808,"Ġ128":5809,"Ġlies":5810,"Ġgovt":5811,"Ġbringing":5812,"ployment":5813,"Salman":5814,"NG":5815,"ĠHard":5816,"Ġexecutive":5817,"Ġengaged":5818,"iveness":5819,"ĠJudge":5820,"has":5821,"Ġholy":5822,"Punjab":5823,"Ms":5824,"ĠGra":5825,"Ġdiscussions":5826,"Ġcovered":5827,"ĠStand":5828,"HE":5829,"gon":5830,"Ġdign":5831,"Ġrising":5832,"Ġpolling":5833,"ĠAnn":5834,"Ġsolution":5835,"Ġmist":5836,"ĠMantri":5837,"Ġexperts":5838,"Ġcomputer":5839,"rehens":5840,"Ġinjury":5841,"hik":5842,"ĠLab":5843,"Ġwriting":5844,"ĠRamesh":5845,"Phone":5846,"Ġinvestors":5847,"ĠRo":5848,"Ġstudies":5849,"Ġdream":5850,"ĠRead":5851,"Ġnearby":5852,"Ġcards":5853,"Ġassign":5854,"Ġpromoting":5855,"Ġfort":5856,"Ġutil":5857,"Ġitems":5858,"ĠHuman":5859,"ĠGoyal":5860,"Ġcertific":5861,"mark":5862,"Ġsales":5863,"ysis":5864,"Ġcabinet":5865,"itizen":5866,"Ġequipment":5867,"Ġconnectivity":5868,"West":5869,"Ġsomet":5870,"urch":5871,"Ġwealth":5872,"ĠIslamic":5873,"ĠEnvironment":5874,"ĠReport":5875,"ĠAdvis":5876,"Ġdeclined":5877,"ĠAyodhya":5878,"ombay":5879,"Ġplants":5880,"ĠJoshi":5881,"Tal":5882,"Ġmanufacture":5883,"Ġbab":5884,"Ġmoving":5885,"ĠReserve":5886,"Ġdistribution":5887,"ĠAnushka":5888,"efore":5889,"enn":5890,"oto":5891,"About":5892,"Ġsisters":5893,"ĠTendulkar":5894,"phy":5895,"ishan":5896,"ception":5897,"Ġslog":5898,"ĠSuresh":5899,"ĠII":5900,"Ġdownload":5901,"ĠKo":5902,"pat":5903,"Ġschol":5904,"ĠTelugu":5905,"ĠIns":5906,"Ġdeeds":5907,"Ġfit":5908,"urely":5909,"Ġcounsel":5910,"ĠCB":5911,"Ġcalling":5912,"Ġindex":5913,"ĠSpeaker":5914,"ĠFrench":5915,"Ġhomes":5916,"ĠMoses":5917,"Ġdoctor":5918,"Ġbroke":5919,"ultan":5920,"Maharashtra":5921,"Sec":5922,"ĠRedmi":5923,"ĠMamata":5924,"ĠSharif":5925,"Step":5926,"Ġ49":5927,"Ġfamous":5928,"Ġoath":5929,"nagar":5930,"Actor":5931,"uz":5932,"ĠBusiness":5933,"ĠVerma":5934,"Ġtask":5935,"ĠNote":5936,"uit":5937,"Ġfifth":5938,"Ġmere":5939,"Ġhath":5940,"Ġlonger":5941,"Ġconcerns":5942,"ĠAdditional":5943,"ĠJon":5944,"ĠDevi":5945,"hesh":5946,"Ġvideos":5947,"Ġprayer":5948,"Ġlakhs":5949,"Rel":5950,"hek":5951,"ĠAT":5952,"Ġcongratulated":5953,"Ġapart":5954,"Ġmanifest":5955,"37":5956,"Current":5957,"Ġenable":5958,"Ġsn":5959,"ĠIPC":5960,"Ġsustained":5961,"uild":5962,"UP":5963,"Yes":5964,"Ġisol":5965,"Ġstrategy":5966,"Ġreforms":5967,"ĠNations":5968,"Ġcongregation":5969,"Ġdidn":5970,"Ġquoted":5971,"Ġmemor":5972,"Ġcancer":5973,"tainment":5974,"bre":5975,"Ġsam":5976,"Se":5977,"Ġorganisations":5978,"Ġfeet":5979,"grad":5980,"Ġ39":5981,"ares":5982,"Ġbalance":5983,"Ġuser":5984,"ĠSecond":5985,"Ġballs":5986,"Ġnar":5987,"Ġstarting":5988,"Ġdetained":5989,"Ġfigh":5990,"Ġneighbour":5991,"ales":5992,"Ġdeputy":5993,"Ġpatient":5994,"Ġadvant":5995,"overty":5996,"ken":5997,"28":5998,"Ġcult":5999,"oute":6000,"ĠHindus":6001,"ĠPul":6002,"ĠMuhammad":6003,"27":6004,"Ġoccurred":6005,"Ġpromised":6006,"Ġlines":6007,"Ġindustries":6008,"ĠSA":6009,"Ġtests":6010,"Ġadding":6011,"Ġorigin":6012,"aksh":6013,"Ġpolitic":6014,"hir":6015,"ĠNDA":6016,"uj":6017,"Ġseems":6018,"May":6019,"ashington":6020,"Ġcas":6021,"mosp":6022,"abled":6023,"ĠMemor":6024,"Ġdiplom":6025,"Ġconstituted":6026,"Ġhighly":6027,"raham":6028,"atra":6029,"Ġunion":6030,"Ġsymb":6031,"Eng":6032,"asan":6033,"ĠTele":6034,"RI":6035,"ĠTeam":6036,"Ġcold":6037,"Ġpractices":6038,"Ġsett":6039,"ĠFound":6040,"Ġspend":6041,"hal":6042,"Ġcomprising":6043,"Addressing":6044,"ĠHous":6045,"Ġfeed":6046,"Ġelig":6047,"ĠRashtrapati":6048,"Ġ65":6049,"ground":6050,"ĠRanveer":6051,"Ġassault":6052,"ĠPetroleum":6053,"Ġdelivery":6054,"ĠCapital":6055,"Ġaspects":6056,"osite":6057,"Ġstrategic":6058,"Ġresolve":6059,"ĠCommun":6060,"Ġdestroyed":6061,"ĠPay":6062,"ourage":6063,"Ġwrite":6064,"Ġawards":6065,"lease":6066,"Ġattract":6067,"anta":6068,"ocal":6069,"ureau":6070,"ĠSwaraj":6071,"esters":6072,"ertil":6073,"Ġhistoric":6074,"Ġscam":6075,"ĠYoga":6076,"Ġthousands":6077,"\\\"\"":6078,"ĠSteel":6079,"ĠTi":6080,"ĠDivision":6081,"uing":6082,"Ġprofessional":6083,"ounder":6084,"Ġcommunities":6085,"member":6086,"ĠGlobal":6087,"ĠSud":6088,"Ġbear":6089,"Ġoccup":6090,"ĠRat":6091,"ĠManoj":6092,"Ġwaiting":6093,"icals":6094,"Ġrose":6095,"Ġstakeholders":6096,"akshi":6097,"Ġrout":6098,"Ġactions":6099,"ĠDas":6100,"ĠSushant":6101,"Ġcompensation":6102,"Ne":6103,"ĠCompany":6104,"Last":6105,"ancing":6106,"itendra":6107,"Ġdaughters":6108,"ĠAssist":6109,"Ġtelevision":6110,"ĠKings":6111,"like":6112,"Ġfiring":6113,"alt":6114,"Ġenhance":6115,"Ġadvis":6116,"Ġoperational":6117,"thern":6118,"shi":6119,"apore":6120,"ĠAng":6121,"Ġlooks":6122,"Ġveget":6123,"Ġexact":6124,"Ġreportedly":6125,"Bh":6126,"Ġappointment":6127,"ĠAwards":6128,"section":6129,"Ġmankind":6130,"Ġ55":6131,"Ġscientists":6132,"Ġsleep":6133,"imb":6134,"Ġidentity":6135,"Ġ2007":6136,"Ġsolar":6137,"ador":6138,"Ġwelcome":6139,"Ġdram":6140,"ength":6141,"enant":6142,"ĠBrah":6143,"Ġtroops":6144,"Ġsup":6145,"Ġult":6146,"Ġdark":6147,"elled":6148,"Ġamid":6149,"Ġtechnologies":6150,"Ġminutes":6151,"ĠYear":6152,"ĠGoogle":6153,"pass":6154,"Ġbenefici":6155,"Ġmutual":6156,"Ġbegun":6157,"GP":6158,"Ġplanned":6159,"hishek":6160,"Ġmilitants":6161,"Ġshut":6162,"arwal":6163,"Ġrecommended":6164,"Ġchem":6165,"inistries":6166,"Pre":6167,"Ġusually":6168,"Ġcorrect":6169,"Ġid":6170,"son":6171,"Ġbehavi":6172,"Ġoverse":6173,"ĠNir":6174,"Ġdefeated":6175,"Ġphotos":6176,"Ġadvance":6177,"yl":6178,"Ġaltern":6179,"Ġdivision":6180,"Ġtradition":6181,"ĠLadakh":6182,"ĠWith":6183,"uting":6184,"Ġloved":6185,"aina":6186,"ĠChaud":6187,"ĠPen":6188,"Ġec":6189,"Ġdebt":6190,"Rohit":6191,"ĠBudd":6192,"ĠRaf":6193,"Ġdepartments":6194,"chang":6195,"ĠAcad":6196,"fficient":6197,"Out":6198,"Ġconnected":6199,"Ġfinally":6200,"Ġclearly":6201,"Ġchance":6202,"Ġwitnessed":6203,"ĠFirst":6204,"Ġdebate":6205,"ĠRiver":6206,"grim":6207,"Ġnotes":6208,"Ġcontesting":6209,"outhern":6210,"48":6211,"Ġscientific":6212,"Ġ42":6213,"Ġ43":6214,"Ġideas":6215,"Ġglob":6216,"Ġwonder":6217,"Ġoperating":6218,"ivered":6219,"Ġphotograph":6220,"do":6221,"Mar":6222,"Ġaf":6223,"arant":6224,"iders":6225,"ĠFire":6226,"Ġimproved":6227,"ĠShankar":6228,"Ġroll":6229,"Ġdefend":6230,"Ġsteel":6231,"Ġconcept":6232,"Ġroute":6233,"ĠTerrit":6234,"ĠMohammed":6235,"ĠSenior":6236,"Ġharass":6237,"uti":6238,"Ġrecords":6239,"Ġinternet":6240,"Ġjudgment":6241,"Ġfields":6242,"OS":6243,"Will":6244,"Ġasking":6245,"eless":6246,"NA":6247,"inton":6248,"Ġinfection":6249,"izations":6250,"ĠGul":6251,"Ġjudges":6252,"adnav":6253,"Ġprem":6254,"Ġatmosp":6255,"Austral":6256,"asp":6257,"Ġabsol":6258,"ster":6259,"Ġquant":6260,"ĠManipur":6261,"Ġmode":6262,"ĠChidambaram":6263,"maker":6264,"Dire":6265,"ĠBombay":6266,"htar":6267,"khil":6268,"Ġinfluence":6269,"Ġwelcom":6270,"ICI":6271,"nov":6272,"ĠIncome":6273,"Ġflights":6274,"Ġcharged":6275,"ĠMessenger":6276,"icate":6277,"Ġdelivered":6278,"adnavis":6279,"Ġdu":6280,"ĠUp":6281,"ĠUSD":6282,"Ġskills":6283,"Ġfacilitate":6284,"Priyanka":6285,"Ġyourself":6286,"55":6287,"ĠItal":6288,"ctoral":6289,"Ġpassing":6290,"heast":6291,"ura":6292,"Ġmeasure":6293,"Ġcomfort":6294,"ĠEle":6295,"Ġsuc":6296,"lal":6297,"Ġdiscipl":6298,"49":6299,"Ġmemory":6300,"ĠAM":6301,"Ġtransform":6302,"Ġtree":6303,"Ġemergency":6304,"den":6305,"Ġdiseases":6306,"DM":6307,"urre":6308,"Ġspokesman":6309,"Ġaudience":6310,"cious":6311,"Ġadequ":6312,"Ġvoters":6313,"obile":6314,"owerment":6315,"etic":6316,"hta":6317,"Ġrecommendations":6318,"ĠCS":6319,"Ġassociation":6320,"ĠRak":6321,"Ġfarm":6322,".'":6323,"hendra":6324,"Ġcollaboration":6325,"unch":6326,"Ġimproving":6327,"Ġnab":6328,"Ġhom":6329,"Ġdisbelie":6330,"ĠED":6331,"Ġacting":6332,"Ġprocessor":6333,"ockey":6334,"ĠKareena":6335,"Ġweb":6336,"Ġconstituencies":6337,"bal":6338,"fer":6339,"ĠMember":6340,"Ġperformed":6341,"Ġinstitution":6342,"intendent":6343,"Ġselection":6344,"Ġpit":6345,"Ġstatements":6346,"ĠLo":6347,"ĠRanbir":6348,"Ġdiver":6349,"Ġscene":6350,"ĠAlia":6351,"Ġnewsp":6352,"Ġafford":6353,"ĠForest":6354,"ĠRussian":6355,"09":6356,"Ġserving":6357,"Ġpromotion":6358,"Ġteach":6359,"hans":6360,"Ġconst":6361,"Ass":6362,"OR":6363,"San":6364,"ĠMi":6365,"ĠSnap":6366,"Ġexpenditure":6367,"Ġcontext":6368,"right":6369,"Ġresignation":6370,"Ġstanding":6371,"rav":6372,"Ag":6373,"pet":6374,"Ġskill":6375,"Ġanimals":6376,"Ġdual":6377,"Ġensuring":6378,"haw":6379,"Ġnamely":6380,"usal":6381,"Ġlawyer":6382,"CM":6383,"ĠTemple":6384,"ifty":6385,"Ġpossession":6386,"Minister":6387,"Ġhor":6388,"Ġgram":6389,"ĠGalaxy":6390,"ĠSummit":6391,"Ġwat":6392,"Ġbatting":6393,"ĠProp":6394,"ĠSen":6395,"IMS":6396,"Ġtransferred":6397,"Ġreflect":6398,"Ġdiscl":6399,"Because":6400,"ĠBureau":6401,"Ġwindow":6402,"ĠKamal":6403,"ensex":6404,"arian":6405,"Ġretail":6406,"Ġdamaged":6407,"ĠRavi":6408,"Ġhappens":6409,"umer":6410,"ĠJio":6411,"Ġsuccessfully":6412,"Ġleaving":6413,"harth":6414,"ĠCourts":6415,"rina":6416,"ĠWestern":6417,"Ġcurren":6418,"38":6419,"rants":6420,"Ġbusy":6421,"Ġpurchase":6422,"Ġquestioned":6423,"Rep":6424,"Ġbanking":6425,"Ġkn":6426,"board":6427,"Ġcaught":6428,"Ġdoor":6429,"IPL":6430,"lig":6431,"ww":6432,"Ġinnovation":6433,"Ġelder":6434,"ĠFa":6435,"Ġphones":6436,"ĠSaf":6437,"Ġsucceed":6438,"ĠBel":6439,"Ġdecades":6440,"lick":6441,"TC":6442,"gent":6443,"Ġadopted":6444,"Ġhour":6445,"hibition":6446,"Ġspoken":6447,"Ġpa":6448,"ĠReliance":6449,"Ġvisiting":6450,"32":6451,"Ġweapons":6452,"ĠVardhan":6453,"Ġoffices":6454,"Ġdetailed":6455,"ĠFoundation":6456,"Su":6457,"ĠGan":6458,"ressive":6459,"Home":6460,"prises":6461,"riti":6462,"ĠJer":6463,"Ġprominent":6464,"Ġreturns":6465,"Ġmas":6466,"36":6467,"athan":6468,"Ġconstructed":6469,"ĠPrincipal":6470,"ĠAre":6471,"ĠIIT":6472,"Hence":6473,"ĠMalik":6474,"ĠNirmala":6475,"Ġ#":6476,"Ġprevail":6477,"Ġremove":6478,"Currently":6479,"Ġcitizen":6480,"Ġreb":6481,"maz":6482,"Ġpie":6483,"Ġshowing":6484,"cked":6485,"Air":6486,"ghal":6487,"Ġstrengthening":6488,"Ġlie":6489,"Ġcompon":6490,"dden":6491,"Ġ47":6492,"Ġcaste":6493,"Ġliber":6494,"gaon":6495,"?\"\"\"":6496,"Ġstre":6497,"Ġyouths":6498,"Ġsometimes":6499,"ĠSaudi":6500,"Ġmedium":6501,"uris":6502,"Ġconven":6503,"Ġdrugs":6504,"DC":6505,"ĠMedia":6506,"Ġgovernance":6507,"Ġchallenging":6508,"ĠAmarinder":6509,"Ġband":6510,"ĠTrade":6511,"friend":6512,"Ġcrucial":6513,"ĠAjit":6514,"ĠIndira":6515,"Ġsettle":6516,"amsung":6517,"aranasi":6518,"Ġregions":6519,"ruitment":6520,"ava":6521,"ĠAustralian":6522,"level":6523,"Ġintend":6524,"Ġreference":6525,"ĠMahar":6526,"ĠDub":6527,"Ġrupee":6528,"Ġchoice":6529,"ĠYour":6530,"Ġ400":6531,"abilities":6532,"imal":6533,"Ġadvice":6534,"gend":6535,"Around":6536,"eline":6537,"rehensive":6538,"Ġwilling":6539,"Ġfraud":6540,"Ġexports":6541,"rap":6542,"EE":6543,"iment":6544,"Ġprove":6545,"29":6546,"oval":6547,"Ġopposed":6548,"Ġacademic":6549,"istans":6550,"Ġrequirements":6551,"Ġdrinking":6552,"ourses":6553,"Ġlength":6554,"ĠAirport":6555,"ashes":6556,"ework":6557,"ĠSingapore":6558,"eum":6559,"Ġdistance":6560,"Ġparliamentary":6561,"Son":6562,"Ġexcl":6563,"Ġscen":6564,"ĠExam":6565,"Ġseed":6566,"Ġmechanism":6567,"ĠPeople":6568,"ĠSay":6569,"ĠJust":6570,"Ġskin":6571,"Ġorganization":6572,"ĠDhan":6573,"First":6574,"Ġwait":6575,"ĠShetty":6576,"mal":6577,"Ġrenew":6578,"ĠScript":6579,"Ġdesigned":6580,"ĠModis":6581,"Ġperman":6582,"election":6583,"ĠBharti":6584,"ria":6585,"teran":6586,"using":6587,"ĠSmith":6588,"Ġload":6589,"Ġmeant":6590,"Ġshop":6591,"ĠFinancial":6592,"sApp":6593,"Ġrivers":6594,"ĠWhen":6595,"Ġatmosphere":6596,"Ġeye":6597,"ĠStation":6598,"Ġlabour":6599,"'ve":6600,"Ġdismissed":6601,"ounded":6602,"ĠDemoc":6603,"irperson":6604,"Ġamongst":6605,"Ġdemanding":6606,"Ġprinciples":6607,"ĠFadnavis":6608,"ĠChouhan":6609,"Ġsupporting":6610,"ĠGas":6611,"Ġeast":6612,"ĠDutt":6613,"ĠNot":6614,"night":6615,"Ġkids":6616,"Ġpilgrim":6617,"dev":6618,"Ġundergoing":6619,"Ġcontroversy":6620,"ĠStaff":6621,"Ġpassenger":6622,"ĠPrat":6623,"Ġinvestigations":6624,"ĠMunicipal":6625,"Ġbelief":6626,"Ġcrops":6627,"Ġsort":6628,"Ġability":6629,"ĠKnow":6630,"08":6631,"Ġpowered":6632,"ĠMaj":6633,"ĠAp":6634,"Ġ46":6635,"Ġstrongly":6636,"Ġspin":6637,"Ġpeoples":6638,"Ġfrequ":6639,"Ġpurposes":6640,"Ġgang":6641,"Ġchannel":6642,"forcement":6643,"ĠBa":6644,"Ġdeliber":6645,"Ġconducting":6646,"ĠSpace":6647,"inema":6648,"Ġpension":6649,"Ġnut":6650,"Ġhealthcare":6651,"Ġcrude":6652,"igen":6653,"ruits":6654,"100":6655,"Ġheadquarters":6656,"Ġnovel":6657,"ĠNawaz":6658,"Ġaid":6659,"ĠYouth":6660,"Ġsurround":6661,"rer":6662,"ĠAmendment":6663,"Ġcooper":6664,"05":6665,"ĠiPhone":6666,"cha":6667,"Ġcancelled":6668,"ĠShak":6669,"ifying":6670,"Yet":6671,"39":6672,"Ġperfect":6673,"Ram":6674,"Ġrelatives":6675,"endra":6676,"hot":6677,"gypt":6678,"Ġsolid":6679,"OC":6680,"ĠOb":6681,"Ġtrail":6682,"Ġfruit":6683,"preet":6684,"amental":6685,"was":6686,"itect":6687,"Although":6688,"Ġinvestments":6689,"ĠMeet":6690,"ecutive":6691,"Ġconver":6692,"cel":6693,"pre":6694,"Ġmental":6695,"Ġwalk":6696,"ĠMer":6697,"Ġchanging":6698,"Ġappreciated":6699,"ardar":6700,"ĠLead":6701,"idden":6702,"eph":6703,"aduate":6704,"ĠJagran":6705,"Ġmyself":6706,"Ġteaching":6707,"cean":6708,"Though":6709,"Allah":6710,"ĠSupp":6711,"atures":6712,"Ġgrad":6713,"Ġforced":6714,"Ġmagn":6715,"zil":6716,"Ġfalls":6717,"Chand":6718,"Ġeasily":6719,"ĠKuldeep":6720,"Ġstress":6721,"Ġsport":6722,"Ġundertaken":6723,"Are":6724,"cont":6725,"ĠQur":6726,"oga":6727,"ĠBJPs":6728,"ĠDin":6729,"Ġcontribute":6730,"eras":6731,"Ġboys":6732,"pa":6733,"isher":6734,"ĠWord":6735,"Ġinvolve":6736,"Ġapprox":6737,"Virat":6738,"ĠPS":6739,"Ġstraight":6740,"Shiv":6741,"Ġconsequ":6742,"gen":6743,"eor":6744,"ĠOf":6745,"ĠCanada":6746,"Amit":6747,"ĠReal":6748,"erring":6749,"PR":6750,"ĠSahib":6751,"Ġclause":6752,"Ġfollows":6753,"ĠOlympic":6754,"Due":6755,"rison":6756,"ĠGovt":6757,"harm":6758,"dragon":6759,"Ġlinked":6760,"Ġpoverty":6761,"ĠJohar":6762,"Ġfaces":6763,"Recently":6764,"ĠRah":6765,"ĠSaif":6766,"Ġengineering":6767,"ĠDesk":6768,"Ran":6769,"ĠKhar":6770,"Ġsecure":6771,"Ġcrop":6772,"fit":6773,"Ġgat":6774,"Ġsurface":6775,"Read":6776,"ĠWhite":6777,"Ġavailability":6778,"wama":6779,"ĠSang":6780,"Ġarms":6781,"pective":6782,"Dep":6783,"Ġproof":6784,"Ġarm":6785,"Ġtypes":6786,"kes":6787,"isted":6788,"assador":6789,"ĠOper":6790,"Ġterritory":6791,"ĠSnapdragon":6792,"Theres":6793,"ĠVir":6794,"Ġpossess":6795,"Ġdisput":6796,"cts":6797,"Ġlarger":6798,"Ġtherein":6799,"ĠMost":6800,"AB":6801,"mod":6802,"ilos":6803,"porary":6804,"Ġgrief":6805,"Ġscript":6806,"DS":6807,"uff":6808,"ingu":6809,"asa":6810,"Ġalert":6811,"ĠParliamentary":6812,"Ġascer":6813,"Ġalongside":6814,"Ġsustainable":6815,"Ġdance":6816,"Ġmaintained":6817,"wing":6818,"ĠIndustrial":6819,"utta":6820,"Ġforget":6821,"ĠRawat":6822,"Ġprotesters":6823,"Ġcomplaints":6824,"soon":6825,"ĠPeter":6826,"Ġfeeling":6827,"ij":6828,"Cl":6829,"Ġsudden":6830,"Ġsad":6831,"Ġgathering":6832,"44":6833,"long":6834,"tenance":6835,"Ġ<":6836,"Ġeligible":6837,"uses":6838,"Before":6839,"ĠAbhishek":6840,"Ġcode":6841,"Ġdialogue":6842,"owed":6843,"FI":6844,"Ġprincipal":6845,"Indeed":6846,"ĠMic":6847,"Ġproved":6848,"weh":6849,"oram":6850,"osen":6851,"Ġfiling":6852,"aria":6853,"Ġpace":6854,"Ġcollected":6855,"ĠSmt":6856,"gi":6857,"Ġsymbol":6858,"ests":6859,"Ġdivided":6860,"mazon":6861,"ĠHere":6862,"ĠSharad":6863,"Dont":6864,"Ġkid":6865,"haz":6866,"Ġcars":6867,"una":6868,"awahar":6869,"ĠCRPF":6870,"Deep":6871,"ĠDil":6872,"ĠTurk":6873,"ĠAut":6874,"charged":6875,"ĠLO":6876,"ĠYah":6877,"ĠAccount":6878,"Ġimag":6879,"Ġreservo":6880,"Ġmos":6881,"Ġsentence":6882,"Ġlisten":6883,"Ġsatell":6884,"uja":6885,"Ġlose":6886,"ĠSwach":6887,"ĠKir":6888,"ief":6889,"Ġcauses":6890,"Ġaspir":6891,"ĠProte":6892,"Ġprocessing":6893,"ĠNRC":6894,"Ġfriendly":6895,"Ġtaught":6896,"Ġprosec":6897,"Ġjaw":6898,"Ġlived":6899,"Ġsugar":6900,"ĠKaif":6901,"Ġwelcomed":6902,"Ġsamples":6903,"Ġvari":6904,"ĠBhushan":6905,"ruck":6906,"Ġship":6907,"Ġassessment":6908,"Ġsummit":6909,"Ġpenalty":6910,"Ġprayers":6911,"Ġstruggle":6912,"ĠMark":6913,"Ġteacher":6914,"reement":6915,"ĠTiwari":6916,"Ġvital":6917,"onic":6918,"ĠOlympics":6919,"Ġinput":6920,"Ġadministrative":6921,"hane":6922,"Ġfaithful":6923,"Ġparticipants":6924,"Ġrepeated":6925,"Hind":6926,"Ġsongs":6927,"Ġconsideration":6928,"ensus":6929,"Ġinstall":6930,"Ġaims":6931,"ials":6932,"orders":6933,"Ġprocurement":6934,"okes":6935,"Ġguide":6936,"Ġiron":6937,"Ġeth":6938,"Ġgard":6939,"Ġpolicemen":6940,"issions":6941,"ĠDar":6942,"abi":6943,"ĠBr":6944,"oes":6945,"ĠMSME":6946,"Ġadopt":6947,"eer":6948,"ĠGDP":6949,"Ġjournalist":6950,"Ġnumer":6951,"Ġawa":6952,"Ġstories":6953,"ĠOrganisation":6954,"ashtriya":6955,"jection":6956,"Ġmarty":6957,"Int":6958,"ĠST":6959,"ĠSant":6960,"autam":6961,"ĠBand":6962,"33":6963,"Ġment":6964,"ĠWarn":6965,"Ġwhereas":6966,"Ġsubstant":6967,"ĠNifty":6968,"ĠVaranasi":6969,"Just":6970,"Ġwins":6971,"Ġproperties":6972,"ĠJames":6973,"Ġclasses":6974,"Ġspect":6975,"ĠArunachal":6976,"ĠAzad":6977,"Ġvillagers":6978,"46":6979,"amin":6980,"Ġ2000":6981,"raq":6982,"iscal":6983,"ĠNH":6984,"ibilities":6985,"mpt":6986,"ĠAbraham":6987,"ĠJaipur":6988,"nels":6989,"Ġinstalled":6990,"ĠMoU":6991,"Everyone":6992,"iciency":6993,"istrate":6994,"eler":6995,"Ġerror":6996,"ĠBroad":6997,"ĠJam":6998,"ĠJitendra":6999,"itely":7000,"ĠSukh":7001,"Ġformation":7002,"Ġadequate":7003,"match":7004,"ĠCy":7005,"Ġindependence":7006,"ĠEgypt":7007,"ĠRajk":7008,"Ġgathered":7009,"Ġbird":7010,"ĠThat":7011,"Ġstarts":7012,"ridor":7013,"Ġtruly":7014,"had":7015,"ĠMur":7016,"ĠCount":7017,"Ġextent":7018,"ĠHC":7019,"Ġwild":7020,"ĠPulwama":7021,"Ġcul":7022,"ĠTej":7023,"Ġruled":7024,"ĠProv":7025,"roll":7026,"Ġep":7027,"Cor":7028,"Ġadvantage":7029,"Ġequity":7030,"Ġwarning":7031,"ĠTrust":7032,"Ġbegins":7033,"],":7034,"Ġjuris":7035,"Ġcra":7036,"Os":7037,"Ġbanned":7038,"ĠMetro":7039,"Ġprinc":7040,"Ġconspir":7041,"Ġourselves":7042,"Ġcameras":7043,"Ġspecified":7044,"Ġexpert":7045,"lot":7046,"ĠRanjan":7047,"Ġhur":7048,"Ġliterature":7049,"ĠAkhil":7050,"Ġfeels":7051,"gov":7052,"Ġcourage":7053,"ĠGood":7054,"casting":7055,"Ġmort":7056,"rations":7057,"ĠEmp":7058,"Ġpointed":7059,"Ġsolutions":7060,"Ġtribal":7061,"tel":7062,"Ġprocedure":7063,"Ġfake":7064,"Cons":7065,"Ġunknown":7066,"Ġacts":7067,"Once":7068,"Ġtend":7069,"Ġadvanced":7070,"Ġapostle":7071,"ĠHighways":7072,"ĠStadium":7073,"ĠRajesh":7074,"Ġbelongs":7075,"Keep":7076,"Ġslogans":7077,"ĠAmbani":7078,"Ġrace":7079,"Ġinspir":7080,"othing":7081,"ande":7082,"ĠValley":7083,"Farmers":7084,"Ġsimply":7085,"xic":7086,"Mo":7087,"ansk":7088,"Ġ56":7089,"ĠNan":7090,"ĠSir":7091,"Ġfiles":7092,"Ġwriter":7093,"ĠTim":7094,"Ġclash":7095,"Ġchosen":7096,"Ġplus":7097,"pter":7098,"Ġunity":7099,"Ġarmed":7100,"Ġwisdom":7101,"aves":7102,"Ġconcl":7103,"Ġconcerning":7104,"Shar":7105,"Ġperhaps":7106,"Ġanaly":7107,"Ġcategories":7108,".\"\"":7109,"Ġ51":7110,"erciful":7111,"rivate":7112,"Ġmainly":7113,"ĠIr":7114,"Ġintens":7115,"See":7116,"ĠJi":7117,"Ġbrand":7118,"Ġtoward":7119,"Ġworst":7120,"Ġunless":7121,"Ġelements":7122,"ĠEarth":7123,"ĠMarket":7124,"aren":7125,"ki":7126,"payee":7127,"Ġprosperity":7128,"Ġwont":7129,"Ġleaves":7130,"Ġbrings":7131,"Ġmillions":7132,"Ġremark":7133,"Ġhandle":7134,"ĠKi":7135,"ĠBhopal":7136,"cheduled":7137,"ĠFederation":7138,"Ġvaccine":7139,"Ġtwice":7140,"ĠSah":7141,"Ġportal":7142,"Ġfigure":7143,"Ġfed":7144,"enses":7145,"Five":7146,"hajan":7147,"ĠExecutive":7148,"Ġadvocate":7149,"urved":7150,"Ġinteresting":7151,"Ġopposite":7152,"Ġemerged":7153,"ĠICICI":7154,"Ġtough":7155,"Ġcelebrations":7156,"Ġappealed":7157,"Ġnewly":7158,"Sa":7159,"Ġinstance":7160,"Ġwise":7161,"Ġretire":7162,"ayal":7163,"Ġassum":7164,"Ġfailure":7165,"ĠMary":7166,"Ġhelping":7167,"Ġtoss":7168,"usted":7169,"ĠDeepak":7170,"ĠEst":7171,"Ġstable":7172,"ĠGar":7173,"otees":7174,"2017":7175,"lin":7176,"isition":7177,"jar":7178,"ĠID":7179,"ĠShivraj":7180,"ritsar":7181,"Ġheat":7182,"Ġrum":7183,"ĠDevendra":7184,"Ġconfirm":7185,"ĠGovern":7186,"77":7187,"Ġdated":7188,"Ġ54":7189,"ĠLakh":7190,"ĠFather":7191,"Mus":7192,"ĠSil":7193,"Ġtheme":7194,"Ġrefuge":7195,"icip":7196,"Ġpiv":7197,"ua":7198,"ĠRad":7199,"elsius":7200,"orge":7201,"Ġearned":7202,"ĠTy":7203,"ĠRJD":7204,"ansion":7205,"Ġschedule":7206,"aly":7207,"ĠStat":7208,"Ġgenerally":7209,"Ġrecover":7210,"CH":7211,"Ġbeneficiaries":7212,"Ġhero":7213,"Ġmale":7214,"ĠShahid":7215,"Ġcurrency":7216,"Ġheritage":7217,"igil":7218,"Ġgreetings":7219,"ux":7220,"ĠSociety":7221,"ĠAllahabad":7222,"Ġtrees":7223,"ĠAcademy":7224,"Ġ2022":7225,"Ġsacrifice":7226,"Ġpeaceful":7227,"Ġstyle":7228,"Australia":7229,"Ġbomb":7230,"ĠSad":7231,"Ġselect":7232,"ĠAad":7233,"Have":7234,"Ġcouncil":7235,"utin":7236,"Ġven":7237,"ĠIndependence":7238,"Ġwest":7239,"ĠSciences":7240,"Ġstressed":7241,"ails":7242,"Ġoutstanding":7243,"urg":7244,"85":7245,"Ġplease":7246,"Ġsituated":7247,"Ġclosely":7248,"Ġcopy":7249,"95":7250,"room":7251,"Ġpicked":7252,"ĠHDFC":7253,"Ġemotion":7254,"ĠDiwali":7255,"PG":7256,"Ġhumans":7257,"Ġgoals":7258,"Ġpregn":7259,"Ġconstitution":7260,"Ġfollowers":7261,"ĠChe":7262,"ander":7263,"Bihar":7264,"Ġsoftware":7265,"mad":7266,"ching":7267,"Ġdistributed":7268,"Ġmovies":7269,"Moh":7270,"Ġgreatest":7271,"Ġsky":7272,"Ġspecies":7273,"Ġpremises":7274,"'ll":7275,"Ġcelebrate":7276,"CBI":7277,"Ġinspired":7278,"Ġrelative":7279,"ĠNoida":7280,"ĠLORD":7281,"Ġanimal":7282,"Ġquickly":7283,"kim":7284,"Ġseeing":7285,"Ġcenturies":7286,"ĠForces":7287,"Ġshowc":7288,"Ġexplos":7289,"ĠManish":7290,"ĠAbdul":7291,"Jesus":7292,"ĠDec":7293,"ĠPrice":7294,"Ġintelligence":7295,"ĠGuru":7296,"Ġ52":7297,"Indias":7298,"ĠAbdullah":7299,"Ġlands":7300,"ĠTan":7301,"captain":7302,"Ġ2006":7303,"Ġtransactions":7304,"Nob":7305,"Ġ\\\"\"":7306,"Ġresigned":7307,"ĠTripura":7308,"ĠIndo":7309,"Ġexamples":7310,"ĠSidhu":7311,"anguly":7312,"Ġwinners":7313,"Ġbelieves":7314,"ĠTraining":7315,"ĠHarsh":7316,"Jehovah":7317,"ĠInstitut":7318,"ipped":7319,"uties":7320,"reek":7321,"Each":7322,"Ġentrepreneurs":7323,"Ġdirections":7324,"Ġincor":7325,"Ġinteract":7326,"aving":7327,"Ġquit":7328,"ĠKot":7329,"ĠMahendra":7330,"nan":7331,"Any":7332,"iyush":7333,"ĠPremier":7334,"ĠHel":7335,"Cent":7336,"Ġwestern":7337,"Ġbaby":7338,"ĠWilli":7339,"atio":7340,"Ġbridge":7341,"RS":7342,"eta":7343,"redit":7344,"Ġproducer":7345,"Ġuniversities":7346,"oom":7347,"ĠRef":7348,"ĠRafale":7349,"Ġnotified":7350,"ĠYahweh":7351,"ĠArora":7352,"Ġappears":7353,"Ġfunctioning":7354,"ĠIndones":7355,"Ġalthough":7356,"Ġprepare":7357,"ĠAamir":7358,"Ġpraise":7359,"ĠAar":7360,"ĠAgency":7361,"Ġbranch":7362,"Ġpossibility":7363,"Ġcasual":7364,"ĠMahesh":7365,"Ġreading":7366,"Ġfought":7367,"adhav":7368,"Ġtransl":7369,"Ġedition":7370,"Ġfruits":7371,"athy":7372,"Ġapplied":7373,"Ġdistin":7374,"Ġregularly":7375,"Ġdoesn":7376,"ĠTimes":7377,"Ġjurisdict":7378,"ishi":7379,"yas":7380,"Ġparticipating":7381,"ĠEngineering":7382,"Ġpivotal":7383,"west":7384,"Ġstead":7385,"Ġbelonging":7386,"Ġwarned":7387,"ĠIM":7388,"Ġpermanent":7389,"aling":7390,"AY":7391,"Ġsoil":7392,"ivek":7393,"rigation":7394,"iaomi":7395,"Ġoffence":7396,"Ġprivile":7397,"ĠExchange":7398,"General":7399,"ĠAviation":7400,"ĠMalays":7401,"Ġmotiv":7402,"urrection":7403,"ĠCard":7404,"64":7405,"Sm":7406,"Ġformal":7407,"Ġfacts":7408,"Ġscholars":7409,"ĠCelsius":7410,"Ġexternal":7411,"Ġfarmer":7412,"ĠSardar":7413,"ĠRen":7414,"ography":7415,"Ġdevices":7416,"Ġmaster":7417,"Ġelim":7418,"Ġangels":7419,"phones":7420,"ĠPur":7421,"ĠMahindra":7422,"ĠSea":7423,"ĠGautam":7424,"Ġsnow":7425,"Ġyounger":7426,"Ġagend":7427,"ĠBlack":7428,"Ġclin":7429,"Ġphilos":7430,"Ġconsumers":7431,"ĠEnt":7432,"Ġtank":7433,"ĠPo":7434,"Ġabscond":7435,"Ġeastern":7436,"ĠIraq":7437,"Ġvoting":7438,"Ġbowling":7439,"Ġreplace":7440,"ĠJNU":7441,"ĠDirectorate":7442,"Ġ2005":7443,"Ġfactors":7444,"Ġinvestigated":7445,"lights":7446,"aja":7447,"Wor":7448,"Ġfest":7449,"ĠArabia":7450,"jud":7451,"ĠTests":7452,"Ġreservoirs":7453,"Ġ120":7454,"oked":7455,"Ġmotorcy":7456,"Ġimprison":7457,"Ġallot":7458,"07":7459,"Ġcomprehensive":7460,"bedkar":7461,"iced":7462,"ukla":7463,"Ġimprovement":7464,"Ġverily":7465,"ĠHaz":7466,"ĠOil":7467,"Ġnorms":7468,"Ġlocations":7469,"NL":7470,"Ġapproached":7471,"hin":7472,"Ġfiscal":7473,"Ġdollar":7474,"Ġconsec":7475,"Ġdeter":7476,"Ġelectronic":7477,"Ġdivide":7478,"Ġdetermined":7479,"lets":7480,"ĠBhut":7481,"Ġgriev":7482,"Ġlisted":7483,"Ġcourses":7484,"Ġdropped":7485,"ĠCitizenship":7486,"Ġinterested":7487,"Ġsanctioned":7488,"itors":7489,"Ġchoose":7490,"alu":7491,"ĠMs":7492,"Ġcorporate":7493,"gra":7494,"Ġcore":7495,"rine":7496,"Ġinflation":7497,"ĠDel":7498,"Ġmal":7499,"ĠFestival":7500,"Ġstorm":7501,"Ġretired":7502,"31":7503,"aksha":7504,"ertiliz":7505,"OL":7506,"Ġsuffer":7507,"Ġdia":7508,"Ġprescribed":7509,"Ġconflict":7510,"Haryana":7511,"ĠJain":7512,"Ġpremi":7513,"oda":7514,"Ġheads":7515,"iments":7516,"ĠInternet":7517,"Ġpattern":7518,"ĠMun":7519,"akar":7520,"Ġhonoured":7521,"ĠAgra":7522,"roc":7523,"ĠVaj":7524,"Ġenth":7525,"--":7526,"Ġ41":7527,"Ġrequirement":7528,"umble":7529,"Ġlabor":7530,"ĠChat":7531,"ĠSim":7532,"Singh":7533,"ĠJawahar":7534,"Ġestablishment":7535,"06":7536,"ĠVarun":7537,"Ġsets":7538,"ĠLegislative":7539,"Ġpapers":7540,"oration":7541,"Ġselfie":7542,"Ġshel":7543,"ĠKab":7544,"Ġstruct":7545,"Ġrequires":7546,"Ġharmony":7547,"ĠVikas":7548,"Ġarchitect":7549,"Ġconstitutional":7550,"Reg":7551,"Ġstream":7552,"Ġcompletion":7553,"ĠSBI":7554,"Ġdraft":7555,"Ġcontains":7556,"Ġleads":7557,"Ġthats":7558,"ĠMax":7559,"anskrit":7560,"ĠCPI":7561,"Ġmaterials":7562,"ĠMake":7563,"Ġunbel":7564,"Ġtoler":7565,"ĠGopal":7566,"ĠChak":7567,"Ġfigures":7568,"Ġfilled":7569,"andum":7570,"ĠNatural":7571,"Ġprobably":7572,"Ġadvert":7573,"keeper":7574,"umber":7575,"ĠEl":7576,"uilding":7577,"Ġagenda":7578,"ĠJal":7579,"anj":7580,"ĠPress":7581,"struction":7582,"Ġfundamental":7583,"ĠDigital":7584,"Ġdriving":7585,"Ġguided":7586,"Ġorganizations":7587,"ĠSamajwadi":7588,"Despite":7589,"ĠRic":7590,"ĠTro":7591,"Ġlearned":7592,"Ġdemocratic":7593,"Ġsaved":7594,"Ġjump":7595,"nu":7596,"Ġexpression":7597,"Ġfighter":7598,"Ġconvict":7599,"Ġsinger":7600,"orter":7601,"adekar":7602,"Ġremand":7603,"anti":7604,"Ġexplained":7605,"Ġ@":7606,"ĠStud":7607,"lex":7608,"ĠKatrina":7609,"Ġaspect":7610,"ifications":7611,"Ġtheat":7612,"ĠODIs":7613,"ĠCommon":7614,"ĠBrazil":7615,"Nobody":7616,"etrol":7617,"ĠLife":7618,"Ġconspiracy":7619,"ĠSushma":7620,"aces":7621,"oles":7622,"ĠAgreement":7623,"eria":7624,"ĠChall":7625,"Ġthoughts":7626,"Ġpromises":7627,"Ġaimed":7628,"Ġcitizenship":7629,"ĠAtal":7630,"Ġdecline":7631,"Ġexplain":7632,"Vi":7633,"Ġclub":7634,"Ġdates":7635,"Ġchannels":7636,"Ġinvolving":7637,"%),":7638,"Ġhighway":7639,"Rem":7640,"eav":7641,"Ġlocation":7642,"Ġdescrib":7643,"Ġinterrog":7644,"onom":7645,"ĠRashtriya":7646,"Ġregime":7647,"Ġlabou":7648,"ddhav":7649,"ĠPuri":7650,"Trump":7651,"ups":7652,"Ġflu":7653,"Ġjun":7654,"Ġmishap":7655,"lines":7656,"ĠChaudhary":7657,"ĠGard":7658,"rown":7659,"Ġplane":7660,"Well":7661,"Ġobey":7662,"hash":7663,"ĠRakesh":7664,"ĠBigg":7665,"Ġviolation":7666,"Ġtravelling":7667,"Ġtrouble":7668,"Ġowner":7669,"ĠAkhtar":7670,"ĠWashington":7671,"Ġmaintenance":7672,"visional":7673,"kaiah":7674,"Ġreaching":7675,"''":7676,"ashion":7677,"ĠShukla":7678,"Ġeffic":7679,"Ġguarant":7680,"Ġbron":7681,"izoram":7682,"Ġbid":7683,"Ġfootball":7684,"Ġalt":7685,"Ġhotel":7686,"Tra":7687,"Ġrevel":7688,"luding":7689,"ronics":7690,"%.":7691,"Ġmouth":7692,"GST":7693,"Ġease":7694,"Ġcells":7695,"MT":7696,"2020":7697,"Ġaccompl":7698,"Ġjew":7699,"Ġhang":7700,"ĠPiyush":7701,"Ġconcluded":7702,"ĠJerusal":7703,"Ġ_":7704,"ĠAfrican":7705,"Ġ250":7706,"ĠHousing":7707,"iring":7708,"ĠAmazon":7709,"rives":7710,"HA":7711,"ĠSatan":7712,"ĠSara":7713,"Ġprovince":7714,"aiah":7715,"ĠMT":7716,"ĠPas":7717,"Ġcampus":7718,"orted":7719,"ampur":7720,"ĠRoyal":7721,"Ġdangerous":7722,"Ġowners":7723,"Ġtoil":7724,"Ġbott":7725,"ĠCooperation":7726,"ĠIAF":7727,"Ġpercentage":7728,"yers":7729,"awati":7730,"rers":7731,"cre":7732,"Ġath":7733,"Ġmanager":7734,"Ġthanked":7735,"Up":7736,"34":7737,"Ġfunctions":7738,"MK":7739,"Ġraising":7740,"DRF":7741,"Ġfan":7742,"ĠKann":7743,"Ġcum":7744,"ibly":7745,"Ġresulted":7746,"Ġformat":7747,"xy":7748,"uration":7749,"Ġapolog":7750,"Ġmodels":7751,"ĠGreen":7752,"Ġnegoti":7753,"Ġwake":7754,"Ġgovernor":7755,"Ġattitude":7756,"Ġhistorical":7757,"Ġselling":7758,"ĠRos":7759,"from":7760,"ĠOfficers":7761,"Ġfathers":7762,"Ġwitnesses":7763,"Ġtot":7764,"ghalaya":7765,"Ġexpansion":7766,"ĠWhatsApp":7767,"Ġtrailer":7768,"ĠThen":7769,"ĠLabour":7770,"England":7771,"Ġdischarged":7772,"Ġfloor":7773,"Ġexcellent":7774,"Ġtemples":7775,"Ġhat":7776,"ĠCentres":7777,"Ġexped":7778,"ieties":7779,"bo":7780,"ĠExcell":7781,"ĠAdvani":7782,"cription":7783,"TE":7784,"oves":7785,"Ġtear":7786,"ĠAj":7787,"ĠKaus":7788,"Ġreduction":7789,"uhan":7790,"Ġalloc":7791,"Ġhousing":7792,"edy":7793,"Ġtrend":7794,"ĠNG":7795,"ĠSandeep":7796,"Ġsuit":7797,"Ġtourists":7798,"ĠAdministration":7799,"Ġmix":7800,"Ġfriendship":7801,"ĠInvestigation":7802,"Ġupto":7803,"Ġmedals":7804,"Ġmarketing":7805,"Ġhundreds":7806,"Ġsuggestions":7807,"Ġsufficient":7808,"Ġarbit":7809,"elect":7810,"ĠANI":7811,"Ġlosses":7812,"ĠGog":7813,"iar":7814,"Ġindu":7815,"Ġunve":7816,"ĠSMS":7817,"Ġapplicable":7818,"ĠHer":7819,"Ġreiter":7820,"Ġindigen":7821,"ariat":7822,"adda":7823,"Ġframework":7824,"Ġdeny":7825,"Ġcinema":7826,"ĠCrore":7827,"ional":7828,"Ġthreatened":7829,"ĠSikkim":7830,"2016":7831,"Ġjointly":7832,"ĠNarayan":7833,"addha":7834,"ĠCAA":7835,"Ġhighlighted":7836,"Ġtrained":7837,"Uttar":7838,"ussain":7839,"Ġrepresented":7840,"ĠGor":7841,"ĠChildren":7842,"Please":7843,"Talking":7844,"yam":7845,"utely":7846,"ĠVill":7847,"Ġfurn":7848,"och":7849,"ĠPoll":7850,"Ġwidely":7851,"arnt":7852,"Ġseeks":7853,"ĠJoseph":7854,"Ġfounder":7855,"Ġbuses":7856,"SA":7857,"ĠAkhilesh":7858,"Ġblessings":7859,"Ġshops":7860,"ĠGrand":7861,"Ġcharging":7862,"Ġendeav":7863,"Ġlearnt":7864,"ĠXI":7865,"Ġconsumption":7866,"Jammu":7867,"rier":7868,"Ġsight":7869,"ĠMc":7870,"Ġnumerous":7871,"Ġgains":7872,"ĠAgarwal":7873,"98":7874,"odia":7875,"Ġduties":7876,"ĠJerusalem":7877,"AE":7878,"Ġfinished":7879,"wala":7880,"Ġbowler":7881,"ola":7882,"inda":7883,"ĠAbb":7884,"Ġhyd":7885,"ĠHa":7886,"ĠMarsh":7887,"Ġpush":7888,"ocking":7889,"ĠResources":7890,"ĠDisaster":7891,"Ġcook":7892,"eorological":7893,"ĠGanguly":7894,"Ġmissile":7895,"Ġbagged":7896,"ĠGaur":7897,"Ġsubsequently":7898,"Ġresolved":7899,"ĠRules":7900,"Ġstore":7901,"Ġinstructions":7902,"MR":7903,"Ġcounterpart":7904,"Ġfill":7905,"ĠTMC":7906,"Ġ58":7907,"just":7908,"ĠBadal":7909,"Ġsubstantial":7910,"sych":7911,"Ġreviewed":7912,"ĠBench":7913,"Ġcondolences":7914,"ildren":7915,"ĠWhy":7916,"Ġeffects":7917,"itime":7918,"ĠMarat":7919,"Ġbronze":7920,"abu":7921,"TA":7922,"Ġdiscount":7923,"dh":7924,"iri":7925,"Ġexpanded":7926,"Ġdrop":7927,"Ġrice":7928,"Ġsixth":7929,"Ġconcent":7930,"ĠChow":7931,"Ġannounce":7932,"Ġwasnt":7933,"Ġmessages":7934,"Ġcry":7935,"that":7936,"Ġentit":7937,"Ġpride":7938,"Ġhair":7939,"ĠSecondary":7940,"VP":7941,"Ġworshi":7942,"Ġcausing":7943,"Ġbuildings":7944,"67":7945,"Gujarat":7946,"ellow":7947,"Ġrecognised":7948,"ĠIndore":7949,"ĠInnov":7950,"South":7951,"Ġwheat":7952,"Ġfelicit":7953,"Ġmedicines":7954,"aughter":7955,"kg":7956,"Ġmandatory":7957,"Ġmostly":7958,"Per":7959,"ĠMukesh":7960,"Ġisnt":7961,"Plus":7962,"uters":7963,"ĠRash":7964,"Ġpayments":7965,"Women":7966,"askar":7967,"Ġresist":7968,"LA":7969,"Ġdecre":7970,"ĠTHE":7971,"Ġratio":7972,"onda":7973,"Ġoutl":7974,"oly":7975,"ĠAssistant":7976,"Ġburden":7977,"IG":7978,"ribution":7979,"Ġrevised":7980,"Take":7981,"Ġcompar":7982,"Ġenvironmental":7983,"Ġsessions":7984,"Ġwicked":7985,"Ġexceed":7986,"Ġconsecutive":7987,"ĠInsurance":7988,"Ġalive":7989,"Ġputting":7990,"Ġrevolution":7991,"arations":7992,"Ġimper":7993,"Ġtalked":7994,"Ġresearc":7995,"Ġcoin":7996,"Ġmunicipal":7997,"Ġimpl":7998,"Ġconsumer":7999,"Ġherself":8000,"Ġcertificate":8001,"Heavy":8002,"uki":8003,"aked":8004,"Ġreservation":8005,"ehlot":8006,"Co":8007,"acific":8008,"ĠNaval":8009,"ĠMang":8010,"ading":8011,"ellect":8012,"Ġworksh":8013,"SR":8014,"pert":8015,"Ġdifferences":8016,"Ġdeeply":8017,"Ġloving":8018,"Ġpanchayat":8019,"rum":8020,"ĠAmritsar":8021,"adise":8022,"raid":8023,"Ġconscious":8024,"ĠBhat":8025,"Ġmanaging":8026,"apse":8027,"Asked":8028,"Ġdiscrim":8029,"Ġlegend":8030,"Ġ67":8031,"president":8032,"Ġstability":8033,"inating":8034,"Ġkingdom":8035,"Rajasthan":8036,"Ġcondemned":8037,"Ġvast":8038,"Ġ72":8039,"ĠSain":8040,"ĠEk":8041,"Ġ68":8042,"Ġacknow":8043,"Ġvariety":8044,"ipt":8045,"ĠBR":8046,"ĠUPA":8047,"ĠProphet":8048,"gs":8049,"Karnataka":8050,"ĠProm":8051,"chell":8052,"01":8053,"ND":8054,"field":8055,"ĠWatch":8056,"Ġrow":8057,"Amendment":8058,"ĠMembers":8059,"Moreover":8060,"Sush":8061,"quake":8062,"Ġrestrictions":8063,"Ġsep":8064,"aying":8065,"Ġuncle":8066,"ĠDevgn":8067,"Ġaccordance":8068,"Ġunable":8069,"mptoms":8070,"urities":8071,"Ġanalysis":8072,"Ġworldwide":8073,"Ġimports":8074,"Ġexperienced":8075,"Ġsemi":8076,"Ġtouc":8077,"ĠAay":8078,"gery":8079,"IV":8080,"Ġthereafter":8081,"ĠEV":8082,"ĠPakistans":8083,"Ġprint":8084,"Ġthereof":8085,"Ġaccidents":8086,"ĠMehta":8087,"Ġyield":8088,"Ġdealing":8089,"spector":8090,"Ġjurisdiction":8091,"wah":8092,"mas":8093,"Ġcoalition":8094,"Ġwithdraw":8095,"dess":8096,"Ġtargeted":8097,"iban":8098,"Ġmagaz":8099,"ushman":8100,"Ġsensitive":8101,"Ġdevotees":8102,"Ġmachine":8103,"Ġhect":8104,"Ġobtained":8105,"Ġsevent":8106,"Ġchain":8107,"Ġcovering":8108,"ĠAhmad":8109,"Ġfold":8110,"Ġexchang":8111,"Ġspotted":8112,"Ġintegrity":8113,"ĠHood":8114,"ilitation":8115,"Ġcloud":8116,"ĠIAS":8117,"ĠVivek":8118,"Ġ57":8119,"ĠJapanese":8120,"ĠGram":8121,"Ġshift":8122,"Ġnorthern":8123,"kart":8124,"Ġuns":8125,"Ġcow":8126,"Ġotherwise":8127,"Ġremind":8128,"2018":8129,"tees":8130,"IF":8131,"Ġgar":8132,"ĠJavadekar":8133,"andi":8134,"Offic":8135,"bon":8136,"Ġescape":8137,"Ġwomens":8138,"Ġcomprises":8139,"ĠProtection":8140,"Ġallocation":8141,"Ġfulfilled":8142,"Ġconvention":8143,"ĠTeh":8144,"ĠJadhav":8145,"ĠFarmers":8146,"Ġinteraction":8147,"ba":8148,"Ġdisaster":8149,"Ġdrawn":8150,"Ġtermed":8151,"Pat":8152,"ĠPatil":8153,"ĠDinesh":8154,"ĠCoast":8155,"rators":8156,"upe":8157,"Ġsovere":8158,"Ġfirms":8159,"Ġsites":8160,"Ġallows":8161,"Ġwall":8162,"Ġconsidering":8163,"Ġenemy":8164,"ĠAditya":8165,"ĠMinistries":8166,"Ġcrossed":8167,"olid":8168,"ĠHussain":8169,"Ġpilot":8170,"lipkart":8171,"ĠObama":8172,"Ġuseful":8173,"?\"":8174,"Ġanger":8175,"cles":8176,"Ġsupports":8177,"Ġpackage":8178,"Thereafter":8179,"Ġtells":8180,"Ġplatforms":8181,"ĠInfrastructure":8182,"ĠScheduled":8183,"ĠPG":8184,"Ġexistence":8185,"Ref":8186,"olic":8187,"ĠIndeed":8188,"Ġprinciple":8189,"ĠLah":8190,"ĠPratap":8191,"Ġsouthern":8192,"ĠHan":8193,"ĠKhanna":8194,"Ġapproximately":8195,"SI":8196,"ĠSurvey":8197,"ĠSanskrit":8198,"esty":8199,"Ġbroken":8200,"Ġ)":8201,"Ġlad":8202,"ĠStudents":8203,"Ġachievement":8204,"ĠRights":8205,"Ġactivists":8206,"heet":8207,"ĠLine":8208,"ĠOut":8209,"thew":8210,"Ġmurd":8211,"Ġbowlers":8212,"asc":8213,"Ġabsconding":8214,"salm":8215,"Ġyourselves":8216,"hari":8217,"hard":8218,"ĠAdam":8219,"Ġuses":8220,"ĠDesh":8221,"Ġsupporters":8222,"Ġefficiency":8223,"ĠProcess":8224,"ĠAmbedkar":8225,"Ġunfortun":8226,"42":8227,"Ġthereby":8228,"oyal":8229,"Ġabsence":8230,"ĠBag":8231,"appa":8232,"assion":8233,"ĠTrophy":8234,"rist":8235,"ĠShim":8236,"Ġpresently":8237,"CI":8238,"ĠBuddh":8239,"Ġafraid":8240,"ĠChris":8241,"Ġsick":8242,"Ġcontributed":8243,"ilas":8244,"Actress":8245,"Ġreducing":8246,"Ġrecruitment":8247,"Ġdefinitely":8248,"break":8249,"Ġforever":8250,"icks":8251,"Ġwhoever":8252,"ĠMotor":8253,"ĠJun":8254,"place":8255,"Ġprize":8256,"Ġcapable":8257,"Ġthanks":8258,"Ġ66":8259,"riends":8260,"Ġsettled":8261,"itya":8262,"NB":8263,"ĠMizoram":8264,"Ġintegrated":8265,"ĠIsh":8266,"Ġsuspected":8267,"Ġmining":8268,"Ġfalling":8269,"Ġactual":8270,"Ġpostp":8271,"mun":8272,"ĠSand":8273,"ĠJac":8274,"Ġpromot":8275,"ĠDemocratic":8276,"Ġfloods":8277,"ĠMeeting":8278,"Ġplot":8279,"Ġauction":8280,"Ġcalc":8281,"ortheast":8282,"ĠCell":8283,"ĠUddhav":8284,"ishad":8285,"Ġdrama":8286,"igious":8287,"Kerala":8288,"Ġtalent":8289,"Ġcultiv":8290,"Ġemerging":8291,"Ġvegetables":8292,"Ġconservation":8293,"TV":8294,"Ġdemise":8295,"word":8296,"isan":8297,"ĠGehlot":8298,"Ġsem":8299,"ĠNagpur":8300,"tra":8301,"ulam":8302,"ĠGreat":8303,"Ġinnovative":8304,"Ġforb":8305,"ĠMicro":8306,"Ġ?":8307,"Ġlying":8308,"Ġbeneficial":8309,"appy":8310,"othes":8311,"ĠHam":8312,"Ġalternative":8313,"Ġdiet":8314,"Ġnav":8315,"herry":8316,"Var":8317,"ĠShr":8318,"Ġ2004":8319,"Ġsegment":8320,"Ġinspe":8321,"Ġborrow":8322,"Ġintention":8323,"Ġrelation":8324,"poll":8325,"Soon":8326,"Ġ125":8327,"ĠGuard":8328,"ĠMeghalaya":8329,"Ġfocused":8330,"ĠRegional":8331,"Ġpositions":8332,"Ġelectoral":8333,"Ġextension":8334,"Ġ69":8335,"Ġadmission":8336,"ĠKanpur":8337,"UR":8338,"Ġeffectively":8339,"ĠAv":8340,"Ġreserved":8341,"Ġharassment":8342,"Ġimplementing":8343,"Along":8344,"Ġenhanced":8345,"hit":8346,"Ġplastic":8347,"Ġcommence":8348,"auty":8349,"Ġlosing":8350,"Ġdelight":8351,"Bigg":8352,"Ġtickets":8353,"Ġventure":8354,"Ġasserted":8355,"Ġgrat":8356,"uma":8357,"Ġpaying":8358,"Ġconstantly":8359,"umrah":8360,"Ġcompetitive":8361,"ĠMuz":8362,"ĠLalu":8363,"ĠSuperintendent":8364,"Ġseparat":8365,"ĠRaja":8366,"iciary":8367,"ĠAIIMS":8368,"Ġwherein":8369,"RBI":8370,"Ġhike":8371,"Ġamaz":8372,"Ġic":8373,"ĠBhup":8374,"met":8375,"bi":8376,"ctive":8377,"Ġdivor":8378,"Ġquestioning":8379,"ĠCamp":8380,"Ġillust":8381,"ĠCaptain":8382,"ĠSkill":8383,"Ġcad":8384,"life":8385,"Ġcommunal":8386,"ayam":8387,"Ġmoral":8388,"Ġdepth":8389,"Ġmedicine":8390,"Ġnomination":8391,"Ġgained":8392,"ĠCulture":8393,"Ġtribute":8394,"ĠPlay":8395,"hattar":8396,"Ġconversation":8397,"ulty":8398,"ĠHooda":8399,"ĠOm":8400,"Ġletters":8401,"ENT":8402,"2015":8403,"Ġmargin":8404,"Whe":8405,"Ġachievements":8406,"Ġinitially":8407,"ĠMatthew":8408,"Ġpron":8409,"ĠUSA":8410,"Ġauto":8411,"Ġtitled":8412,"arency":8413,"arnath":8414,"cers":8415,"Ġmotion":8416,"ĠCBSE":8417,"04":8418,"ĠGre":8419,"Ġgrew":8420,"picious":8421,"ĠQualcomm":8422,"Ġrare":8423,"ĠTomar":8424,"Ġbatsmen":8425,"Ġmountain":8426,"Ġpartys":8427,"cher":8428,"ateful":8429,"ĠMyan":8430,"ĠHindust":8431,"UV":8432,"ips":8433,"Ġ85":8434,"Ġstayed":8435,"Ġfired":8436,"Ġdry":8437,"ĠMos":8438,"ĠChin":8439,"ailed":8440,"Ġcontem":8441,"Ġfavor":8442,"opic":8443,"Ġstruck":8444,"Ġbrain":8445,"ĠJustices":8446,"Ġenthus":8447,"Ġblind":8448,"urag":8449,"ĠBob":8450,"Ġfunding":8451,"ĠIndonesia":8452,"fl":8453,"ĠVajpayee":8454,"erved":8455,"ystem":8456,"Ġfielded":8457,"ĠCoal":8458,"ĠGogoi":8459,"ĠRet":8460,"xis":8461,"ĠTO":8462,"Hy":8463,"ĠJawaharlal":8464,"Ġbed":8465,"ĠItaly":8466,"iation":8467,"identified":8468,"Ġpreparations":8469,"ifies":8470,"Ġcontra":8471,"weets":8472,"Ġdim":8473,"Ġrememb":8474,"NS":8475,"adeja":8476,"ĠRealme":8477,"Ġwearing":8478,"ĠDG":8479,"osure":8480,"ĠAbhi":8481,"Ġfix":8482,"Ġtriple":8483,"Ġtorment":8484,"antic":8485,"ANS":8486,"ĠAshwin":8487,"ications":8488,"ĠSav":8489,"Ġconferred":8490,"Ġ59":8491,"ii":8492,"lihood":8493,"Total":8494,"ĠSmart":8495,"gu":8496,"atar":8497,"Ġtenure":8498,"Ġmeets":8499,"Ġliquid":8500,"68":8501,"Ġsearching":8502,"ĠJews":8503,"ĠLand":8504,"elt":8505,"Ġveteran":8506,"Ġera":8507,"osis":8508,"ocol":8509,"Ġborders":8510,"ĠDa":8511,"ĠLaksh":8512,"ĠSensex":8513,"Ġgift":8514,"Ġmaintaining":8515,"Ġvisits":8516,"Ġreplied":8517,"Ġpac":8518,"liness":8519,"Ġreturning":8520,"uka":8521,"Ġbusinesses":8522,"NCP":8523,"Bang":8524,"reams":8525,"Ġhits":8526,"Ġopens":8527,"rian":8528,"Ġimprisonment":8529,"ĠVa":8530,"igher":8531,"andal":8532,"ĠRem":8533,"Don":8534,"rates":8535,"Ġsetup":8536,"Ġgrown":8537,"izes":8538,"hand":8539,"Ġtack":8540,"Ġchallenged":8541,"oking":8542,"lor":8543,"wat":8544,"Ġstarred":8545,"Deepika":8546,"cred":8547,"gam":8548,"Ġefficient":8549,"noon":8550,"ĠJack":8551,"Ġ99":8552,"Ġshape":8553,"Ġtourist":8554,"Americ":8555,"ĠMil":8556,"Ġmonthly":8557,"Ġstronger":8558,"Ġlegislation":8559,"Ġprophe":8560,"oba":8561,"isement":8562,"Ġprotesting":8563,"Ġkinds":8564,"emies":8565,"Ġprocesses":8566,"hotra":8567,"Ġnewspaper":8568,"ĠPlanning":8569,"Ġinstitute":8570,"ĠBet":8571,"ĠChampionship":8572,"ĠGhaz":8573,"Ġ53":8574,"400":8575,"].":8576,"Ġnominated":8577,"ĠBat":8578,"03":8579,"Sp":8580,"Ġcord":8581,"ĠFort":8582,"Ġsecured":8583,"Le":8584,"Ġnod":8585,"ĠResource":8586,"ĠPadma":8587,"Ġmoon":8588,"ĠDur":8589,"Ġtotally":8590,"Ġfootage":8591,"Fin":8592,"ĠPandya":8593,"licop":8594,"Ġlabourers":8595,"Cha":8596,"ĠSuz":8597,"Ġcraft":8598,"ĠMalaysia":8599,"Rail":8600,"want":8601,"Ġtension":8602,"erate":8603,"ĠPri":8604,"agues":8605,"aution":8606,"Ġovert":8607,"Ġhouseholds":8608,"ĠBhutan":8609,"core":8610,"oa":8611,"ampion":8612,"ĠNagaland":8613,"Ġcontinuing":8614,"ĠPlus":8615,"Ġ74":8616,"Gold":8617,"coh":8618,"Ġfly":8619,"Ġsignificantly":8620,"Ġshell":8621,"Ġsecondary":8622,"Ġeventually":8623,"Health":8624,"ĠAirtel":8625,"Ġconsultation":8626,"Ġamendment":8627,"rition":8628,"Ġexcess":8629,"ĠConsumer":8630,"Ġchampions":8631,"ĠMemorial":8632,"Ġjewell":8633,"ĠPil":8634,"ĠTribunal":8635,"inar":8636,"Ġhelicop":8637,"Ġexaminations":8638,"NC":8639,"inner":8640,"Ġincreases":8641,"Ġupper":8642,"Ġowned":8643,"ĠQuran":8644,"Ġsubjects":8645,"hael":8646,"more":8647,"ĠArmed":8648,"ĠPant":8649,"Ġdisciples":8650,"Ġgrounds":8651,"speed":8652,"last":8653,"Ġequipped":8654,"Ġrom":8655,"Ġexperiences":8656,"hew":8657,"ario":8658,"ĠDan":8659,"ĠTrin":8660,"owing":8661,"Did":8662,"Ġsins":8663,"Ġwatching":8664,"Ġdisrupt":8665,"....":8666,"Ġstones":8667,"Ġdifficulties":8668,"Ġmethods":8669,"Ġsequ":8670,"ĠNadda":8671,"Special":8672,"58":8673,"ĠMyanmar":8674,"ĠBer":8675,"Ġkeeps":8676,"uded":8677,"ĠInvestment":8678,"Ġblue":8679,"Ġdwell":8680,"Ġanywhere":8681,"Ġoverseas":8682,"Ġcoverage":8683,"ĠForum":8684,"eft":8685,"Ġpleasure":8686,"Ġdestination":8687,"iform":8688,"Ġinstrument":8689,"Ġisolated":8690,"Ġtransmission":8691,"ĠHand":8692,"ĠPa":8693,"ICS":8694,"Ġrecognized":8695,"Ġresource":8696,"Ġjournalists":8697,"Ġproducing":8698,"Like":8699,"Ġlimits":8700,"Ġmonsoon":8701,"Ġsole":8702,"Ġimmense":8703,"ĠAB":8704,"Ġsymptoms":8705,"Ġobvious":8706,"Ġends":8707,"Ġsharp":8708,"Ġaffordable":8709,"Ġstret":8710,"Ġkeen":8711,"organ":8712,"Ġconvicted":8713,"Ġmerely":8714,"Ġcrew":8715,"ĠSindhu":8716,"Ġprompt":8717,"Ġconce":8718,"ĠSwami":8719,"Ġargument":8720,"Cont":8721,"Ġbowl":8722,"Ġhyp":8723,"ighty":8724,"Ġattached":8725,"gments":8726,"Ġdisbelieve":8727,"ĠPanchay":8728,"Ġsanitation":8729,"Ġmir":8730,"Ġturns":8731,"Sun":8732,"Ġintegral":8733,"ulating":8734,"69":8735,"ĠMalhotra":8736,"Ġphases":8737,"Ġvisible":8738,"Section":8739,"haraoh":8740,"Ġglobally":8741,"Ġassociate":8742,"Ġpreviously":8743,"Ġabsolutely":8744,"uster":8745,"ynam":8746,"Ġevol":8747,"Ġtowns":8748,"ĠBagh":8749,"Ġexem":8750,"Ġdeposit":8751,"ught":8752,"Ġsed":8753,"force":8754,"ĠSubhash":8755,"Ġcombat":8756,"stood":8757,"ĠElectric":8758,"hy":8759,"Ġinher":8760,"ĠRanaut":8761,"ĠDubai":8762,"ĠSer":8763,"ĠLED":8764,"ĠJonas":8765,"lis":8766,"ĠSheikh":8767,"wani":8768,"Ġfeelings":8769,"artments":8770,"lication":8771,"inter":8772,"Ġsending":8773,"rick":8774,"Ġnetwor":8775,"Ġtelecom":8776,"Ġsmaller":8777,"Ġreplaced":8778,"Che":8779,"ĠPrem":8780,"2014":8781,"heb":8782,"Ġacted":8783,"ĠKhattar":8784,"limate":8785,"Ġhonor":8786,"Ġglad":8787,"Ġspreading":8788,"External":8789,"Ġculp":8790,"Ġpremium":8791,"otton":8792,"Ġsquare":8793,"43":8794,"Sources":8795,"Ġaside":8796,"Ġviolent":8797,"Ġhumanity":8798,"Ġretirement":8799,"ulative":8800,"okh":8801,"urd":8802,"Ġcoaches":8803,"Ġnobody":8804,"unk":8805,"Ġlinks":8806,"ĠJadeja":8807,"cellor":8808,"Ġengage":8809,"Ġfish":8810,"ĠJin":8811,"%)":8812,"Justice":8813,"Ġtaxes":8814,"ĠHall":8815,"orious":8816,"idelines":8817,"endar":8818,"Ġemotional":8819,"ĠAayog":8820,"Ġbackground":8821,"ĠIndex":8822,"Ġrang":8823,"ugg":8824,"Finance":8825,"etary":8826,"Ġfactory":8827,"ĠMaur":8828,"icky":8829,"Ter":8830,"Ġencouraged":8831,"DF":8832,"78":8833,"Ġsmartphones":8834,"jeet":8835,"Ġsurve":8836,"Ġforgive":8837,"Ġbehaviour":8838,"Ġpure":8839,"iability":8840,"ĠBumrah":8841,"Ġtributes":8842,"Ġcolor":8843,"Ġunidentified":8844,"otic":8845,"Ġspending":8846,"ĠPanch":8847,"ĠSet":8848,"Ġphilosoph":8849,"ĠParis":8850,"ĠIrani":8851,"ĠUnivers":8852,"Ġgenerations":8853,"ĠSom":8854,"Ġimpart":8855,"Ġattempts":8856,"Ġcrash":8857,").\"":8858,"Qu":8859,"Ġposter":8860,"di":8861,"Ġfarming":8862,"Ġappearing":8863,"Ġcommod":8864,"Ja":8865,"Ġspl":8866,"ishw":8867,"ĠManaging":8868,"ĠNE":8869,"Ġvariants":8870,"Ġsheet":8871,"free":8872,"ĠPenal":8873,"Ġsatellite":8874,"jot":8875,"ĠAction":8876,"Ġintellect":8877,"Ġcoastal":8878,"Ġrid":8879,"fare":8880,"Ġwave":8881,"orough":8882,"Ġjoining":8883,"ĠGurd":8884,"Ġsmooth":8885,"Ġbigger":8886,"ING":8887,"Ġble":8888,"ĠTar":8889,"Ġhill":8890,"ferences":8891,"Ġattending":8892,"Ġcaptured":8893,"Ġ2002":8894,"oso":8895,"Ġflat":8896,"ĠAnant":8897,"Petrol":8898,"Ġpair":8899,"Ġpick":8900,"ibrary":8901,"Mah":8902,"oub":8903,"Ġfeatured":8904,"ĠSwachh":8905,"mAh":8906,"Ġprohib":8907,"Ġjudgement":8908,"ĠHeb":8909,"class":8910,"Ġapparent":8911,"ĠCredit":8912,"ĠJe":8913,"ĠNaik":8914,"ĠWarner":8915,"Ġdiagn":8916,"Ġpill":8917,"Ġpul":8918,"enth":8919,"ĠMen":8920,"giving":8921,"Subsequently":8922,"ĠLat":8923,"Ġcool":8924,"Ġvess":8925,"Ġtea":8926,"Ġreceipt":8927,"Ġwonderful":8928,"ĠMerciful":8929,"Inde":8930,"ishankar":8931,"iland":8932,"ĠChem":8933,"Ġplain":8934,"ĠBay":8935,"Ġvul":8936,"Ġpermitted":8937,"ĠMuzaff":8938,"Ġremote":8939,"Ġportion":8940,"Ġfashion":8941,"ĠMart":8942,"antly":8943,"Ġprest":8944,"Ġmetal":8945,"Ġsixes":8946,"Ġperforming":8947,"Ġhabit":8948,"Ġfulfill":8949,"alling":8950,"Ġimages":8951,"Ġengagement":8952,"alities":8953,"Ġcloser":8954,"Ġentitled":8955,"MB":8956,"pher":8957,"Ġstatue":8958,"Ġlatter":8959,"ĠLet":8960,"emed":8961,"liminary":8962,"Narendra":8963,"Ġtreas":8964,"Ġaccur":8965,"Ġwinner":8966,"ĠLank":8967,"ĠAP":8968,"Ġsucc":8969,"alpur":8970,"Ġzone":8971,"ĠHonble":8972,"ĠFormer":8973,"Ġvalu":8974,"Ġships":8975,"ĠAns":8976,"ĠBro":8977,"Ġneighbours":8978,"BSP":8979,"Ġservant":8980,"Ġproposals":8981,"Defence":8982,"makers":8983,"Ġpermit":8984,"ĠHimal":8985,"EA":8986,"Red":8987,"Ġbeauty":8988,"Ġpasses":8989,"apuram":8990,"ĠBorder":8991,"Ġgrateful":8992,"ovenant":8993,"ĠPunjabi":8994,"ride":8995,"fti":8996,"ĠAadmi":8997,"Ġ78":8998,"Ġinvestigate":8999,"Ġpilgrims":9000,"asim":9001,"ĠMath":9002,"Through":9003,"Ġupgrad":9004,"Ġmineral":9005,"ĠMotors":9006,"Ġfab":9007,"ideo":9008,"Ġoutput":9009,"Ġinvolvement":9010,"Ġworse":9011,"ruction":9012,"Ġapproves":9013,"Ġwished":9014,"Ġmakers":9015,"Ġasks":9016,"Ġheight":9017,"Ġbike":9018,"Ġcamps":9019,"ĠMayawati":9020,"57":9021,"Ġpal":9022,"Ġpip":9023,"Ġacquisition":9024,"Ġresponded":9025,"adur":9026,"ĠIb":9027,"Ġrecon":9028,"TION":9029,"Taking":9030,"Ġhosted":9031,"Ġmountains":9032,"ĠNC":9033,"born":9034,"rie":9035,"Ġhub":9036,"ĠBaba":9037,"fan":9038,"lad":9039,"Ġtally":9040,"Ġinstitutional":9041,"Ġdisplayed":9042,"Ġastray":9043,"Ġhence":9044,"apped":9045,"related":9046,"Ġinclusive":9047,"chand":9048,"house":9049,"Inst":9050,"Ġattrib":9051,"Ġgenerate":9052,"Ġwives":9053,"ĠFY":9054,"Ġentering":9055,"Ġ63":9056,"inking":9057,"Ġpatri":9058,"Ġgods":9059,"gar":9060,"ĠVadra":9061,"ĠPawan":9062,"Ġpoly":9063,"Ġachieving":9064,"Ġcycl":9065,"Ġangry":9066,"ĠRoshan":9067,"ridge":9068,"irect":9069,"Ġsuspect":9070,"Jan":9071,"Tube":9072,"utation":9073,"Ġallowing":9074,"ĠJy":9075,"Ġanswered":9076,"ĠMeteorological":9077,"Chan":9078,"ĠVed":9079,"Ġtransparency":9080,"UTs":9081,"Ġminds":9082,"Ġwaters":9083,"Ġsuitable":9084,"ĠOcean":9085,"but":9086,"ĠCorona":9087,"unications":9088,"Ġinfected":9089,"Ġknowing":9090,"ĠPanchayat":9091,"ĠRRB":9092,"Ġmixed":9093,"Ġworker":9094,"Ġresearchers":9095,"Never":9096,"vir":9097,"ĠSushil":9098,"Ġglory":9099,"aved":9100,"Ġdecade":9101,"Ġsimpl":9102,"Ġpled":9103,"itaries":9104,"ĠSecretariat":9105,"ĠBrahm":9106,"etisation":9107,"Ġpion":9108,"Ġ1000":9109,"Invest":9110,"Ġrecognition":9111,"Ġconveyed":9112,"Ġliquor":9113,"Dh":9114,"Ġarticles":9115,"mentation":9116,"ĠJai":9117,"Ġattra":9118,"rence":9119,"Ġamended":9120,"ĠMinor":9121,"Ġcombined":9122,"ĠShow":9123,"Ġfinger":9124,"anand":9125,"Which":9126,"which":9127,"ĠSuzuki":9128,"ilipp":9129,"Ġrival":9130,"ĠAam":9131,"Ġglass":9132,"Ġcharacters":9133,"ĠmAh":9134,"Ġaband":9135,"ĠMain":9136,"Ġ62":9137,"Ġradio":9138,"egr":9139,"ĠMis":9140,"Ġlawyers":9141,"Ġearthquake":9142,"Ġgenerated":9143,"ĠWilliams":9144,"USH":9145,"aswamy":9146,"ĠMW":9147,"vation":9148,"Ġinterim":9149,"ĠMajor":9150,"Ġwear":9151,"lean":9152,"Ġduo":9153,"Ġfolk":9154,"Ġ95":9155,"ĠId":9156,"rikar":9157,"Ġpronoun":9158,"ĠNation":9159,"rif":9160,"Ġathlet":9161,"acc":9162,"Prot":9163,"owered":9164,"Ġworried":9165,"ournal":9166,"Ġelders":9167,"ĠTir":9168,"PA":9169,"Ġpreaching":9170,"ĠCenter":9171,"ĠEmployment":9172,"ĠMC":9173,"ĠNob":9174,"Friends":9175,"ĠFlipkart":9176,"ĠStock":9177,"Ġlocals":9178,"ĠRavindra":9179,"ĠVinod":9180,"achers":9181,"Ġaccommod":9182,"Ġcontrolled":9183,"Ġregulations":9184,"Ġzero":9185,"ĠSteve":9186,"Ġhun":9187,"ĠHot":9188,"Ġdefined":9189,"Ġtransportation":9190,"Dis":9191,"ato":9192,"Ġgate":9193,"soever":9194,"Ġmarked":9195,"Ġbright":9196,"66":9197,"ĠBy":9198,"ĠWork":9199,"Ġrailways":9200,"Ġcoordination":9201,"Ġburning":9202,"Click":9203,"ĠRegist":9204,"Ġpainful":9205,"Ġprophet":9206,"Ġvolume":9207,"Ġcontained":9208,"Ver":9209,"ĠYash":9210,"2019":9211,"akumar":9212,"ureshi":9213,"ĠVikram":9214,"wahati":9215,"Ġexcited":9216,"ĠNam":9217,"Ġdistingu":9218,"egu":9219,"ĠKannada":9220,"roff":9221,"Ġconsists":9222,"Ġcontributions":9223,"Ġirrigation":9224,"itt":9225,"Ġ73":9226,"Ġafternoon":9227,"Ġcontroversial":9228,"Ġbought":9229,"Ġ000":9230,"Ġincorpor":9231,"resents":9232,"Ġ71":9233,"Ġequival":9234,"Ġsignificance":9235,"ĠPrivate":9236,"Ġvisa":9237,"cript":9238,"ĠMaruti":9239,"97":9240,"atab":9241,"encing":9242,"Ġcrimes":9243,"Ġsav":9244,"Ġwing":9245,"alle":9246,"ĠBhawan":9247,"Ġmanage":9248,"ĠRight":9249,"aceut":9250,"Par":9251,"venues":9252,"Ġconsequences":9253,"achinery":9254,"ĠMitchell":9255,"Ġraped":9256,"ĠCharge":9257,"Ġtraders":9258,"harmaceut":9259,"Ġfitness":9260,"ĠShami":9261,"Akshay":9262,"Ġneighbouring":9263,"ĠCare":9264,"ĠCorporate":9265,"Ġcattle":9266,"remend":9267,"aza":9268,"Ġdiscipline":9269,"Ġswit":9270,"ĠBengali":9271,"ĠKong":9272,"Ġacid":9273,"ĠMount":9274,"Ġworry":9275,"Six":9276,"Ġunderstood":9277,"Ġexpenses":9278,"Ġemployee":9279,"Ġblessed":9280,"Av":9281,"Russ":9282,"Ġenemies":9283,"Ġsalary":9284,"88":9285,"ĠShroff":9286,"cket":9287,"300":9288,"ĠSonam":9289,"ĠNIA":9290,"Sri":9291,"Ġenjoyed":9292,"ĠNand":9293,"Ġinnoc":9294,"Ġtrip":9295,"ĠmicroSD":9296,"Ġeditor":9297,"Ġrescued":9298,"ndering":9299,"Ġassigned":9300,"ĠLeader":9301,"cture":9302,"acing":9303,"Ġlaunches":9304,"Ġrapidly":9305,"ĠList":9306,"Ġvalley":9307,"Ġappearance":9308,"Ġepis":9309,"World":9310,"GC":9311,"irty":9312,"Ġmetro":9313,"Ġinspiration":9314,"ishwarya":9315,"omic":9316,"Ġcontinuous":9317,"Ġdeals":9318,"Ġforgiveness":9319,"Fore":9320,"Ġsolve":9321,"Ġdestruction":9322,"Ġalcoh":9323,"Ġsurre":9324,"iabet":9325,"Ġanybody":9326,"Ġprimarily":9327,"Ġbirds":9328,"Kareena":9329,"Ġascertained":9330,"ĠExamination":9331,"Ġevac":9332,"ĠApple":9333,"ĠStar":9334,"Ġambit":9335,"ĠNick":9336,"ĠKha":9337,"Ġtrials":9338,"india":9339,"Ġreiterated":9340,"Ġpsych":9341,"Ġqualified":9342,"ĠAtt":9343,"osal":9344,"sha":9345,"zen":9346,"adhya":9347,"Ġdignitaries":9348,"ĠNic":9349,"ĠBlue":9350,"Ġrelax":9351,"ĠBanks":9352,"Ġpersonally":9353,"Ġsecular":9354,"Ġdisbelievers":9355,"rorism":9356,"water":9357,"Ġolder":9358,"ĠGhosh":9359,"anes":9360,"SM":9361,"ĠMall":9362,"ĠEv":9363,"Ġunbelievers":9364,"Ġhall":9365,"Ġtouched":9366,"Ġpreparing":9367,"Ġcriticism":9368,"Ġstocks":9369,"ĠMald":9370,"wicket":9371,"ĠHas":9372,"Bhar":9373,"Ġarrangement":9374,"ĠMarathi":9375,"Ġunjust":9376,"Ġpowder":9377,"Ġtargets":9378,"mukh":9379,"ĠVas":9380,"Ġfees":9381,"ĠAlex":9382,"Ġcommissioner":9383,"agon":9384,"Ġanswers":9385,"Ġexactly":9386,"Ġincent":9387,"Ġobjectives":9388,"Ġoutcome":9389,"mendra":9390,"zes":9391,"Ġcovenant":9392,"Ġacres":9393,"rith":9394,"rator":9395,"itra":9396,"Ġshock":9397,"Ġcenter":9398,"Ġopener":9399,"Ġcouldnt":9400,"Ġprofessor":9401,"Ġvacant":9402,"odhpur":9403,"ulses":9404,"oral":9405,"ĠCust":9406,"Ġ01":9407,"Ġconclusion":9408,"yap":9409,"sters":9410,"Ġeg":9411,"Ġremoval":9412,"Ġcustomer":9413,"Ġabuse":9414,"Ġstudied":9415,"Ġemail":9416,"weep":9417,"Ġrepresenting":9418,"ĠMufti":9419,"Ġacquired":9420,"anga":9421,"ĠBihari":9422,"02":9423,"fe":9424,"Ġunited":9425,"Ġ2001":9426,"Ġcontinuously":9427,"lit":9428,"claim":9429,"ĠPhilipp":9430,"Ġdreams":9431,"ĠPud":9432,"Ġbreath":9433,"Ġcatch":9434,"ĠEconom":9435,"ĠISRO":9436,"Ġcli":9437,"ĠViet":9438,"Ġstreets":9439,"ĠAfter":9440,"Bank":9441,"acting":9442,"Ġproperly":9443,"Based":9444,"Gand":9445,"will":9446,"Ġlens":9447,"ĠElections":9448,"Ġpraised":9449,"Know":9450,"ĠKarn":9451,"Ġelement":9452,"Ġcleared":9453,"pes":9454,"Ġtremend":9455,"Lok":9456,"Ġshortage":9457,"ĠYouTube":9458,"Ġminority":9459,"Ġarrival":9460,"41":9461,"ĠAmbassador":9462,"Ġdeclare":9463,"Ġfestiv":9464,"Real":9465,"ĠToday":9466,"Ġ600":9467,"Ġideal":9468,"ultaneous":9469,"Ġsear":9470,"ĠEnterprises":9471,"ĠConvention":9472,"ĠAkbar":9473,"lar":9474,"ossible":9475,"gies":9476,"omin":9477,"ĠKhans":9478,"zy":9479,"Ġhockey":9480,"ĠMadras":9481,"ĠTaliban":9482,"ĠUm":9483,"High":9484,"ourable":9485,"FP":9486,"Ġvan":9487,"Ġrepent":9488,"Ġcareful":9489,"unte":9490,"Ġexplo":9491,"Dist":9492,"UT":9493,"Ġgear":9494,"ointing":9495,"inks":9496,"ucherry":9497,"Ġstudying":9498,"Ġgap":9499,"Ġlivelihood":9500,"stream":9501,"ĠClimate":9502,"Ġartist":9503,"ĠChange":9504,"Ġsubsidy":9505,"ĠLahore":9506,"Ġstages":9507,"Ġallocated":9508,"udhi":9509,"ranches":9510,"berg":9511,"ganj":9512,"Ġshortly":9513,"Ġprograms":9514,"ĠSign":9515,"teen":9516,"ĠAnurag":9517,"ĠQue":9518,"Samsung":9519,"Ġpretty":9520,"ĠAaron":9521,"Ġagitation":9522,"ĠAY":9523,"Ġexit":9524,"Ġpaise":9525,"itary":9526,"ĠGr":9527,"Ġlegislative":9528,"Ġpump":9529,"ĠSession":9530,"Ġoffences":9531,"ĠPass":9532,"ĠBroadcasting":9533,"Ġportf":9534,"po":9535,"illance":9536,"Ġfinding":9537,"ĠVenkaiah":9538,"ĠGir":9539,"Ġnurs":9540,"Ġunem":9541,"Ġmetres":9542,"ĠNon":9543,"ĠHardik":9544,"igade":9545,"Ġ{":9546,"Ġchildhood":9547,"ĠBritain":9548,"Ġinaugurate":9549,"Ġdivine":9550,"Ġbapt":9551,"ĠResp":9552,"atically":9553,"Sat":9554,"Ġstreet":9555,"olen":9556,"Gl":9557,"ĠTiger":9558,"Ġoperate":9559,"Ġdeterior":9560,"Ġfranch":9561,"Ġcomprom":9562,"ĠPaswan":9563,"rahim":9564,"Ġlegislators":9565,"riev":9566,"cend":9567,"ĠAK":9568,"File":9569,"Ġdil":9570,"Ġseeds":9571,"Ġmembership":9572,"Ġprotected":9573,"Ġshelter":9574,"Ġwrest":9575,"Med":9576,"ĠMuseum":9577,"power":9578,"ĠProfessor":9579,"ilitary":9580,"ĠIntelligence":9581,"Ġdiplomatic":9582,"Ġdust":9583,"Ġeating":9584,"Ġcomposed":9585,"Ġpreparation":9586,"minton":9587,"Ġpleased":9588,"achi":9589,"Ġdeposits":9590,"Ġinstitutes":9591,"Ġcarbon":9592,"GS":9593,"ĠTerritories":9594,"ĠSyria":9595,"ĠRaut":9596,"Ġindigenous":9597,"Ġtong":9598,"qual":9599,"Ġ2003":9600,"Ġlowest":9601,"Ġvoted":9602,"Ġturning":9603,"Ġhopes":9604,"wami":9605,"Ġmine":9606,"ĠRom":9607,"ĠGow":9608,"ĠShiva":9609,"Ġenhancing":9610,"Ġdevelopments":9611,"Ġgross":9612,"Ġharvest":9613,"Ġstrengthened":9614,"Ġmachines":9615,"ertilizers":9616,"ĠMul":9617,"Ġslight":9618,"Ġreveal":9619,"ĠKris":9620,"Ġwood":9621,"Ġscope":9622,"Ġfaster":9623,"uke":9624,"Ġappreciation":9625,"Ġpurchased":9626,"Ġjawans":9627,"Ġmotorcycle":9628,"nect":9629,"Ġtaste":9630,"ĠLax":9631,"Ġdistan":9632,"ĠFrom":9633,"Ġexamined":9634,"Ġovercome":9635,"anation":9636,"Ġcommanded":9637,"Art":9638,"Ġpist":9639,"Ġreaction":9640,"ĠDef":9641,"Ġscenario":9642,"oung":9643,"Ġresulting":9644,"Ġmortem":9645,"Ġsatisfaction":9646,"ĠPoon":9647,"Ġjudiciary":9648,"Ġvulner":9649,"Ġyoga":9650,"ĠSpain":9651,"ĠMagistrate":9652,"ĠYuv":9653,"Ġdirectors":9654,"Ġriots":9655,"Ġactivist":9656,"ishe":9657,"rior":9658,"ĠAyushman":9659,"Ġ77":9660,"Ġcorner":9661,"Ġreasonable":9662,"Watch":9663,"chnology":9664,"Ġcongratulate":9665,"ĠMichael":9666,"UN":9667,"Ġrepresents":9668,"Ġcolleagues":9669,"agra":9670,"ĠPersonnel":9671,"Ġintended":9672,"ĠActor":9673,"aped":9674,"Comp":9675,"Ġanx":9676,"ĠTime":9677,"Ġexhibition":9678,"ĠIslamabad":9679,"Ġbiopic":9680,"Ġsituations":9681,"Independent":9682,"iala":9683,"puri":9684,"Ġminus":9685,"amation":9686,"Ġstring":9687,"Ġsurvived":9688,"Ġchampion":9689,"rithik":9690,"ĠHell":9691,"km":9692,"ĠRani":9693,"Ġoutbreak":9694,"Ġaddresses":9695,"fast":9696,"Ġmarry":9697,"orne":9698,"ĠKath":9699,"ĠKorean":9700,"Central":9701,"rank":9702,"ĠInspector":9703,"kha":9704,"Ġensured":9705,"Ġ...":9706,"ĠSangh":9707,"Ġacquit":9708,"Ġuniform":9709,"Ġstranded":9710,"Ġlev":9711,"Director":9712,"ĠCert":9713,"hvi":9714,"isi":9715,"Ġrefers":9716,"undering":9717,"ĠInnovation":9718,"ĠPartners":9719,"Ġillness":9720,"Ġmistake":9721,"itan":9722,"Ġpages":9723,"AAP":9724,"arer":9725,"Ġchast":9726,"umn":9727,"Ġstrikes":9728,"Ġok":9729,"uram":9730,"Ġinvite":9731,"Whether":9732,"aming":9733,"Ġfabric":9734,"Ġupdate":9735,"Ġvigil":9736,"ĠVol":9737,"ĠChandr":9738,"atics":9739,"amool":9740,"rue":9741,"Ġsummer":9742,"ĠHigher":9743,"Ġpark":9744,"Ġreaches":9745,"Ġclothes":9746,"Ġsurprised":9747,"Bl":9748,"ĠGreek":9749,"GA":9750,"Ġamazing":9751,"dis":9752,"ĠYam":9753,"Ġairports":9754,"Ġgrace":9755,"ford":9756,"Ġexamine":9757,"ĠAgricultural":9758,"ĠBSF":9759,"iabetes":9760,"Ġencouraging":9761,"96":9762,"umin":9763,"arliest":9764,"Ġcompassion":9765,"ĠThailand":9766,"SBI":9767,"Ġtraditions":9768,"Ġsentenced":9769,"Ġquarant":9770,"ĠAnnual":9771,"Ġaw":9772,"ĠStart":9773,"Ġfulfil":9774,"ĠBasket":9775,"days":9776,"Ġcart":9777,"itha":9778,"ĠKashmiri":9779,"Ġcricketers":9780,"ĠAYUSH":9781,"Ġemphasized":9782,"Ġeve":9783,"Ġparame":9784,"Ġpractical":9785,"Security":9786,"Ġequivalent":9787,"Pak":9788,"Ġvisitors":9789,"actor":9790,"osystem":9791,"Ġthreats":9792,"addy":9793,"Ġbullet":9794,"Ġsacred":9795,"ĠUAE":9796,"ĠRajendra":9797,"ĠIslands":9798,"pathi":9799,"Ġtool":9800,"uous":9801,"Additional":9802,"ĠTurkey":9803,"Ġlarg":9804,"ĠChauhan":9805,"Ġsanct":9806,"operative":9807,"Ġearliest":9808,"ĠKish":9809,"Ġcapabilities":9810,"asts":9811,"Ġpersonality":9812,"Ġbbl":9813,"RDO":9814,"ĠDam":9815,"Ġcolon":9816,"Fi":9817,"ĠSecretaries":9818,"Ġbacked":9819,"BCCI":9820,"nis":9821,"Ġsafegu":9822,"ĠAur":9823,"ĠNS":9824,"Ġunfortunate":9825,"Ġrelationships":9826,"ĠJohns":9827,"athi":9828,"atories":9829,"Em":9830,"inity":9831,"Ġrein":9832,"ĠThar":9833,"Ġchapter":9834,"ĠPR":9835,"ĠSit":9836,"ker":9837,"Ġempowerment":9838,"booba":9839,"Ġupload":9840,"ainst":9841,"Ġcomponents":9842,"Ġmaid":9843,"Ġacceler":9844,"ĠAzhar":9845,"ĠPhase":9846,"Ġtur":9847,"irt":9848,"Ġregret":9849,"Ġindul":9850,"how":9851,"ĠMexic":9852,"Ġinhab":9853,"ĠNaz":9854,"allya":9855,"Ġ256":9856,"ĠScient":9857,"ĠKim":9858,"Ġpertaining":9859,"Ġlikes":9860,"Ġexpectations":9861,"produ":9862,"ĠGuwahati":9863,"ĠOrganization":9864,"tha":9865,"aba":9866,"feren":9867,"Ġtight":9868,"Ġoccasions":9869,"Ġwinter":9870,"Ġrepresentative":9871,"ĠHindustan":9872,"wag":9873,"Ġchose":9874,"point":9875,"Ġcivilian":9876,"Ġmasks":9877,"ĠMel":9878,"Muslim":9879,"box":9880,"Ġdiverse":9881,"Kohli":9882,"writ":9883,"nty":9884,"Ġeasier":9885,"ĠBRICS":9886,"zer":9887,"Ġrub":9888,"Ġprofessionals":9889,"print":9890,"Ġdelayed":9891,"ifically":9892,"WC":9893,"Ġwhenever":9894,"ĠIPS":9895,"istry":9896,"ivo":9897,"Ġrighteousness":9898,"ĠRath":9899,"ĠOrder":9900,"akrish":9901,"utch":9902,"Ġtools":9903,"ica":9904,"Ġburnt":9905,"Ġrej":9906,"Ġsupplies":9907,"ployees":9908,"Ġtimely":9909,"Ġchemical":9910,"Ġmm":9911,"ĠRev":9912,"Ġfastest":9913,"udhiana":9914,"Ġsupposed":9915,"ĠParrikar":9916,"Ġseventh":9917,"ĠKes":9918,"ĠFront":9919,"assy":9920,"Ġsincere":9921,"ĠJodhpur":9922,"ĠAnsari":9923,"akhpur":9924,"ĠHereafter":9925,"ĠAD":9926,"Ġgreatly":9927,"Post":9928,"Ġrankings":9929,"Ġaer":9930,"Ġmosque":9931,"Ġalias":9932,"hahal":9933,"PL":9934,"ĠRaman":9935,"Ġclaiming":9936,"Pe":9937,"Ġmagazine":9938,"ĠPrevention":9939,"Ġhosts":9940,"Ġsuspects":9941,"ĠAst":9942,"ĠBose":9943,"Ġcolours":9944,"Ġcombination":9945,"ĠHebrew":9946,"wealth":9947,"provisional":9948,"Ġcontested":9949,"ĠSafety":9950,"ourav":9951,"Ġautonom":9952,"egrated":9953,"cience":9954,"Ġdriven":9955,"Ġholid":9956,"Ġ61":9957,"Make":9958,"Ġbranches":9959,"Ġindicated":9960,"Ġcommemor":9961,"ether":9962,"ĠPath":9963,"Ġlaundering":9964,"ĠText":9965,"Ġchairperson":9966,"ĠXi":9967,"Ġtransparent":9968,"Ġrumours":9969,"Ġstun":9970,"Ġtrigg":9971,"Ġroutes":9972,"Ġflesh":9973,"Ġscreening":9974,"Ġuniversal":9975,"Ġdiversity":9976,"Sc":9977,"School":9978,"state":9979,"Ġisland":9980,"ĠIANS":9981,"ĠKhur":9982,"cutta":9983,"Children":9984,"Ġarrive":9985,"ĠPuducherry":9986,"EF":9987,"Ġmachinery":9988,"Ġstab":9989,"Ġlargely":9990,"Ġintent":9991,"Ġflash":9992,"ĠGill":9993,"Ġju":9994,"Ġemphasis":9995,"oist":9996,"Ġforecast":9997,"Ġkilomet":9998,"Ġwithdrawal":9999,"Ġrock":10000,"Ġreleases":10001,"Ġuncon":10002,"Ġhonest":10003,"ĠRoman":10004,"Ġpresentation":10005,"IB":10006,"ndered":10007,"ĠRoh":10008,"ĠStandard":10009,"Ġstolen":10010,"aniel":10011,"Ġcelebrities":10012,"Ġexecution":10013,"Ġraw":10014,"ĠMobile":10015,"iji":10016,"ignty":10017,"Ġequality":10018,"Ġsatisfied":10019,"alli":10020,"oining":10021,"Ġimmig":10022,"Ġpeak":10023,"rible":10024,"vijay":10025,"sequent":10026,"Ġcriticised":10027,"ques":10028,"ords":10029,"Ġdesires":10030,"Ġbooth":10031,"Were":10032,"Ġobserve":10033,"Ġtwenty":10034,"Ġdisputes":10035,"Whats":10036,"Ġmothers":10037,"Ġpanic":10038,"Ġspecifications":10039,"Ġprecious":10040,"Ġphilosophy":10041,"ĠEntertainment":10042,"Ġspeaks":10043,"ĠPrabhu":10044,"Ġvolunt":10045,"ĠPeace":10046,"tax":10047,"Ġsees":10048,"nag":10049,"Ġclick":10050,"Ġtransaction":10051,"Ġentirely":10052,"Ġsummon":10053,"arshan":10054,"who":10055,"ician":10056,"Ġsilent":10057,"Ġverses":10058,"ĠShraddha":10059,"Ġrent":10060,"Ġexists":10061,"Ġquantity":10062,"ĠKangana":10063,"Ġnomine":10064,"ĠShakti":10065,"jid":10066,"Ġ'%":10067,"MI":10068,"Ġgenu":10069,"Ġdynam":10070,"87":10071,"Ġassemb":10072,"Ġmoves":10073,"Ġpoliticians":10074,"ĠGamb":10075,"acle":10076,"ĠLeft":10077,"Ġevident":10078,"ĠAlliance":10079,"Ġfallen":10080,"ferencing":10081,"Good":10082,"LD":10083,"Ġequally":10084,"Ġdesignated":10085,"Ġpredict":10086,"ĠAbbas":10087,"ĠJoe":10088,"Ġasset":10089,"xygen":10090,"estyle":10091,"Ġreligions":10092,"awn":10093,"Ġfilmmaker":10094,"Ġexempt":10095,"93":10096,"alted":10097,"ĠRevenue":10098,"ĠNanak":10099,"Ġcogn":10100,"Ġdrivers":10101,"ĠRagh":10102,"Ġblame":10103,"Ġanticip":10104,"oil":10105,"Ġintervention":10106,"Ġresponsibilities":10107,"Cabinet":10108,"Ġbread":10109,"Ġpresidential":10110,"Ġsusp":10111,"Ġconnections":10112,"illa":10113,"Ġamendments":10114,"Ġtransformation":10115,"ĠAyurved":10116,"Xiaomi":10117,"Work":10118,"preced":10119,"OP":10120,"Ġproductivity":10121,"wer":10122,"Ġstadium":10123,"ĠFran":10124,"Ġhidden":10125,"Ġpull":10126,"Ġhell":10127,"ĠDharmendra":10128,"ocon":10129,"Woman":10130,"Ġhate":10131,"ĠSis":10132,"precedented":10133,"Col":10134,"ĠTripathi":10135,"Ġpersec":10136,"ĠDC":10137,"Ġtemporary":10138,"ificial":10139,"Ġblamed":10140,"Ġtransg":10141,"Ġsettlement":10142,"ĠQureshi":10143,"ĠCompanies":10144,"Ġchart":10145,"iabad":10146,"Ġworkshop":10147,"utory":10148,"avati":10149,"Ġexplore":10150,"Mu":10151,"Ġthorough":10152,"Ġjewellery":10153,"Ġ144":10154,"Ġminorities":10155,"Ġrenewable":10156,"Ġcontaining":10157,"Ġdignity":10158,"ayalam":10159,"Ġblocks":10160,"crore":10161,"Ġphen":10162,"63":10163,"Ġpregnant":10164,"bing":10165,"lo":10166,"mn":10167,"ĠOver":10168,"Ġinvitation":10169,"Ġtremendous":10170,"Ġhide":10171,"Ġextensive":10172,"Ġassistant":10173,"iesel":10174,"Ġending":10175,"Ġpool":10176,"ĠPharaoh":10177,"Ġarrang":10178,"asprit":10179,"Ġchargesheet":10180,"Ġsurprise":10181,"iverse":10182,"Ġintellectual":10183,"ĠSmall":10184,"jah":10185,"Ġwounded":10186,"Ġluck":10187,"Ġpreliminary":10188,"ĠMaldives":10189,"aded":10190,"ĠJail":10191,"mat":10192,"mail":10193,"orms":10194,"Ġclashes":10195,"wad":10196,"ĠVeh":10197,"ĠActs":10198,"Ġ130":10199,"Ġpropag":10200,"Ġmighty":10201,"Ġgender":10202,"ĠElectronics":10203,"East":10204,"ĠShipping":10205,"pret":10206,"ML":10207,"ĠMiddle":10208,"Ġly":10209,"ĠRup":10210,"Ġmaritime":10211,"ĠKapur":10212,"Ġempt":10213,"Ġrounds":10214,"Ġalcohol":10215,"Ġheed":10216,"ĠFac":10217,"Check":10218,"finals":10219,"Ġcorridor":10220,"Ġrehab":10221,"ĠNorthern":10222,"Ġmigrant":10223,"Chandigarh":10224,"Ġtheory":10225,"ĠHong":10226,"istory":10227,"urned":10228,"Ġflee":10229,"ĠNay":10230,"erving":10231,"ĠKL":10232,"oja":10233,"ĠTechnical":10234,"ĠGeorge":10235,"ĠChahal":10236,"Ġconsent":10237,"Ġobtain":10238,"Ġprocedures":10239,"ĠBahadur":10240,"Ġempower":10241,"Ġsalt":10242,"ishermen":10243,"Ġinfl":10244,"Look":10245,"Ġdistress":10246,"ĠRoyals":10247,"ĠBul":10248,"Ġfaculty":10249,"Ġurge":10250,"Ġ81":10251,"ĠPict":10252,"Ġabund":10253,"Ġinaugural":10254,"ĠRober":10255,"ĠWi":10256,"ĠOther":10257,"anship":10258,"Ġperformances":10259,"Ġweapon":10260,"ĠWind":10261,"ancies":10262,"ĠMiss":10263,"Ġdisturb":10264,"Ġdefault":10265,"Ġnationals":10266,"Ġunveiled":10267,"sil":10268,"hent":10269,"bour":10270,"ĠMother":10271,"ĠBur":10272,"ĠManj":10273,"ĠTribal":10274,"portion":10275,"ounds":10276,"iences":10277,"Ġadvers":10278,"Ġmap":10279,"Ġcelebration":10280,"Ġculprits":10281,"ĠBlu":10282,"ĠSeries":10283,"Ġestate":10284,"ĠMill":10285,"Ġshout":10286,"Ġaffili":10287,"Ġhrs":10288,"hani":10289,"Ġintim":10290,"Ġslammed":10291,"Ġblocked":10292,"Ġeverybody":10293,"ĠShimla":10294,"Ġgratitude":10295,"Ġdispers":10296,"Ġsuperstar":10297,"Ġdear":10298,"ĠMedic":10299,"ĠLPG":10300,"Ġenvis":10301,"NT":10302,"Ġ1999":10303,"Ġbonds":10304,"ĠGa":10305,"ĠPank":10306,"Ġentertainment":10307,"Ġsavings":10308,"Gandhi":10309,"Ġfederal":10310,"Ġtie":10311,"Ġpreced":10312,"amond":10313,"ros":10314,"ĠKen":10315,"Ġviz":10316,"ĠChoud":10317,"Ġagreements":10318,"Ġranked":10319,"Instead":10320,"rich":10321,"ĠConsult":10322,"Ġecosystem":10323,"Ġcleanliness":10324,"ĠAzam":10325,"ingly":10326,"ĠAch":10327,"Ġcycle":10328,"ĠUrdu":10329,"ĠThom":10330,"Ġprobing":10331,"Ġoblig":10332,"ĠRashid":10333,"ĠPers":10334,"Ġinsult":10335,"ĠClub":10336,"ĠMore":10337,"ĠTag":10338,"Ġcovers":10339,"Cong":10340,"Prov":10341,"Amitabh":10342,"ĠEmer":10343,"Ġ800":10344,"BA":10345,"Ġintroduction":10346,"Ġmomentum":10347,"ĠPsalm":10348,"owned":10349,"ĠUT":10350,"ĠDeshmukh":10351,"Ġpetitions":10352,"Ġdivers":10353,"ĠJagan":10354,"Ġinputs":10355,"ĠInstitutions":10356,"Ġconsolid":10357,"Ġundertake":10358,"Ġflagship":10359,"Ġdiscrimination":10360,"ĠSeh":10361,"utenant":10362,"ĠJaish":10363,"ĠUTs":10364,"Ġchop":10365,"Ġelabor":10366,"Ġkit":10367,"ĠThese":10368,"Ġwalking":10369,"Ġbeaten":10370,"ĠSaj":10371,"ĠFil":10372,"Ġdifficulty":10373,"ĠCalcutta":10374,"edi":10375,"Bengal":10376,"Ġcotton":10377,"Ġpref":10378,"Ġcircuit":10379,"Ġacknowled":10380,"itis":10381,"Ġchances":10382,"Ġhandling":10383,"ĠIbrahim":10384,"ĠVietnam":10385,"essed":10386,"Ġcomponent":10387,"ĠSaw":10388,"olio":10389,"Ġsuccumb":10390,"ĠSIT":10391,"Ġgrass":10392,"59":10393,"iman":10394,"Ġvirtual":10395,"ĠEmpowerment":10396,"Ġpresided":10397,"Ġfirmly":10398,"ĠNow":10399,"eev":10400,"inik":10401,"Ġtelling":10402,"Ġimmun":10403,"Ġregistering":10404,"limited":10405,"ections":10406,"Ġexhib":10407,"Does":10408,"ĠNITI":10409,"acher":10410,"Ġtweets":10411,"lete":10412,"ĠBSE":10413,"unar":10414,"Ġvenue":10415,"ĠKed":10416,"ĠCham":10417,"Ġofficially":10418,"Ġdemonetisation":10419,"Part":10420,"Ġranks":10421,"Ġpiece":10422,"ĠRichard":10423,"ĠJas":10424,"Ra":10425,"Ġarguments":10426,"ĠSl":10427,"Ġdepends":10428,"ĠHem":10429,"Ġsentiments":10430,"Ġprivilege":10431,"ESID":10432,"ĠCro":10433,"ĠStrate":10434,"Ġpublication":10435,"Ġterritories":10436,"Vice":10437,"Ġtender":10438,"Ġpieces":10439,"ĠShikhar":10440,"Ġbills":10441,"Ġretal":10442,"Ġgif":10443,"Islam":10444,"Ġunprecedented":10445,"ested":10446,"early":10447,"enture":10448,"Ġchurch":10449,"Ġflo":10450,"Nothing":10451,"oys":10452,"ĠBhagat":10453,"ĠJha":10454,"Ġrecalled":10455,"Ġdevotion":10456,"Ġrepeatedly":10457,"Ġembar":10458,"ĠDalit":10459,"Ġairline":10460,"including":10461,"Ġaudio":10462,"ixels":10463,"Ġpredicted":10464,"held":10465,"Ġmanual":10466,"what":10467,"Ġallies":10468,"ĠSee":10469,"Ġrevelations":10470,"83":10471,"itate":10472,"ĠSSP":10473,"ĠRTI":10474,"Ġbuying":10475,"Ġconvin":10476,"iva":10477,"ĠGandhis":10478,"NCR":10479,"ĠVe":10480,"ĠNetwork":10481,"Ġprosecution":10482,"Ġkills":10483,"ĠPhil":10484,"Ġeager":10485,"Ġpassword":10486,"ĠKhal":10487,"ĠSyed":10488,"Ġresum":10489,"Ġrefer":10490,"Ġvolunte":10491,"Photo":10492,"beat":10493,"ĠSE":10494,"rome":10495,"Ġdeficit":10496,"ĠScriptures":10497,"being":10498,"Ġundertaking":10499,"TH":10500,"Ġash":10501,"Ġdedication":10502,"Ġregulatory":10503,"Ġric":10504,"ĠPV":10505,"isal":10506,"rices":10507,"ĠAud":10508,"Ke":10509,"Ġdisob":10510,"ĠCoronavirus":10511,"Ġpursue":10512,"Ġpriest":10513,"abling":10514,"ĠTwo":10515,"2013":10516,"ĠSurat":10517,"Ġsuprem":10518,"Ġboundaries":10519,"Ġscan":10520,"ogether":10521,"Surely":10522,"ĠPension":10523,"ĠJaishankar":10524,"ĠSupport":10525,"utor":10526,"ĠGro":10527,"Could":10528,"Ġcompan":10529,"agan":10530,"SCO":10531,"Ġzones":10532,"avi":10533,"ĠModel":10534,"gil":10535,"Ġsimultaneous":10536,"etition":10537,"ĠLot":10538,"Ġimpossible":10539,"ĠGorakhpur":10540,"ĠSmriti":10541,"ĠAnup":10542,"Ġsovereignty":10543,"Ġforum":10544,"Ġabrog":10545,"ĠEnforcement":10546,"Supreme":10547,"whe":10548,"duct":10549,"Ġraids":10550,"ĠResurrection":10551,"ĠSwed":10552,"Ġestimates":10553,"ĠPromotion":10554,"ĠPalest":10555,"Ġcontrast":10556,"Ġeconomies":10557,"ujan":10558,"org":10559,"ĠNT":10560,"Ġbackward":10561,"ugram":10562,"Ġ76":10563,"Ġordinary":10564,"RA":10565,"ĠGriev":10566,"waisi":10567,"cill":10568,"Ġsli":10569,"Ġretain":10570,"ĠResults":10571,"Ġintroduce":10572,"Bangladesh":10573,"Ġsplit":10574,"iques":10575,"Ġanalyst":10576,"ĠPresidents":10577,"ĠMalayalam":10578,"umi":10579,"Ġeminent":10580,"ĠMayor":10581,"Ben":10582,"mates":10583,"Ġdoubles":10584,"Ġroot":10585,"jeev":10586,"Ġcondemn":10587,"Ġinnocent":10588,"Ġnative":10589,"Ġsheep":10590,"Ġsuddenly":10591,"/-":10592,"ĠWorking":10593,"anagar":10594,"ĠOs":10595,"Ġcrim":10596,"Ġarrests":10597,"Ġcorrupt":10598,"ĠRanchi":10599,"ĠHold":10600,"airy":10601,"Ġguests":10602,"Ġresidential":10603,"Kash":10604,"Ġshrine":10605,"ĠTrinamool":10606,"pread":10607,"haran":10608,"Ġtheft":10609,"Ġcured":10610,"Ġclarified":10611,"Ġmisle":10612,"Ġmandate":10613,"father":10614,"Ġhards":10615,"Ġnep":10616,"Ġcollective":10617,"Ġwage":10618,"ĠRag":10619,"Ġgarden":10620,"Ġbio":10621,"ĠBid":10622,"rows":10623,"Ġsymp":10624,"ĠKaushal":10625,"Ġlamp":10626,"ĠKu":10627,"ĠFDI":10628,"doers":10629,"osoever":10630,"Ġmurdered":10631,"Ġrall":10632,"Ġcollision":10633,"Ġutter":10634,"Ġenquiry":10635,"Ġdomain":10636,"ĠLive":10637,"Ġcompuls":10638,"SL":10639,"Ġfutures":10640,"ĠDeol":10641,"ĠCommander":10642,"ĠAngel":10643,"Ġsubsequent":10644,"Ġstaying":10645,"iny":10646,"ĠMD":10647,"tings":10648,"Ġcommend":10649,"Ġ91":10650,"ĠCommonwealth":10651,"urse":10652,"ĠUnt":10653,"Ġupset":10654,"Ġurgent":10655,"Ġsoldier":10656,"ecess":10657,"ĠTerritory":10658,"idespread":10659,"lasting":10660,"ĠHave":10661,"Ġoperated":10662,"idav":10663,"ĠCreat":10664,"ĠRay":10665,"Ġsurveillance":10666,"ichand":10667,"ĠRama":10668,"91":10669,"rating":10670,"Ġflying":10671,"omon":10672,"Ġtensions":10673,"ĠEU":10674,"Ġcalm":10675,"rath":10676,"Ġcompliance":10677,"Ġ84":10678,"Ġvaluable":10679,"itamin":10680,"ĠChurch":10681,"Ġdarkness":10682,"Till":10683,"oning":10684,"Ġcup":10685,"Interest":10686,"Ġally":10687,"abri":10688,"ESIDENT":10689,"62":10690,"ĠDeb":10691,"ayaan":10692,"Ġescal":10693,"odaf":10694,"Ġentrance":10695,"Ġforgot":10696,"ananda":10697,"ĠChallengers":10698,"idabad":10699,"Ġhes":10700,"Ġframe":10701,"ĠBabu":10702,"achment":10703,"Ġconting":10704,"Ġorganic":10705,"Ġremembered":10706,"Ġward":10707,"ĠTaj":10708,"Ġcounting":10709,"Ġcargo":10710,"ometimes":10711,"54":10712,"Ġdetermine":10713,"inde":10714,"ĠJournal":10715,"Ġcapability":10716,"Ġcelebrating":10717,"Ġrebel":10718,"Ġvend":10719,"Ġmilitant":10720,"Ġdress":10721,"certain":10722,"Ġappreciate":10723,"juven":10724,"Ġsaving":10725,"ĠSolar":10726,"Ġdiscovered":10727,"anguage":10728,"ĠSidharth":10729,"Ġoutfit":10730,"Ġconstruct":10731,"Ġpatience":10732,"Ġdealt":10733,"Ġtariff":10734,"ĠMemorandum":10735,"Ġdivorce":10736,"odes":10737,"Ġapostles":10738,"Pres":10739,"Ġmeat":10740,"Ġlaunching":10741,"Ġcreative":10742,"Ġqualities":10743,"ĠJob":10744,"Ġsocio":10745,"Ġsigning":10746,"Ġrealise":10747,"ĠINDI":10748,"Ġaspirations":10749,"Ġallotted":10750,"active":10751,"72":10752,"ĠBans":10753,"economic":10754,"Ġcomplic":10755,"Af":10756,"Ġtroub":10757,"Ġgradually":10758,"61":10759,"Ġrecip":10760,"Ġyes":10761,"Ġrefund":10762,"Ġmac":10763,"Ġleague":10764,"ĠPMO":10765,"Ġcarefully":10766,"Ġfranchise":10767,"HD":10768,"ĠSure":10769,"Ġsubscrib":10770,"bhar":10771,"ĠManufact":10772,"Ġpetitioner":10773,"Hyderabad":10774,"ĠConf":10775,"Ġcalendar":10776,"ĠChampionships":10777,"ĠMehbooba":10778,"Ġrobust":10779,"ĠTw":10780,"ĠParadise":10781,"Ġincur":10782,"Ġconvicts":10783,"Ġstarrer":10784,"52":10785,"Ġseemed":10786,"Ġidol":10787,"Ġprestigious":10788,"Ġpassion":10789,"Ġgrave":10790,"atnam":10791,"igned":10792,"Ġroyal":10793,"ĠTruth":10794,"Arjun":10795,"ĠResult":10796,"Ġpoetry":10797,"Ġathletes":10798,"aze":10799,"Ġsand":10800,"ĠMallya":10801,"990":10802,"Ġinvolves":10803,"ricted":10804,"Ġadjoining":10805,"urappa":10806,"Ġpartial":10807,"Ġobjection":10808,"!\"\"\"":10809,"Ġsweet":10810,"Ġteen":10811,"Iran":10812,"ĠLevel":10813,"ĠSUV":10814,"ĠThir":10815,"Ġcumulative":10816,"ĠDNA":10817,"arkar":10818,"Ġfinancing":10819,"prise":10820,"Tel":10821,"ĠPacific":10822,"Ġsemin":10823,"astri":10824,"ĠLRB":10825,"ocket":10826,"etooth":10827,"Ġradi":10828,"Ġshocked":10829,"ĠSaeed":10830,"ĠHRD":10831,"Ġwherever":10832,"Ġaffair":10833,"Ġrealize":10834,"Harsh":10835,"Kar":10836,"rounder":10837,"Ġstrive":10838,"Ġeverywhere":10839,"Ġinclusion":10840,"ĠMirza":10841,"Ġarchitecture":10842,"ĠVinay":10843,"inding":10844,"Ġarrives":10845,"Ġbreaking":10846,"no":10847,"ĠSultan":10848,"Ġnarrow":10849,"73":10850,"Ġstamp":10851,"ĠNov":10852,"Ġspectrum":10853,"nity":10854,"Ġtheres":10855,"ĠSamsung":10856,"ĠFern":10857,"ĠMasjid":10858,"ĠMac":10859,"Ġpetro":10860,"irender":10861,"Ġenforcement":10862,"Ġren":10863,"Enter":10864,"Ġramp":10865,"ĠSonakshi":10866,"ĠSelf":10867,"ĠJu":10868,"adhy":10869,"Ġcollaps":10870,"Ġ79":10871,"ĠSurely":10872,"ĠPAN":10873,"olitical":10874,"iously":10875,"ĠMult":10876,"Ġapps":10877,"ĠInc":10878,"Ġartists":10879,"onym":10880,"SEAN":10881,"ooq":10882,"Ġvulnerable":10883,"Ġsuspension":10884,"51":10885,"ĠDen":10886,"ĠJason":10887,"ĠIntegrated":10888,"Ġactively":10889,"Ġextreme":10890,"Ġrat":10891,"Ġportray":10892,"ĠYes":10893,"?\"\"":10894,"ĠKabir":10895,"Ġhatred":10896,"ĠDurga":10897,"Ġaffidav":10898,"Sushant":10899,"waj":10900,"ipin":10901,"Ġgraph":10902,"Ġhasnt":10903,"orty":10904,"ustain":10905,"Ġindirect":10906,"Ġforthcoming":10907,"2012":10908,"Ġrecommendation":10909,"Ġbadly":10910,"Ġexplosion":10911,"ĠHen":10912,"Ġdog":10913,"ĠIB":10914,"igor":10915,"Ġenterprises":10916,"Ġcomplained":10917,"ĠKartarpur":10918,"53":10919,"iary":10920,"Ġemployed":10921,"Ġultra":10922,"estion":10923,"Ġsurgery":10924,"ls":10925,"ĠStreet":10926,"ĠAuto":10927,"Ġexpensive":10928,"Ġinstructed":10929,"Ġspan":10930,"Ġgreeted":10931,"Ġfestivals":10932,"ĠMaster":10933,"Ġpolitician":10934,"ducational":10935,"Ob":10936,"fi":10937,"Ġperpet":10938,"Ġfavourite":10939,"Ġsurrounding":10940,"Ġsubmission":10941,"Ġannounces":10942,"Ġpublish":10943,"Ġtied":10944,"Ġavo":10945,"rivals":10946,"Ġhoped":10947,"ĠProduction":10948,"Youth":10949,"Ġclim":10950,"odafone":10951,"Ġbin":10952,"ĠAry":10953,"ĠPDP":10954,"Ġdeemed":10955,"ache":10956,"Ġnationwide":10957,"Ġrecording":10958,"Ġranking":10959,"ĠChh":10960,"Ġsworn":10961,"ĠPandit":10962,"Ġmarginal":10963,"ĠManager":10964,"Ġlesson":10965,"Ġmuseum":10966,"Ġadministered":10967,"ĠDepartments":10968,"ayana":10969,"ĠLudhiana":10970,"ĠRang":10971,"ĠKisan":10972,"ĠMandir":10973,"ĠPatiala":10974,"Ġentities":10975,"ĠMSP":10976,"Ġkindness":10977,"astava":10978,"ĠRenew":10979,"74":10980,"Tamil":10981,"German":10982,"Ġhavent":10983,"acharya":10984,"89":10985,"Ġtackle":10986,"//":10987,"Use":10988,"Ġbreaks":10989,"Fire":10990,"Thank":10991,"su":10992,"ĠKK":10993,"Ġenabled":10994,"ĠRajan":10995,"Officials":10996,"ĠAdmir":10997,"Ġcertificates":10998,"stan":10999,"ĠFate":11000,"Ġtraged":11001,"Ġbowled":11002,"ĠRadha":11003,"ĠBhans":11004,"Ġlifted":11005,"Ġmiles":11006,"ighth":11007,"ĠNavjot":11008,"ĠAdvisor":11009,"ĠNirav":11010,"Ġinse":11011,"Ġweakness":11012,"Ġalarm":11013,"Ġproduces":11014,":%":11015,"RP":11016,"Ġscared":11017,"ĠSatish":11018,"Ġworshipped":11019,"ĠParishad":11020,"RL":11021,"Ġunlimited":11022,"Ġcyber":11023,"ĠOnePlus":11024,"ffee":11025,"Ġbrill":11026,"Water":11027,"Ġfool":11028,"si":11029,"ĠRishi":11030,"ĠStokes":11031,"Mon":11032,"ĠSagar":11033,"ĠKher":11034,"ĠUnit":11035,"Ġelderly":11036,"Referring":11037,"ĠGay":11038,"ĠHans":11039,"Ġidentification":11040,"ĠCountry":11041,"Kashmir":11042,"icing":11043,"issa":11044,"ĠMaharaj":11045,"Ġbottom":11046,"Various":11047,"Ġsor":11048,"ĠAndaman":11049,"can":11050,"Ġseverely":11051,"Ġnotices":11052,"Ds":11053,"MU":11054,"estone":11055,"Ġrestaur":11056,"Ġbeds":11057,"Ġfrequently":11058,"EP":11059,"Ġtas":11060,"Ġdisposal":11061,"GAR":11062,"Ġaviation":11063,"rific":11064,"Ġresort":11065,"ĠRoht":11066,"rete":11067,"Ġ105":11068,"Ranveer":11069,"rig":11070,"Verily":11071,"ĠCur":11072,"ĠRandeep":11073,"Ġfinish":11074,"ĠChairperson":11075,"Ġconverted":11076,"hea":11077,"Ret":11078,"atri":11079,"alla":11080,"ikar":11081,"Ġdetermination":11082,"upee":11083,"Ġanointed":11084,"ĠEPF":11085,"Ġneedy":11086,"Ġspecifically":11087,"ĠBhupinder":11088,"ipe":11089,"Ġcops":11090,"bound":11091,"Ġports":11092,"bum":11093,"Ġpulses":11094,"reland":11095,"akk":11096,"Ġcasualties":11097,"lif":11098,"Kumar":11099,"alaika":11100,"Ġbehold":11101,"ridevi":11102,"ĠDrav":11103,"ĠNad":11104,"Ġdisqual":11105,"Ġadds":11106,"Ġpromoted":11107,"District":11108,"ĠSchedule":11109,"ania":11110,"rage":11111,"Ġinterpret":11112,"Ġholders":11113,"ĠAxis":11114,"iforn":11115,"Ġwithdrawn":11116,"Ġremarkable":11117,"ĠHasan":11118,"ham":11119,"Ġepisode":11120,"ĠJudges":11121,"riyal":11122,"ĠGhaziabad":11123,"ĠGovind":11124,"Ġauthent":11125,"Ġpic":11126,"Ġsumm":11127,"zz":11128,"ĠCast":11129,"ĠWell":11130,"Ġinfections":11131,"Ġguarantee":11132,"ĠLeela":11133,"Ġbrave":11134,"ĠMexico":11135,"Ġideology":11136,"Ġspeedy":11137,"ago":11138,"Ġvo":11139,"grade":11140,"litre":11141,"ĠBre":11142,"ĠHill":11143,"Ġammun":11144,"Ġautomatic":11145,"whel":11146,"Ġlaugh":11147,"struct":11148,"Ġtoilets":11149,"ĠBluetooth":11150,"Ġbatch":11151,"Ġmathem":11152,"Ġfinds":11153,",'":11154,"umm":11155,"Ġsanctions":11156,"76":11157,"ordinary":11158,"Ġkings":11159,"Ġunn":11160,"Ġwages":11161,"stance":11162,"amba":11163,"Ġpostponed":11164,"Ġque":11165,"Ġsilence":11166,"FT":11167,"gence":11168,"neshwar":11169,"Ġprevailing":11170,"atabase":11171,"OT":11172,"occ":11173,"Ġreferring":11174,"Ġ110":11175,"Ġmoderate":11176,"ĠSisodia":11177,"Ġfib":11178,"acco":11179,"ĠAlok":11180,"Ġprotecting":11181,"bul":11182,"ĠReview":11183,"radun":11184,"Ġrough":11185,"Tata":11186,"ĠPeoples":11187,"://":11188,"adian":11189,"ĠCam":11190,"othe":11191,"ĠNabi":11192,"Ġportfolio":11193,"persons":11194,"ĠBajaj":11195,"anim":11196,"ads":11197,"Ġsends":11198,"Coronavirus":11199,"ĠOmar":11200,"ĠSunny":11201,"Ġperspective":11202,"var":11203,"IA":11204,"ĠDGP":11205,"Ġfault":11206,"ĠNoah":11207,"Ġaus":11208,"Ġobservation":11209,"Ġdollars":11210,"Ġconsiderable":11211,"Ġwalked":11212,"Ġbrigade":11213,"ĠSaty":11214,"ĠGrover":11215,"Ġcontempt":11216,"Ġbrut":11217,"ĠLove":11218,"okia":11219,"Ġaug":11220,"Ash":11221,"Ġgardens":11222,"Happy":11223,"elve":11224,"winder":11225,"Ġdisclosed":11226,"ĠSourav":11227,"Ġspeaker":11228,"Ġ82":11229,"Whatever":11230,"North":11231,"Ġwidespread":11232,"Ġ1990":11233,"ĠKalyan":11234,"iro":11235,"600":11236,"aryan":11237,"Ġtechnological":11238,"ĠOrd":11239,"Ġcompetitions":11240,"Ġstructures":11241,"ĠJohnson":11242,"ishes":11243,"Ġdow":11244,"ĠIranian":11245,"log":11246,"Ġouts":11247,"Ġannually":11248,"Ġcompanys":11249,"dar":11250,"Ġtort":11251,"ĠSeng":11252,"raf":11253,"OU":11254,"Ġdefinition":11255,"esha":11256,"Ġoldest":11257,"omens":11258,"itionally":11259,"ĠComple":11260,"ĠCrime":11261,"Ur":11262,"ĠGanesh":11263,"Ġkidna":11264,"Mal":11265,"Ġsurf":11266,"Ġcriminals":11267,"ĠUnderstanding":11268,"Ġtag":11269,"ĠIF":11270,"ĠGirl":11271,"ortic":11272,"Ġexcellence":11273,"Second":11274,"Ġmail":11275,"ĠBis":11276,"Ġprofits":11277,"Ġoriginally":11278,"JI":11279,"ĠDMK":11280,"Ġneck":11281,"ĠProced":11282,"Ġboundary":11283,"inikanth":11284,"Ġempty":11285,"onso":11286,"arted":11287,"ĠShashi":11288,"Ġrevol":11289,"Ġmanufacturers":11290,"ĠCirc":11291,"ĠOwaisi":11292,"ĠProt":11293,"Ġfounded":11294,"ĠGurugram":11295,"final":11296,"Ġfray":11297,"ĠRadio":11298,"Ġkilometres":11299,"anna":11300,"Ġrisks":11301,"ĠThomas":11302,"Ġdiabetes":11303,"ĠRio":11304,"Ġtracks":11305,"Ġmanufactured":11306,"Ġsouls":11307,"79":11308,"rics":11309,"ventions":11310,"ĠExcellency":11311,"Ġoptim":11312,"Ġwash":11313,"ewise":11314,"Best":11315,"Ġ83":11316,"rolled":11317,"ĠTown":11318,"Ġprotein":11319,"BP":11320,"Captain":11321,"NER":11322,"Ġparking":11323,"Ġwarrant":11324,"Ġimagine":11325,"Ġparameters":11326,"Ġdeclaration":11327,"Ġexception":11328,"ĠSaini":11329,"look":11330,"Ġ700":11331,"ĠVerily":11332,"ĠGhulam":11333,"ifornia":11334,"Eff":11335,":-":11336,"ĠKail":11337,"BT":11338,"ĠSqu":11339,"Ġstores":11340,"riers":11341,"Ġrational":11342,"DG":11343,"ulatory":11344,"ĠEqu":11345,"Ġtall":11346,"Ġcaut":11347,"Ġcomedy":11348,"Ġtechniques":11349,"ĠKane":11350,"ĠEC":11351,"Ġgrains":11352,"Ġcyl":11353,"Ġgenuine":11354,"ĠPvt":11355,"Ġhopeful":11356,"ky":11357,"ĠJasprit":11358,"ĠFree":11359,"Ġsupreme":11360,"Ġinterven":11361,"ĠMilitary":11362,"arers":11363,"Ġambitious":11364,"Ġloves":11365,"ĠAC":11366,"Ġreporting":11367,"ĠKumari":11368,"Ġconnecting":11369,"usting":11370,"Sam":11371,"ĠHaj":11372,"Ġconviction":11373,"ĠDigvijay":11374,"Ġtennis":11375,"Ġalleging":11376,"Ġmagic":11377,"ĠAishwarya":11378,"Ġprisoners":11379,"Ġmit":11380,"UL":11381,"Ġestablishing":11382,"ibet":11383,"Ġnetworks":11384,"Ġconstitute":11385,"month":11386,"Ġacquitted":11387,"ĠBirth":11388,"Ġroof":11389,"oult":11390,"Lets":11391,"ĠWise":11392,"Ġexposed":11393,"Ġwrites":11394,"Ġstarring":11395,"Ġrecognize":11396,"ratri":11397,"making":11398,"Ġrestored":11399,"ĠSaur":11400,"Ġreveals":11401,"Ġtemperatures":11402,"Ġenabling":11403,"ulla":11404,"ĠGambhir":11405,"eling":11406,"Ġintense":11407,"ĠAnk":11408,"Show":11409,"yo":11410,"arest":11411,"Ġuncertain":11412,"Anushka":11413,"ĠNSE":11414,"Ġregarded":11415,"Ġargued":11416,"Ġsafeguard":11417,"ĠGoddess":11418,"Ġconfirmation":11419,"Ġbreed":11420,"Ġinner":11421,"ĠEli":11422,"Action":11423,"ĠIII":11424,"ĠVideo":11425,"ĠHarb":11426,"ĠUniversities":11427,"ĠCong":11428,"Ġ86":11429,"ĠDesai":11430,"American":11431,"Ġ96":11432,"Ġdetention":11433,"rababu":11434,"Ġglobe":11435,"Ġoxygen":11436,"Ġslave":11437,"pled":11438,"ousands":11439,"Ġtelephone":11440,"chen":11441,"jj":11442,"ĠBig":11443,"ĠHighway":11444,"ĠDrug":11445,"Ġtorque":11446,"Ġpulled":11447,"Muhammad":11448,"Chennai":11449,"Ġprizes":11450,"Ġamounts":11451,"Ġkmph":11452,"auc":11453,"ĠDaniel":11454,"ino":11455,"Ġdoors":11456,"Ġrestore":11457,"ĠPankaj":11458,"ayas":11459,"Ġmeal":11460,"Ġengines":11461,"ĠDip":11462,"ĠDSP":11463,"ĠPrince":11464,"alandhar":11465,"riors":11466,"bery":11467,"Ġquiet":11468,"obar":11469,"Ġprevention":11470,"ĠSections":11471,"Ġgrain":11472,"Ġoperators":11473,"ĠRegister":11474,"Ġconstable":11475,"itarian":11476,"Ġheavily":11477,"Ġacceptable":11478,"harma":11479,"Ġarising":11480,"Ġintegration":11481,"Ġinterrogation":11482,"82":11483,"Bel":11484,"olence":11485,"Avoid":11486,"ĠDab":11487,"Ġdesired":11488,"ĠCustoms":11489,"ĠGowda":11490,"ĠDeath":11491,"Ġdepending":11492,"Ġrehabilitation":11493,"900":11494,"Lo":11495,"arents":11496,"Ġresistance":11497,"MA":11498,"ĠAmbala":11499,"ulous":11500,"%,":11501,"ĠBox":11502,"Ġimpressive":11503,"Ġhighways":11504,"Ġstatutory":11505,"Ġknock":11506,"Ġtragedy":11507,"Har":11508,"rutin":11509,"ĠNor":11510,"56":11511,"Hes":11512,"far":11513,"ivic":11514,"adeep":11515,"Sw":11516,"Ġoppon":11517,"ĠJama":11518,"ĠJudicial":11519,"ĠMSMEs":11520,"gium":11521,"Ġwills":11522,"ĠLie":11523,"Ġusage":11524,"Ġwinds":11525,"Ġwebsites":11526,"Ġaccordingly":11527,"Ġindicate":11528,"ĠArea":11529,"ĠMarshal":11530,"Ġoverwhel":11531,"Ġtongue":11532,"Ġhik":11533,"Ġ350":11534,"Ġdischarge":11535,"ĠAbhiyan":11536,"cr":11537,"Ġthrown":11538,"Ġexchanges":11539,"ĠPartnership":11540,"orthy":11541,"Ġceas":11542,"Ġoct":11543,"Ġsurge":11544,"ĠMandi":11545,"isive":11546,"Ġrestra":11547,"ĠND":11548,"kula":11549,"lessly":11550,"Ġstating":11551,"ĠRepresent":11552,"ĠMartin":11553,"ĠPokh":11554,"Ġisolation":11555,"Ġrallies":11556,"ĠJewish":11557,"ĠKartik":11558,"Ġscoring":11559,"Ġgrants":11560,"Set":11561,"few":11562,"Ġtun":11563,"ĠNDRF":11564,"Nearly":11565,"oshi":11566,"ineet":11567,"84":11568,"ĠKishan":11569,"ĠGoel":11570,"Ġcontend":11571,"ĠRatna":11572,"Dem":11573,"Inter":11574,"Ġ1996":11575,"Ġcomplim":11576,"Ġpremier":11577,"ĠAnti":11578,"Ġcomfortable":11579,"Ġinherit":11580,"idhi":11581,"rfan":11582,"eraj":11583,"alal":11584,"Ġedge":11585,"Ġdeadly":11586,"ĠMoon":11587,"Ġpunished":11588,"Ġclinical":11589,"Ġmaiden":11590,"agg":11591,"Ġvacancies":11592,"Ġgrams":11593,"Madhya":11594,"Ġestablishments":11595,"ĠFarooq":11596,"ijing":11597,"hor":11598,"Law":11599,"Ġ97":11600,"ĠTharoor":11601,"Ġammunition":11602,"ĠNat":11603,"Reliance":11604,"Ġobed":11605,"HC":11606,"ĠMans":11607,"Ġlicence":11608,"Ġtap":11609,"ewala":11610,"Ġyellow":11611,"ĠCorridor":11612,"Ġfindings":11613,"86":11614,"HP":11615,"ĠVan":11616,"Ġquad":11617,"Ġprovin":11618,"ĠJaved":11619,"ĠMulayam":11620,"800":11621,"ĠGround":11622,"ipat":11623,"Ġitem":11624,"Ġexh":11625,"Ġmega":11626,"Ġquarantine":11627,"Ġvalidity":11628,"ĠBeg":11629,"usively":11630,"Ġrans":11631,"ĠDistribution":11632,"81":11633,"arity":11634,"Ġrestricted":11635,"ĠQueen":11636,"aspur":11637,"Ġretained":11638,"ĠPutin":11639,"ĠBib":11640,"ĠMedal":11641,"Ġlift":11642,"akhap":11643,"ĠArch":11644,"Ġphotographs":11645,"ĠClean":11646,"Ġsupplied":11647,"apping":11648,"ĠMove":11649,"Ġbrilliant":11650,"94":11651,"Ġtab":11652,"ibal":11653,"Ġproducers":11654,"Ġattendance":11655,"ĠDirect":11656,"Ġreviews":11657,"ĠSiddiqu":11658,"Ġcommonly":11659,"ĠSiddharth":11660,"Ġrot":11661,"Sometimes":11662,"Ġslated":11663,"ĠPilot":11664,"ĠPhys":11665,"ĠAdministrative":11666,"Ġwww":11667,"ishabh":11668,"isheries":11669,"Ġtune":11670,"aser":11671,"Ġlights":11672,"ĠDeh":11673,"ĠRaina":11674,"Ġdomin":11675,"Ġnabbed":11676,"rar":11677,"Ġcontrary":11678,"lock":11679,"ĠBhai":11680,"Ġappr":11681,"ĠSecurities":11682,"Ġrelatively":11683,"inth":11684,"urally":11685,"FA":11686,"Ġproclaim":11687,"Ġclearance":11688,"Ġadvisory":11689,"Ġconvert":11690,"ĠHoly":11691,"Ġagit":11692,"ĠCalifornia":11693,"Ġspecially":11694,"ĠGardens":11695,"Ġjet":11696,"Ġjoins":11697,"Ġchastisement":11698,"Ive":11699,"ĠExt":11700,"Ġincon":11701,"Ġinjustice":11702,"ĠBack":11703,"ĠForm":11704,"Ġheavenly":11705,"Mohammed":11706,"Ġhectares":11707,"Ġ\"\"\"":11708,"RJD":11709,"ĠSS":11710,"iven":11711,"Ġexclusive":11712,"Ġfishermen":11713,"ĠRobert":11714,"Ġ87":11715,"Ġsolved":11716,"Ġprofile":11717,"ĠBenef":11718,"ĠLight":11719,"Pan":11720,"Ġjets":11721,"Ġmaybe":11722,"ĠZone":11723,"ĠFull":11724,"Ġupdated":11725,"Ġupdates":11726,"Ġlandsl":11727,"pted":11728,"Ġtheatre":11729,"Poll":11730,"efire":11731,"Ġnegotiations":11732,"oomi":11733,"ĠOBC":11734,"Ġblessing":11735,"ĠChakrab":11736,"Ġpacer":11737,"ĠTagore":11738,"Ġminute":11739,"Ġ1998":11740,"Ġagent":11741,"Ġnewspapers":11742,"ĠTai":11743,"ijiju":11744,"cul":11745,"inn":11746,"ĠRE":11747,"Ġexecuted":11748,"reci":11749,"Ġdistancing":11750,"Ġinvested":11751,"Ġcivilians":11752,"Kejriwal":11753,"ĠGujar":11754,"ĠAmrit":11755,"Ġqualify":11756,"Ġdistinguished":11757,"ĠMid":11758,"Ġconsensus":11759,"Ġearnings":11760,"ĠINS":11761,"orable":11762,"Ġbes":11763,"ĠTok":11764,"Ġauspicious":11765,"TO":11766,"ĠReh":11767,"ĠBuilding":11768,"ĠName":11769,"Ġgrab":11770,"Ġsurviv":11771,"MM":11772,"Ġwalls":11773,"Ġdrought":11774,"ĠCase":11775,"Ġministerial":11776,"Ġtaxpay":11777,"Ġinstruments":11778,"ĠGhat":11779,"Ġarranged":11780,"Ġbeings":11781,"Ġdemol":11782,"Ġobjects":11783,"etime":11784,"Ġspouse":11785,"Ġsemif":11786,"dy":11787,"ints":11788,"Ġori":11789,"Ġonion":11790,"Ġnominee":11791,"Ġcontacted":11792,"Ġsuggests":11793,"akhapatnam":11794,"ĠKnight":11795,"ĠRajeev":11796,"commerce":11797,"Ġrooms":11798,"ĠMessengers":11799,"Ġabsolute":11800,"ĠRahman":11801,"Ġbearing":11802,"ĠCommunity":11803,"92":11804,"rolog":11805,"Ġlegislature":11806,"Ġjunior":11807,"Major":11808,"Ġspar":11809,"Ġcommunications":11810,"Dav":11811,"iram":11812,"ĠJat":11813,"Ġbelonged":11814,"Education":11815,"Ġcutting":11816,"Ġdependent":11817,"Ġallegation":11818,"div":11819,"ille":11820,"ĠTelecom":11821,"Upon":11822,"uated":11823,"ĠChet":11824,"ĠBeh":11825,"Ġnormally":11826,"Paul":11827,"ĠSher":11828,"rmal":11829,"ĠGrievances":11830,"anian":11831,"ĠPO":11832,"menting":11833,"ĠTa":11834,"umes":11835,"Ġsealed":11836,"ĠVilas":11837,"ĠSikhs":11838,"ĠUmesh":11839,"hee":11840,"ĠVict":11841,"Ġshoulder":11842,"Ġsuperior":11843,"isans":11844,"Without":11845,"igin":11846,"Ġdisin":11847,"uzvendra":11848,"Ġbelieving":11849,"ĠProjects":11850,"Ġopposing":11851,"ĠMadan":11852,"Ġaccorded":11853,"Ġmacro":11854,"ands":11855,"ĠEr":11856,"Ġvisual":11857,"Vijay":11858,"Ġfare":11859,"ĠKush":11860,"Ġgolden":11861,"Ġprayed":11862,"orney":11863,"Thousands":11864,"Ġtrace":11865,"Ġflour":11866,"Ġfours":11867,"ARC":11868,"Ġadoption":11869,"Ġrating":11870,"Ġpoison":11871,"ĠIreland":11872,"Ġturb":11873,"outs":11874,"enary":11875,"ĠMarg":11876,"CBSE":11877,"uance":11878,"ĠData":11879,"ĠKaz":11880,"Inf":11881,"Ġ92":11882,"irmanship":11883,"Ġirres":11884,"ĠMann":11885,"Ġlabs":11886,"Ġcooperative":11887,"Ġfet":11888,"ĠSai":11889,"ĠCath":11890,"Ġentity":11891,"risers":11892,"Soc":11893,"nowned":11894,"iasm":11895,"LE":11896,"ĠMund":11897,"ĠSiddiqui":11898,"wi":11899,"plementation":11900,"ĠMoS":11901,"Ġmol":11902,"ĠPolit":11903,"Ġqualification":11904,"itual":11905,"Ġlanding":11906,"ĠGav":11907,"Ġcommenced":11908,"Ġlocked":11909,"ĠLankan":11910,"bhadra":11911,"Sanjay":11912,"ĠJacob":11913,"ĠEntrepreneurs":11914,"Ġtargeting":11915,"ĠBhagwat":11916,"jewala":11917,"ĠBranch":11918,"ĠKailash":11919,"ĠCommunications":11920,"Ġpassport":11921,"onsored":11922,"ethi":11923,"CAA":11924,"asters":11925,"apa":11926,"Ġhelpl":11927,"Ġlots":11928,"ĠNicobar":11929,"Ġescaped":11930,"ĠTDP":11931,"ĠWing":11932,"Ġsuccumbed":11933,"ĠAdmiral":11934,"eek":11935,"Ġinteracted":11936,"Ġindicates":11937,"Ġobl":11938,"ĠThou":11939,"Prof":11940,"ĠEmployees":11941,"Ġcommodities":11942,"WD":11943,"Ġmens":11944,"Ġsadd":11945,"verbs":11946,"ĠIsraelites":11947,"Had":11948,"Ġattackers":11949,"Ġcreates":11950,"Ġpilots":11951,"ĠChowk":11952,"Ġwars":11953,"ĠImp":11954,"ette":11955,"Ġsegments":11956,"ĠWHO":11957,"astra":11958,"ĠPrize":11959,"Ġplanet":11960,"regular":11961,"Ġconsisting":11962,"juvenation":11963,"ĠThose":11964,"Ġyoungsters":11965,"Ġcomparison":11966,"eve":11967,"Ġloyal":11968,"ĠNis":11969,"Ġdrawing":11970,"ĠNave":11971,"None":11972,"ĠSelection":11973,"irla":11974,"ĠRawal":11975,"Ġexpertise":11976,"Ġenthusiasm":11977,"Ġsupremo":11978,"Ġelev":11979,"Ġterrible":11980,"Remember":11981,"!\"":11982,"Ġassass":11983,"Trans":11984,"Ġbom":11985,"ĠMedium":11986,"Ġdelegates":11987,"ĠPatnaik":11988,"Ġmistakes":11989,"othy":11990,"Ġ94":11991,"uvan":11992,"Ġsummoned":11993,"Ġ89":11994,"Ġpassage":11995,"ropri":11996,"Ġtestim":11997,"mm":11998,"ilal":11999,"Ġloot":12000,"ĠHaf":12001,"Ġrisen":12002,"Sur":12003,"Ġfever":12004,"Ġbold":12005,"Ġassessee":12006,"HS":12007,"this":12008,"Ġmonu":12009,"attered":12010,"ylon":12011,"ĠStep":12012,"Ġinauguration":12013,"Ġ98":12014,"ĠMoney":12015,"ographic":12016,"Ġconcrete":12017,"Ġaffidavit":12018,"eron":12019,"storm":12020,"pm":12021,"Ġthankful":12022,"Ġcrack":12023,"ographical":12024,"iaz":12025,"ĠVad":12026,"Ġmessengers":12027,"Ġcited":12028,"Ġlegs":12029,"Ġteachings":12030,"iest":12031,"acles":12032,"Ġimported":12033,"ĠSinghs":12034,"Ġhighlights":12035,"Ġdisputed":12036,"ĠFilms":12037,"RSS":12038,"ĠSilver":12039,"Mod":12040,"International":12041,"ĠGolden":12042,"Ġshed":12043,"ĠASEAN":12044,"ogi":12045,"Dhoni":12046,"ĠSank":12047,"ĠJP":12048,"Ġenv":12049,"Ġviolations":12050,"Ġzeal":12051,"rape":12052,"ĠNaq":12053,"Ġaccurate":12054,"Ġconcess":12055,"ppa":12056,"urns":12057,"Ġaffection":12058,"Ġtonne":12059,"Ġceasefire":12060,"chers":12061,"Ġbidd":12062,"ĠShastri":12063,"Ġlessons":12064,"ĠCertific":12065,"Ġrefugees":12066,"hetic":12067,"Ġexpanding":12068,"perture":12069,"ĠLocal":12070,"Ġperce":12071,"ĠScindia":12072,"Ġreact":12073,"Price":12074,"ĠSAW":12075,"ĠTah":12076,"Ġserver":12077,"ĠFederal":12078,"Deputy":12079,"ĠGate":12080,"Ġmobil":12081,"ĠBuddhist":12082,"Ġdw":12083,"Ġisn":12084,"Ġstaged":12085,"Ġadverse":12086,"Ġposed":12087,"Ġhotels":12088,"ĠNether":12089,"Ġignor":12090,"ĠDravid":12091,"Ġrespected":12092,"Ġliberal":12093,"ĠBall":12094,"Ġquota":12095,"Realme":12096,"Sha":12097,"ĠSanjeev":12098,"Ġlaying":12099,"Ġhanging":12100,"Ġcater":12101,"Sara":12102,"ĠKargil":12103,"made":12104,"ĠHollywood":12105,"ĠGurgaon":12106,"alysis":12107,"ĠThus":12108,"Ġgradu":12109,"Ġgall":12110,"ĠWeb":12111,"Ġcustoms":12112,"Ġclosing":12113,"Ġministries":12114,"Ġthick":12115,"ĠAdvisory":12116,"ouch":12117,"rapy":12118,"ĠDilip":12119,"Sensex":12120,"TS":12121,"Ġmultip":12122,"efin":12123,"Ġflowers":12124,"Ġprefer":12125,"ĠSolomon":12126,"Ġambul":12127,"Ve":12128,"mood":12129,"Ġalbum":12130,"Aamir":12131,"Pad":12132,"oria":12133,"ĠMG":12134,"ĠConstitu":12135,"Ġchest":12136,"Everything":12137,"iren":12138,"Ġrealised":12139,"etails":12140,"isting":12141,"Ġscrutin":12142,"Ġrespects":12143,"Ġcriteria":12144,"Ġlake":12145,"Ġstir":12146,"Ġannum":12147,"amar":12148,"Ġroutine":12149,"Ġendeavour":12150,"national":12151,"Ġheading":12152,"Ġneut":12153,"liant":12154,"ĠGoods":12155,"Ġrenowned":12156,"Inc":12157,"Ġpriests":12158,"Ġtid":12159,"Ġing":12160,"Ġemerge":12161,"ĠChinas":12162,"Ġstr":12163,"Ġbehavior":12164,"ĠBhansali":12165,"Ġpaddy":12166,"Ġproportion":12167,"ĠIsaiah":12168,"ĠRahim":12169,"ĠDRDO":12170,"Ġaudit":12171,"Power":12172,"itored":12173,"Ġvoter":12174,"ĠAmericans":12175,"Ġdrag":12176,"iche":12177,"ĠMatt":12178,"ĠKad":12179,"Ġconsistent":12180,"Time":12181,"Ġbact":12182,"Ġjack":12183,"iece":12184,"Ġairlines":12185,"theless":12186,"ĠJanhvi":12187,"ĠMarketing":12188,"DE":12189,"soft":12190,"ĠDehradun":12191,"osys":12192,"OLED":12193,"fortun":12194,"ĠAS":12195,"ulates":12196,"outheast":12197,"Ġdefamation":12198,"inthi":12199,"ĠNobel":12200,"Ay":12201,"Ġsinging":12202,"ĠPooja":12203,"Ġbount":12204,"ĠSHO":12205,"olf":12206,"Ġritual":12207,"71":12208,"Ġrulers":12209,"Others":12210,"Ġcorporation":12211,"osers":12212,"Ġrecall":12213,"Ġbalanced":12214,"Ġrepresentation":12215,"Att":12216,"Ġvalued":12217,"orship":12218,"Ġextending":12219,"hinagar":12220,"Ġnephew":12221,"ĠKon":12222,"Ġweigh":12223,"ĠLast":12224,"ocate":12225,"Ġ88":12226,"ann":12227,"nao":12228,"ĠJinping":12229,"hang":12230,"Ġbrib":12231,"ĠMinority":12232,"Cr":12233,"ĠTay":12234,"Road":12235,"mand":12236,"Ġinhabit":12237,"ĠNetherlands":12238,"Ġciting":12239,"ĠPhoto":12240,"Ġhypoc":12241,"Ġma":12242,"Ġtruthful":12243,"ĠEmergency":12244,"ICC":12245,"Ġpixels":12246,"Ġstuck":12247,"Ins":12248,"Ġchat":12249,"Ġreflected":12250,"Ġinfluenced":12251,"Ġdisappointed":12252,"Ġnice":12253,"rive":12254,"eches":12255,"ĠCorinthi":12256,"ĠAsif":12257,"ĠVishnu":12258,"Ġdistinct":12259,"ĠWilliamson":12260,"ĠProcedure":12261,"Ġunbeat":12262,"ervice":12263,"Ġfunctional":12264,"ĠResponse":12265,"ĠDix":12266,"ĠIsraeli":12267,"Ġbot":12268,"ĠMatch":12269,"ĠMedicine":12270,"ĠSubram":12271,"Ġpreparedness":12272,"Prom":12273,"Ġvib":12274,"ĠMahajan":12275,"Ġbreach":12276,"Ġgiant":12277,"ĠKashyap":12278,"Ġhumili":12279,"Ġlauded":12280,"Ġoppose":12281,"Ġappeals":12282,"Fl":12283,"Ġaperture":12284,"Ġchips":12285,"Google":12286,"ĠPhilippines":12287,"meet":12288,"aun":12289,"weight":12290,"Army":12291,"ĠNathan":12292,"Ġcaution":12293,"ogram":12294,"ĠAyurveda":12295,"Ġwhosoever":12296,"ĠIG":12297,"Ġexplains":12298,"Ġseparately":12299,"Ġtriggered":12300,"Ġphenomen":12301,"top":12302,"Ġadmon":12303,"Ġacquire":12304,"bhai":12305,"Ġdepression":12306,"iraj":12307,"ĠHonda":12308,"Ġemphasised":12309,"Min":12310,"chant":12311,"Ġring":12312,"ĠFive":12313,"ĠKumaraswamy":12314,"Ġpistol":12315,"Ġrecomp":12316,"Ġnoticed":12317,"Ġunanim":12318,"Ġcommittees":12319,"ĠForgiving":12320,"ĠBlock":12321,"ĠPortug":12322,"Foreign":12323,"ĠCreator":12324,"urban":12325,"Ġforming":12326,"witzer":12327,"Ġreserves":12328,"Film":12329,"ogen":12330,"Ġuniverse":12331,"ĠProcessing":12332,"Ġbath":12333,"ĠAND":12334,"Ġcommitting":12335,"Ġcontracts":12336,"ĠRohtak":12337,"Ġvary":12338,"antry":12339,"Ġarts":12340,"Ġgraduate":12341,"Ġpayable":12342,"ĠChandrababu":12343,"Ġmartyrs":12344,"Ġremanded":12345,"Having":12346,"Ġconferencing":12347,"ĠChaut":12348,"asion":12349,"ĠActress":12350,"Ġselfies":12351,"Team":12352,"Ġunemployment":12353,"ĠRenewable":12354,"Ġviewed":12355,"Ġmovements":12356,"Ajay":12357,"ĠHockey":12358,"ĠLy":12359,"Ġincreasingly":12360,"Ġmidst":12361,"ĠAurang":12362,"NRE":12363,"Ġowing":12364,"Ġcolourful":12365,"Ġslightly":12366,"ĠChakraborty":12367,"ĠRaksha":12368,"Ġforests":12369,"ĠAMOLED":12370,"Secretary":12371,"Ġattractive":12372,"ĠGarden":12373,"orial":12374,"Ġhtt":12375,"Ġpartition":12376,"Ġambassador":12377,"Ġabandoned":12378,"UI":12379,"Ġagents":12380,"Ġassociations":12381,"Ġpitch":12382,"Ġcenters":12383,"Ġcleaning":12384,"Ġaggressive":12385,"Ġsimultaneously":12386,"bers":12387,"ĠSustain":12388,"Ġchill":12389,"ĠJudah":12390,"Bs":12391,"Ġbeating":12392,"ĠNal":12393,"ĠRaju":12394,"Ġsingles":12395,"Ġhelicopter":12396,"Ġhunger":12397,"Ġmour":12398,"ĠAth":12399,"ĠTop":12400,"nsic":12401,"Ġstepped":12402,"Ġcritics":12403,"ĠAirl":12404,"Hindi":12405,"luded":12406,"olitan":12407,"Pra":12408,"comes":12409,"Still":12410,"Ġdevelopmental":12411,"Ġfrust":12412,"ĠHarish":12413,"ĠChoudhary":12414,"ĠRelations":12415,"ĠKy":12416,"nex":12417,"ĠGreater":12418,"Produ":12419,"onal":12420,"ĠTor":12421,"Ġchair":12422,"graduate":12423,"Ġvoluntary":12424,"ĠNaqvi":12425,"Ġpreferred":12426,"ĠLake":12427,"ĠButt":12428,"Ġice":12429,"Ġblow":12430,"Ġlifestyle":12431,"ĠDisha":12432,"Ġreck":12433,"Ġboat":12434,"ĠDesign":12435,"Washington":12436,"Ġcommerce":12437,"ĠVidhan":12438,"pany":12439,"ĠBare":12440,"Ġarise":12441,"rowth":12442,"Ġsurvive":12443,"Ġvessels":12444,"Ġfingerprint":12445,"Ven":12446,"uli":12447,"people":12448,"ĠSystems":12449,"ĠBik":12450,"Ġadapt":12451,"Ġhomage":12452,"Anil":12453,"Ġtypically":12454,"ĠKochi":12455,"rass":12456,"Ġentr":12457,"Ġforbidden":12458,"fting":12459,"achel":12460,"Ġcler":12461,"ĠSurjewala":12462,"Ġpersonalities":12463,"Ġethnic":12464,"Ġlibrary":12465,"ĠRank":12466,"Ġterminal":12467,"Ġcontemporary":12468,"isa":12469,"Ġhailed":12470,"ĠJab":12471,"Ġbutton":12472,"ĠShivaji":12473,"Ġ`":12474,"Ġpreserve":12475,"Doctors":12476,"Nit":12477,"Pay":12478,"ĠIsland":12479,"':":12480,"umph":12481,"Ġwitnessing":12482,"ĠPokhriyal":12483,"ertain":12484,"ĠKas":12485,"velation":12486,"ĠExpl":12487,"Ġsacrifices":12488,"ĠSup":12489,"Ġdescend":12490,"icious":12491,"aditya":12492,"ĠDD":12493,"ĠTreat":12494,"Ġmild":12495,"ĠKant":12496,"Ġsnowfall":12497,"ĠPop":12498,"aga":12499,"Dev":12500,"ĠRijiju":12501,"ĠIndus":12502,"erves":12503,"Ġduration":12504,"ĠBCM":12505,"pring":12506,"Ġdetected":12507,"cise":12508,"Ġpays":12509,"ĠPP":12510,"ĠPuj":12511,"ppers":12512,"ĠEmb":12513,"step":12514,"emia":12515,"ĠJayanti":12516,"Ġexclusively":12517,"ĠSadar":12518,"nut":12519,"Ġwasn":12520,"ĠIniti":12521,"tr":12522,"Ġrises":12523,"Ġcollapse":12524,"Ġ1961":12525,"Russia":12526,"Article":12527,"atha":12528,"uda":12529,"ĠAlm":12530,"Ġstrictly":12531,"ĠCSIR":12532,"ĠKiran":12533,"aments":12534,"ĠBirla":12535,"United":12536,"Ġextraordinary":12537,"ĠJalandhar":12538,"Ġmanufacturer":12539,"Ġdatabase":12540,"Japan":12541,"Lead":12542,"ordinate":12543,"show":12544,"ĠPanchkula":12545,"ĠMovement":12546,"Public":12547,"Ġmagistrate":12548,"ashant":12549,"Ġsupplement":12550,"Ġbestowed":12551,"ĠSpirit":12552,"Ġpetroleum":12553,"rell":12554,"Ġwriters":12555,"Ġislands":12556,"ĠFe":12557,"Ġmanifesto":12558,"Ġshowcase":12559,"front":12560,"zo":12561,"Ġreverse":12562,"ĠArabic":12563,"post":12564,"Ġembra":12565,"Nir":12566,"ĠRate":12567,"ĠWeek":12568,"Ġfears":12569,"Family":12570,"Ġtons":12571,"ĠPed":12572,"ummar":12573,"Ġimpose":12574,"Ġadjour":12575,"Govt":12576,"Ġbatt":12577,"rogen":12578,"Ġmigrants":12579,"Get":12580,"Ġmad":12581,"witzerland":12582,"\\'":12583,"Ġrevenues":12584,"Ġattempted":12585,"ĠVillage":12586,"Ġskilled":12587,"Finally":12588,"Ġcautious":12589,"Ġhumble":12590,"plus":12591,"Ġsacrific":12592,"akrishnan":12593,"Ġmyth":12594,"Ġlegacy":12595,"Ġbreast":12596,"ĠIndependent":12597,"Ġfighters":12598,"ĠCorinthians":12599,"isite":12600,"Ġreception":12601,"Ġputs":12602,"Ġkne":12603,"Ġrif":12604,"Ġsucceeded":12605,"jections":12606,"holding":12607,"Ġexciting":12608,"Ġcopies":12609,"uber":12610,"ĠAIR":12611,"Ġ93":12612,"ĠAkali":12613,"ĠChancellor":12614,"Ġnominations":12615,"Ġstretch":12616,"Ġslain":12617,"Ġfifty":12618,"zing":12619,"Ġeveryday":12620,"Ġplun":12621,"ishment":12622,"ĠFinch":12623,"ĠCapt":12624,"Ġunbeaten":12625,"Ġfost":12626,"Ġimpressed":12627,"Ġcommander":12628,"Ġirregular":12629,"ĠGulf":12630,"angle":12631,"Ġcolumn":12632,"ĠOrissa":12633,"Ġhug":12634,"Seven":12635,"Ġapologise":12636,"Ġlecture":12637,"Ġeducated":12638,"araj":12639,"Ġmessenger":12640,"ĠKak":12641,"ĠNik":12642,"ĠHrithik":12643,"ĠJord":12644,"Ġflex":12645,"Ġestimate":12646,"ĠBiote":12647,"Super":12648,"Ġinconven":12649,"Ġbuyers":12650,"Ġawaited":12651,"Ġfant":12652,"Ġincom":12653,"Ġliability":12654,"onds":12655,"Ġswearing":12656,"Ġgrievances":12657,"ĠAsad":12658,"Ġangel":12659,"Hel":12660,"Ġweaker":12661,"Ġspeeches":12662,"ĠCorps":12663,"allel":12664,"ĠLieutenant":12665,"PO":12666,"ĠHari":12667,"ĠLeh":12668,"ĠPray":12669,"Ġbasically":12670,"ĠAirways":12671,"Ġslowly":12672,"ĠDixit":12673,"Ġwhatsoever":12674,"ĠBhand":12675,"ĠPrag":12676,"ĠInstitutes":12677,"ĠLabor":12678,"Ġcouples":12679,"Ġromantic":12680,"ĠSuch":12681,"Ġprost":12682,"Ġcompete":12683,"ieves":12684,"Ġphysically":12685,"ĠCommunication":12686,"ichandran":12687,"CD":12688,"Ġsele":12689,"Ġscal":12690,"Alia":12691,"Ġabsor":12692,"ĠPGI":12693,"ĠKaj":12694,"Ġadult":12695,"Ġweekend":12696,"asaheb":12697,"Ġevolution":12698,"Ġopted":12699,"Ġtopic":12700,"you":12701,"utosh":12702,"unction":12703,"Ġlending":12704,"ĠHouses":12705,"ĠAw":12706,"Ġ180":12707,"ĠItalian":12708,"mind":12709,"Ġassociates":12710,"ĠMike":12711,"Apple":12712,"Ġformally":12713,"Ġ1992":12714,"key":12715,"Ġmerit":12716,"Ġsake":12717,"Ġbypoll":12718,"ĠTech":12719,"September":12720,"ĠMines":12721,"odhi":12722,"Ġundergo":12723,"Ġrepair":12724,"Ġangle":12725,"ĠNCR":12726,"ĠLiber":12727,"Ġkin":12728,"ported":12729,"undai":12730,"Ġlistening":12731,"Ġdevast":12732,"Directed":12733,"TP":12734,"ĠWal":12735,"Ġcooperate":12736,"qbal":12737,"ĠYatra":12738,"III":12739,"Ġfreight":12740,"ĠBin":12741,"Ġhab":12742,"Ġprotestors":12743,"Moses":12744,"anya":12745,"Ġstrategies":12746,"Ġbroadcast":12747,"ĠINDIA":12748,"KS":12749,"Main":12750,"Ġcalam":12751,"Ġdeployment":12752,"Ġframed":12753,"ĠSantosh":12754,"Ġconvinced":12755,"June":12756,"aluation":12757,"Ġmeanwhile":12758,"rapped":12759,"ĠJEE":12760,"ĠOld":12761,"aint":12762,"Ġinterior":12763,"ĠMadhav":12764,"Ġmasses":12765,"Ġlady":12766,"ĠYuvraj":12767,"rana":12768,"Ġepic":12769,"istor":12770,"osit":12771,"Ġpossibly":12772,"ĠMahab":12773,"chest":12774,"ĠRis":12775,"Ġstim":12776,"Ġmeters":12777,"Ġserves":12778,"ĠAmethi":12779,"Ġpriorities":12780,"Ġsty":12781,"owal":12782,"Ġtranslation":12783,"Ġreputation":12784,"ĠRiders":12785,"ĠArm":12786,"erut":12787,"Ġfog":12788,"ĠSouthern":12789,"Ġaggreg":12790,"Ġmartyred":12791,"ĠEid":12792,"Ġconversion":12793,"ortion":12794,"lier":12795,"Ġfamiliar":12796,"ĠTribes":12797,"Ġdissem":12798,"Ġtranslated":12799,"Sachin":12800,"ĠRaje":12801,"ĠSriv":12802,"Ġaccepting":12803,"screen":12804,"El":12805,"List":12806,"Ġgy":12807,"otions":12808,"ĠDisc":12809,"Ġcategor":12810,"Ġengineers":12811,"Ġpersist":12812,"Ġlest":12813,"ĠMaul":12814,"Ġcarries":12815,"Ġprojected":12816,"otics":12817,"Ġinterventions":12818,"Ġcompleting":12819,"Ġeverlasting":12820,"Ġsuggestion":12821,"Opposition":12822,"ĠSaina":12823,"utva":12824,"ĠNA":12825,"Ġ1980":12826,"compass":12827,"also":12828,"ĠUk":12829,"ĠUSB":12830,"Local":12831,"ĠBish":12832,"Ġretali":12833,"ricks":12834,"ĠGandhinagar":12835,"ĠMahal":12836,"Ġengineer":12837,"agi":12838,"Ġresume":12839,"Ġsmugg":12840,"Ġfatalities":12841,"Ġbags":12842,"Ġcement":12843,"aning":12844,"stable":12845,"Ġenjoying":12846,"Ġnan":12847,"Ġnearest":12848,"ownload":12849,"Ġlayer":12850,"Ġpledge":12851,"gical":12852,"ansh":12853,"ĠGil":12854,"afar":12855,"ĠHamid":12856,"Ġqueries":12857,"ĠKoch":12858,"ĠNax":12859,"ĠMisra":12860,"ih":12861,"abha":12862,"Additionally":12863,"Ġinspire":12864,"ellate":12865,"ĠBabylon":12866,"ĠNumber":12867,"Ġdiff":12868,"Srin":12869,"brid":12870,"hera":12871,"ĠDad":12872,"Ġexposure":12873,"Ġinnovations":12874,"Ġkms":12875,"Ġinstant":12876,"VA":12877,"jal":12878,"ĠIyer":12879,"ĠFoot":12880,"ĠPradeep":12881,"Ġpossibilities":12882,"chief":12883,"ĠDera":12884,"ĠMohali":12885,"ĠStudies":12886,"Ġrepay":12887,"ĠZak":12888,"ĠBobde":12889,"Ġfoods":12890,"Ġpronounced":12891,"Ġears":12892,"Ġarrog":12893,"ĠChautala":12894,"harraf":12895,"Ġdecor":12896,"Ġbusinessman":12897,"ĠOnline":12898,"ĠSSC":12899,"Ġsubstance":12900,"Ġtwin":12901,"Ġsung":12902,"ĠRaipur":12903,"Ġattain":12904,"Ġmonitored":12905,"ppo":12906,"Ġsignal":12907,"Ġcontroll":12908,"nah":12909,"ĠDalits":12910,"ĠDelhis":12911,"ae":12912,"ĠOfficial":12913,"Top":12914,"rats":12915,"Ġresurrection":12916,"Ġartisans":12917,"Ġoccupied":12918,"ĠHass":12919,"ĠBuddha":12920,"kal":12921,"Ġ*":12922,"Ġreceives":12923,"Ġreign":12924,"Ġquarters":12925,"ĠRelief":12926,"ĠBipin":12927,"Ġunions":12928,"Ġdisag":12929,"ĠRule":12930,"ĠWomens":12931,"Ġabide":12932,"Ġlegislator":12933,"Ġclosure":12934,"ĠBeijing":12935,"Ġtestimony":12936,"hua":12937,"uds":12938,"Ġreleasing":12939,"Ġhardly":12940,"OM":12941,"Ġwai":12942,"ĠNGOs":12943,"Ġexemption":12944,"ĠBansal":12945,"Adv":12946,"ĠPersons":12947,"Ġignored":12948,"Kolkata":12949,"ste":12950,"ĠSanj":12951,"Ġwine":12952,"ĠKol":12953,"Ġ1991":12954,"Ġpopularity":12955,"Ġmemorial":12956,"Ġmotivated":12957,"ĠDom":12958,"ĠGarg":12959,"Ġdistinction":12960,"ĠBhub":12961,"Ġaccessible":12962,"NH":12963,"ivas":12964,"ferent":12965,"net":12966,"antra":12967,"Ġliked":12968,"Ġmainstream":12969,"\"(":12970,"ĠYuzvendra":12971,"Ġflows":12972,"Ġprivacy":12973,"Ġnortheast":12974,"ĠFaridabad":12975,"Ġacknowledged":12976,"dney":12977,"felt":12978,"rik":12979,"Ġdisperse":12980,"Presently":12981,"rived":12982,"Ġcurb":12983,"Ġaffects":12984,"ĠStatistics":12985,"Ġapparently":12986,"heed":12987,"ĠCamb":12988,"ĠPres":12989,"Ġabol":12990,"ĠChapter":12991,"ĠDirectors":12992,"Ġscientist":12993,"Ġocean":12994,"awaz":12995,"ĠBhuv":12996,"ĠIsha":12997,"ĠPatani":12998,"Ġfocusing":12999,"hankot":13000,"ĠProverbs":13001,"Ġdesp":13002,"Ġcommissioned":13003,"Ġlevelled":13004,"ĠGauri":13005,"ĠYamuna":13006,"col":13007,"Ġcritically":13008,"Ġliterary":13009,"Ġapology":13010,"ĠTimothy":13011,"Ġconsciousness":13012,"ilpa":13013,"ĠAligarh":13014,"Ġsaff":13015,"Ġevalu":13016,"Ġfeaturing":13017,"ĠCriminal":13018,"Ġsubsidiary":13019,"Ġransom":13020,"Would":13021,"ouri":13022,"Ġflowing":13023,"'d":13024,"Ġenorm":13025,"Ġinvent":13026,"Ġregards":13027,"Ġdues":13028,"ĠPrith":13029,"Ġscores":13030,"ĠHeritage":13031,"Global":13032,"Sar":13033,"UK":13034,"Ġdrew":13035,"ĠShre":13036,"Ġeru":13037,"Ġalter":13038,"thy":13039,"Ġassumed":13040,"ĠRob":13041,"Ġbarrel":13042,"Bharat":13043,"Congrat":13044,"issue":13045,"Ġhire":13046,"Ġexpecting":13047,"ĠSibal":13048,"ompe":13049,"ilee":13050,"ĠAbh":13051,"Ġhelpful":13052,"Ġdebit":13053,"Ġcompetent":13054,"Ġadjust":13055,"anish":13056,"Ġthinks":13057,"ĠJim":13058,"ologist":13059,"Accordingly":13060,"Ġconclude":13061,"kumar":13062,"xual":13063,"Ġsmoke":13064,"ISRO":13065,"orticulture":13066,"Love":13067,"Ġhorse":13068,"Ġcollapsed":13069,"ĠTokyo":13070,"Ele":13071,"Ġvolunteers":13072,"ĠSAD":13073,"ĠLi":13074,"Ġwors":13075,"ĠRevelation":13076,"Ġcomposition":13077,"agraph":13078,"Ġminim":13079,"Should":13080,"Express":13081,"cow":13082,"igent":13083,"Ġcouncill":13084,"ĠAtomic":13085,"Has":13086,"Ġpushed":13087,"Ġexperiment":13088,"COVID":13089,"ĠSindh":13090,"ouses":13091,"ropolitan":13092,"Ġmilestone":13093,"Ġauth":13094,"idents":13095,"Ġpenal":13096,"Ġbriefed":13097,"Ġfeedback":13098,"Ġfinals":13099,"Ġviolated":13100,"ummins":13101,"Bal":13102,"Ġdict":13103,"ĠShinde":13104,"Ġcomplainant":13105,"Ġscre":13106,"Ġ104":13107,"Ġenters":13108,"Ġdozen":13109,"Ġassure":13110,"Shahid":13111,"ĠSehwag":13112,"BSE":13113,"ugopal":13114,"Ġ108":13115,"Car":13116,"Ġpharmaceut":13117,"aternity":13118,"Ġhills":13119,"ĠAware":13120,"Ġprejud":13121,"Ġproviders":13122,"ASA":13123,"rea":13124,"Ġstick":13125,"Ġenacted":13126,"Ġadjud":13127,"Ġtractor":13128,"Ġchiefs":13129,"Ġradical":13130,"ĠRab":13131,"Ġpublicly":13132,"Ġdelighted":13133,"ĠNiger":13134,"Ġmonetary":13135,"Ġpursuing":13136,"Ġlegendary":13137,"Ġsubscribers":13138,"Ġocta":13139,"ĠAirlines":13140,"700":13141,"Ġaged":13142,"Ġ1997":13143,"ĠMoto":13144,"Hz":13145,"oty":13146,"lik":13147,"Ġforwarded":13148,"Ġmoments":13149,"Ġprinted":13150,"Ġtasks":13151,"ĠUmar":13152,"ĠCapitals":13153,"ori":13154,"Ġsocieties":13155,"Ġdeposited":13156,"ĠFlag":13157,"Ġdescribe":13158,"Ġscholar":13159,"ĠGovernance":13160,"Kam":13161,"Rain":13162,"Ġfer":13163,"umal":13164,"ĠCommercial":13165,"Perhaps":13166,"Ġminerals":13167,"ĠHarbhajan":13168,"ĠRave":13169,"Ġoffend":13170,"March":13171,"ureauc":13172,"ĠXiaomi":13173,"Ġswing":13174,"Ġpregnancy":13175,"Ġwheel":13176,"Ġopenly":13177,"Ġgorge":13178,"Andhra":13179,"Ġgirlfriend":13180,"Ġnutrition":13181,"iser":13182,"Ġheights":13183,"Ġincred":13184,"Ġtravelled":13185,"Ġbaptized":13186,"kin":13187,"usters":13188,"uba":13189,"Ġremake":13190,"Ġ160":13191,"government":13192,"Ġtreasure":13193,"Ġidols":13194,"Ġbull":13195,"ĠSIM":13196,"udh":13197,"ĠWhere":13198,"author":13199,"ĠVodafone":13200,"Ġmodule":13201,"ĠPathan":13202,"Krish":13203,"uels":13204,"Ġhast":13205,"Ġverification":13206,"Ġgenerating":13207,"Ġneutral":13208,"ĠPink":13209,"Ġcoffee":13210,"Donald":13211,"ĠTibet":13212,"allist":13213,"Initial":13214,"ĠGurdaspur":13215,"ĠTihar":13216,"Bet":13217,"vo":13218,"Ġoccurs":13219,"Ġobviously":13220,"ĠCanadian":13221,"Ġsurprising":13222,"tage":13223,"angal":13224,"Ġtechnique":13225,"Ġcashback":13226,"Ġseparated":13227,"ĠArabian":13228,"Ġgro":13229,"ĠGaj":13230,"Ġdeadline":13231,"cest":13232,"Ġtact":13233,"Ġsample":13234,"Ġeighth":13235,"Ġdisb":13236,"Ġswift":13237,"Ġ1995":13238,"Ġranging":13239,"ĠGujarati":13240,"ĠTre":13241,"ANDI":13242,"IMIM":13243,"Ġautonomous":13244,"Az":13245,"ĠCultural":13246,"ĠRahane":13247,"ĠKarun":13248,"Ġcadre":13249,"ĠCatholic":13250,"AG":13251,"Ġissuing":13252,"Ġlaboratory":13253,"ĠSch":13254,"ĠKarachi":13255,"AIL":13256,"Ġdrow":13257,"ĠBath":13258,"Ġcooking":13259,"Nav":13260,"Ġdele":13261,"ients":13262,"ĠTand":13263,"Ġpoems":13264,"Ġgifts":13265,"Ġdub":13266,"Ġreop":13267,"artered":13268,"Ġderived":13269,"Ġthieves":13270,"Ġshocking":13271,"ĠVihar":13272,"Ġformula":13273,"Er":13274,"eni":13275,"Ġreserve":13276,"Ġbaseless":13277,"ĠHimalayan":13278,"Ġcous":13279,"Ġbones":13280,"usse":13281,"ĠFour":13282,"Ġtalented":13283,"Ġdevoted":13284,"ĠVidya":13285,"pherd":13286,"Ġdynamic":13287,"ĠNaveen":13288,"PT":13289,"Ġcontributing":13290,"Ġsubjected":13291,"Him":13292,"Ġsidelines":13293,"lawful":13294,"Ġturnover":13295,"Ġcompromise":13296,"ensity":13297,"ĠCeleb":13298,"owers":13299,"Ġfinalised":13300,"ĠHardeep":13301,"Ġtidings":13302,"Oct":13303,"Ġsq":13304,"Ġtob":13305,"ĠSem":13306,"ĠRand":13307,"Ġconfig":13308,"Ġthreatening":13309,"Ġcab":13310,"Ġaccum":13311,"Ġcircular":13312,"Ġ08":13313,"CSO":13314,"Ġholiday":13315,"Non":13316,"Ġpel":13317,"ĠBor":13318,"ailable":13319,"Ġaccompany":13320,"ĠPanchayats":13321,"ĠEp":13322,"Ġtrillion":13323,"ĠFarhan":13324,"asha":13325,"Ġrequests":13326,"Ġinvesting":13327,"Ġinfilt":13328,"Ġventil":13329,"judge":13330,"Bar":13331,"fection":13332,"Ġartificial":13333,"Ġcelebrates":13334,"Ġcouns":13335,"ĠPrabh":13336,"ĠMittal":13337,"ĠStrategic":13338,"Ġlend":13339,"Ġleak":13340,"ĠFer":13341,"ĠOP":13342,"Christ":13343,"ĠKishore":13344,"Start":13345,"ĠSengar":13346,"Ed":13347,"IIT":13348,"Ġconfusion":13349,"Ġinitiate":13350,"cum":13351,"Ġsyn":13352,"Ġabdu":13353,"Ġmerger":13354,"Ġspinner":13355,"Lord":13356,"ĠVicky":13357,"ĠShop":13358,"Ġfelicitations":13359,"Ġsearches":13360,"ĠTextiles":13361,"ĠCummins":13362,"ppy":13363,"ĠBSNL":13364,"Ġultimately":13365,"drop":13366,"tical":13367,"Ġbik":13368,"Ġmaker":13369,"veen":13370,"Ġdiscussing":13371,"ĠPlant":13372,"ĠClinton":13373,"Ġ1993":13374,"Ġincurred":13375,"oviet":13376,"Ġcountrymen":13377,"ĠBhuvneshwar":13378,"idences":13379,"osa":13380,"avan":13381,"Ġrealized":13382,"adhyay":13383,"adia":13384,"ulf":13385,"ĠChandrayaan":13386,"ĠHenry":13387,"weta":13388,"Ġ=":13389,"Ġstal":13390,"Fs":13391,"Kap":13392,"Ġpocket":13393,"ĠLuke":13394,"ĠEnd":13395,"Assam":13396,"Ġascertain":13397,"map":13398,"Ġcivic":13399,"ĠRishabh":13400,"seen":13401,"ĠEntrepreneurship":13402,"Hon":13403,"ĠLanguage":13404,"Ġaccusing":13405,"ĠGandhiji":13406,"Ġaccountability":13407,"Ġinstruction":13408,"imala":13409,"ĠArgent":13410,"ĠAdviser":13411,"Ġforgotten":13412,"ayed":13413,"Ġapplying":13414,"ĠSale":13415,"Ġlux":13416,"ĠEvery":13417,"Ġamen":13418,"ĠTB":13419,"ĠJind":13420,"Ġboyc":13421,"Ġneighbourhood":13422,"Vis":13423,"ĠPie":13424,"Ġ115":13425,"ĠJagd":13426,"Ġprocured":13427,"ĠKV":13428,"Ġapprised":13429,"Ġusual":13430,"Ġtragic":13431,"ĠRegulatory":13432,"MoU":13433,"HU":13434,"Ġinvestor":13435,"Ġaffecting":13436,"Ġkilome":13437,"ĠSrik":13438,"Ġdiamond":13439,"Elect":13440,"ewari":13441,"Ġweekly":13442,"Ġmissed":13443,"Ġpione":13444,"ĠRathore":13445,"ĠLegal":13446,"Ġbeliefs":13447,"ĠJet":13448,"Next":13449,"DU":13450,"ĠSwitzerland":13451,"Ġfails":13452,"Ġtobacco":13453,"ĠWay":13454,"Ġcheaper":13455,"Ġtrends":13456,"Ġassurance":13457,"Ġruler":13458,"ĠShekhar":13459,"Railway":13460,"Ġfate":13461,"Ġlanded":13462,"Ġinqu":13463,"ĠKang":13464,"erer":13465,"ĠEve":13466,"Ġposting":13467,"Ġdescription":13468,"bat":13469,"ĠPanchayati":13470,"Ġadults":13471,"Ġhygi":13472,"Ste":13473,"Ġdinner":13474,"ĠNortheast":13475,"asty":13476,"athon":13477,"ĠJamia":13478,"Efforts":13479,"Ġwre":13480,"ĠInfosys":13481,"Ġsurrounded":13482,"Ġrendered":13483,"Ġseconds":13484,"ĠMasood":13485,"ĠDutta":13486,"Ġemotions":13487,"Ġdestinations":13488,"anthapuram":13489,"Rather":13490,"Som":13491,"Ġcheating":13492,"ĠAshish":13493,"ategory":13494,"CE":13495,"Ġgest":13496,"Ġfeared":13497,"Ġore":13498,"Ġstrange":13499,"ĠJayant":13500,"ĠChemicals":13501,"ĠIqbal":13502,"ĠPrashant":13503,"Ġ1947":13504,"Ġdemonstration":13505,"Ġhoney":13506,"entle":13507,"Ġsomewhere":13508,"Ġtribes":13509,"Ġcampaigning":13510,"Ġinhabitants":13511,"des":13512,"Ġcrossing":13513,"Ġboards":13514,"Ġbadminton":13515,"ĠBajwa":13516,"ston":13517,"ivest":13518,"Ġsaffron":13519,"istical":13520,"Ġrush":13521,"Expl":13522,"Ġvirtually":13523,"aneswar":13524,"ĠMaulana":13525,"Ġancest":13526,"Ġassail":13527,"Ġ140":13528,"listed":13529,"ĠGos":13530,"ĠGuest":13531,"Ġattacking":13532,"ĠComplex":13533,"Ġrevision":13534,"Social":13535,"Ġgates":13536,"Ġstip":13537,"Ġspell":13538,"ĠFateh":13539,"ompeo":13540,"ture":13541,"Ġcoupled":13542,"Ġlighting":13543,"cap":13544,"udes":13545,"shad":13546,"Ġelectrical":13547,"ĠFranc":13548,"JNU":13549,"wart":13550,"edia":13551,"Ġtran":13552,"Ġeleph":13553,"Ġhandled":13554,"Ġyoungest":13555,"ĠRejuvenation":13556,"Consider":13557,"ĠHotel":13558,"ecessary":13559,"Ġthrew":13560,"Ġconqu":13561,"Ġcuts":13562,"Ġeliminate":13563,"tower":13564,"ĠSadh":13565,"Ġguides":13566,"Ġdoubts":13567,"ĠMorgan":13568,"December":13569,"ĠLegislature":13570,"ĠKrishan":13571,"Ġcreatures":13572,"ĠCrude":13573,"olec":13574,"Being":13575,"ulum":13576,"opp":13577,"Ġ05":13578,"ĠGovernors":13579,"Ġblasts":13580,"ĠJordan":13581,"Ġorbit":13582,"Ġstringent":13583,"Ġseam":13584,"ĠHour":13585,"Ġ1950":13586,"iel":13587,"Ġproceeding":13588,"Ġ1984":13589,"Ġlicense":13590,"Ġcontingent":13591,"pora":13592,"Ġvaccination":13593,"ĠAcharya":13594,"Ġwire":13595,"ĠExport":13596,"ĠType":13597,"Ġcommencement":13598,"Ġgarn":13599,"ĠCollector":13600,"Ġsatellites":13601,"Ġprohibited":13602,"ĠSrivastava":13603,"ĠDoval":13604,")-":13605,"Ġcave":13606,"Ġregulation":13607,"Ġswim":13608,"ĠIRC":13609,"atched":13610,"ĠFat":13611,"ĠUjj":13612,"ĠDubey":13613,"angg":13614,"ĠAnderson":13615,"www":13616,"Ġpillars":13617,"Ġstro":13618,"ĠHistory":13619,"ĠVishal":13620,"Ġfelicitated":13621,"ĠBri":13622,"Mohammad":13623,"Ġber":13624,"Ġlashed":13625,"Ġcouldn":13626,"Ġpublications":13627,"Ġdetect":13628,"Ġham":13629,"ĠProducts":13630,"itch":13631,"Ġenterprise":13632,"iox":13633,"Ġuploaded":13634,"aine":13635,"agn":13636,"itius":13637,"Ġlegit":13638,"Food":13639,"oop":13640,"Ġsorrow":13641,"Ġbooking":13642,"Ġhusbands":13643,"GARH":13644,"kan":13645,"Ġempowered":13646,"Ġump":13647,"Ġmask":13648,"ĠStandards":13649,"cking":13650,"udra":13651,"ĠUd":13652,"Ġprotocol":13653,"imp":13654,"party":13655,"Ġexpressing":13656,"ĠDate":13657,"Ġration":13658,"ĠRajinikanth":13659,"ĠSydney":13660,"ĠHyd":13661,"Ġsteady":13662,"Telangana":13663,"Ġconfessed":13664,"ĠLalit":13665,"Ġbureauc":13666,"ĠSessions":13667,"reach":13668,"ĠPC":13669,"ĠVo":13670,"ĠArts":13671,"Ġdisbelieved":13672,"rec":13673,"asy":13674,"ĠBedi":13675,"akti":13676,"awar":13677,"Ġdisclose":13678,"Ġincorporated":13679,"oser":13680,"Ġbenefited":13681,"Ġpresents":13682,"ĠPersian":13683,"Ġdating":13684,"ĠPensions":13685,"odder":13686,"Ġanxiety":13687,"Brit":13688,"hika":13689,"ointment":13690,"Ġexpelled":13691,"Ġrecognise":13692,"Ġrejects":13693,"Redmi":13694,"Ġviolating":13695,"Ġjawan":13696,"ĠExcellence":13697,"otism":13698,"missions":13699,"onial":13700,"otive":13701,"arding":13702,"Ġparallel":13703,"lined":13704,"Ġonwards":13705,"Ġfolder":13706,"laim":13707,"uity":13708,"illy":13709,"ĠFA":13710,"ĠFI":13711,"Ġ2030":13712,"ridi":13713,"Ġauthorised":13714,"ĠTask":13715,"Ġhandic":13716,"Ġliteral":13717,"ĠISIS":13718,"Ġcyclone":13719,"Ġhaven":13720,"ashwi":13721,"ĠIMD":13722,"Ġownership":13723,"Ġdelivering":13724,"Ġlaboratories":13725,"ais":13726,"Ġsexually":13727,"ĠBij":13728,"iksh":13729,"Ġreliable":13730,"Ġdividend":13731,"Ġexempl":13732,"Ġcomeback":13733,"Ġinstances":13734,"ĠCommunist":13735,"uvananthapuram":13736,"Ġsweep":13737,"Ġ5000":13738,"Ġroots":13739,"November":13740,"tes":13741,"yang":13742,"ĠExcise":13743,"Ġchecking":13744,"Ġsensit":13745,"ĠLaunch":13746,"Ġinterpretation":13747,"ligence":13748,"ĠRoot":13749,"Ġspr":13750,"Ġtrophy":13751,"Muk":13752,"ĠPon":13753,"Ġcancel":13754,"ĠBai":13755,"Ġcommits":13756,"Ġheartfelt":13757,"ĠTerm":13758,"ĠHanuman":13759,"ĠLog":13760,"ĠVall":13761,"ĠButtler":13762,"bank":13763,"cor":13764,"IMD":13765,"Ġ1971":13766,"Ġsporting":13767,"Ġtears":13768,"Ġoutcomes":13769,"Ġapprehe":13770,"ĠUnto":13771,"Ġtransition":13772,"esis":13773,"ĠRhea":13774,"essing":13775,"ĠVs":13776,"Reacting":13777,"Life":13778,"ĠGop":13779,"ĠATM":13780,"PRESIDENT":13781,"Ġthirty":13782,"Ġharmful":13783,"ĠRajkot":13784,"ushi":13785,"Ġparade":13786,"ĠSH":13787,"ums":13788,"Governor":13789,"Ġstunning":13790,"ĠAmrita":13791,"Ġcapac":13792,"there":13793,"Ġ09":13794,"Ahmed":13795,"Ġsequence":13796,"iga":13797,"Chinese":13798,"ĠAssistance":13799,"idwar":13800,"ooter":13801,"ĠTeachers":13802,"ĠSunrisers":13803,"Ġmemorandum":13804,"ĠKochhar":13805,"Ġdispl":13806,"aimur":13807,"ĠNehwal":13808,"Ġdisrupted":13809,"ĠCant":13810,"ĠFIRs":13811,"Ġerr":13812,"ĠRavichandran":13813,"Ġcondoled":13814,"rother":13815,"ĠSax":13816,"ĠNiz":13817,"ĠNarm":13818,"Ġallied":13819,"Ġupro":13820,"Ġobst":13821,"Pass":13822,"Ġtodays":13823,"ĠCommittees":13824,"\"\"\"\".\"\"\"":13825,"Nepal":13826,"Ġbridges":13827,"Select":13828,"mate":13829,"Ġonto":13830,"Ġfailing":13831,"ĠMuzaffarpur":13832,"ĠMach":13833,"Ġscreens":13834,"Ġreflects":13835,"Ġentrusted":13836,"arnagar":13837,"Ġdenies":13838,"Ġdeduction":13839,"ĠPalestin":13840,"ĠHash":13841,"Ġshad":13842,"Ġdemonstrated":13843,"Ġpublishing":13844,"riages":13845,"ĠAgg":13846,"they":13847,"ĠVenk":13848,"Ġconventional":13849,"aturally":13850,"ĠMB":13851,"ĠEt":13852,"Ġcomprised":13853,"Def":13854,"Off":13855,"ĠMI":13856,"Ġdecent":13857,"Ġ02":13858,"nectivity":13859,"Ġwond":13860,"eding":13861,"Ġrolled":13862,"ĠCommissioners":13863,"ĠParam":13864,"mediate":13865,"oaib":13866,"Ġbeef":13867,"oya":13868,"ĠHindutva":13869,"Ġmenace":13870,"rocities":13871,"ĠCooperative":13872,"Ġstatistics":13873,"ĠJyot":13874,"Ġtransgress":13875,"Ġseminar":13876,"Ġmel":13877,"ĠNair":13878,"Ġsalaries":13879,"Ġcommented":13880,"KL":13881,"isance":13882,"ĠSpanish":13883,"Ġenthusi":13884,"La":13885,"Rupee":13886,"bu":13887,"ĠSug":13888,"ĠGS":13889,"ĠUl":13890,"Ġbitter":13891,"Ġelaborate":13892,"Ġhardship":13893,"ĠNeg":13894,"Ġoutlook":13895,"Sy":13896,"Ġdecree":13897,"ĠApplication":13898,"Ġelsewhere":13899,"intal":13900,"ĠYoung":13901,"ĠSweden":13902,"ĠSustainable":13903,"Ġtense":13904,"rey":13905,"Ġplenty":13906,"afe":13907,"ĠNeeraj":13908,"Ġslowdown":13909,"ĠCertificate":13910,"ĠLiter":13911,"Ġmarch":13912,"Ġregulator":13913,"Ġraping":13914,"Ġamounting":13915,"Ġcontainment":13916,"Department":13917,"ĠGPS":13918,"Ġride":13919,"Ġoutrage":13920,"Ġcrown":13921,"Count":13922,"isma":13923,"Ġbreat":13924,"ĠSoviet":13925,"ĠVirender":13926,"Ġcontacts":13927,"Ġabrogation":13928,"Net":13929,"Ġriding":13930,"ĠSanitation":13931,"Ġjumped":13932,"lings":13933,"Ġbare":13934,"ĠFertilizers":13935,"ustom":13936,"Ġcanal":13937,"Ranbir":13938,"Ġtriumph":13939,"Ġcrafts":13940,"ineeti":13941,"ĠSDM":13942,"ĠAbu":13943,"Ġpolitically":13944,"Ġassignment":13945,"Hard":13946,"ĠLong":13947,"Ġcarrier":13948,"Ġ06":13949,"ĠScripture":13950,"Ġiconic":13951,"ĠAngeles":13952,"Ġsomebody":13953,"ĠMaha":13954,"Ġsafely":13955,"ĠRajkumar":13956,"Ġinspection":13957,"ithaa":13958,"ĠKedarnath":13959,"Eight":13960,"Ġodd":13961,"ĠJayalal":13962,"ĠOperations":13963,"ĠKiara":13964,"non":13965,"Ġwrath":13966,"Ġprogressive":13967,"icular":13968,"ĠiOS":13969,"igare":13970,"ĠKriti":13971,"ĠSky":13972,"ĠLaun":13973,"Sonia":13974,"ĠWatchtower":13975,"ĠVaish":13976,"Election":13977,"ĠColin":13978,"ĠMorcha":13979,"ĠVisakhapatnam":13980,"itam":13981,"ĠMA":13982,"Ġsupervision":13983,"Ġburied":13984,"Ġfalsehood":13985,"David":13986,"ANDIGARH":13987,"ien":13988,"ĠPot":13989,"ige":13990,"ablish":13991,"Ġchecked":13992,"Ġsword":13993,"ĠRomans":13994,"Prior":13995,"ĠAug":13996,"Ġdesert":13997,"Ġhelicopters":13998,"Ġtaxpayers":13999,"formance":14000,"Ġlawful":14001,"Ġpreval":14002,"ĠChristmas":14003,"Ġprevented":14004,"ADMK":14005,"Khan":14006,"ĠBo":14007,"Ġvain":14008,"ubble":14009,"ĠHinduism":14010,"haiya":14011,"Ġtoilet":14012,"Selection":14013,"ĠKnowing":14014,"ĠAaryan":14015,"Ġhosting":14016,"undreds":14017,"ĠPuja":14018,"ĠWild":14019,"ĠSome":14020,"Ġgarb":14021,"ĠPMs":14022,"amboo":14023,"Ġdecrease":14024,"usuf":14025,"ĠHir":14026,"Ġbuff":14027,"Ġlandmark":14028,"Ġscenes":14029,"ios":14030,"Ġunus":14031,"ĠBanking":14032,"ĠBarack":14033,"Ġmines":14034,"Ġglor":14035,"eddyurappa":14036,"ĠRajkummar":14037,"CHANDIGARH":14038,"October":14039,"MW":14040,"Ġapplies":14041,"Ġlongest":14042,"Ġearning":14043,"ĠPujara":14044,"enance":14045,"Ġoffs":14046,"Ġgoverning":14047,"Respond":14048,"Previous":14049,"Ġobligation":14050,"Ġfasc":14051,"ĠCross":14052,"Ġutmost":14053,"Sil":14054,"Ġdiscover":14055,"ffici":14056,"Ġcordoned":14057,"ĠRampur":14058,"Ġcollections":14059,"Ġcheap":14060,"Ġprotested":14061,"ARD":14062,"ĠEss":14063,"Ġcrashed":14064,"Ġtwelve":14065,"Ġexercises":14066,"ĠBahujan":14067,"amilitary":14068,"Ġhospitalised":14069,"ĠPathankot":14070,"Ġintimid":14071,"utors":14072,"ĠSham":14073,"ĠKend":14074,"ĠMusic":14075,"Facebook":14076,"Ġparam":14077,"ye":14078,"Ġswear":14079,"Ġexceptional":14080,"Ġsecretaries":14081,"ĠRit":14082,"Ġquery":14083,"Ġhelmed":14084,"ĠBhumi":14085,"Ġautomatically":14086,"rous":14087,"ĠParv":14088,"ĠColomb":14089,"Ġhind":14090,"Ġnoise":14091,"Ġgranting":14092,"Neither":14093,"ĠBrother":14094,"Dec":14095,"ĠSach":14096,"Ġconfront":14097,"July":14098,"ĠMarc":14099,"Ġgearbox":14100,"Kat":14101,"Nm":14102,"ensely":14103,"Ġorganism":14104,"Ġcheque":14105,"Ġperiods":14106,"alyst":14107,"Chairman":14108,"ĠDid":14109,"Ġgrade":14110,"Ġacceptance":14111,"Open":14112,"ĠIts":14113,"Ġkick":14114,"cons":14115,"Ġwider":14116,"Ġawaiting":14117,"ĠKeshav":14118,"urbed":14119,"Ġplate":14120,"ĠIsa":14121,"ĠVenugopal":14122,"bbl":14123,"Ġblog":14124,"Ġexplanation":14125,"ĠEngineer":14126,"Ġwards":14127,"ĠSR":14128,"ĠCost":14129,"Ġcircle":14130,"Ġcultures":14131,"opy":14132,"Ġrocket":14133,"Ġchemicals":14134,"ĠSridevi":14135,"chud":14136,"Ġcredited":14137,"ĠHeadquarters":14138,"igilance":14139,"Ġmisleading":14140,"Ġprobed":14141,"ĠThan":14142,"ĠVlad":14143,"Ġreplacement":14144,"Ġfame":14145,"aramaiah":14146,"Pakistani":14147,"Ġwronged":14148,"bhp":14149,"Bad":14150,
[...]
