#version: 0.2
à ¤
à ¥
Ġ à¤
à¤ ¾
à¥ ĩ
à¤ °
à¥ į
Ġà¤ ķ
à¤ ¿
à¥ Ģ
à¤ Ĥ
à¤ ¨
à¤ ¤
à¥ ĭ
à¤ ķ
à¤ ¯
à¤ ¸
à¤ ²
Ġà¤ ¸
à¤ ®
à¤ ¹
Ġà¤ ¹
Ġà¤ ®
Ġà¤ ª
à¥ Ī
à¥ ģ
à¤ µ
à¤ ¦
à¤ ª
à¥ĩ à¤Ĥ
à¤ Ĺ
Ġà¤ ¨
à¥ ¤
à¤ Ł
à¤ ľ
Ġà¤ ¬
Ġà¤ ľ
à¥ĭ à¤Ĥ
Ġà¤ ħ
Ġà¤ ¦
Ġà¤ µ
à¤ ı
à¤ ¶
à¥ Ĥ
Ġà¤ °
Ġà¤ ²
à¤ ¬
à¤ ¡
Ķ à¤°
à¤ §
à¤ ļ
Ġà¤ Ķà¤°
Ġà¤ķ à¤°
à¤ ·
Ġà¤ ¤
Ġà¤ ī
Ġà¤ Ĺ
Ġà¤ Ĩ
Ġà¤ Ń
à¤ ¼
à¤ Ī
Ġà¤ª à¤°
à¤ ¥
à¥Ī à¤Ĥ
Ġà¤ ı
Ġà¤ ĩ
à¥Ī à¥¤
à¤ Ń
â Ģ
à¤ ĸ
Ġà¤ ¶
à¤ £
Ġà¤ ¯
Ġà¤ ļ
à¤¾ à¤Ĥ
à¤ «
à¤ ĩ
à¤° à¤¤
Ġà¤ ¥
à¥ Į
à¥Ģ à¤Ĥ
Ġà¤ ĸ
Ġà¤ı à¤ķ
Ġà¤ «
Ġà¤° à¤¹
Ġà¤ĩ à¤¸
Ġà¤ķ à¤¹
âĢ į
à¤¾ à¥¤
à¤ª à¤¨
à¥į âĢį
Ġ (
à¤ķ à¤°
Ġà¤¨ à¤¹
à¤ Ĩ
Ġà¤ī à¤¨
Ġà¤¸ à¤®
Ġà¤ķà¤° à¤¨
à¤° à¤ķ
à¥ ī
à¤¿ à¤Ĥ
à¤ĩ à¤¸
à¤¾ ,
à¤ ī
à¤ Ľ
Ġà¤Ĺ à¤¯
Ġà¤ Ł
Ġ 1
à¥Īà¤Ĥ à¥¤
Ġà¤¯ à¤¹
Ġà¤ħ à¤ªà¤¨
Ġ 2
Ġà¤ ¡
Ġà¤ħ à¤¨
à¥ ĥ
Ġà¤ī à¤¸
à¤ ł
à¤¤ à¤°
à¤¯ à¤ķ
Ġà¤¹ à¤®
Ġà¤ħ à¤§
à¤ ĵ
Ġà¤ª à¤¹
à¤µ à¤°
à¤ľ à¤¨
à¤ ħ
Ġà¤¸ à¤ķ
à¥Ģ à¥¤
Ġ âĢ
Ġà¤¬ à¤¨
Ġà¤ķà¤° à¤¤
Ġà¤® à¤¹
Ġà¤ ĺ
à¥ĩ à¥¤
à¤¼ à¤¾
à¤° à¤®
à¤° à¤¦
à¤ī à¤¨
à¤ ¢
à¥Ī .
à¤¸ à¤°
à¤Ł à¤°
à¤¶ à¤¨
Ġà¤īà¤¨ à¤ķ
Ġà¤µ à¤¹
à¥Ī ,
" "
Ġ à¥¤
à¤¯ à¤®
Ġà¤² à¤Ĺ
à¤¹ à¤°
Ġà¤ī à¤ª
Ġà¤¸à¤ķ à¤¤
à¤® à¤²
Ġ2 0
Ġà¤ §
à¤ Ŀ
à¤¯ à¤°
à¤ ģ
Ġà¤¤ à¤ķ
à¤° à¤£
à¤ª à¤°
à¥Ģ ,
à¤Ĺ à¤°
Ġà¤ Ľ
Ġà¤ªà¤¹ à¤²
Ġà¤¸ à¤°à¤ķ
à¤² à¤¨
Ġà¤Ĺ à¤Ī
à¤¯ à¤¹
à¤ª à¤¤
Ġà¤¤ à¤°
Ġà¤µ à¤°
à¤² à¤¯
à¤¹ à¤®
à¤° à¤¸
Ġà¤Ĩ à¤ª
à¤¨ à¤®
Ġà¤Ĩ à¤°
à¤² à¤¤
0 0
à¤¬ à¤°
à¤ı à¤¸
Ġà¤ Ĳ
Ġà¤ħ à¤²
à¤Ł à¤¨
à¥ģ à¤Ĥ
à¤Ĩ à¤Ī
Ġà¤īà¤¸ à¤ķ
Ġà¤Ĩ à¤¯
Ġà¤ī à¤¤
à¤¼ à¥Ģ
Ġà¤ķ à¤®
à¤ ĺ
Ġà¤¸ à¤¹
Ġà¤Ĺ à¤ı
ĠâĢ ĺ
à¤¹ à¤¤
Ġà¤ħ à¤Ń
à¤° à¤µ
Ġà¤¬ à¤¹
Ġà¤¸ à¤¬
à¤¨ à¤ķ
à¤® à¤¨
à¤· à¤£
Ġ 3
à¤¸ à¤®
Ġà¤° à¤ĸ
à¤µ à¤¨
Ġà¤ľ à¤¬
Ġà¤¦ à¤°
à¤® à¤¤
à¤ľ à¤°
Ġà¤¬ à¤¢
à¤¯ à¤¨
à¤¯ à¤¤
à¤¾ .
Ġà¤¤ à¤¥
à¤ı à¤Ĺ
Ġà¤¬ à¤¤
Ġà¤Ĳ à¤¸
à¤ļ à¤¨
à¥ĩ ,
Ġà¤ı à¤µ
à¤Ĺ à¤¤
à¤µ à¤¹
à¤¨ à¤¤
Ġà¤ ĳ
à¤µ à¤¸
à¤ı à¤®
à¤¸ à¤²
Ġà¤¸ à¤Ń
Ġà¤ª à¤¤
Ġà¤ ĵ
Ġ20 1
à¤° à¤§
à¤¸ à¤ķ
Ġ à¥
âĢ Ļ
à¤¼ à¥ĩ
Ġà¤ĩà¤¸ à¤ķ
à¤ĩà¤¸ à¤ķ
à¥Ĥ à¤Ĥ
à¤¸ à¤¨
à¤ĩ à¤¨
à¤ª à¤¯
à¤§ à¤¨
à¤¦ à¤°
Ġà¤¤à¤° à¤¹
à¤¤ à¤¨
à¥ ľ
à¤¾ à¤ģ
Ġà¤ħ à¤®
à¥Īà¤Ĥ .
à¥Īà¤Ĥ ,
Ġà¤ħ à¤µ
Ġ 5
Ġà¤¸à¤® à¤¯
Ġà¤¹ à¤°
à¤ ŀ
Ġà¤ĩ à¤¨
Ġà¤¬ à¤¡
à¤ķ à¤²
Ġà¤¬ à¤ļ
Ġ 4
Ġ '
Ġà¤ī à¤¦
à¤¦ à¤¨
Ġà¤ħ à¤°
à¤¯ à¤²
à¤ Ķà¤°
Ġ -
Ġà¤Ĩ à¤§
à¤ľ à¤ª
Ġà¤Ĩ à¤¤
Ġà¤¸ à¤°
à¤¸ à¤¦
à¤® à¤°
Ġà¤Ĩ à¤µ
à¤Ĩ à¤°
Ġà¤Ĩ à¤Ī
Ġà¤ħ à¤¸
Ġà¤ķ à¤Ī
Ġà¤ľ à¤°
Ġà¤¬ à¤²
à¥Ģ .
Ġà¤ļ à¤²
à¤¼ à¤¿
à¤Ĺ à¤²
Ġà¤ Ī
à¤¶ à¤ķ
à¤ķ à¤¤
Ġà¤Ĩ à¤Ĺ
à¤° à¤Ń
à¤ª à¤ķ
à¤¸ à¤Ń
Ġà¤ķ à¤ª
à¤¬ à¤²
2 0
Ġà¤Ĩ à¤¦
Ġà¤Ĩ à¤ľ
Ġ ""
à¤° à¤¶
à¤ķà¤° à¤£
à¤² à¤¬
à¤µ à¤¤
Â ł
Ġà¤¸à¤¬ à¤¸
Ġà¤ľ à¤¨
à¤° à¤¯
à¥Ģ )
Ġà¤® à¤¨
à¤¦ à¤¸
Ġ 6
Ġà¤ħ à¤ª
Ġà¤Ń à¤°
à¤® à¤ķ
à¤¹ à¤¨
Ġà¤ľ à¤²
à¤° à¤ªà¤¤
Ġà¤¶ à¤°
à¤ľ à¤¬
Ġà¤ ł
Ġà¤ħ à¤ļ
à¤ı à¤ķ
à¤µ à¤²
Ġà¤ª à¤¡
à¥ĩ .
à¤¶ à¤¤
Ġà¤ī à¤®
Ġà¤Ĩà¤ª à¤ķ
Ġà¤¸ à¤ļ
Ġà¤ Ŀ
Ġà¤ķ à¤²
à¤° à¤¹
Ġà¤ľ à¤®
à¤Ł à¤²
Ġà¤Ĩ à¤¨
Ġà¤ħ à¤ķ
Ġà¤¬ à¤¦
Ġà¤ı à¤¸
à¥ĩà¤Ĥ ,
Ġà¤ª à¤¦
à¤¤ à¤ķ
à¤Ł à¤ķ
à¤ı à¤¨
Ġà¤ħ à¤¬
Ġ 7
à¤Ľ à¤²
ĠâĢ ľ
Ġà¤¸à¤® à¤Ŀ
Ġ1 9
à¤ı à¤²
Ġà¤ĵ à¤°
Ġà¤¨ à¤°
Ġ1 0
Ġà¤® à¤¦
à¤¡ à¤²
Ġà¤ĩ à¤²
Ġà¤ħ à¤¤
à¤¯ à¤¦
Ġà¤ĺ à¤°
à¤¨ à¤°
âĢ ĺ
à¥ĭ ,
à¤ľ à¤²
à¤°à¤¦ à¤°
Ġ 8
à¤ Ĳ
à¤¨ à¤µ
à¤¨ à¤¨
à¤¦ à¤µ
Ġà¤ĳ à¤«
Ġà¤ Ĭ
Ġà¤¬ à¤°
à¤² à¤ķ
à¤¤ à¤®
à¤ ĥ
Ġà¤ĸ à¤°
à¤¾ -
à¤ĩ à¤Ł
Ġà¤ľ à¤¹
Ġà¤ī à¤ł
à¤ł à¤ķ
à¥ĭà¤Ĥ ,
à¤ı à¤«
Ġà¤¸ à¤¦à¤¸
Ġà¤¸ à¤¤
à¤¨ à¤²
à¤ĩ à¤²
à¤¦ à¤®
à¤° à¤«
à¤¡ à¤°
Ġà¤ī à¤ļ
à¤¿ ,
à¤ĸ à¤¨
Ġ :
à¥ Ľ
à¥ĩà¤Ĥ à¥¤
à¤¯ à¤µà¤¸
à¤¹ à¤²
Ġà¤¤ à¤¹à¤¤
à¤¶ à¤²
Ġà¤ı à¤¨
ĠâĢ Ŀ
à¤ķ à¤¸
Ġà¤®à¤¹ à¤¤
"" "
à¤° à¤¨
à¤ķ à¤¡
à¤° à¤²
Ġà¤®à¤¦ à¤¦
Ġà¤ĺ à¤Łà¤¨
à¤² à¤°
Ġà¤ľà¤¬ à¤ķ
Ġà¤īà¤ª à¤²à¤¬
Ġà¤² à¤¡
1 9
Ġà¤® à¤¤
à¤ķ à¤¨
à¤Ł à¤®
) ,
Ġ 9
Ġà¤ľ à¤µ
à¤ł à¤¨
à¥Ģ -
à¤° à¤¬
Ġà¤Ĩ à¤ı
Ġà¤īà¤ª à¤¯
à¤¬ à¤Ī
Ġà¤¨ à¤µ
Ġ1 2
à¤īà¤¨ à¤ķ
à¤¥ à¤¨
Ġà¤¸à¤® à¤°
Ġà¤¬à¤¦ à¤²
à¤ľ à¤¯
00 0
Ġà¤¶ à¤¹à¤°
à¤µ à¤ķ
à¤µ à¤ª
à¤¾ )
Ġà¤ªà¤° à¤®
à¤ļ à¤°
Ġà¤ ¢
à¤ľ à¤¹
Ġà¤ı à¤®
i n
Ġà¤¸ à¤²
à¥Ī ?
Ġà¤¸ à¤«
à¤® à¤¦
Ġà¤¹à¤® à¤²
à¤¼ à¥ģ
à¤ª à¤¸
Ġà¤ħà¤² à¤Ĺ
Ġà¤Ĩà¤µ à¤¶
à¤¸ à¤ª
à¤¯ à¤ª
Ġà¤« à¤°
Ġà¤ħà¤µ à¤¸à¤°
Ġà¤¤ à¤¬
Ġà¤°à¤¹ à¤¨
à¤· à¤ķ
à¤ī à¤¸
à¤¤ à¤µ
Ġà¤¬ à¤ľ
Ġà¤¦ à¤²
Ġà¤Ĺ à¤°
à¤ĩà¤¸ à¤¸
à¤² à¤µ
Ġà¤ħ à¤¦
Ġà¤ª à¤¶
à¤ķ à¤Ł
Ġà¤¨ à¤Ī
à¥ĩ )
Ġà¤° à¤ķ
Ġà¤¸à¤¹ à¤¯
Ġà¤ħ à¤Ĺ
Ġà¤°à¤ĸ à¤¨
Ġà¤µ à¤ķ
Ġà¤°à¤¹ à¤¤
Ġà¤ľ à¤Ĺ
à¤ľ à¤¸
Ġà¤ķà¤¹ à¤¤
Ġà¤Ĩ à¤¶
o n
Ġ1 5
Ġà¤ħ à¤Ĺà¤°
Ġà¤¨ à¤ľà¤°
Ġà¤¨ à¤ı
à¤Ĩ à¤¤
Ġà¤¹à¤® à¤¨
à¤¸ à¤¤
à¤· à¤¯
Ġà¤® à¤§
Ġ .
Ġà¤ļ à¤°
ĠâĢĺ âĢĺ
Ġà¤ķà¤¹ à¤¨
Ġà¤¸ à¤µ
à¤ Ĭ
à¤¬ à¤¸
à¤ĩà¤¸ à¤®
à¥Ĥ à¤ģ
Ġà¤Ĩ à¤®
à¤® à¤¹
à¤Ń à¤Ĺ
à¤Ń à¤µ
Ġà¤ķ à¤Ń
Ġ20 0
Ġà¤ª à¤ķ
a n
Ġà¤® à¤°
Ġà¤Ĩ à¤¸
Ġà¤ĩà¤¸ à¤®
à¤¨ à¤¦
Ġà¤¬ à¤¸
Ġà¤ª à¤¢
à¤Ĳ à¤¸
Ġà¤¤à¤° à¤«
Ġà¤ħ à¤«
Ġà¤ Ķ
à¤° à¤ª
Ġà¤¬ à¤¯
à¤Ĺ à¤łà¤¨
Ġà¤² à¤ķ
Ġà¤ķà¤° à¤ķ
à¥Ģà¤Ĥ à¥¤
à¤Ĺ à¤¨
Ġà¤° à¤¨
à¤ķ à¤µ
à¤¹ à¤¤à¤°
à¥ Ŀ
Ġà¤¶ à¤ķ
Ġ1 1
Ġà¤ĩà¤¸ à¤¸
Ġà¤® à¤¸
Ġà¤ī à¤²
à¤ĸ à¤¤
Ġà¤¨ à¤¯
Ġà¤ķ à¤¶
Ġà¤µ à¤ľà¤¹
à¤¥ à¤®
à¤¸ à¤¸
e r
à¤· à¤¤
Ġà¤§ à¤°
à¤ħ à¤²
Ġà¤īà¤¸ à¤¨
Ġà¤¹ à¤ľ
à¤¨ à¤¸à¤Ń
à¤ª à¤ı
à¤¼ à¥į
à¥Ĥà¤Ĥ à¥¤
Ġà¤Ĺ à¤¤
Ġà¤¹ à¤¤
Ġà¤¦ à¤ķ
à¤Ĺ à¤¢
a r
à¥Ģà¤Ĥ ,
Ġà¤ľà¤Ĺ à¤¹
Ġà¤¹ à¤µ
à¤¥ à¤µ
à¤¬ à¤¦
à¤ľ à¤®
à¤ĸ à¤°
a l
. .
à¤² à¤ķà¤°
Ġà¤²à¤Ĺ à¤Ńà¤Ĺ
Ġà¤¸à¤® à¤¸
à¤¯ à¤µ
Ġà¤Ĩ à¤ķ
à¤ħ à¤ªà¤¨
à¤ĩ à¤ķ
Ġà¤® à¤ľà¤¬
Ġà¥ Ļ
Ġà¤° à¤¸
à¤ħ à¤¨
Ġ1 4
Ġà¤ĩ à¤¨à¤ķ
à¤® à¤ļ
Ġ1 3
Ġà¤¯ à¤¦
à¥ĩ -
Ġà¤ı à¤ľ
à¤µà¤° à¤£
a t
Ġà¤²à¤Ĺ à¤¤
à¤· à¤®à¤¤
à¤£ à¤¨
à¤µ à¤µ
à¥ĭ à¥¤
Ġà¤¸ à¤ª
Ġà¤ħ à¤¹à¤®
Ġà¤°à¤ĸ à¤¤
à¤¼ à¥ĭ
à¤ī à¤¸à¤ķ
à¤ļ à¤²
Ġà¤ľ à¤¨à¤¤
Ġà¤ħ à¤Ĺà¤²
à¤§ à¤°
Ġà¤ı à¤²
Ġà¤µ à¤¸
Ġ1 8
à¤¨ à¤¸
Ġà¤ķ à¤¦à¤®
à¥ ¦
Ġà¤ĩà¤¸ à¤²
à¤ķ à¤¸à¤Ń
Ġ2 5
à¤¥ à¤²
à¤ı à¤ļ
à¤¨ à¤Ī
Ġ S
à¤¯ à¤¸
Ġà¤¤ à¤¸
Ġà¤ħ à¤ªà¤°
à¤¹ à¤ķ
Ġà¤ħà¤µ à¤§
à¤Ń à¤°
à¤® à¤¸
à¤Ĺ à¤®
Ġà¤ªà¤¹ à¤ļ
e s
Ġà¤¹ à¤¸
Ġà¤ķ à¤¬
à¤ĩà¤¸ à¤²
à¤° à¤ľ
à¤ľ à¤¦
Ġ20 20
à¤¬ à¤¨
Ġà¤ļ à¤²à¤¤
à¤¼ à¥ĭà¤Ĥ
Ġ201 9
à¤¶à¤¨ à¤²
Ġ1 6
Ġà¤§ à¤¨
Ġà¤° à¤µ
à¤Ł à¤«
à¤¬ à¤¹
à¤ľ à¤Ĺ
à¤¯à¤ķ à¤¤
à¤ª à¤·
Ġà¥ §
Ġ P
à¤¾ ?
Ġà¤ı à¤¯à¤°
à¤¬ à¤¤
à¤ĺ à¤Łà¤¨
20 1
à¤¦ à¤Ĺ
Ġà¤Ń à¤µ
Ġà¤Ī à¤®
Ġà¤¤ à¤²
à¤ħ à¤®
à¤¸ à¤°à¤ķ
à¤¤ à¤ļ
Ġ3 0
Ġà¤ħ à¤ľ
à¤· à¤¦
à¥Į à¤Ĥ
Ġà¤¦ à¤¸
Ġ C
à¤§ à¤¤
à¤µ à¤ľ
à¤² à¤¹
Ġ A
à¤£ à¤¯
à¤ª à¤£
à¤Ĩ à¤ª
o r
Ġ5 0
Ġà¤¤ à¤®
Ġà¤¤ à¤¤
à¤Ľ à¤¤
à¤¦ à¤ķ
à¤¡ à¤®
ĠâĢ Ķ
à¤ĩ à¤¡
à¤µ à¤ľà¤¨
Ġà¤ķ à¤¨
e n
Ġà¤Ĩ à¤²
Ġà¤īà¤¨ à¤¸
à¥ ĺ
Ġà¤Ĭ à¤°
Ġà¤ĩ à¤¤
Ġà¤¸ à¤¡
Ġ2 4
à¤¸ à¤µ
Ġà¤¶ à¤¬
Ġà¤ĩ à¤ķ
à¤¿ âĢį
à¤° à¤ļ
à¤¹ à¤¦
à¤¼ à¥ĩà¤Ĥ
à¤ķ à¤ª
Ġà¤¹ à¤Ł
Ġ R
à¤µ à¤§
Ġà¤īà¤ª à¤¸
à¤ĺ à¤°
à¤ħ à¤§
à¤² à¤¸
à¤· à¤®
à¤°à¤® à¤£
9 9
à¥ī .
à¥Īà¤Ĥ ?
Ġ 0
à¥Ĥ -
à¤ħ à¤Ń
Ġ201 8
Ġ1 7
à¤ħ à¤Ĺà¤°
Ġà¤īà¤¸ à¤¸
Ġà¤¨ à¤Ĺà¤°
à¤ħ à¤¬
Ġà¤® à¤²
Ġà¤ª à¤Ł
à¤ķ à¤¶
à¤ª à¤²
à¤ĩ à¤¯
à¤Ĺ à¤¦
Ġà¤ĩ à¤¤à¤¨
à¤° à¤ĸ
Ġà¤µ à¤¨
à¤« à¤°
Ġ I
à¤¦ à¤¬
Ġà¤ĸ à¤¬à¤°
i c
à¤¾ :
Ġ201 7
Ġà¤Ĺ à¤ł
à¤¹ à¤¸
à¥ģ à¤ģ
à¤µ à¤¯
à¤² à¤®
à¤µ à¤ļ
Ġà¤ ĭ
à¤ī à¤¤
à¤¹à¤° à¤£
à¤ľ à¤ķ
à¤¯à¤° à¤¸
Ġà¤¶ à¤µ
Ġà¤Ĺ à¤²à¤¤
à¤ļ à¤ķ
Ġà¤ı à¤«
Ġ1 00
Ġà¤ľ à¤¤
Ġà¤ħ à¤¶
âĢ Ŀ
Ġà¤ļ à¤°à¤£
Ġà¥ Ľ
Ġà¤ª à¤¸
à¤µ à¤¶
Ġ M
à¤ ĳ
Ġà¤ķà¤° à¤µ
à¤¸ à¤¬
Ġà¤ĸ à¤¡
Ġ ,
Ġ B
à¤ħ à¤ª
à¤§ à¤µ
Ġà¤Ĭ à¤ªà¤°
Ġà¤¬ à¥ľ
à¤¤à¤° à¤°
à¤¸ à¤ļ
Ġà¤¤à¤ķ à¤¨
à¤Ĥ à¥¤
Ġà¤ħà¤° à¤¬
Ġà¤ĸ à¤¤à¤°
à¤¦ à¤²
à¤¡ à¤¨
Ġà¤ķ à¤¡
Ġà¥§ à¥
Ġà¤¬ à¥Ŀ
Ġà¤ī à¤¡
Ġà¤ķ à¤Ł
à¤¯ à¤¯à¤¨
5 0
Ġà¤¸ à¤ľ
à¤Ĩ à¤ªà¤ķ
Ġà¤¤ à¤¯
à¤® à¤Ĺ
Ġà¤®à¤¤ à¤¦
à¤ª à¤®
Ġà¤ı à¤¶
Ġà¤¹ à¤²
Ġà¤īà¤¨ à¤®
à¤¯ à¤ķà¤°
Ġ N
à¤ľ à¤µ
i on
Ġà¤¬à¤¨ à¤¨
à¤µ à¤Ł
Ġ2 1
Ġà¤ħà¤® à¤°
Ġà¤Ĩ à¤ĸ
i t
âĢĻ âĢĻ
à¥ ŀ
Ġà¤¨ à¤ķ
Ġà¤ħ à¤ĸ
à¤ĸ à¤²
à¤ª à¤¹à¤²
à¤°à¤¹ à¤£
Ġà¤® à¤ľ
Ġà¤¦ à¤¬
Ġà¤¨ à¤¦
à¤ĩ à¤¨à¤®
à¥Īà¥¤ "
Ġà¤¸ à¤¦
à¤¹à¤® à¤¤
à¤Ĩ à¤ľ
Ġà¤Ľ à¤¹
à¤ıà¤¸ à¤Ł
Ġà¤¸ à¤¨
à¤¤à¤° à¤£
Ġà¤¬ à¤§
s t
à¤¹à¤® à¤¨
à¤ª à¤Ł
à¤² à¤Ĺ
Ġà¤ı à¤ļ
Ġà¤ĳ à¤¸
1 0
à¥ĩà¤Ĥ .
à¤° à¤Ĺ
Ġ2 2
d i
à¤µà¤¹ à¤¨
Ġà¤¡ à¤°
à¤ª à¤¡
à¤Łà¤° à¤¨
2 00
Ġà¤¸à¤« à¤²à¤¤
2 1
à¥ĭ )
Ġà¤Ĺ à¤£
Ġà¤ķ à¤¥
Ġà¤ª à¤µ
Ġà¤ľà¤¨ à¤µà¤°
à¤¯ à¤¡
à¤ĩ à¤¬à¤²
à¤ĩà¤¨ à¤²
Ġà¤Ĩà¤¦ à¤®
à¤® à¤¯
G B
à¤ĩ à¤µ
Ġà¤ĸ à¤¤
à¤¡ à¤¬
à¤Ĩà¤Ī à¤¸
à¤® à¤µ
à¤Ĺ à¤µ
à¥Ģ :
Ġà¤® à¤ķ
Ġà¤ĺ à¤Ł
Ġà¤° à¤£
à¤· à¤°
à¤°à¤µ à¤ķ
à¤¨ à¤¯
Ġà¤¸à¤« à¤²
à¤« à¤²
Ġà¤ķ à¤ł
à¤¸à¤² à¤®
à¤¤ à¤ľ
à¤¶ à¤°
Ġà¤īà¤ª à¤ļ
Ġà¤¸à¤¬ à¤ķ
à¤¤ à¤¤
Ġà¤® à¤Ī
à¤Ń à¤ķ
à¤ħ à¤°
à¤ĩ à¤®
à¤ī à¤¸à¤¨
Ġ201 6
Ġà¤¸ à¤¹à¤®à¤¤
Ġ4 0
Ġà¤¨ à¤®
Ġà¤Ń à¤µà¤¨
l e
Ġà¤īà¤¸ à¤®
à¤Ĥ ,
3 0
1 2
Ġà¤ª à¤ķà¤¡
Ġà¤ħà¤Ĺ à¤¸
à¤ĩ à¤ľ
Ġà¤ľ à¤¯
à¤Ĺ à¤¡
Ġà¤ªà¤° à¤µà¤°
Ġà¤ı à¤¡
Ġà¤ħ à¤¥à¤µ
Ġà¤ł à¤¹à¤°
Ġà¤Ń à¤²
à¥Ī :
âĢ ľ
à¤ķ à¤Ī
à¤¨ à¤Ĺà¤°
à¤ķ à¤®
Ġà¤Ĩ à¤ķà¤°
Ġ T
Ġ2 8
à¤¯à¤° à¤²
r o
à¤¤ à¤¬
Ġà¤ħ à¤¸à¤®
à¥ĩà¤Ĥ )
à¤ľ à¤¤
Ġà¥ ĺ
a m
Ġà¤® à¤¶
à¤° à¤Ĺà¤¤
Ġà¤ª à¤²
Ġà¤¬à¤ľ à¤Ł
Ġà¤ļ à¤¯à¤¨
Ġà¤ľ à¤¸
Ġà¤¬à¤¹ à¤¨
à¤ħà¤² à¤Ĺ
à¤ļ à¤¯
ĠâĢ Ļ
Ġà¤Ĺà¤ł à¤¬
Ġ /
Ġà¤Ĺ à¤¹à¤°
Ġà¤¤ à¤¨
Ġà¤Ĩ à¤ł
Ġ2 3
à¤§ à¤ķ
Ġà¤ªà¤°à¤µà¤° à¤¦
e d
à¥ĭ -
\ \
Ġà¤ľà¤¨ à¤°à¤²
Ġà¤ĩ à¤®
Ġà¤®à¤¹ à¤¸
Ġ3 1
à¤ī à¤¦
à¤¸ à¤ķà¤°
à¤Ī à¤ķ
Ġ2 6
à¥ĩ ?
à¤ĺ à¤¨
7 0
ĠâĢ ĵ
à¤¥ à¤°
à¤ª à¤¦
à¤¥ à¤ķ
Ġà¤®à¤¤ à¤²à¤¬
à¤¶ à¤µ
Ġà¤«à¤° à¤µà¤°
Ġà¤° à¤¬
à¤° à¤¥à¤®
Ġà¥ ¨
Ġà¤ħà¤¹à¤® à¤¦
Ġà¤¨ à¤ľ
Ġà¤ĩ à¤ļ
à¤Ł à¤µà¤°
1 8
à¤ī à¤Ł
à¥ĥ à¤Ĥ
Ġà¤Ł à¤¨
à¤¦ à¤¯
à¤¯ à¤Łà¤¨
Ġà¤ĭ à¤£
Ġà¤ķ à¤ķ
Ġà¤ĳ à¤¨à¤²
Ġà¤¸à¤² à¤®
Ġà¤Ĩà¤Ī à¤ª
Ġà¤ĩ à¤ľ
Ġà¤ī à¤°
Ġà¤® à¤£
1 1
Ġà¤¸à¤® à¤ķ
Ġà¤īà¤ª à¤ķà¤°à¤£
à¥Ĥ ,
Ġ s
Ġà¤Ĩà¤ª à¤¸
à¤ľ à¤§
Ġà¤ı à¤ª
Ġà¤ªà¤¦ à¤ķ
à¤ª à¤¶
Ġ2 7
à¤¨à¤¤ à¤®
à¤¡ à¤¸
Ġ G
Ġà¤¶ à¤ĸ
o m
Ġà¤Ľ à¤¤
à¤¯ à¤µà¤¹
Ġà¤¹ à¤ķ
à¤¤ à¤²
à¤ª à¤Łà¤¨
à¤Ĺ à¤ľ
Ġà¤¹ à¤¥
à¤ıà¤¸ à¤ª
à¤¼ ,
Ġà¤Ĩ à¤¬
à¤· à¤ľ
Ġà¤¦ à¤µ
Ġ D
à¤° à¤ļà¤¨
à¤¬ à¤¡
Ġà¤īà¤ª à¤°
1 5
à¤° à¤·
Ġà¤ħ à¤¡
à¤Ĩà¤Ī à¤Ł
Ġ201 4
à¤£ à¤µà¤¤
Ġ201 5
à¤¨ à¤ª
r e
Ġà¤Ī à¤°
Ġà¤ħ à¤¸à¤°
à¤² à¤¦
à¥Ģà¤Ĥ .
Ġà¤Ĺ à¤łà¤¨
1 7
à¥ Ļ
Ġà¤īà¤ª à¤Ń
à¤ļ à¤¤
Ġà¤ıà¤ķ à¤¤
à¤ķ à¤¹
Ġ H
Ġà¤Ĩà¤Ī à¤¸
Ġà¤Ĩ à¤ıà¤Ĺ
à¤¨ à¤¹
Ġà¤ĵ à¤²
Ġà¤ļ à¤²à¤¨
Ġà¤¶ à¤¹
Ġà¤ļ à¤ķ
Ġà¤ª à¥ľ
à¤ħ à¤¤
à¤Ł à¤¬
Ġà¤¨ à¤¤
Ġ2 9
à¤® à¤Ĺà¤°
Ġà¤ĵ à¤µà¤°
à¤ķ à¤¦à¤®
à¤¨ à¤¬
à¤® à¤ª
à¥ĭ .
Ġà¤¤ à¤Ł
à¤ľà¤¨ à¤ķ
à¤ª à¤¥
à¤¨ à¤ķà¤°
à¤° à¤µà¤°
Ġà¤¸ à¤ĸ
2 5
âĢ ¦
à¤® à¤§
1 6
c t
Ġ F
Ġ in
r a
in g
Ġà¤® à¤Ĺà¤°
Ġà¤ķà¤® à¤ľ
e l
Ġ6 0
Ġ c
Ġ3 5
à¤Ł à¤µ
Ġ3 2
Ġà¤ħ à¤¯
Ġà¤° à¤¦
Ġà¤ĩ à¤°
à¤ıà¤¸ à¤ıà¤¸
à¤¾à¥¤ "
Ġà¤Ĺ à¤µ
à¤¤ à¤ª
Ġà¤° à¤ľ
Ġà¤° à¤£à¤¨
à¤¾ âĢĻ
à¤¡ à¤ķ
2 2
Ġ19 9
à¤¡ à¤ķà¤°
à¤® à¤£
Ġà¤Ĩ à¤¹
t h
à¤¯ à¤¸à¤Ń
Ġ E
à¤¡ à¤µ
à¤Ĩà¤Ī à¤Ĩà¤°
Ġà¤¹ à¤«
à¤ļ à¤¤à¤®
à¤ľà¤¬ à¤ķ
à¤µ à¤¯à¤¨
à¤ıà¤® à¤¸
u s
à¤¿ -
à¤Ł à¤¤
Ġà¤Ķ à¤¦
à¤¸ à¤Ĺà¤¢
à¤² à¤ļ
Ġà¤ī à¤¤à¤°
Ġà¤Ī à¤¸
à¤¾ '
o l
¯ à¥
Ġà¤Ń à¤Ł
Ġà¤¶ à¤¤
à¥ ħ
Ġà¤ķ à¤ļ
.. .
à¥Ģ ?
u n
Ġà¤¯ à¤ķ
Ġà¤« à¤¸à¤²
a s
en t
à¤ĩ à¤ı
Ġà¤Ĩ à¤¦à¤°
1 4
à¤ĩ à¤¨à¤ķ
Ġà¤ķ à¤µ
Ġà¤Ń à¤Ĺà¤µ
à¤ĸ à¤ķà¤°
i s
Ġà¤ħ à¤µà¤¸
à¤¯ à¤°à¤®
Ġà¤¦ à¤®
o t
à¤¦ à¤¦
à¤ı à¤¶à¤¨
à¤ł à¤Ń
Ġà¤Ĺ à¤²
à¤Ĩ à¤°à¤¸
Ġ K
à¤Ĭ à¤¦
à¤ī à¤ª
Ġà¤¦ à¤¶à¤ķ
à¤Ī à¤¸
Ġ' '
à¤ĸ à¤ķ
Ġ7 0
âĢ Į
Ġà¤ĩ à¤¬
e t
à¤° à¤°
c h
à¤ı à¤Ł
Ġà¤§ à¤°à¤¤
à¤¨ à¤Ł
Ġ L
Ġà¤Ń à¤¯
Ġà¤® à¤ļ
Ġ8 0
à¥Ĥà¤Ĥ .
Ġ |
à¤¬ à¤ļ
à¥Ī )
à¥ §
à¤ı à¤¡
à¤¶ à¤®
Ġà¤Ĳ à¤¤
à¤°à¤¸ à¤¨
à¤¾à¤Ĥ ,
8 0
Ġà¤ħ à¤°à¤µ
Ġà¤¸ à¤¦à¤¨
Ġà¤¸à¤®à¤Ŀ à¤¤
à¤¯ à¤¶
à¤Ĩà¤Ī à¤ª
Ġà¤« à¤²
Ġà¤ĳ à¤ªà¤°
à¤¦ à¤¤
Ġà¤¶ à¤ªà¤¥
Ġà¤ķ à¤¸
Ġà¤ļ à¤¢
à¤¿ )
à¤ķà¤¤ à¤®
à¤Ĩ à¤¯
Ġà¤Ī à¤¶
à¤¼ à¥Į
Ġà¤ĵ à¤¡
à¥Ĥà¤Ĥ ,
à¤ıà¤¸ à¤Ī
Ġà¤µà¤¨ à¤¡
à¥Ģ '
Ġà¤ħà¤« à¤Ĺ
Ġà¤¸ à¤¸
à¤ĩ à¤ª
Ġà¤²à¤Ĺ à¤¨
à¤ıà¤¸ à¤¸
Ġà¤ıà¤¨ à¤¸
4 0
à¥ľ à¤ķ
u l
à¤² à¤Ń
Ġ201 3
à¤Ĺà¤² à¤µ
à¤ħ à¤ķ
M P
Ġà¤Ĩ à¤¸à¤ª
Ġà¤ĩ à¤®à¤°
à¤¼ à¥Ī
6 0
à¤ıà¤« à¤¸
Ġ O
i l
à¥ģ ,
à¥ ļ
Ġà¤® à¤¨à¤®
Ġà¤ª à¤¨
a y
Ġà¤ı à¤¡à¤®
Ġà¤° à¤ļà¤¨
Ġà¤¸à¤®à¤Ŀ à¤¨
à¤ª à¤ļ
Ġà¤¦ à¤¯
1 3
Ġà¤¬à¤¦ à¤²à¤¨
Ġà¤ľ à¤¡
Ġ5 00
Ġà¤Ĳ à¤²
o v
Ġ p
i v
à¥¦ à¥¦
Ġ201 2
Ġà¤¹ à¤¡
Ġà¤Ĩ à¤īà¤Ł
Ġà¤Ĩ à¤°à¤ķ
x a
à¥Ģ âĢĻ
i r
à¥į âĢĮ
à¤° à¤ķà¤°
Ġà¤ľà¤¨ à¤¸
Ġà¤ħ à¤ľà¤¯
Ġà¤® à¤ľà¤¦
ĠI n
4 4
Ġà¤Ĩ à¤Ń
u r
à¤¹ à¤¨à¤¤
à¤Ĩ à¤Ĺ
à¤Ĥ .
à¤ı à¤ľ
at ion
Ġ [
à¤ª à¤°à¤®
Ġà¤¸à¤® à¤¨
Ġ201 1
Ġ6 4
Ġà¤Ķ à¤¸à¤¤
Ġ V
Ġ W
Ġ U
Ġà¤µ à¤ļà¤¨
Ġ v
à¤¶ à¤¹à¤°
Ġà¤¨ à¤¸
a d
Ġ4 8
Ġà¤ĳ à¤Ł
à¤ıà¤¨ à¤¸
Ġ4 5
à¤¯ à¤¯
Ġà¤ī à¤ľ
Ġà¤ĵ à¤ªà¤¨
à¤Ĩà¤° à¤ª
à¤°à¤ķ à¤Ł
Ġà¤¦ à¤¤
Ġà¤° à¤®
à¤ī à¤®
à¤¿ à¤¼
Ġà¤ľà¤² à¤µ
Ġà¤ķà¤® à¤°
à¤ ĭ
Ġà¤Ĩà¤Ī à¤Ł
Ġ19 8
à¤Ĩ à¤¨
à¤¯ à¤£
à¤¯ à¤ľ
Ġà¤¸ à¤ªà¤¨
à¤ķ à¤Ń
Ġà¤¬à¤¨ à¤°
à¤ıà¤® à¤ıà¤¸
Ġà¤§ à¤®à¤ķ
Ġà¤Ŀ à¤Łà¤ķ
Ġà¤Ĩà¤ª à¤¦
à¤® à¤¹à¤¤
an d
à¤¸ à¤¹
à¤Ĩ à¤§
2 4
à¤ı à¤ª
âĢ ĵ
di a
i d
Ġà¤ľ à¤ľ
Ġà¤Ĩ à¤¸à¤®
à¤¼ à¤¾à¥¤
à¤ħ à¤¦
w w
Ġ3 6
i g
à¥ĭà¤Ĥ /
à¤ĸ à¤Ń
Ġà¤ĩ à¤¨à¤®
\ ""
Ġ t
Ġ3 7
à¤ħ à¤¸
Ġà¤Ĩà¤¯ à¤¤
Ġà¤ľà¤¨ à¤ľ
Ġ3 3
à¤¬ à¤°à¤®
Ġ9 0
à¤°à¤£ à¤¬
Ġà¤ľà¤® à¤ķà¤°
à¤Ī à¤ĵ
à¥Īà¤Ĥ :
à¤µ à¤¡
Ġà¤īà¤ª à¤¬
à¤¶ à¤¸
à¤¯ à¤§
Ġà¤Ĳ à¤ª
Ġ m
Ġà¤ªà¤° à¤¨
Ġà¤¶ à¤¨
à¤ļ à¤µ
2 3
âĢį à¤¿
à¥Ī -
à¤¶à¤¨ à¤ķ
à¤īà¤¨ à¤²
à¥Īà¤Ĥà¥¤ "
Ġà¤¸ à¤¶à¤ķ
à¤µ à¤¦
Ġ"" ""
Ġà¤ª à¥Ŀ
à¤¤ à¤ķà¤°
à¤ħ à¤¸à¤²
Ġ201 0
Ġà¤ıà¤ļ à¤¡
à¤ķ à¤¥
Ġà¤Ł à¤°
à¤¼ à¤¿à¤Ĥ
à¤ĸà¤¨ à¤Ĭ
Ġà¤ħ à¤Ł
Ġà¤ķ à¤µà¤°
à¤°à¤ķ à¤¤
Ġà¤ħ à¤¸à¤²
' '
Ġ7 5
à¥ĭà¤Ĥ )
Ġà¤ī à¤ªà¤¨
à¤ĩ à¤«
à¤ıà¤¨ à¤ıà¤¸
Ġà¤ıà¤¨ à¤¡
à¤Ĩ à¤®
Ġ )
à¤°à¤® à¤¶
à¤ı à¤Ĩà¤Ī
à¤¼ à¤¾,
à¥Ĥ )
à¤¶ à¤¯
à¤ī à¤ļ
à¤ī à¤²
Ġà¤¹ à¤¦
7 5
99 9
Ġà¤® à¤¸à¤²
Ġà¤Ł à¤ķ
Ġà¤² à¤ĺ
i a
à¤ķ à¤¤à¤°
Ġà¤¶ à¤¤à¤ķ
à¤ī à¤ªà¤°
à¤¯ à¤Łà¤ķ
Ġà¤Ĩ à¤ªà¤¨
Ġà¤§ à¤µà¤¨
à¤¼ à¥Ĥ
à¤ķ à¤²à¤¨
Ġà¤Ĺ à¤µà¤°
Ġà¤ĸ à¤¨
Ġà¤ħà¤µ à¤¶
à¤²à¤ļ à¤¸
à¤¯à¤² à¤Ł
à¤Ī à¤¡
Ġà¤ķ à¤®à¤²
à¤°à¤¦ à¤¸
à¤¨ à¤µà¤°
Ġà¤Ĩ à¤ªà¤°
à¤Ĩ à¤ĸ
Ġà¤ķà¤ª à¤¡
à¤Ĺ à¤¶
Ġ3 4
à¤¯ à¤¬
Ġà¥ ŀ
à¤Ł à¤ĩ
Ġà¤ıà¤ķ à¤®
Ġ20 21
Ġà¤¨à¤ķ à¤¦
Ġ o
Ġà¤¬ à¤ĸ
Ġ200 9
Ġ ?
à¤Ĺ à¤ł
Ġà¤® à¤®à¤¤
à¤² à¤¡
à¤® à¤®
à¤ Ķ
Ġà¤¯ à¤¥
à¥Ģ) ,
Ġà¥ ©
à¤Ń à¤µà¤¤
3 5
c e
Ġà¤īà¤¤ à¤¨
Ġà¤ı à¤Ĺ
m e
Ġà¤¬à¤¨ à¤¤
à¤Ĩà¤Ī à¤ı
à¤Ĺ à¤£
Ġ3 70
Ġà¤ľ à¤Ĺà¤¤
Ġ J
Ġ n
Ġà¤¬ à¤®
Ġà¤ļ à¤®
à¤°à¤¤ à¤²à¤¬
à¤¸ à¤¬à¤¸
Ġà¤°à¤£ à¤µ
Ġ15 0
à¤ħ à¤ļ
à¤ĩ à¤®à¤°
Ġ f
Ġà¤¬à¤¹ à¤¸
à¥Ģ /
o s
Ġà¤ĳ à¤°
Ġà¤Ĩ à¤ļ
9 0
à¥ Ĩ
à¤Ĺ à¤¦à¤°
Ġà¤ı à¤°
Ġà¤Ĩ à¤«
6 5
Ġà¤¬ à¤Ĺ
Ġ19 7
à¤® à¤¶
à¤ĩ à¤¬à¤°
à¤ļ à¤ķà¤°
p p
Ġà¤ª à¤Łà¤¨
Ġà¤ªà¤¹ à¤¨
Ġà¤ĵ à¤¬
Ġà¤¬ à¤ķ
à¤¸à¤® à¤¯
à¤£ à¤µ
à¤¶ à¤Ńà¤°
à¤Ĩà¤Ī à¤ıà¤¸
à¤Ĺ à¤ª
à¤ĸ à¤¦
à¤ĩ à¤µà¤°
5 00
Ġ b
à¤ıà¤® à¤Ī
Ġà¤°à¤ķ à¤®
Ġà¤¬ à¤°à¤¸
à¤¨ à¤ľà¤°
Ġà¤ıà¤« à¤Ĩà¤Īà¤Ĩà¤°
à¤Ł à¤ħà¤ª
2 6
à¤¦à¤° à¤Ĺ
à¥ ¨
à¤² à¤ľ
à¤¾à¤ģ ,
) à¥¤
Ġà¤Ĺ à¤¡à¤ķà¤°
à¤¯à¤¨ à¤¶
à¤ħ à¤Ĺà¤²
Ġà¤¸ à¤°à¤¦
à¤¸ à¤«
Ġà¤® à¤°à¤¨
à¤ĩ à¤¬
Ġà¤ķà¤² à¤°
à¤ĩ à¤ľà¤°
à¤¹ à¤¬
2 8
Ġ #
Ġ200 8
Ġà¤¬ à¤ļà¤¨
Ġà¥Ľ à¤°
à¤£ à¤®
Ġà¥§à¥ ¯à¥
Ġ3 00
ĠP ro
Ġà¤Ń à¤¡
Ġà¤° à¤«
à¤ī à¤¥
à¤¸ à¤¡
4 5
à¤ĳ à¤¸
Ġà¤ĩ à¤¶
Ġà¤¤ à¤¹à¤¸
2 7
Ġà¤Ķà¤° à¤¤
Ġ19 5
à¥Īà¥¤ """
à¤Ŀ à¤¸
à¤Ł à¤ķà¤°
à¥Ī !
201 7
à¤ł à¤²
ul t
à¤ª à¤¹à¤°
à¤Ĺ à¤Łà¤¨
Ġà¤ķà¤° à¤£
à¤² à¤Ŀ
Ġà¤² à¤¦
à¤Ĩ à¤µ
à¤¦à¤¨ à¤¶
à¤¿ .
e m
Ġà¤¦ à¤¶
à¤² à¤ª
4 7
Ġ X
Ġà¤ıà¤¯à¤° à¤ª
Ġ3 8
à¤ªà¤° à¤¸
à¤¶ à¤¬
Ġà¤ĩ à¤ķà¤Ł
Ġà¤² à¤®
Ġà¤ļ à¤¨
Ġ d
Ġà¤¸à¤° à¤²
à¤¦ à¤¶
u t
à¤Ĩà¤Ī à¤ıà¤®
à¤Ī à¤²
Ġà¤Ńà¤° à¤¨
à¤¶à¤ķ à¤¶
Ġv s
Ġà¤¨ à¤¬
2 9
à¤ħ à¤«
à¤¨ à¤ı
Ġà¤§ à¤®
Ġ19 6
Ġà¤Ĩ à¤ªà¤¤
Ġ4 4
Ġà¤ī à¤Ĺ
Ġà¤ĳà¤« à¤°
Ġà¤ħ à¤Łà¤²
Ġà¤ķ à¤¤
Ġà¤ħà¤ª à¤®
B I
Ġà¤Ĩà¤ķ à¤²à¤¨
Ġ4 9
Ġà¤¬à¤° à¤ķà¤°
à¥ «
à¤¹ à¤µ
a b
à¤° à¤¥
Ġà¤¬à¤ļ à¤¤
à¤£ à¤¸
à¥Ĥà¤ģ à¥¤
à¤ı à¤ı
Ġà¤¤ à¤Ń
à¤Ń à¤°à¤¤
Ġà¤² à¤ĸà¤¨à¤Ĭ
m i
Ġ6 5
à¤µà¤¸ à¤¨
I n
Ġà¤°à¤£ à¤¬
à¤· à¤§
e al
à¥į \\
Ġ4 3
Ġà¤ĳ à¤ķ
à¤¯à¤¤ à¤¨
à¤Ĺ à¤ķà¤°
à¤Ł à¤¸
Ġà¤¶ à¤°à¤£
à¤ıà¤¸ à¤¬
Ġà¤ıà¤ķ à¤²
Ġà¤ı à¤Ł
- -
Ġ &
à¤ıà¤¨ à¤¯
Ġà¤¦ à¤°à¤µ
à¤ıà¤¸ à¤¡
Ġ12 8
à¤Łà¤° à¤µ
Ġà¥ ļ
e w
Ġ5 5
Ġ h
o d
Ġà¤ħ à¥Ľ
à¤¾ !
à¥ĭà¤Ĥ à¥¤
Ġà¤¬ à¤°à¤¤
Ġà¤īà¤ª à¤ķ
r i
Ġà¤¶ à¤®
Ġ a
Ġà¤¨ à¤ľà¤¦
à¤£ à¤¤
Ġà¤ľ à¤¯à¤ª
Ġà¤ľ à¤Ł
à¤ĩ à¤¶
Ġà¤¸à¤® à¤Ĺ
à¤ĸ à¤£
à¤µ à¤°à¤ķ
Ġà¤Ľ à¤ł
à¤« à¤¨
à¤¶ à¤¦
Ġà¤Ķ à¤ªà¤ļ
Ġà¤ĸ à¤Ł
Ġ3 9
à¤Ľ à¤¡
Ġà¤ĩà¤¸ à¤°
Ġà¤Ńà¤° à¤ª
Ġà¥Ľ à¤®
Ġ \""
Ġà¤¡ à¤¬
à¤ĵ à¤¸
Ġà¤ıà¤® à¤ıà¤¸
Ġà¤ıà¤¸ à¤ª
à¤µ à¤®
Ġà¤Ĩà¤Ī à¤ı
t er
4 8
à¤Ľ à¤¨
à¤Ĩà¤° à¤¡
Ġà¤² à¥ľ
à¤ªà¤° à¤¨
Ġà¤ª à¤¬
à¤ıà¤¨ à¤ľ
Ġà¤¦ à¤¹
3 1
al a
Ġà¤ħ à¤¹
h ar
Ġà¤ªà¤° à¤¸
à¥ ª
Ġà¤ĳ à¤¡
Ġà¤Ĺà¤£ à¤°
u p
Ġà¤®à¤ķ à¤¸à¤¦
Ġà¤®à¤¹ à¤ľ
Ġ4 2
à¤® à¤ľ
Ġà¤ĳ à¤ª
à¥ĭ ?
"" ""
Ġà¤ħ à¤®à¤²
es ult
à¥¤ "
à¤ī à¤§à¤°
à¤· à¤µà¤°
Ġà¤¸ à¤¤à¤°
Ġà¤Ń à¤ķ
Ġà¤Ł à¤ķà¤°
Ġà¤¨ à¤·
on e
à¥Īà¤Ĥ -
Ġ4 6
ed mi
Ġà¤¸ à¤Ł
à¤ĩ à¤¤à¤¨
a g
à¤µ à¤Ń
Ġà¤¶ à¤°à¤¦
à¥ĭà¤Ĥ -
Ġo f
à¤§ à¤¡
Ġà¤ªà¤° à¤µ
u m
Ġà¤¸à¤¹ à¤ķ
I I
Ġà¤ĸà¤¤à¤° à¤¨
Ġà¤ĺ à¤¨
à¤ħ à¤ľ
P L
Ġà¤¬ à¤Ł
à¤¸ à¤Ł
Ġà¤®à¤¶ à¤¹
Ġ g
a p
à¤ı à¤¬
Ġà¤ıà¤ķ à¤ľ
Ġà¤ĭ à¤·
à¤· à¤ķà¤°
es t
à¤ ©
3 7
l i
Ġ +
Ġà¤Ĩà¤¯ à¤ķà¤°
ar t
à¤Ĩ à¤¸
Ġà¤Ĩà¤¨ à¤¨
Ġà¤¸ à¤¶à¤¸
Ġà¤Ń à¤¤
Ġà¤¬ à¤¸à¤ª
3 2
Ġà¤¥ à¤°
0 9
à¤¥ à¤Ĺ
3 8
à¤Ĺ à¤¸
à¥Īà¤Ĥ )
à¤Łà¤° à¤¸
Ġ4 7
5 5
Ġà¤ī à¤ķ
Ġà¤Ľ à¤µ
à¤ķ à¤¬
à¤ıà¤¸ à¤Ĩà¤Ī
à¤ĵ à¤Ĺ
à¤ı à¤¯à¤°
à¤ĸ à¤¬à¤°
Ġà¤« à¤°à¤®
Ġà¤īà¤¨ à¤ªà¤°
S E
Ġà¤Ķ à¤·à¤§
Ġà¤« à¤¡
Ġà¤® à¤Ľà¤²
à¥Ľ à¤°
Ġà¤ľà¤¬ à¤°à¤¦à¤¸
Ġà¤¸à¤« à¤°
Ġà¤°à¤¹ à¤®
Ġà¤ıà¤¡ à¤µ
at e
à¥Ī |
Ġà¤¨ à¤«
à¤ª à¤£à¤¨
3 9
Ġà¤° à¤¤
Ġà¤Ĺ à¤¢
3 6
à¥ ©
à¤Ĩ à¤µà¤ľ
à¤¤ à¤§
Ġà¤īà¤ª à¤§
Ġà¤Ĺ à¤¨
h an
à¤¬ à¤ľ
à¤¼ à¥Ģ,
à¤Ī à¤ª
Ġà¤ĺ à¤¡
Ġà¤ħà¤µ à¤Ĺà¤¤
à¤ĵ à¤²
à¤ħ à¤®à¤°
Ġ i
o g
à¤¦ à¤ª
Ġà¤¤à¤ķ à¤²
0 8
Ġà¤ı à¤¹à¤¸
Ġ200 7
à¤Ī à¤¯
a k
à¤¹ à¤Ł
Ġà¤ı à¤¬
Ġà¤¸à¤¤ à¤¤
0 5
à¥ĭ !
Ġà¤Ŀ à¤Ĺà¤¡
à¥ĩ :
à¥ģ -
âĢ ĭ
Ġà¤¡ à¤°à¤¤
Ġà¥ ª
Ġà¤Ĩ à¤®à¤¤
à¤Ī à¤Ł
à¤¯à¤® à¤¨
à¥Ī. "
Ġà¤ª à¤µà¤¨
à¤¹ à¤ª
Ġ4 00
m ent
4 9
Ġà¤ľ à¤¹à¤¨
à¤ı à¤µ
Ġà¤īà¤ª à¤ľ
à¤Ĩà¤Ī à¤¡
Ġà¤Ĺ à¤¡
e c
Ġà¤¨à¤µ à¤®
ar d
à¤ıà¤¨ à¤¡
Ġà¤¨ à¤¶
Ġà¤ĺ à¤Łà¤ķ
à¥ģ .
Ġà¤ħà¤ª à¤¡
Ġà¤ĺà¤Ł à¤ķà¤°
Ġà¤ī à¤Ńà¤°
à¤¦à¤° à¤ħà¤¸à¤²
8 5
à¤ªà¤° à¤µ
201 4
ct ion
Ġà¤µ à¤ľà¤¨
à¤Ĩà¤° à¤ıà¤«
Ġ20 00
Ġà¤¸à¤¤ à¤¹
9 5
à¤ħ à¤¸à¤®
à¤Ĩ à¤īà¤Ł
Ġà¤° à¤ļ
à¤Łà¤° à¤¨à¤²
er s
Ġà¤ĵ à¤®
Ġà¤¨ à¤¡
à¤ķ à¥ľ
à¤¤ à¤¸à¤°
Ġ5 6
à¤Ĺ à¤£à¤¨
201 8
h i
I D
Ġ5 4
à¤¾ à¥ħ
à¤¤ à¤¥
J P
à¤ı à¤¶
Ġà¤° à¤ľà¤¤
à¤¼ -
à¤¯ à¤Ń
à¤° à¤ľà¤¨
Ġ w
à¤Ī à¤ıà¤¸
Ġà¤¸ à¤Ĭà¤¦
à¥Ĥ .
Ġ5 1
201 6
à¤¦ à¤°à¤¤
Ġà¤¹ à¤¨
Ġà¤ļ à¤ª
à¤¯ à¤¥
Ġà¤Ľ à¤ķ
à¤¬ à¤ķ
Ġà¤¯ à¥ĺ
Ġà¤Ĩà¤° à¤¬
ic e
à¤¦ à¤Ń
n e
Ġà¤ķ à¤¦
à¤¹ à¤®à¤²
it y
à¤Ĩà¤° à¤¬
Ġà¤Ĩà¤ľ à¤®
Ġà¤ıà¤¯à¤° à¤²
Ġà¤Ĩà¤° à¤ıà¤¸à¤ıà¤¸
Ġà¤ī à¤®à¤°
à¤ķ à¤ķ
Ġà¤ľ à¤ĸ
à¤ıà¤¸ à¤ıà¤«
ĠâĢ ¦
à¤Ī à¤¦
Ġ5 2
I C
à¤ĩ à¤°
eal me
à¥ ®
ww w
à¥ ¬
à¤¨ à¤¡
Ġà¤ħà¤¸ à¤«à¤²
à¤¾ /
à¤¸à¤® à¤Ŀ
à¤Ĺ à¤ķ
Ġà¤ĳ à¤²
3 3
à¥ľ à¤¨
Ġà¤¦ à¤«
à¤ª à¤¬
à¤Ĩ à¤ĩà¤ı
4 6
Ġà¤Ĳ à¤ķ
à¤¡ à¤ª
à¤ıà¤® à¤ĵ
Ġà¤ĩ à¤µ
Ġà¤Ĩà¤Ī à¤¡
Ġà¤īà¤ª à¤Ĺ
à¥Ģà¥¤ "
% ),
Ġà¤ļ à¤¤
Ġà¤¹à¤® à¤¸
à¤§ à¤ķà¤°
Ġà¤Ĺ à¤£à¤¨
Ġà¤īà¤ª à¤®
à¤ĩ à¤ķà¤²
à¤¯ à¤Ł
Ġà¤ī à¤§
à¤Ĩà¤° à¤Ĩà¤Ī
à¥Ģà¤Ĥ )
Ġà¤Ĺ à¤¹à¤²
201 5
âĢĺ âĢĺ
Ġà¤ıà¤¸ à¤¸
à¤Ł à¤ª
Ġà¤µ à¤«
à¤Ī à¤°
Ġà¤ıà¤¸ à¤¡
Ġà¥ «
Ġ4 1
Ġà¤ħà¤ĸ à¤¬
0 7
à¤ª à¤µ
à¤¸à¤° à¤£
h a
à¥Ĥà¤ģ ,
à¤¿ à¥¤
Ġà¤ĩà¤¸ à¤¨
Ġà¤² à¤¹à¤°
à¤ķ à¤ħà¤ª
à¤§ à¤ª
à¤Ī à¤µ
ĠR esult
Ġà¤¶ à¤¶
à¤¨ à¤ļ
à¤ľ à¤«
à¤ĩà¤¨ à¤°
à¤¶à¤¨ à¤°
à¥ Ń
à¤¾ ),
Ġà¤ĸ à¤¨à¤¨
à¤¤ à¤¸
Ġ1 20
à¤¥ à¤¤
Ġà¤ħà¤« à¤¸à¤°
à¥ĩà¥¤ "
Ġà¤ĩ à¤ľà¤°
6 7
6 4
à¤¨ à¤µà¤¤
à¤Ĩ à¤ĩ
à¤ıà¤¸ à¤ı
à¤ıà¤ļ à¤¡
à¤¨ à¤Ĺ
à¤ª à¤¹
à¤µ à¤Ĺà¤¨
Ġà¤¬à¤¦ à¤®
à¤īà¤¨ à¤®
à¤¿ :
Ġà¤¹ à¤¸à¤¨
3 4
Ġà¤¬à¤¨ à¤ķà¤°
à¥ĩà¤Ĥ ?
Ġà¤ĩ à¤Łà¤²
Ġà¤¨à¤µ à¤ľ
à¥ĩà¤Ĥ :
à¤¾ à¤ĥ
i st
Ġ25 0
Ġà¤ª à¤¥
Ġà¤Ń à¤ľà¤¨
Ġ5 8
o p
o w
m a
S C
Ġà¤µ à¤ľ
Ġà¤ĸ à¥ľ
1 00
à¤ľ à¤¶
Ġà¤ħà¤² à¤°
à¤ıà¤® à¤Ł
à¤¨ à¤¶
à¤Ĩ à¤²
à¤ıà¤¨ à¤ı
à¤ĸ à¤¡
Ġ1 000
7 7
es s
à¤ĩ à¤Ĺà¤°
à¤® à¤°à¤£
à¤Łà¤° à¤ª
Ġà¤§ à¤°à¤¨
x y
Ġà¤¯ à¤¶
Ġà¤¨à¤¹ à¤°
Ġà¤Ĺ à¤¹à¤¨
ĠIn dia
Ġ20 22
à¤¼ à¥ĩà¥¤
à¤¹ à¤ľ
à¤Ĩà¤° à¤ıà¤¸
à¤ķ à¤ľ
Ġ6 6
à¤ķ à¤²à¤¤
0 1
Ġà¤Ĩ à¤¡à¤µ
à¤ĺ à¤µ
0 6
à¤¬ à¤¹à¤°
Ġà¤¬à¤¦ à¤²à¤¤
à¤£ à¤ķ
à¤¯ à¤°à¤¤
Ġà¤Ŀ à¤¡
à¤¹à¤° à¤¬
Ġà¤ªà¤° à¤¹
Ġà¤¸ à¥ľà¤ķ
à¤¯ à¤ľà¤²
à¤ľà¤¨ à¤¯
Ġà¤ıà¤¨ à¤Ĩà¤°à¤¸
à¥ģ à¤ĥ
à¤ĳ à¤«
à¤ķà¤° à¤¨
Ġ6 7
Ġà¤«à¤¡ à¤£à¤µ
Ġ200 6
à¤ħ à¤¯
Ġà¤Ĩà¤Ī à¤Ĩà¤Īà¤Ł
Ġà¤®à¤¤ à¤Ń
à¤² à¤«
20 20
Ġà¤ª à¤ł
8 8
à¤ŀ à¤ª
Ġ7 2
Ġ. ..
a v
Ġà¤ıà¤ķ à¤¡
à¤Ĩ à¤¦
à¤Ĩà¤Ī à¤ıà¤²
à¤¤à¤° à¤¦
ĠâĢ ĭ
à¤¶ à¤¹
A h
à¤¼ à¥ī
à¤ĸ à¤µ
Ġà¤ħ à¤µà¤°
Ġ5 9
à¥ °
Ġ5 7
e p
à¤²à¤Ĺ à¤Ńà¤Ĺ
Ġ6 8
à¤¾ ""
à¤ıà¤¨ à¤ıà¤²
l us
Ġà¤īà¤ª à¤¦
à¤Ń à¤²
âĢ Ķ
Ġà¤ķ à¤ļà¤°
à¤¼ à¤Ĥ
à¤ĵ à¤ª
Ġà¤ªà¤² à¤Ł
Ġà¤§ à¤¨à¤°
à¤ħ à¤µ
Ġà¤ĩà¤¨ à¤¸
à¤¯ à¤Ĺ
à¤ĵ à¤¡
Ġà¤ıà¤¸ à¤¬
Ġ th
Ġà¤ª à¤ļ
à¤¹ à¤Ĺ
Ġ200 5
i o
à¤ī à¤¡
Ġà¤®à¤¦à¤¦ à¤Ĺ
à¤¤ à¤Ĺ
Ġà¥ ¬
Ġà¤ĳ à¤¨
Ġà¤īà¤² à¤Ł
à¤¿ à¤ĥ
Ġà¤ħà¤ª à¤¹à¤°à¤£
ala xy
à¤µ à¤µà¤°
I PL
à¤Ł à¤¡
9 8
6 8
Ġà¤¹à¤° à¤Ĺ
Ġ7 4
à¤ħ à¤ĸ
a c
à¤¨ à¤ľ
à¤° à¤Ķ
Ġà¤² à¤²
Ġà¤¸à¤ķ à¤²
à¥į -
à¥ĺ à¤°
Ġ8 5
Ġà¤ħà¤¨ à¤¨
à¤¹à¤° à¤²
Ġà¤² à¤µ
à¤ĺ à¤ķ
Ġà¤ı à¤¥à¤²
Ġ5 3
à¤ŀ à¤¤
Ġà¤¯ à¤°
à¤ıà¤¸ à¤ıà¤²
à¤¥ à¤¶
ot e
à¤°à¤Ķ à¤¨
à¤¼à¥ĩà¤Ĥ :
à¤¾ à¥ĩ
20 19
0 4
S T
h one
9 7
â ĸ
Ġ12 5
à¤ıà¤¨ à¤ª
Ġà¤° à¤ĺ
Ġà¤Ń à¤Ĺ
Ġà¤Ĩà¤¦ à¤¤
Ġà¤ħà¤« à¤µ
à¤¬à¤¹à¤° à¤¹
à¤Ĺ à¤ªà¤¤
à¤ļ à¤¯à¤¨
Ġà¤ıà¤¨ à¤ª
à¤Ĺ à¥Ŀ
à¤ıà¤¨ à¤¬
c om
à¤¤à¤° à¤¸
Ġà¤Ĺà¤£ à¤®
Ġà¤² à¥ľà¤ķ
à¤Ī à¤®
à¥ĩ âĢĻ
à¤ł à¤¤
à¤° à¤ķà¤°à¤£
à¤¸à¤® à¤¸
Ġà¤ıà¤®à¤ıà¤¸ à¤ıà¤®à¤Ī
à¤ļ à¤°à¤£
Ã ¯
o k
à¤Ĩà¤Ī à¤Ĩà¤Ī
Ġà¤¬à¤ļ à¤ªà¤¨
Ġà¤Ĳ à¤¶
à¤µ à¤ļà¤¨
Ġ9 9
Ġà¤Ī à¤¡
Ġà¤ħà¤ķ à¤¬à¤°
à¤Ĩ à¤ķ
Ġà¤ħà¤µ à¤ķ
à¤ķ à¤µà¤°
Ġà¤¸à¤®à¤ķ à¤ķ
à¤ıà¤® à¤ı
Âł Âł
à¥ Ł
à¤® à¤ªà¤°
iv e
Ġà¤īà¤ł à¤¤
à¥ĩ '
à¤Ĩà¤° à¤Ł
Ġ e
Ġà¤Ń à¤°à¤¤
à¤Ĺ à¤®à¤¨
Ġ Y
à¤¼ à¥ĩ,
à¤īà¤¨ à¤¸
à¤¸ à¤¶
Ġ l
à¤ĩ à¤¡à¤°
Ġà¤ĳ à¤¯à¤²
à¤« à¤²à¤¤
Ġà¤ļ à¤Ł
ĠP M
à¤Łà¤² à¤°
à¤ıà¤® à¤ıà¤²
Ġà¤Ĺà¤£ à¤¤
6 9
Ġà¤¨ à¤Ĺ
Ġà¤ļ à¤°à¤®
Ġà¤ī à¤Ńà¤°à¤¤
à¥Ī à¤ĥ
Ġà¤¸à¤ļ à¤®
à¤¸ à¤ľ
à¤¬ à¤¯
Ġà¤¸ à¤Īà¤¦
à¤¬à¤° à¤¨
Ġ6 9
4 2
Ġà¤®à¤¹ à¤²
Ġà¤¬à¥Ŀ à¤¤
Ġà¤Ī à¤µ
à¤¯ à¤µà¤°
Ġà¤Ĩ à¤°à¤®
o c
) .
à¤®à¤° à¤¨
t t
Ġà¤¤ à¤ķà¤°
in di
à¤Łà¤¨ à¤°
à¤ª à¤¢
Ġ7 8
Ġà¤ĩ à¤¬à¤°
Ġà¤Ń à¤Łà¤ķ
à¤ĩ à¤¤
à¤ļ à¤®
Ġ9 5
6 2
à¤ĩà¤¸ à¤¨
à¤¨ à¤¸à¤¨
à¤ıà¤® à¤¡
Ġà¤ļ à¤®à¤ķ
à¤ıà¤ļ à¤ĵ
Ġà¤ī à¤ķà¤¸
ĠG alaxy
à ¦
à¤° à¤Ĺà¤°
à¤¤ à¤¹
ĠN ote
à¤Ń à¤ľà¤¨
à¤£ à¤ªà¤¤
Ġà¤ıà¤¯à¤° à¤Ł
an k
Ġ6 3
Ġà¤Ĩ à¤Ĺà¤°
à¥ ¯
à¤ĩ à¤«à¤²
à¥Ģ !
Ġà¤ī à¤Ľ
5 7
Ġà¤ĸ à¤ľ
à¤ļ à¤¸
Ġà¤¸à¤¹ à¤ľ
Ġ6 2
à¤ħ à¤¹à¤®
4 3
am s
Ġà¤¨ à¤°à¤¸
Ġà¤ĸ à¤²
Ġà¤ħ à¤¥
0 3
q u
m Ah
ĠN ew
g ov
ĠR edmi
4 00
Ġà¤°à¤ĸ à¤ķà¤°
à¤ıà¤® à¤Ĩà¤°
Ġà¤Ľ à¤ª
Ġ200 4
à¤¼ à¥Ģà¥¤
Ġà¤ĭ à¤¤
à¤Ĩ à¤¶
Ġà¤ĺ à¤¬à¤°
à¤¼ )
Ġà¤ķà¤¹ à¤²
à¤Ī à¤ľ
à¤ħà¤« à¤Ĺ
C C
à¥Ģà¤Ĥ ?
à¤ĵ à¤µ
E T
Ġà¤ªà¤° à¤«
Ġ7 7
un g
Ġ Z
ĠB JP
Ġà¤¹ à¤°à¤ķà¤¤
Ġà¤®à¤¹ à¤¬
à¤°à¤ĸ à¤ª
Ġ and
Ġà¤ĩ à¤«
Ġ7 3
5 8
Ġà¤¸à¤¹ à¤¨
Ġ7 1
Ġà¤Ĩà¤° à¤Ł
h e
os s
à¤Ī à¤¨
à¤ľ à¤Ń
à¤ıà¤® à¤ª
Ġ0 1
0 2
Ġ x
Ġ !
6 6
Ġà¤ķ à¥ľ
V ID
Ġà¤ĸ à¤ªà¤¤
à¤¸ à¤«à¤°
Ġà¤¤ à¤²à¤µ
à¤¦ à¤ķà¤¤
à¤ľà¤¨ à¤¤
à¤ıà¤« à¤Ĩà¤Ī
à¤ıà¤® à¤ľ
à¤ıà¤ļ à¤ª
Ġà¤¨ à¤®à¤ķ
à¤¸ à¤ªà¤°
Ġà¤¸ à¤°à¤¸
or t
Ġà¤® à¤Ľ
Ġà¤ħà¤¨ à¤²
à¥ ¯à¥
7 8
Ġà¤°à¤¹ à¤¸
Ġà¤¬ à¤ªà¤¤
Ġà¤ ·
Ġà¤¨ à¤²
Ġ"" "
a st
Ġà¤ľ à¤¶
Ġà¤ıà¤ķ à¤¦à¤®
Ġà¤² à¤¤
à¤Ĭ à¤£
Ġà¤¬à¤°à¤¤ à¤¨
Ġà¤ĸ à¤¦
4 1
à¤® à¤¬
Ġà¤ ¿
Ġà¤Ĩà¤¶ à¤¯
à¤ ±
Ġà¤¬à¤¨ à¤µ
à¤ıà¤® à¤ķ
Ġ( _
à¤Ĺà¤ł à¤¬
Ġà¤¤ à¤°à¤ķ
Ġà¤¨à¤« à¤°à¤¤
Ġà¤ª à¤Łà¤°
à¥ĩ !
u re
à¥ļ à¤®
9 6
f f
i m
Ġà¤® à¤²à¤¯
Ġà¤¡ à¤¬à¤²
Ġ k
à¤ĩà¤¸ à¤°
à¥Ī "
Ġ25 6
Ġà¤Ĺ à¤ľ
p s
Ġà¤¹ à¤°à¤¦
à¤ļ à¤¢
à¤¸ à¤µà¤°
à¤¬ à¤¢
à¤°à¤¤ à¤®
Ġà¤ľ à¤¸à¤ª
ĠS t
u b
Ġà¤² à¤¶
à¤Ŀ à¤ķà¤°
o b
Ġà¤ıà¤¸ à¤Ł
% )
Ġà¤ľà¤Ĺ à¤¦
ig h
Ġ r
à¤Ĺ à¤µà¤¤
à¥Ģ à¤ĥ
à¤ī à¤¸à¤®
Ġà¤° à¤ľà¤¨
Ġà¤ĵ à¤ª
à¤¬ à¤°à¤¦
Ġà¤ħà¤ª à¤²
à¤ħ à¤¡
à¤ıà¤¸ à¤¯
à¤Ń à¤¦
. "
Ġà¤® à¤°à¤®
à¤°à¤£ à¤µ
Ġà¥¨ à¥¦
à¤² à¤ªà¤¤
Ġà¤ľà¤¯ à¤¶
à¤ıà¤¨ à¤Ĩà¤Ī
à¤Ī à¤Ī
Ġà¤¥ à¤ķ
Ġà¤ħà¤ª à¤µ
Ġà¤¯ à¤®
Ġà¤ħà¤µ à¤²
Ġà¤¹ à¤°à¤¸
Ġà¤ĵ à¤µ
à¤¨ à¤«
Ġà¤° à¤¶
ig g
à¤Ń à¤¯
ĠH indi
à¤Ĩ à¤ªà¤¨
Ġà¤² à¤ķà¤¡
Ġà¤§ à¤ķ
ĠB o
in e
Ġà¤µ à¤²
Ġà¤ħà¤¸à¤® à¤°
Ġà¤Ĩà¤® à¤¦à¤¨
Ġà¤Ĩ à¤ĵ
Ġà¤ħà¤ķ à¤¸à¤°
Ġà¤Ĩà¤ļ à¤°à¤£
à¤¾. "
à¤¨ à¤¯à¤¨
) :
Ġà¤ª à¤¤à¤°à¤¸
Ġà¤Ń à¤Ĺà¤¤
Ġà¤¬ à¤¹à¤°
Ġà¤ķà¤° à¤¦
Ġà¥ ®
9 1
à¥ĩà¥¤ """
Ġà¥ Ń
Ġà¤« à¤¤
à¤µà¤² à¤ªà¤®
R C
à¥Ģ ""
Ġà¤¤ à¤¹à¤°
à¤ī à¤°
Ġà¤ı à¤¨à¤°
à¥ĭ :
A A
Ġà¤ķ à¤¤à¤°
ĠB oss
Ġ6 00
à¤ī à¤¡à¤°
à¤ħà¤¹à¤® à¤¦
à¤ĵ à¤ıà¤¸
Ġà¤®à¤¹ à¤®
à¤¸ à¤ıà¤ª
Ġà¤² à¤Łà¤ķ
Ġà¤ªà¤° à¤¦
à¥ĭà¤Ĥ ?
à¤¬ à¤¸à¤ª
7 2
Ġà¤īà¤ª à¤¹
Ġ200 2
Ġà¤¦ à¤®à¤¦
Ġà¤ļ à¤¹à¤²
Ġà¤°à¤ĸ à¤°à¤ĸ
à¥ĩà¤Ĥ -
Ġà¤¸à¤°à¤ķ à¤¶
Ġà¥§à¥ «
Ġà¤ıà¤¸ à¤ıà¤®à¤ıà¤¸
Ġà¤Ĩà¤Īà¤ı à¤ıà¤¸
à¤¦ à¤¹
Ġ â
Ġà¤¨ à¤ķà¤²
Ġà¤ªà¥ľ à¤¤
à¤Ĩà¤Ī à¤¬
e v
à¤Ĺ à¤¯
Ġà¤ħà¤ª à¤¶
Ġ7 6
Ġà¤Ĩ à¤ĩà¤¸
ams ung
à¤ķ à¤ļ
à¤® à¤ķà¤¤
Ġà¤Ī à¤ª
Ġ www
à¤¹à¤¤ à¤ķ
a in
Ġà¤Ķ à¤²
A T
Ġà¤ľà¤Ĺ à¤¨
Ġà¤¹à¤ķ à¤¦
à¤· à¤ª
M S
à¤Ĩà¤° à¤ı
à¤¬ à¤®
u d
à¤ıà¤« à¤ª
5 1
à¤¾à¥¤ """
l d
Ġ13 0
Ġà¤ķà¤¹ à¤ķà¤°
Ġà¤īà¤¸ à¤ªà¤°
Ġà¤ķ à¤¥à¤¨
/ /
Ġà¤¬ à¤Łà¤¨
Ġà¤¸ à¤¦à¤°
à¤¥ à¤¯
Ġà¤¦à¤® à¤ķà¤²
à¤Ĺ à¤Ī
en d
Ġà¤¦ à¤°à¤®
Ġà¤ªà¤¹ à¤¨à¤¨
Ġà¤ıà¤® à¤ı
Ġ8 1
I N
8 7
Ġà¤Ĩ à¤ĩà¤ı
Ġà¤ıà¤« à¤¡
à¤ĸ à¤²à¤¨
à¤ķ à¤£
Ġth e
Ġà¤ħ à¤ªà¤ķ
Ġà¤° à¤®à¤¨
à¤ĵ à¤®
à¤« à¤¬
Ġà¤µà¤° à¤¨
i f
8 9
Ġà¥§ à¥¦
à¤° à¤ļà¤²
Ġà¤ıà¤¨ à¤Ł
Ġà¤ķà¤®à¤² à¤¨
à¤ģ ,
B SE
Ġ6 1
5 6
à¤Ĳ à¤ª
à¤ħ à¤ªà¤°
à¤¬ à¤°à¤¦à¤¸
Ġà¤¸à¤° à¤ª
Ġà¤ªà¤ķ à¥ľ
à¤¸à¤¬ à¤ķ
Ġà¤ħà¤ľ à¤¹à¤°
Ġà¤ħà¤µ à¤®
Ġt o
à¤Ī à¤¶
Ġà¤¸à¤¹ à¤Ń
à¤Ĩà¤Ī à¤ľ
à¤® à¤Ī
à¤§ à¤®
à¤¡ à¤¯à¤¨
om i
h at
à¤Ĺ à¥ľ
à¤ıà¤¸ à¤Ĩà¤Īà¤Ĩà¤°
à¤ı à¤Ī
P hone
Ġà¤Ĩà¤Ī à¤ıà¤¸
à¤ħ à¤¶
5 2
à¤Łà¤° à¤«
Ġà¤® à¥Ľ
Ġà¤¨ à¤°à¤®
Ġà¤°à¤£ à¤¦
r ic
Ġà¤¨ à¥Ľà¤°
à¤¼à¥ĩà¤Ĥ -
Ġà¤ĩ à¤°à¤«
à¥į à¤¾
3 00
: //
Ġà¤¹ à¥ĺ
Ġà¤ī à¥ľ
O VID
an t
s e
à¤¸à¤® à¤°
à¤ Ļ
Ġà¤Ĩà¤ł à¤µ
Ġà¤ħ à¤¹à¤²
al l
9 2
à¤¶ à¤Ńà¤ķ
Ġà¤ıà¤² à¤Īà¤¡
8 6
9 3
Ġ re
à¤¸à¤¨ à¤²
Ġà¤Ĩà¤Ĺ à¤®à¤¨
Ġà¤ıà¤® à¤¸
Ġ8 4
Ġ200 1
7 1
a j
Ġ8 00
le ction
à¤¹ à¤¡
Ġà¤ħà¤¨ à¤¦
à¤ľà¤¨ à¤µà¤°
Ġ14 4
e ct
Ġà¤Ĩ à¤¡
8 3
Ġà¤® à¤¯
Ġà¤ıà¤¸ à¤¯
7 3
9 4
at h
à¤¶à¤¤ à¤ķ
or ld
d u
Ġà¤ħà¤« à¤°
à¤¡ à¤¤
à¤£ à¤ª
B igg
Ġà¤® à¤Ĺ
7 6
Ġ9 1
à¤¶ à¤®à¤¨
I S
Ġà¤Ĩ à¤ĩà¤¡
Ġ200 3
8 4
201 3
as e
Ġà¤¬ à¤¦à¤¨
5 3
Ġà¤ª à¤¥à¤°
à¤® à¤Ł
Ġà¤ıà¤ķ à¤¦
Ġà¤īà¤¤à¤° à¤¨
Ġà¤ī à¤Ń
à¤ĵ à¤¬
R ealme
an g
à¤¶ à¤²à¤¤
à¤ĳ à¤ķ
In dia
P M
à¤¸à¤² à¤°
Ġà¤ıà¤® à¤¬
ia omi
à¤°à¤¶ à¤¸
' ,
Ġ @
à¤¤à¤° à¤«
Ġà¤ķ à¤Łà¤°
à¤Ī à¤ħà¤¡
à¤°à¤¹ à¤µ
Ġà¤ªà¤° à¤¤
à¤¬ à¤¹à¤¨
à¤° à¤¬à¤²
à¤¹ à¤«
Ġà¤Ŀ à¤²à¤ķ
i k
Ġà¤ı à¤¨à¤ķ
R edmi
an ce
P lus
à¤° à¤¯à¤¤
à¤ĩ à¤Łà¤°
ĠP r
à¤ıà¤« à¤ĵ
Ġà¤ľà¤¨ à¤¹
à¤¥ à¤¡
à¤ħ à¤Ĺ
à¤Ĺà¤° à¤ª
A M
à¤· à¤°à¤¤
ne Plus
à¤Łà¤° à¤Ł
Ġà¤ħà¤Ł à¤ķà¤²
à¤¦à¤° à¤²
as s
à¤ĩà¤¨ à¤¸
à¤· à¤Ĺ
Ġà¤ĵ à¤¸
à¤µ à¤Ĺ
ĠNew s
Ġà¤¦à¤° à¤¬
Ġ8 3
am e
Ġà¤Ĺ à¤®
Ġà¤¸ à¤Ĺ
Ġà¤Ĩ à¤ī
Ġà¤ķ à¤£
Ġà¤Ľ à¤²
or e
Ġn ic
Ġà¤ħ à¤¸à¤¦
à¤§ à¤¶à¤¤à¤ķ
Ġà¤ıà¤² à¤ª
à¥ľ à¤ķà¤°
à¤® à¤ľà¤¦
Ġà¤¬ à¤ķà¤°
i es
à¤¶ à¤ª
Ġ10 5
Ġà¤ħà¤µ à¤¤
i i
Ġà¥§à¥ ¨
6 1
à¤ĵ à¤ı
à¤ıà¤¸ à¤ľ
7 4
à¥§ à¥¯à¥
id e
Ġà¤ľà¤¨ à¤¸à¤Ń
à¤ıà¤¸ à¤ıà¤®
6 3
an s
à¤ľ à¤°à¤¤
Ġà¤°à¤¹ à¤®à¤¤
Ġà¤ĩà¤¨ à¤ª
Ġà¤µà¤¹ à¤¨
201 2
Ġà¤ªà¤¹à¤² à¤µ
à¤¬ à¤§
8 1
Ġà¤Ĺ à¤°à¤®
Ġà¤ıà¤® à¤Ł
Ġà¤ıà¤¨ à¤ľ
ĠA n
Ġ- -
Ġà¤¸ à¤ľà¤¦
à¤ľ à¤ķà¤°
à¤¾, âĢĺâĢĺ
Ġà¤īà¤² à¤Ŀ
à¤¼à¤¾ .
5 4
Ġà¤ıà¤¨ à¤ıà¤ļ
ĠC h
i al
à¤¸ à¤¤à¤¨
à¤¾à¤Ĥ -
Ġà¤« à¤°à¤¹
âĢĻ ,
Ġà¤Ī à¤¦
Ġà¤ļ à¤ĸ
à¤īà¤¸ à¤¸
à¤Ńà¤Ĺ à¤µ
Ġà¤¨ à¤µà¤¨
Ġà¤¹ à¤Łà¤¨
à¤« à¤¤
à¤ıà¤« à¤Ł
Ġà¤¤à¤° à¤²
à¤¨ à¤ľà¤¨à¤ķ
Ġ8 2
Ġà¤Ĩà¤Īà¤ı à¤ıà¤¨à¤ıà¤¸
Ġà¤Ĩ à¤ĩ
s c
à¤« à¤¡
à¤¾ |
à¤ļ à¤¤à¤°
Ġà¤¤ à¤ĸ
à¥Īà¤Ĥ !
Ġà¤Ĩà¤° à¤ľ
à¤® à¤Ń
8 2
ĠE x
Ġà¤ľ à¤¹à¤°
à¤¤à¤° à¤ª
à¤ī à¤ľ
à¤¬ à¤Ł
à¤° à¥Ľ
Ġà¤ĩ à¤¤à¤°
ĠM i
à¤ı à¤°
à¤¤ à¤Ń
E D
r u
à¤² à¤ĸà¤¨à¤Ĭ
Ġ Â
Ġà¤Ĩ à¥Ļ
Ġà¥¨ à¥¦à¥¦
Ġ st
Ġà¤¦ à¤ĸà¤²
Ġà¤Ĩà¤Ī à¤ľ
à¤ĳ à¤¨à¤²
Ġà¤ļà¤² à¤ķà¤°
Ġ11 0
Ġ9 6
à¥Ĥà¤ģ .
o st
5 9
à¤°à¤¬ à¤¨
ĠâĢĭ âĢĭ
Ġà¤® à¤¦à¤¨
Ġà¤¬à¤² à¤µ
Ġà¤ĩà¤¸ à¤ªà¤°
à¤¬ à¥ľ
Ġà¤ķà¤² à¤ķà¤¤
à¤ľà¤¯ à¤ª
à¤¬à¤¦ à¤²
Ġà¤ª à¤¸à¤¨
I M
Ġà¤¹ à¤¬
Ġ5 000
ar y
à¤ľ à¤¯à¤¨
ĠR ealme
Ġà¤ĺ à¤®
> >
à¤¡ à¤°à¤¸à¤¨
à¤° à¤ł
à¤¤ à¤¦
à¤°à¤¦ à¤¤
à¤ħ à¤Ĺà¤¸
iv o
Ġ9 2
Ġà¤°à¤¹ à¤ķà¤°
à¤ī à¤ªà¤¯
Ġà¤ħà¤¬ à¤¤à¤ķ
Ġà¤² à¤ļ
7 9
à¥ĭ '
Ġà¤¤ à¤¹
à¤Ĩà¤Ī à¤Ĩà¤Īà¤Ł
u e
à¤¬à¤ľ à¤Ł
à¤¤ à¤¶
Ġ3 50
à¤ı à¤Łà¤°
à¤Ī à¤ı
Ġà¥§à¥ §
à¤Ń à¤ª
à¤Ĩà¤° à¤ıà¤¸à¤ıà¤¸
Ġà¤ £
Ġà¤ķ à¤·
Ġà¤Ĩ à¤®à¤¨
Ġà¤¬à¤¦à¤² à¤ķà¤°
Ġà¤Ĩà¤Ī à¤«
Ġà¤ħà¤ªà¤ķ à¤®
Ġà¤Ĺ à¤¦
à¤¼à¥Ģ )
à¤ıà¤® à¤Ĩà¤Ī
à¥ģ :
à¤° à¤¹à¤®
Ġà¤ļ à¤®à¤¤
ĠR s
Ġà¤· à¤¡
Ġà¥§à¥ ®
Ġà¤ħ à¤¯à¤¸
Ġà¤ıà¤® à¤ª
Ġ7 00
Ġà¤µ à¤¯à¤¸
Ġà¤¬ à¤¬
Ġà¤ĸ à¤£
à¤ľà¤° à¤²
à¤ª à¤°à¤ķ
Ġà¤¸à¤¹ à¤µ
Ġà¤§ à¤¡
à¤ª à¥ľ
o ur
à¤ĸ à¤¬
à¤¯à¤² à¤²
à¤ķ à¤«
à¤ķ à¤¦
à¤¸ à¤°à¤¤
Ġà¤¦ à¤£
Ġ8 8
à¤ķ à¤ķà¤°
à¤² à¤¬à¤°
à¤§ à¤¸
Ġà¤¸à¤®à¤Ŀ à¤¦
à¤¤ à¤¨à¤®
Ġà¤¨ à¤ķà¤µ
Ġ9 7
Ġ $
Ġ8 6
à¤ľà¤° à¤¨
Ġà¤ıà¤® à¤ĵ
Ġà¤¬ à¤µ
Ġ19 99
201 1
Ġà¤ıà¤¸ à¤Ĩà¤Īà¤Ł
Ġà¤ıà¤® à¤¡
Ġ9 8
à¥Īà¤Ĥ. "
à¤¯ à¤Ĺà¤¢
à¤ħ à¤®à¤¤
o un
à¤ıà¤¸ à¤ıà¤¨à¤ıà¤²
Ġà¤Ĩ à¤¯à¤°à¤²
Ġà¤ı à¤£
e x
à¤¶ à¤ĸà¤¬à¤°
à¤ĩ à¤ļ
S S
Ġà¤ı à¤Ĩà¤Ī
à¤¸ à¤Ĳà¤ª
p h
Ġà¥ ¯
Ġà¤ħà¤Ń à¤¯
Ġf or
à¤¼à¥ĩ -
Ġà¤ħ à¤®à¤¨
Ġà¤°à¤£ à¤ľ
à¥ĩ à¥ĩ
à¤ķ à¤®à¤¤
Ġ on
à¤¡ à¤«
"" ,
ic al
Ġà¤ľ à¤¯à¤°
à¤µ à¤¦à¤°
Ġh tt
Ġ >
Ġ Q
à¤§ à¤°à¤¨
Ġà¤¬à¥Ŀ à¤ķà¤°
Ġ7 9
Ġà¤¦ à¤®à¤¨
Ġà¤Ķ à¤¸à¤¤à¤¨
à¤® à¤ĺ
Ġà¤ıà¤¯à¤° à¤µ
Ġà¤ħà¤« à¤¸
à¤¾ à¤¾
Ġ9 4
Ġà¤ıà¤« à¤¸
à¥¦à¥¦ à¥¦
Ġ8 9
Ġà¤¹ à¤°à¤®
Ġà¤¤ à¤²à¤¬
à¤ĵ à¤µà¤°
à¤ı à¤Ĩà¤°
m it
99 0
Ġà¤īà¤¦ à¤¯
Ġà¤¸à¤® à¤¤
Ġ8 7
à¥ĭ âĢĻ
Ġà¤¦à¤¸ à¤µ
Ġà¤Ń à¤¦
is s
Ġà¤° à¤¤à¤¨
a i
à¥ĩ /
à¤ıà¤¨ à¤ıà¤ļ
à¥Ĥà¤Ĥà¥¤ "
o u
à¤¾, âĢĺ
à¤« à¤°à¤ª
Ġc on
à¥ĭà¤Ĥ .
A P
à¤Ī à¤ıà¤®
Ġà¤µ à¤¶
à¤² à¤ĸ
l y
Ġà¤¸ à¥Ľ
Ġà¤¹à¤° à¤Ńà¤ľà¤¨
à¤ĳ à¤ªà¤°
Ġà¤ī à¤¬
à¤®à¤¤ à¤¦
à¤¯à¤° à¤¬
à¤°à¤¨ à¤Ĺà¤°
Ġi Phone
à¤ļ à¤¡
ĠI I
Ġà¤« à¤²à¤¸
Ġ _
à¤² à¤Ł
à¤īà¤ª à¤Ń
à¤ľà¤¨ à¤°à¤²
Ġà¤ħ à¤¹à¤¸
Ġà¤Ĩ à¤°à¤¸
Ġà¥§à¥ ª
Ġà¤ıà¤¨ à¤Ĩà¤Īà¤ı
Ġà¤ı à¤ĸ
6 00
à¤°à¤Ń à¤¦
à¤ĩ à¤Łà¤²
Ġà¤ļ à¤¶
in d
à¤¸ à¤¬à¤°
à¤¡ à¤Ī
à¤µ à¤¸à¤®
Ġà¤Ĩ à¤¯à¤°
Ġà¤ı à¤¹à¤¤
Ġà¤¤à¤° à¥ŀ
à¤«à¤° à¤µà¤°
à¤ĥ ,
à¤¡ à¤©
ĠE n
Ġ =
Ġà¤¹à¤Ł à¤ķà¤°
Ġà¤¤à¤¸ à¤µ
Ġg ov
à¤® à¤®à¤¤
à¤ķ à¤¯
Ġà¤« à¤Ł
à¤°à¤ľà¤¨ à¤¨
à¤Ĩà¤° à¤ıà¤²
à¤¢ à¤¨
à¥Ģ (
Ġà¤ķà¤¹ à¤°
à¤¾) à¥¤
Ġ( )
it e
âĸ ¡
Ġà¤¤ à¤¡
S amsung
Ġà¤Ĩà¤° à¤ª
à¤¾. ..
Ġà¥§à¥ ©
Ġà¤ħà¤¸ à¤¹
Ġ18 0
Ġ10 8
à¤Ń à¤¨
il l
a w
Ġà¤īà¤ł à¤¨
Ġà¤¢ à¤ķ
e ch
Ġ {
A N
a x
Ġà¤Ĩ à¤Ł
U P
à¥ Ĭ
à¤¥ à¤ª
à¤· à¤¸
à¤ļ à¤²à¤¨
Ġ9 3
à¥ĩ. ..
à¤¤ à¤¯
à¤ī à¤ķ
à¤ıà¤¨ à¤Ł
à¤Ĺ à¤ľà¤¨
Ġà¤¹à¤² à¤«à¤¨
Ġà¤ª à¤Łà¤ķ
p d
Ġà¤¦à¤° à¤ħà¤¸à¤²
O S
ol d
à¤ıà¤¸ à¤Ĩà¤°
à¤¼à¥Ģ :
Ġà¤¨à¤Ĺà¤° à¤ª
Ġà¥ĺ à¤°
Ġ' %
Ġà¤¸à¤¨ à¤¸à¤¨
Ġà¤¸ à¤¨à¤°
Ġà¤ľ à¤¬à¤°à¤¨
Ġà¤ıà¤®à¤ı à¤ıà¤ļ
Ġà¤ľ à¤¦à¤¯
à¤ľà¤² à¤µ
Ġà¤¬ à¤¹à¤¤
8 00
Ġà¤¹à¤® à¤ķ
Ġà¤¬ à¤Łà¤²à¤°
à¤¯à¤° à¤§
Ġà¤ł à¤ª
Ġà¤¥ à¤®
Ġà¤ħà¤¨ à¤®
Ġ196 1
à¤ł à¤ķà¤°
à¤ķ à¤Ĩà¤īà¤Ł
à¤¨ à¤¹à¤°
Ġà¤µ à¤Ĺ
ing h
Ġà¤® à¤¥
à¥¤ """
à¤ĸ à¤Ł
à¤¤à¤ķ à¤¨
Ġà¤ļ à¤¡
à¤Ł à¤°à¤®
à¤ı à¤¬à¤²
Ġà¤ľ à¤¦
à¤° à¤Ĩà¤¨
Ø §
à¤¿ à¤¾
Ġà¤Ķ à¤±
I R
à¤Ī à¤ļ
Ġà¤¨ à¤¨
g e
à¤ĵ à¤ķ
Ġ16 0
Ġà¥¤ """
à¤Ĺ à¤®à¤¤
à¤®à¤² à¤µ
à¤¼à¥Ģ -
Ġà¥ĺ à¤¯
9 00
à¤ħ à¤°à¤¬
ĠC BI
Ġà¤°à¤ĸ à¤µ
Ġà¤ĵ à¤Ł
I A
à¤¤ à¤°à¤¤
Ġà¥§à¥ ¬
Ġà¤ľà¤² à¤®
à¤ıà¤² à¤ª
s p
Ġà¤ľà¤¨ à¤Ĺà¤£à¤¨
Ġà¤µ à¤¨à¤¸
à¥Ī. """
at es
à¤Ĩ à¤ł
Ġà¤Ĩà¤Ī à¤¬
ĠR e
Ġà¤Ĩ à¤¹à¤¤
Ġà¤ķ à¤ľ
Ġà¤ħ à¤£
Ġà¤° à¤¥
à¤¯à¤ķ à¤²
à¤ıà¤ļ à¤¸
Ġ %
.. ..
à¤° à¤¹à¤°
Ġà¤®à¤¨ à¤¸
ĠD ay
à¤ıà¤² à¤¸
Ġà¤ħà¤¸ à¤¹à¤®à¤¤
ation al
a ce
Ġ di
y a
à¤Ĩà¤Ī à¤ıà¤«
Ġà¤® à¤²à¤¬
Ġà¤ıà¤® à¤ıà¤¸à¤ª
à¥Ģ +
à¤µà¤¨ à¤¸
Ġà¤¨ à¤®à¤¨
à¤ĺ à¤²
ĠA d
b er
à¥ī à¤Ĥ
à¤ĺ à¤®
à¤ľ à¤ªà¤¤
Ġà¤ħà¤Ĺ à¤µ
Ġà¤« à¤Łà¤ķ
à¥ľ à¤¤
à¥ĭà¥¤ """
Ġà¥§à¥¯à¥ ¯à¥
à¤ĳ à¤²
A pp
S t
à¤µà¤° à¤ķà¤°
el l
ĠC up
a ch
li p
à¤ªà¤° à¤¹
à¤Ĺ à¤¬
Ġà¤¬à¤¹ à¤ķ
ĠC OVID
Ġà¤Ĩà¤Ī à¤ıà¤¨à¤ıà¤¸
à¥Īà¤Ĥ |
Ġà¤ĩà¤ķ à¤¬
à¤ħ à¤ľà¤¯
Ġ11 5
ĠH D
o h
Ġà¤ħà¤µ à¤ľ
B S
Ġà¤¦ à¤°à¤ķ
à¤Ľ à¤¹
à¥ĺ à¤¯
à¥ĭà¤Ĥ âĢĻ
à¤° à¤Ĺà¤¢
as h
or on
p r
à¤¸ à¤¯
Ġà¤ªà¤¦ à¤Ń
à¤° à¤¸à¤°
à¤¯à¤® à¤¸à¤¨
Ġà¤¬à¥Ŀ à¤¨
P S
Ġà¤¹ à¤²à¤ķ
à¤¤ à¤°à¤ķ
à¤Ł Ã¯
Ġ\"" """
à¤¸ à¤Ĺ
Ġà¤ıà¤®à¤ĵ à¤¯
a h
u al
Ġà¥§à¥ Ń
u st
à¤¿ âĢĻ
à¤µ à¤£
om e
ir us
Ġà¤ľ à¤²à¤¨
Ġ10 4
Ġà¤ı à¤¯
Ġà¤® à¤°à¤¤
à¥Ľ à¤Ĺ
à¤¬ à¤Ĺ
Ġ199 6
Ġà¤ıà¤® à¤ľ
à¤¾ (
à¤¾ âĢĿ
à¤ıà¤« à¤¡
Ġà¤® à¤Ŀ
Ġà¤¤ à¤«
Ġà¤ħà¤¨ à¤¸
à¥ĩà¤Ĥ ...
ĠPr ice
Ġà¤ľ à¤¯à¤²à¤²
Ġ j
z on
à¤Ĺ à¤Ł
à¤Ĩà¤Ī à¤µ
à¤· à¤ľà¤¨à¤ķ
Ġà¤ĩ à¤¯
Ġ14 0
à¤Ĩ à¤¬
ĠK han
k et
Ġà¤¦à¤¶ à¤®à¤²à¤µ
Ġà¤¦à¤¹ à¤¶à¤¤
à¤¸ à¤Ĺà¥Ŀ
Ġà¤ķà¤° à¤®
Ġà¤ĩ à¤Ł
Ġà¤ķ à¤¯
à¤¾à¥¤ à¥¤
à¤® à¤«
à¤¹ à¤²à¤¤
Ġà¤¬à¤¦ à¤ķ
Ġà¤ĩà¤¨à¤ķ à¤®
à¤¯ à¤¬à¤°
Ġà¥Ļ à¤¬à¤°
à¤¯à¤² à¤®
Ġà¤® à¤®
p t
à¤¨à¤µ à¤ľ
A I
P F
Ġà¤ĳ à¤²à¤°
Ġà¤¬à¤¦ à¤¤à¤°
à¥Ī. ..
Ġà¤īà¤ª à¤µ
o og
à¥į ,
à¤°à¤µ à¤£
Ġà¤ıà¤¸ à¤ı
Ġà¤¦à¤° à¤Ĺ
à¤¯à¤¤ à¤ķà¤°
Ġ199 8
k art
à¤° à¤¡
Ġà¤µ à¤¡
Ġà¤®à¤¤ à¤Ĺà¤£à¤¨
oog le
à¤¤à¤° à¤¹
Ġà¤¸à¤¬ à¤®
or m
lip kart
à¤¦ à¤ķà¤°
Ġà¤Ī à¤ķ
Ġ199 0
Ġà¤®à¤¹ à¤°
à¤¯ à¤¬à¤²
à¤ķ à¤®à¤²
Ġà¤ĺ à¤°à¤µ
à¤Ĭ à¤°
Ġà¤ľ à¤¨à¤ķ
ot o
à¤¯ à¤ķà¤°à¤£
à¤ıà¤¸ à¤ķ
Ġà¤īà¤ªà¤¨ à¤Ĺà¤°
Ġà¤¤à¤¬ à¤ķ
e f
Ġà¤¡ à¤ķ
ol og
ĠBo ard
o or
à¤² à¤ı
ĠI S
E E
Ġà¤ķà¤ª à¤²
Ġà¥Ļ à¤°
Ġa c
Ġà¤Ĩ à¤ķà¤¸
à¥Ĥà¤ģ ?
Ġà¤Ĩ à¤¸à¤¨
Ġà¤ĵ à¤ķ
à¤¡ à¤¸à¤¨
Ġà¤Ĺ à¤¶
Ġà¤ħ à¤ľà¤®
à¥Ī '
à¤ĵ à¤Ł
Ġà¤ļ à¥Ŀ
à¥ĩ à¥į
Ġà¤ī à¤·
à¤ıà¤¨ à¤Ĩà¤Īà¤ı
p l
à¤¾ à¥ĩà¤Ĥ
Ġà¤ıà¤® à¤ıà¤®
à¥Īà¥¤ ""
à¤ģ à¥¤
à¤¯ à¤«
Ġà¤¸à¤° à¤ªà¤°à¤¸
ĠP l
igh t
Ġ4 50
Ġà¤ľ à¤¸à¤µ
Ġc om
pp o
Ġà¤ª à¤ĸà¤µ
Ġà¤¶ à¤¸
à¤Ķ à¤¦
i le
Ġà¤ıà¤¨ à¤¬
Ġà¤ħà¤¨ à¤ľ
à¤®à¤¨ à¤Ĺà¤°
à¤¸à¤ķ à¤¤
Ġà¤¡ à¤°à¤¨
Ġà¤Ĩà¤ľ à¤ķà¤²
Ġà¤¨à¤ľà¤° à¤ħ
en s
à¤¼à¤¾ -
à¤ıà¤² à¤ı
av irus
à¤ľà¤Ĺ à¤¹
à¤ļ à¤µà¤°
Ġp ro
Ġà¤² à¤¹
CC I
U S
Ġà¤ªà¤° à¤¸à¤¤
à¤°à¤® à¤¨
Ġà¤Ķ à¤ľ
Ġà¤ªà¤Łà¤ķ à¤¥
à¤ħ à¥Ľ
Ġà¤ħà¤§ à¤°
à¤Ł à¤¯
à¤® à¤µà¤°
Ġà¤® à¤ł
Ġà¤¬ à¤¶à¤°
F C
à¤¸à¤¦ à¤¸
à¤ĳ à¤°
s s
à¥ī à¤ģ
à¤¡ à¤Ł
Ġà¤ªà¤¤ à¤²
Ġà¤ļà¤¯à¤¨ à¤ķà¤°
Ġ20 30
à¥Ī âĢĻ
à¤ľà¤¨ à¤²
à¤Ĭ à¤²
Ġà¤¸à¤ķ à¤¨
ma zon
à¤Ĭ à¤ªà¤°
à¤¾ âĢ¦
ĠS ingh
7 00
Ġà¤ł à¤Ĺ
à¤ķà¤° à¤¶
T E
à¤Ĩ à¤¯à¤ķà¤°
à¤¶à¤¨ à¤¶
Ġà¤¨ à¤µà¤°
Ġà¤Ł à¤²
à¤µà¤² à¤ªà¤°
Ġà¤ıà¤¸ à¤ıà¤¸à¤ª
à¤ıà¤® à¤¯
Ġ( ""
Ġà¤¸à¤¹ à¤¸
Ġà¤ľà¤² à¤¸
Ġà¤Ĩ à¤ĩà¤ª
à¤ĩ à¤ªà¤²
p ort
Ġ0 2
à¤Ĺ à¤µà¤°
à¤ľà¤Ń à¤µà¤¨
à¤Ĩà¤° à¤ĵ
ĠI PL
à¤¾ "
en ce
Ġà¤ļ à¤Łà¤ķ
à¤ķ à¤°à¤¤
o di
Ġà¤¯ à¤¤
Ġà¤Ĩà¤² à¤®
Â »
Ġà¤ľ à¤«à¤°
à¤® à¤¨à¤®
à¤¹ à¤¶
à¤¸ à¤Ĭà¤¦
D A
ar e
à¤Ł à¤¸à¤¨
à¤¨ à¤ĸ
âĢ¦ ]
C P
à¥Ľ à¤²
Ġ or
Ġ199 2
à¤ıà¤¸ à¤ĵ
Ġà¤ķ à¤¦à¤°
Ġà¤² à¤¯
Ġà¤Ī à¤¯à¤°
Ġ12 4
Ġà¤ļ à¤Łà¤°
à¤Ĩà¤° à¤ľ
ĠU pd
à¥Ģà¤Ĥ -
Ġ[ âĢ¦]
d à¤¯
à¤ıà¤¨ à¤Ĩà¤°à¤¸
à¥ģ )
Ġ3 000
p er
Ġà¤¸ à¤¦à¤®
Ġ y
Ġà¤Ł à¤®
à¤ıà¤² à¤¡
Ġà¤ĩ à¤ķà¤²
à¤ł à¤®
à¤ªà¤ķ à¤¡
-- --
Ã Ĺ
à¤² à¤¶
Ġà¤ªà¤° à¤ĸ
Ġà¤Ĩà¤Ī à¤ıà¤¸à¤Ĩà¤Ī
Ġà¤ļ à¤µ
oron avirus
ĠI C
f t
à¤ĵ à¤°
Ġ0 8
c on
Ġà¤¹à¤® à¤®
à¤¿ /
Ġà¤ªà¤¨ à¤¡
Ġà¤ļà¤® à¤¡
à¤ķà¤¤ à¤µà¤°
B JP
à¥ĩ ),
Ġà¤Ĭ à¤¨
ĠS C
b o
"" )
à¤¦à¤° à¤ľ
Ġà¤« à¤¹à¤°
) -
Ġà¤¬ à¤ĺ
od ay
à¤¯ à¤ļ
Ġ19 80
Ġà¤ªà¤² à¤Łà¤µ
à¥Ĥà¤Ĥ ?
Ġà¤® à¤µ
à¥į \
N ame
Ġà¥§à¥ ¯
à¤¿ '
t a
Ġ15 00
à¤¯ à¤ľà¤¨à¤ķ
à¤Ĺ à¤²à¤¤
Ġà¤Ĩ à¥Ľ
T C
Ġà¤¸ à¤ľà¤Ĺ
à¤¶ à¤ķà¤°
Ġà¤ħà¤² à¤µ
ĠEx am
à¤ķ à¤Ĺ
Ġà¤ľ à¤¨à¤®
un d
e ath
à¤Ĺ à¤¡à¤®
ĠB ank
Ġ199 3
E O
Ġ198 4
r y
à¤ł à¤°
à¤¯ à¤µà¤ķ
Ġà¤ı à¤¹à¤¦
ac k
à¤® à¤°à¤¤
Ġ( -
à¤ıà¤¸ à¤µ
Ġà¤ĭà¤· à¤Ń
Ġà¤Ĩ à¤ĺ
à¤ł à¤Ĺ
à¤ĳ à¤Ł
à¤Ĥ -
ĠU n
Ġà¤ī à¤ĸ
à¤ĺ à¤Ł
Ġà¤¬ à¤ľà¤°
à¤¹ à¤£
à¤¡ à¤Ĺ
à¤§ à¤°à¤£
à¤Ī à¤¬
Ġà¤Ĺà¤ł à¤ľ
Ġ199 1
Ġà¤Ī à¤Ł
à¥Ľ à¤¤
b le
Ġ197 1
à¤¨ à¤·
à¤ı à¤ıà¤²
200 9
/ -
ĠJ io
à¤ıà¤® à¤¬
e e
ĠâĢ İ
Ġà¤ªà¤¤ à¤¨
à¤¾à¤ģ )
ag e
à¤¸à¤° à¤¸
iss ion
Ġà¤ī à¤¬à¤°
i har
Ġ. .
201 0
Ġ0 6
à¤² à¤ĺ
ĠA l
à¤¦ à¤¶à¤¹à¤°
à¤ª à¤ķà¤°
Ġà¤ıà¤¯ à¤°à¤ķ
à¤² à¤¹à¤¨
Ġà¤Ĭ à¤¤à¤ķ
à¤¡à¤° à¤²
s h
à¤¸ à¤ĸ
à¤« à¤ķ
Ġà¤ľà¤¨ à¤°
ĠA pp
In d
à¤¬à¤¦ à¤¬
à¤¿ à¥į
à¤µ à¤ķà¤°
N U
à¤Ĩ à¤°à¤ķ
ĠO nePlus
à¤ĭ à¤£
i z
à¥ļ à¤°à¥Ľ
à¤ıà¤¨ à¤ıà¤ķ
X iaomi
ĠM e
à¤« à¤°à¤¨à¤Ĺà¤°
Ġ17 0
Ġà¤ħà¤µ à¤¤à¤°
Ġ0 5
Ġà¤ıà¤ķ à¤¸
ĠC M
à¤ķà¤° à¤ĺ
à¤ıà¤®à¤ıà¤¸ à¤ıà¤®à¤Ī
Ġ: -
Ġà¤ľà¤¨ à¤¨
e ar
Ġà¤¸à¤®à¤¯ à¤¬à¤¦
Ġà¤ıà¤ļ à¤¸
u k
Ġ0 9
à¤Ĩ à¥Ļ
ĠO ff
Ġà¤ĵ à¤ıà¤¨à¤ľ
el hi
à¤ıà¤® à¤ıà¤®
Ġ19 50
it ion
Ġ199 7
Ġ195 6
ĠC om
Ġà¤ķà¤¤ à¤Ī
Ġà¤¤à¤Ł à¤°à¤ķ
à¤Ĥ )
à¤Ĺ à¤°à¤£
Ġà¤¬à¤° à¤¬
Ġ0 3
à¤ĩ à¤§à¤°
à¤ıà¤² à¤ıà¤«
Ġ *
M C
à¤µà¤° à¤¨
Ġ199 5
à¤ķà¤² à¤ķà¤°
ra g
Ġà¤ı à¤ıà¤¨à¤Ĩà¤Ī
à¤µà¤ķ à¤ª
di an
m an
Ġà¤Ĩà¤¯à¤° à¤¨
Ġà¤ľ à¤¬à¤°
Ġ9 00
al e
Ġà¤ļà¤°à¤® à¤ª
200 8
à¤ĭ à¤·
Ġ30 2
Ġà¥ ¦
à¤ĩ à¤Ĺ
Ġà¤¥ à¤²
Ġà¤ħà¤® à¤°à¤¨
n ic
à¤Ĩ à¤®à¤¤
ic t
A R
à¤ľà¤® à¤¹à¤²
Ġà¤µà¤ļà¤¨ à¤¬à¤¦
is h
4 99
d à¤Ł
Ġà¤¶ à¤²
in dia
Ġà¤ĵà¤ªà¤¨ à¤°
à¤¸ à¤ĺ
à¤¶ à¤ľ
Ġà¤ıà¤ķ à¤¤à¤°à¤«
Ġ0 4
Ġà¤ĩà¤®à¤° à¤ľ
Ġà¤¦ à¤¬à¤¦à¤¬
à¤ľà¤¨ à¤¸
Ġ11 2
à¤ı à¤ıà¤¸
g r
Ġà¤¸ à¤¬à¤°
Ġà¤¤ à¤ª
Ġà¤¤ à¤®à¤¨
I P
Ġ10 7
Ġ1 19
à¤µ à¤¤à¤¨
Ġ4 000
ĠA r
Ġà¤ĩà¤¸ à¤¹
I V
à¥ĩ ""
Ġ12 6
à¤Ĺ à¤«
Ġà¤ħà¤¨ à¤ķ
er v
Ġà¥ĺ à¤¸à¤®
R O
Ġà¤ĵà¤µà¤° à¤¸
Ġà¤¨à¤ľà¤° à¤¬
à¤Ĺ à¤°à¤®
Ġà¤ıà¤¨ à¤ıà¤®
à¥Īà¥¤ âĢĿ
Ġà¤¦ à¤¹à¤²
à¤°à¤ĸ à¤£
Ġà¤² à¤°
ic s
Ġà¤¢ à¤²
at a
at er
Ġà¤¬ à¤Ĺà¤²
à¤Ī à¤ıà¤²
Ġà¤īà¤ª à¤®à¤¹
à¤° à¤Ł
à¥ĩ "
or d
Ġà¤ªà¤² à¤Łà¤¨
Ġà¥¨ à¥ª
ig n
à¤°à¤¨ à¤ª
Ġ11 4
à¤²à¤¯ à¤¨
Ġà¤īà¤¦ à¤¯à¤ª
Ġ19 47
Ġà¤¬à¤² à¤¬
Ġà¤ıà¤¯à¤° à¤¬
C h
à¤Ĺ à¤¨à¤µ
Ġ17 5
à¤ķà¤° à¤®
p e
à¥ĩ à¤¾
Ġà¤ĩ à¤¥
Ġà¤ľà¤² à¤ª
ar ia
à¤Ĩà¤Īà¤ıà¤¸ à¤ıà¤«
""" \""
Ã ĵ
Ġà¤ĩ à¤Ĺ
Ġ10 2
Ġà¤µ à¤§
es h
Ġà¤« à¤ľ
Ġ5 12
Ġà¤ļ à¤¹
Ġà¤łà¤¹à¤° à¤¨
hat s
r on
Ġà¤ª à¤Ľ
à¤ª à¤ªà¤¤
Ġà¤ħà¤¸ à¤«à¤²à¤¤
Ġà¤¦à¤° à¤ĸ
à¤¾à¤Ĥ )
ĠF IR
i x
à¤Ľ à¤°
à¤ķ à¤ĺà¤°
Ġà¤ħ à¤Łà¤ķ
à¤ı à¤²à¤¬
à¥į à¤¼
Ġà¥¤ )
Ġà¤ıà¤¸ à¤ľ
Ġà¤ĩ à¤§à¤°
Ġà¤¬à¤² à¤°
Ġà¤ĩà¤¨ à¤µ
à¥Ģ. ..
Ġ7 50
o od
Ġ10 9
ap oor
D I
à¥ĩ à¥ĩà¤Ĥ
Ġà¤¤ à¤ľ
à¤°à¤« à¤²
à¤ķà¤Ł à¤¤à¤®
g l
Ġ0 7
à¤¹ à¤ľà¤¹
à¥ĩ âĢ¦
à¤¬ à¤µ
à¤¯à¤ķ à¤µ
Ġà¤Ĩà¤īà¤Ł à¤ª
Ġà¤² à¤ĸ
à¤Ĺà¤¤ à¤¨
ĠT oday
à¤ķ à¤ł
Ġà¤¨à¤µ à¤¦
B C
à¤µà¤² à¤ª
à¤§ à¤²
à¥į à¥ĭ
Ġà¤ħà¤ª à¤Ĺ
Ġà¤¦ à¤«à¤¨
Ġà¤ĵ à¤²à¤®
Ġà¤Ĩà¤Ī à¤ıà¤«
ĠC on
à¤ĸ à¤¨à¤¨
Ġ37 6
Ġà¤ıà¤² à¤ľ
à¥Ģ. "
an a
à¤® à¤¸à¤¨
Ġà¤ı à¤®à¤ķ
at ch
Ġ2 30
Ġà¤Ĳ à¤¨
à¥ĩ à¤¼
ĠC ol
à¤ıà¤®à¤ĵ à¤¯
Ġà¤ļ à¤ļ
à¥Īà¤Ĥà¥¤ """
Ġà¤īà¤ł à¤ķà¤°
Ġà¤¸à¤¹ à¤ķà¤°
Ġà¤Ĩà¤ī à¤Łà¤²
à¤Ī à¤«
Ġ5 50
Ġà¤¢ à¤¹
C BSE
à¤¡ à¤¹
à¤Ĩ à¤ªà¤°
Ġà¤Ń à¤¸
à¤ħ à¤°à¤µ
à¤ıà¤ļ à¤ıà¤¸
à¤¹ à¤¯
Ġà¤ļ à¤°à¤µ
u g
Ġà¤¶ à¤¹à¤¦
Ġà¤ĩ à¤·
à¤ıà¤² à¤Ł
à¤ıà¤¨ à¤Ĩà¤°
Ġà¤¸à¤® à¤²
à¤°à¤¸ à¤µ
à¥ĩ. "
Ġà¤®à¤¦ à¤°à¤¸
IC C
o o
e le
à¤¸ à¤°à¤¦
Ġà¤ĵ à¤®à¤ª
Ġà¤®à¤¨ à¤¨
Ġà¥¨ à¥§
ĠW orld
ech n
Ġ198 6
à¤¾, '
Ġ10 6
à¤ľà¤¯ à¤µà¤°
Ġ10 1
à¤Ĥ à¥ĩ
à¤Ĩ à¤ı
ĠU S
Ġà¤®à¤¹ à¤«
Ġà¤Ŀ à¤Ĺà¥ľ
Ġà¤¬ à¤ł
Ġà¤ľà¤¬ à¤²à¤ª
Ġ10 3
Ġà¤¯ à¤¶à¤µ
Ġà¤ķà¤¬ à¤¡
ab le
à¤· à¤¯à¤ķ
à¤ľà¤ª à¤ķ
à¤« à¤°à¤®
ĠT V
à¤°à¤ķ à¤²
I T
à¤¸ à¤¦à¤¨
à¤¨ à¤ªà¤°
Ġà¤¸à¤®à¤¯ à¤¸
à¤Ĩ à¤µà¤¶
2 000
o y
à¤ª à¤°à¤¤
à¤ıà¤¨ à¤ıà¤¨
M O
en er
Ġà¥¨ à¥¨
Ġ198 9
r ans
à¤¼à¤¾ )
Ġà¤ĺ à¤¨à¤¤
V ivo
ĠAn d
à¤ĩ à¤ªà¤°
à¤¡à¤° à¤°
i e
Ġ6 50
à¤¨à¤¦ à¤¯
Ġ199 4
A D
n ap
à¥Ī âĢ¦
Ġà¤ī à¤§à¤°
C B
Ù Ħ
Ġà¤² à¤ľ
Ġ11 8
Ġà¤ı à¤¨à¤µ
olog y
ĠResult s
à¤ľà¤¨ à¤ľ
"""" """
à¥Īà¤Ĥ à¤ĥ
à¥Ĥ à¥¤
ĠF lipkart
H T
Ġà¤¹ à¤¨à¤¨
Ġà¤ĺà¤Ł à¤¤
Ġà¤¹à¤¥ à¤ķà¤°à¤ĺ
Ġ12 2
on d
Ġ11 7
à¤ıà¤¸ à¤Ĩà¤Īà¤Ł
ok ia
à¤¯ à¤Łà¤°
à¤Ĺ à¤«à¤²
Ġà¤µ à¤°à¤¦
Ġà¤īà¤ª à¤²à¤ķ
Ġà¤ħ à¤ĺ
Ġà¤¯ à¤ľ
i p
à¤Ľ à¤µ
Ġà¤¬à¤¹ à¤²
Ġà¤¸à¤®à¤Ŀ à¤ķà¤°
Ġà¤ħ à¤¥à¤ķ
à¤ħ à¤Łà¤²
à¤°à¤Ĺ à¤Ł
] ]
à¥Ģà¤Ĥ :
a il
à¤Ĩ à¤¦à¤®
Ġà¤ķ à¤Ĺ
Ġà¤ĳ à¤¬
Ġà¤®à¤¨ à¤ª
Ġà¤¬à¤ľ à¤ķà¤°
ĠS c
à¤°à¤¬ à¤¦à¤²
rag on
à¤² à¤²
Ġà¤« à¤¸
à¤¨ à¤¬à¤°
Ġ20 25
ĠC ard
Ġà¤²à¥ľ à¤¨
à¤¤ à¤«
Ġà¤ĸ à¤®
à¥Ļ à¤¬à¤°
à¤Īà¤ıà¤¸ à¤Ĩà¤°
à¥Ģà¤Ĥ !
à¤¯à¤® à¤¯
ÂłÂł ÂłÂł
Ġà¤īà¤¤ à¤°à¤¤
ĠX iaomi
A S
) )
nap d
Ġà¤ĩ à¤£
Ġ13 5
IN D
c y
à¤ıà¤® à¤ıà¤«
ation s
S BI
e b
Ġà¤®à¤¨ à¤°
l ine
Ġ14 5
or s
m art
Ġà¤¸à¤° à¤«à¤°
ĠE lection
Ġà¤īà¤ª à¤ª
ov id
Ġhtt p
à¥ĩ |
à¤µà¤° à¤®
Ġ198 8
à¤¯à¤¤ à¤¯
à¤¸ à¤¨à¤ķ
Ġà¤ĩ à¤ĸ
à¤Ŀ à¤ķ
Ġà¤Ĺà¤Ī à¤¹
it h
Ġà¥¨ à¥«
O C
à¤· à¤µ
t ra
O nePlus
napd ragon
ĠK apoor
Ġà¤ħà¤¶ à¤°à¤«
à¥ŀ à¤¤
12 8
. )
à¤ľ à¤µà¤²
à¤¥ à¤Ĺà¤¨
Ġà¤ı à¤¸à¤ķ
à¤Ĩà¤° à¤Ĩà¤°
Ġà¤Ĩ à¤ĩà¤Ł
200 7
Ġà¤ĸà¤Ł à¤ĸà¤Ł
Ġà¤¬à¤¢ à¤©
Ġà¤¬ à¤¦à¤°
à¤Ĺà¤² à¤ª
Ġà¤ķà¤² à¤®
à¤§ à¤µà¤¨
Ġà¤ħà¤µ à¤¯à¤µ
à¤¾ âĢį
à¤µà¤¨ à¤¶
Ġà¤¤à¤° à¤ľ
Ġà¤ª à¤Ľà¤¤
: -
Ġà¤® à¤¶à¤ķ
ĠS h
Ġà¤¸à¤° à¤Ĺà¤¨
à¥į à¤¿
Ġà¤ĸ à¤Ĺ
Ġà¤ıà¤¸ à¤ıà¤ļà¤ĵ
ĠS napdragon
Ġà¤¤ à¤µ
ĠâĢĺ âĢĻ
ĠT est
Ġ up
Ġà¤ªà¤¹ à¤¨à¤¤
à¤Ĩ à¤¨à¤¨
Ġà¤Ĩà¤Ī à¤Ĩà¤°à¤¸
a pp
i b
à¤Ł à¤Ĺ
ĠA mazon
C oronavirus
à¤Ĩ à¤¯à¤¨
Ġà¤ıà¤ļ à¤Ĩà¤Īà¤µ
à¥Ĥ âĢĻ
Ġà¤ı à¤µà¤°
Ġà¤ĳ à¤¨à¤°
Ġà¤Ńà¤° à¤ķà¤°
Ġ12 1
er n
à¤ıà¤¸à¤ıà¤² à¤µ
Ġà¥¨à¥¦ à¥§
à¤® à¤¸à¤®à¤°
ter n
l ass
Ġà¤® à¤Ł
à¤ł à¤µ
à¤® à¤¥
Ġà¤Ĩ à¤°à¤¤
Ġà¤ıà¤¯à¤° à¤«
ĠB S
à¤ı à¤¡à¤®
ide o
à¤¾ âĢĻâĢĻ
ĠU P
f o
à¤Łà¤° à¤²
à¤īà¤ª à¤§
Ġà¤ħà¤² à¤¬à¤¤
Ġà¤ħà¤ļ à¤²
s o
Ġà¤Ī à¤ľ
ĠA ir
iv ers
à¥ĭà¤Ĥ !
à¤¾, ""
Ġà¤ħà¤¨ à¥ĺà¤°
à¥ĩà¤Ĥ !
Ġà¤®à¤° à¤ľ
Ġà¤ı à¤¹à¤ķ
Ġà¤ľ à¤¯à¤¸
a ct
en g
à¤Ł à¤¨à¤®
e ad
Ġà¤®à¤¸ à¤²à¤¨
c c
Ġà¤ħà¤¨ à¤§
à¤¶ à¤ĸ
à¤ĩ à¤¡à¤²
Ġà¤¸à¤¤ à¤ª
C R
à¥ĭà¤Ĥ à¤Ĥ
e y
i ew
à¥Ģ âĢ¦
Ġà¤ĳà¤« à¤²
ĠP lus
à¤ĭ à¤¤
à¤¯à¤® à¤¶
à¤ľ à¤¹à¤¨
M I
à¥Ģ |
à¥Ĥ '
Ġ11 6
ĠT he
H O
à¤ıà¤® à¤¡à¤¬
Ġ198 7
Ġà¤ī à¤¬à¤°à¤¨
Ġà¤Ľ à¤¡
al ue
y st
Ġà¥§à¥¯à¥ ®
à¤ıà¤« à¤ı
Ġ198 5
à¤² à¤°à¤¶
Ġà¤ļà¤°à¤£ à¤¬à¤¦
Ġà¤®à¤Ĺ à¤§
à¥ĭà¤Ĥ '
à¥Ī ""
or k
ĠM odi
Ġà¤²à¤Ĺ à¤µ
Ġà¤¦à¤² à¤¹à¤¨
Ġà¤¶ à¤¹à¤¨
Ġ"" %
ĠV ivo
à¤ıà¤ļ à¤¯
Ġà¤ªà¤¹ à¤°
Ġà¥ŀ à¤°
w ay
à¤µ à¤ľà¤¹
à¤ľ à¤ķà¤¤
Ġà¤¹à¤² à¤ļà¤²
à¤ķ à¤¹à¤¤
à¤ħ à¤Ł
à¤Ŀ à¤®
ra d
Ġ at
Ġ19 70
à¤ľà¤¯ à¤µ
à¤¬ à¤ĸ
Ġà¤ıà¤ļ à¤ª
200 4
ĠO ne
Ġà¤¤à¤° à¤¸
Ġà¤ħà¤² à¤ķ
à¤¥à¤² à¤Ĺ
à¥ĩà¥¤ ""
Ġ15 3
Ġà¤ı à¤ıà¤¸à¤Ĩà¤Ī
Ġ4 20
Ġ11 1
Ġ Î
Ġ6 000
Ġà¤ĸà¤° à¤¬
à¤¶ à¤¶
à¤Ń à¤¤
ro l
m ission
Ġà¤¸ à¤°à¤¤
Ġà¤« à¤¨
à¤¯à¤° à¤ªà¤°
Ġà¤ıà¤¨ à¤ıà¤¸à¤ľ
Ġà¤ľ à¤ķ
Ġ20 24
Ġà¤¸à¤¬ à¤¬
à¤¼à¥ĩ .
r al
Ġà¤ı à¤¥
Ġà¤ħà¤¨ à¤Ĺ
Ġà¤ħà¤° à¤¶à¤¦
Ġ197 3
m m
Ġà¤ħ à¤Ľ
A C
Ġà¤® à¤°à¤ķ
ĠG oogle
à¤¦ à¤¡
Ġà¤ľà¤² à¤ķà¤°
ow er
Ġà¤² à¤ª
200 1
C om
à¤¾ à¤¼
Ġà¤īà¤ª à¤ĸ
Ġ2 20
à¤Ł à¤ľ
t el
a un
Ġ13 2
à¤§ à¤°à¤¤
à¥ĩà¤Ĥ à¤ĥ
Ġà¤® à¤ľà¤²
p ut
ar i
à¤¾ ]
er ala
W orld
à¥Ģ à¥°
Ġà¤ħà¤Ĺà¤° à¤ļ
à¤ıà¤« à¤ıà¤¸
Ġà¤Ķ à¤ļ
Ġe x
N D
à¤£à¤¤ à¤¯
Ġà¤ľà¤¨ à¤ª
" (
à¤Łà¤° à¤¸à¤¨
à¤°à¤¤ à¤²
à¤¸à¤® à¤¤
Ġà¤ľ à¤¯à¤¦
Ġ195 1
à¤Ń à¤Ĺà¤¤
à¥Īà¥¤ âĢĻ
a f
Ġà¥© à¥¦
Ġà¤¬à¤° à¤¨
t y
Ġà¤ĺ à¤¸
à¤īà¤ª à¤ļ
Ġà¤ Ĥ
à¤Ľ à¤ª
Ġ7 20
H z
Ġà¤¯ à¤®à¤¨
Ġhtt ps
à¤ĸ à¤®
à¥ĺ à¤¤
Ġ28 8
Ġà¤¦ à¤¶à¤¹à¤°
à¤¶ à¤ªà¤¥
à¤¨ à¤Ńà¤°
à¥ĩà¤Ĥ à¤Ĥ
Ġà¤ĩà¤¬ à¤°à¤¤
G old
l ic
Ġ17 4
IC I
A n
à¤¤à¤° à¤¨
âĢ İ
Ġà¤ª à¤£
à¤°à¤¤ à¤µ
à¤ķà¤Ł à¤¤
Ġ, âĢĺâĢĺ
ir st
aria ble
à¥Īà¥¤ à¥¤
Ġà¥ŀ à¤°à¤®
Ġà¤¬ à¤Ľà¤¡
à¤¬ à¤ª
ĠR aj
Ġà¤Ĩà¤« à¤¤
H ome
à¤¸ à¥ľà¤ķ
à¤Ŀ à¤¨
or y
hats App
Ġà¤Ĺà¤° à¤ľ
à¤® à¤¡
à¤¡ à¤¡
Ġà¤Ń à¤£
Ġà¤ıà¤¯à¤° à¤¸
Ġà¤Ī à¤ıà¤®à¤Ĩà¤Ī
à¤¤ à¤¨à¤¤
Ġà¤Ĭ à¤·
Ġà¤¸à¤« à¤¦à¤°à¤ľ
Ġ Ø
Ġà¤Ľ à¤®
à¥Ĥ :
à¤ĥ %
ĠP h
Ġà¤ħ à¤ł
Ġà¤ĸ à¤¯
Ġ19 48
Ġà¤ıà¤« à¤Ł
f orm
à¤¤ à¤«à¤°
à¤¾à¤Ĥ à¥¤
ĠG ST
Ġà¤Ĩà¤Īà¤ıà¤¸ à¤Ĩà¤Īà¤ıà¤¸
Ġà¤¸à¤¹ à¤¨à¤¶
à¤¯à¤¸ à¤µ
à¤Ĺà¤Ī à¤¹
à¤ıà¤Ĺ à¤ı
à¤Ĩà¤ľ à¤ķà¤²
200 5
à¥Ģ âĢĿ
à¤® à¤ķà¤°à¤£
Ġà¤¸à¤° à¤¨
g y
à¤ıà¤¸ à¤ıà¤¸à¤ª
eath er
à¤¾à¤Ĥ à¥ĩ
Ġà¤īà¤Ń à¤°à¤¨
1 50
Ġà¤ķ à¤«
Ġà¤¨ à¤®à¤¸
ĠN ar
Ġà¤ª à¤®
à¤¾ à¤¿
Ġà¤¸ à¤ĺà¤¨
yst em
Ġà¤ª à¤Łà¤²
à¤¶ à¤°à¤¦
à¤Ī à¤Ĩà¤°à¤Ł
Ġà¤¡ à¤Ł
Ġà¤ħà¤² à¤µà¤°
ĠI II
Ġ196 2
ĠUpd ates
Ġ18 2
g et
Ġà¤ıà¤¸ à¤ıà¤¸
Ġ is
à¤Ł à¤Ĩà¤īà¤Ł
Ġ197 6
E ET
Ġà¤¥ à¤ª
à¤Ŀ à¤¤
am p
) (
R BI
ĠI M
à¤¡ à¤¯
à¤®à¤² à¤¤
200 6
à¤ĩ à¤ķà¤°
Ġà¤Ŀ à¤°à¤¨
ĠA AP
N G
Ġ19 0
Ġ197 2
Ġ ra
Ġà¤ıà¤² à¤ıà¤®à¤Ł
T V
à¤Ł à¤°à¤ķ
Ġ(- )
Ġà¥¨ à¥©
à¤¥ à¤¸
Ġ19 60
à¤¤ à¤¦à¤¨
à¤ıà¤¨ à¤ıà¤¸à¤Ī
à¤°à¤ļ à¤²à¤¨
L A
à¤ľ à¤ľ
Ġà¤Ĩ à¤Ĭ
à¤°à¤ķ à¤®
ĠOff ice
à¤ĳ à¤¨
E C
Ġà¤ľà¤® à¤¶
ĠP ol
C AA
à¤ľ à¤®à¤°
Ġ11 3
à¤ıà¤ļ à¤ľ
Ġà¤¤à¤Ł à¤¸
esult s
à¤ĩà¤¸ à¤ªà¤°
à¤µà¤¨ à¤¡
ĠM ax
ut ion
D P
à¤Ĳ à¤¤
à¤ĳ à¤¡
ĠM ar
à¤Ĩ à¤ĩà¤¸
Ġ30 4
Ġà¤ħ à¤¦à¤¨
Ġà¤° à¤¡
Ġà¤ĵ à¤ıà¤¸
an c
ĠS p
à¤¤ à¤ĸ
à¤ı à¤ıà¤«
Ġà¤Ĺ à¤Ĺà¤¨
Ġà¤ªà¤° à¤Ĺà¤¨
à¤Ĩà¤Īà¤ıà¤® à¤¡
Ġà¤ķ à¤¸à¤°
Ġà¤ª à¤ª
Ġà¥¤ ...
Ġà¤ Ļ
à¤¯ à¤¨à¤ķ
à¤µ à¤¨à¤ķ
à¤ıà¤¨ à¤Ī
Ġà¤¬à¤¢ à¤¤
à¥ģ à¥į
C OVID
Ġà¤ķà¤ª à¥ľ
à¤ıà¤¨ à¤ıà¤«
Ġ12 3
Ĩ Ĵ
à¥ĺ à¤¸
Ġà¤¬ à¤°à¤¹
à¤Ĥ ?
à¤« à¤¹à¤®
' s
à¤µ à¤¯à¤ķ
Ġ12 00
in t
ĠBo x
à¤¯ à¤ľà¤¨
Ġà¤®à¤ķ à¤¬à¤°
Ġà¤¹à¤° à¤ª
is m
com m
Ġà¤¤à¤¸ à¤¬
Ġà¤ªà¤¥ à¤Ń
aun ch
Ġà¤¶ à¤«
O ppo
à¤¿ à¥ĩ
Ġ198 3
Ġ qu
à¤ł à¤¶
à¤Ń à¤µà¤¨
Ġ 00
à¤Ĩ à¤ªà¤¸
à¤Ľ à¥ľ
Ġà¤īà¤® à¤¡
à¤¾à¥¤ ""
Ġà¤ľà¤¨ à¤ªà¤¦
2 50
Ġà¤² à¤¸
Ġà¤ĩà¤¨ à¤«
âĸ ª
oc k
Ġà¤°à¤® à¤ľ
Ġà¤® à¤ķà¤°
Ġà¤ħ à¤ľà¤¨
ĠS amsung
à¤ļ à¤¬
à¤¯à¤° à¤¡
à¤¦à¤¨ à¤Ĺà¤°
S L
o us
Ġ14 7
Ġà¤® à¤ĸ
Ġâ ĨĴ
Ġà¤Ĩà¤Ī à¤ĵà¤ıà¤¸
à¤Ĩà¤° à¤ıà¤®
à¤¨à¤µ à¤®
Ġà¥ļ à¤°à¥Ľ
Ù ħ
Ġà¤īà¤²à¤Ŀ à¤¨
if ic
C A
Ġ3 60
à¤² à¤ķà¤¤
Ġà¥ĺ à¤¬
Ġà¤Ńà¤¯ à¤Ń
à¤µ à¤°à¤¤
à¤ı à¤¦
Ġà¤¸à¤° à¤²à¤¤
à¤ĩ à¤ĳà¤ķ
Ġ13 9
Ġà¤°à¤£ à¤§
at ive
Ġà¤ľà¤¨à¤® à¤¤
à¤µ à¤¶à¤ķ
Ġà¤ķà¤ª à¤Ł
em ent
à¤ į
à¤® à¤ķà¤°
à¤Ĩ à¤Ĺà¤°
ĠS har
St ep
Ġà¤¸ à¤īà¤¦
à¤® à¤¬à¤°
Ġà¤ħ à¤µà¤¹
à¤ıà¤« à¤¬
ot ter
à¤¡ à¤¶
Ġ le
Ġ14 9
à¤Ĩ à¤¸à¤®
à¤¯à¤µ à¤§
Ġà¤ı à¤²à¤¨
à¤¾. """
à¤¬à¤°à¤® à¤¤
du ct
à¤¹ à¤°à¤¤
Ġà¤ı à¤²à¤¬
à¤ķà¤° à¤¬à¤°
à¤² à¤ĺà¤°
Ġà¤īà¤ª à¤ķà¤°
Ġà¤ľà¤Ĺ à¤ľ
à¤ľ à¤¬à¤²
Ġà¤° à¤ªà¤Ł
ĠB CCI
à¤¤à¤¨ à¤ª
r am
à¤¸ à¤¡à¤°
à¤µ à¤¥
à¤µà¤° à¤ª
à¤° à¤°à¤ķ
à¤ı à¤ıà¤®
Ġ197 8
à¤Ī à¤Ĺ
à¤ĩà¤¸ à¤ľ
Ġà¤ĵ à¤ľ
à¤ķà¤Ł à¤µà¤°
ĠM P
eal th
Ġà¤ī à¤¥à¤²
à¥Ī âĢĿ
Ġà¤¬ à¤°à¤ķà¤¤
à¤« à¤¨à¤®
ĠR AM
à¤¾ à¥Ī
à¤Ĥ /
à¤¨ à¤ªà¤¤
Ġà¤¨ à¤Ĺà¤¦
à¤¼ à¥ĩà¤Ĥà¥¤
à¤Ł à¤®à¤°
Ġà¤¬ à¤ķà¤µ
ĠO n
à¤°à¤¦ à¤¨
à¤Ĩà¤Ī à¤ĵ
Ġ13 6
à¤ħà¤ķ à¤¬à¤°
n et
Ġà¤Ĩà¤Ĺ à¤ľà¤¨
Ġ13 8
à¤¨ à¤¸à¤°
à¤· à¤Ń
al i
Ġà¤¸ à¤¯
Ġà¤® à¤¦à¤°
à¤ª à¤¸à¤®
à¤· à¤¦à¤°
Ġ( %
Ġà¤ħà¤¦ à¤°à¤ķ
in al
T I
Ø ±
Ġà¤ħà¤° à¤°
e k
Ġà¤ħ à¤·
Ġà¤Ĩà¤¯ à¤¨
Ġ24 0
Ġà¤¹à¤°à¤® à¤¨à¤ª
d à¤¤
j ect
o ol
à¤īà¤¸ à¤«
ro id
ric ket
à¥ĩ à¤ĥ
à¤ıà¤¸ à¤¡à¤¬
Ġ12 9
Ġà¥ĺ à¤¦à¤®
Ġà¤¨ à¤°à¤µ
à¤¥ à¤°à¤¬
à¥Īà¤Ĥ. """
D M
U I
Ġà¤ıà¤¡ à¤µà¤°
à¤Ĺà¤£ à¤¤
e g
Ġà¤ª à¤²à¤ķ
N L
Ġà¤ı à¤Ĩà¤Īà¤ıà¤®
in ist
Ġ14 2
Ġà¤ıà¤² à¤¸
à¤¨à¤ķ à¤¦
Ġ195 2
à¤¤ à¤ĸà¤¤
Ġà¤Ĩà¤° à¤ıà¤¸
ĠS MS
à¤µ à¤¦à¤²
Ġà¤Ĩ à¤µà¤°à¤£
Ġà¤Ĩà¤Ī à¤Ĩà¤Īà¤ıà¤®
Ġ[ [
Ġ \\
à¤° à¤²à¤¯
à¤Ĩ à¤¸à¤ª
à¤Ĥ à¤Ĥ
à¤ķ à¤Ŀ
à ¸
Ġà¤Ń à¥ľà¤ķ
à¤¾à¤ģ -
à¤Ĺ à¤¹
à¤¸à¤¹ à¤¯
à¥¤ à¥¤
à¤ĸ à¤¸
Ġ12 7
Ġà¤ľà¤¨ à¤¶à¤ķ
ĠMe dia
d ing
à¤ľ à¤Ĺà¤¤
Ġà¤ľ à¤ĺà¤¨
Ġà¤ıà¤ķ à¤°
Ġà¤ĳ à¥ŀ
à¤īà¤ª à¤²à¤¬
Ġà¤° à¤¬à¤°
à¤°à¤¹ à¤²
II I
Ġà¤ķà¤° à¤Ĺ
Ġà¤« à¤Łà¤¨
Ġ19 75
D U
Ġà¤ĩ à¤¡
S P
T A
Ġà¤ħ à¤°à¤¸
ri me
à¤ī à¤ªà¤¨
à¤Ĩà¤Ī à¤ĵà¤¸
ĠM I
ob ile
Ġà¤¯ à¤¸
à¤£ à¤ķà¤Ł
à¤ĵ à¤¨
à¤ıà¤® à¤Ĩà¤°à¤¸
il ity
Ġà¤¤ à¤¦à¤¬
an n
à¤µ à¤¬
Ġà¤¡ à¤ļ
20 22
ĠQ ual
ĠCol lection
Ġà¤ħà¤Ń à¤¦
à¤ļ à¤ª
ĠR BI
Ġà¤Ĺà¤²à¤¤ à¤«à¤¹à¤®
ĠAd mit
Ġ13 7
à¤¼à¥Ģ .
à¤ıà¤² à¤Ĩà¤°
p ur
à¤ıà¤¸ à¤Ĩà¤Īà¤¸
à¤®à¤¨ à¤µ
200 2
t e
à¤ª à¤¸à¤¨
à¤ľ à¤¡
à¤² à¤Ĺà¤¤
Ġà¤¦ à¤²à¤¬
à¥Ģà¥¤ """
Ġ15 1
Ġà¤¤ à¤¸à¤¦
à¤®à¤¸ à¤²à¤¨
Ġà¤§à¤¨ à¤¶
ĠF or
Ġà¤Ń à¤°à¤®
otter y
ĺ »
à¤¹ à¥ĺ
on or
el i
à¤¸ à¤¦à¤°
Ġà¤īà¤ª à¤¬à¤¨
ĠS on
R S
Ġà¤Ń à¤Ĺà¤¦
Ġà¤Ĩà¤Ī à¤Ĩà¤Ī
v er
Ġ25 00
Ġ195 5
à¤¶ à¤Ĺ
à¤ħà¤ĸ à¤¬
""" (
Ġà¤¹à¤° à¤ľ
N B
Ġà¤¤ à¤Łà¤µà¤°
an i
ĠI P
Ġà¤Ĩà¤ĩà¤Ł à¤®
à¤°à¤® à¤¸
à¤¯ à¤¸à¤®
à¤¾, âĢĻ
Ġà¤ıà¤« à¤ª
à¤« à¤¸à¤²
à¥į .
Ġà¤¨ à¥Ľ
N S
p ro
Ġà¤Ĺ à¥Ŀ
à¤Ĩ à¤ĵ
L ED
à¤¸ à¤®à¤¨
à¥ĩà¤Ĥ âĢ¦
à¤¬ à¤°à¤¤
Ġà¤¤ à¤¦à¤¨
à¤£ à¤Ĺ
Ġ198 1
T S
Ġà¤ıà¤¸ à¤ıà¤¸à¤¸
Ġà¤ªà¤¹ à¤¨à¤ķà¤°
T he
à¤µ à¤Ńà¤°
Ġà¤¨ à¤Łà¤°
à¥Ĩ à¤Ĥ
Ġ197 7
à¤¬ à¤¦à¤®
à¤¤à¤° à¤®
Ġà¤Ĩà¤Ī à¤ıà¤¨à¤ıà¤ķ
or g
à¤¼à¥ĩà¤Ĥ à¤ĥ
à¤Ĩ à¤¹
à¤®à¤¶ à¤¹
à¥Ĥà¤ģà¥¤ """
H D
à¤° à¤ĺ
à¤ķ à¤®à¤°
Ġà¤« à¤µ
à¤Ŀ à¤ªà¤°
à¤Ĺà¤¡ à¤ķà¤°
à¤ıà¤¯à¤° à¤Ł
Ġd e
oun t
Ġ GB
à¤ľ à¤¤à¤¨
Ġà¤¬ à¤¶
à¥Ī? ""
à¤®à¤¤ à¤²à¤¬
à §
à¤¶à¤¨ à¤Ń
Ġà¤ĵ à¤Ŀ
à¤ıà¤« à¤ıà¤²
Ġ14 3
C S
à¤ķ à¤§
Ġà¥ĺ à¤¤
à¤ĩ à¤°à¤«
à¤Ĩ à¤ĩà¤¯
à¤¬ à¤Łà¤¨
Ġà¤ī à¤Ľà¤²
Ġà¤¶ à¤®à¤¶
Ġ10 80
ĠN W
Ġà¤¬ à¤¸à¤¨
à¤ĩ à¤Łà¤¨
it al
echn ology
à¥ħ à¤¾
à¤ī à¤®à¤°
à¤ª à¤ł
Ġà¤¹à¤® à¤ªà¤°
Ġà¤ĵ à¤¶
à¤®à¤ķ à¤¥
à¤¹ à¤¥
Ġà¤¡ à¤¸
Ġà¤®à¥Ľ à¤¬
M e
ï »
Ġ35 4
D R
à¤ķ à¤Łà¤°
à¤¨à¤° à¤²
à¤¯à¤µ à¤¶
à¥¨ à¥¦à¥¦
b ps
à¤Ľ à¤ł
re e
ik a
Ġ ad
à¤® à¤ĸ
Ġà¤¸à¤¬ à¤¨
Ġà¤ĵ à¤µà¤²
Ġà¤ļà¤® à¤ķà¤¤
Ġà¤ħà¤® à¤°à¤ľ
ra ft
Ġ198 2
Ġ13 1
Ġ17 6
ĠL ottery
Ġà¤¹à¤° à¤«à¤¨à¤®
Ġà¤ıà¤² à¤ıà¤¨à¤ľ
Ġ16 5
J NU
Ġà¤Ĺ à¤¹à¤¨à¤¤
Ġà¤ħà¤¨ à¤µà¤°
ĠN RC
Ġà¤ħà¤¸ à¤¤
Ġà¤§à¤¨ à¤ĸà¤¡
Ġà¤¤ à¤¦
T P
à¤® à¤ľà¤¬
Ġà¤Ŀ à¤ľ
Ġà¤ıà¤¨ à¤«
Ġà¤ıà¤² à¤Ł
à¤Ĥ :
Ġà¤ıà¤¨ à¤ıà¤¸à¤ıà¤¸
us h
Ġà¤ħ à¤¬à¤°
l a
in a
à¤Ĺà¤£ à¤ķ
Ù Ĩ
à¤Ĺ à¤ĩà¤¨
Ġà¤ľ à¤°à¤¦
Ġà¤§ à¤¬
ĠC AA
Ġà¤ĵ à¤¹
Ġà¤®à¤¨ à¤ľ
ist an
ï» ¿
M R
l ight
ar n
Ġà¤Ĩ à¤µà¤°
à¤²à¤¨ à¤ķ
Ġà¤®à¤¨ à¤¦
Ġà¤ķ à¤Łà¤ķ
Ġà¤¸ à¤¹à¤°
Ġ16 6
à¤ªà¤¹ à¤ļ
Ġà¤¨ à¤°à¤ķ
ru ct
K erala
à¤® à¤¦à¤°
e ep
Ġà¤ı à¤¤
à¤ıà¤¸à¤ıà¤¸ à¤¸
Ġà¥Ļ à¤¤
ic ro
r it
à¥ĩà¥¤ à¥¤
id ent
1 20
Ġà¤° à¤¨à¤µ
à¤ĩ à¤°à¤¸
à¤°à¤¸ à¤¤
ĠR ec
ha h
ĠPl ay
Ġà¤Ĳ à¤¡
Ġà¤ª à¤ĸ
Ġà¤¤ à¤µà¤ľ
ar a
Ġ8 55
u c
Ġà¤Ĩà¤Ī à¤ĵà¤¸
ĠS BI
Ġp l
Ġà¤« à¥Ľà¤²
Ġà¤ıà¤¨ à¤Ĩà¤Īà¤Ł
Ġà¥§à¥¯à¥ Ń
at ed
à¤īà¤ª à¤¬
A l
i re
m er
Ġà¤¹ à¤ł
à¤ļ à¤²à¤°
Ġà¤¶à¤¹ à¤ľ
v ent
Ġà¤¸à¤° à¤ľà¤®
ĠI CC
à¥Ī """
Ġ15 5
Ġà¤Ĩà¤¬ à¤ķ
ĠL ive
à¤¬à¤ļ à¤ªà¤¨
à¤Ī à¤¹
200 3
à¤ª à¤ª
hi p
ud get
ivers ity
Ġà¤¦à¤° à¤ľ
Ġà¤Ķ à¤ªà¤¨
Ġà¤ªà¥ľ à¤¨
ĠO DI
Ġ195 7
à¤ļ à¤Ł
à¤ıà¤¨ à¤ıà¤®
b i
à¤° à¤ªà¤°
à¥Ģ âĢĻâĢĻ
à¤ľ à¤ĺ
ĠS ale
od e
J EE
à¤Ĩ à¤ľà¤®
A s
à¤¤ à¤¨à¤ķ
à¤® à¤°à¤¸
Ġà¤® à¤°à¤£
à¤Ń à¤®
Ġ19 65
à¥Ī ),
Ġà¤° à¤®à¤£
Ġà¤ıà¤¨ à¤ıà¤¸à¤Ī
à¥ĩ ]
ex t
à¤ļ à¤°à¤²
à¥ĩà¤Ĥ ]
Ġà¤ľà¤¨ à¤¸à¤®
Ġ13 4
i me
Ġà¤ħ à¤µà¤¨
à¤ļ à¤²à¤¤
Ġ14 8
A r
Ġà¤ķ à¤Ľ
B ihar
à¤ı à¤ķà¤¤
à¥Īà¤Ĥ. ..
ĠS ch
ro m
P P
à¤ĸ à¤ª
à¤ıà¤Ĩà¤Ī à¤ıà¤®
à ®
Ġ2 70
à¤ģ .
à¤ıà¤¨ à¤ıà¤¸à¤ıà¤¸
ion s
b h
à¤¯ à¤·
à¤® à¤Ĺà¤¢
à¤¼ à¤¾à¤Ĥ
à¤¸à¤¨ à¤°
à¥ĩà¤Ĥà¥¤ "
Ġ197 4
à¥ŀ à¤¸
Ġ19 49
ank a
Ġà¤« à¤ľà¤²
Ġà¤ıà¤µ à¤ľ
Ġà¤ķ à¤¸à¤®
à¤° à¤¥à¤²
à¤· à¤°à¤£
à¤Ĩà¤Īà¤ı à¤ıà¤¨à¤ıà¤¸
à¤¬ à¤¬
à¤®à¤¦ à¤¦
Ġà¤ªà¥Ŀ à¤¨
Ġà¤ľ à¤²à¤¤
à¤ıà¤®à¤ıà¤² à¤ı
h tt
Ġà¤ľ à¥ľ
à¤ĸ à¤°à¤¨
Ġ3 20
ĠB l
ak e
à¤ı à¤ĵ
Ġà¤Ń à¤°à¤£
Ġà¥¨ à¥®
ou th
n d
Ġà¤¤ à¤Ĺà¤¡
à¤¥ à¤°à¤¸
o C
Ġà¤ļ à¤¬
à¤Ĳ à¤ķ
à¤¦à¤® à¤ķà¤²
à¤²à¤Ń à¤Ń
Ġ18 00
Ġ197 9
Ġà¤ľà¤² à¤Ńà¤°
Ġà¤¬à¤° à¤ª
à¤Ł à¤¹
Ġâ Ĥ
Ġà¤°à¤ķ à¤¬
ĠM an
âĢį à¥į
ĠD ate
App le
à¤ıà¤ļ à¤ı
y s
à¥Ľ à¥Ļ
Ġà¤ī à¤«
ĠâĢĻ âĢĻ
ed ict
E AD
Ġà¤ª à¤¦à¤¸
Ġà¤Ĩ à¤ĩà¤²
à¤Ĩà¤Ī à¤ıà¤¨
à¤µà¤¤ à¤®
à¤¼ .
à¥ī ,
M i
u j
à¥ĩ âĢĿ
Ġp r
Ġà¤ª à¤¨à¤¬
ĠM ain
ĠF irst
Ġà¥§à¥¯à¥ ª
r or
à¤® à¤ļà¤¨
à¤Ĺ à¤¹à¤°
à¤¶ à¥Ļà¤¬à¤°
Ġà¤ıà¤® à¤Ĩà¤Ī
at ure
à¤Ĺ à¤ļ
Ġà¤ªà¤° à¤ľ
à¤Ĺà¤² à¤ķ
% ,
Ġà¤®à¤¨ à¤µ
ĠP re
Ġà¤ĭà¤£ à¤¦
ast han
a z
à¤ªà¤² à¤Ł
Ġà¤¨ à¤µà¤²
Ġà¤ħà¤¦ à¤²
à¤Ĳ à¤¶
Ġà¤ľ à¤ķà¤¡
12 5
Ġc h
à¥Ī) à¥¤
Ġà¤Ńà¤Ĺà¤¦ à¤¡
Ġ18 8
Ġà¤ķà¤¸ à¤°à¤¤
Ġ à¦
Ġ15 4
ĠP ay
e i
à¤° à¤¬à¤°
à¤« à¤Ł
à¤°à¤¸ à¤ķ
Ġ16 4
Ġ22 4
C BI
à¥Ģ ]
à¤ª à¤ľ
à¤µà¤° à¤ļ
à¤Ĩà¤Ī à¤Ĩà¤°à¤¸
ĠA ss
â Ĥ
à¤Ĭ à¤¸
ĠShar ma
à¤Ł à¤Ł
à¤Ī à¤ıà¤«
à¥ĭ ...
Ġà¤ıà¤ķ à¥ľ
à¥Ľ à¤¨
han t
à¤Łà¤¨ à¤°à¤¶
Ġà¤ıà¤² à¤Ĩà¤Īà¤¸
Ġà¤ĭ à¤ļ
Ġà¤¬à¤² à¤¦
Ġ50 6
à¤° à¤Ī
à¤¤ à¥Ľ
à¤¹à¤° à¤Ĺ
Ġà¥§à¥¯à¥ §
B CCI
l es
à¤§ à¥ľ
k ar
Ġ ar
à¥Ĥ ),
à¤°à¤® à¤ľ
à¤¼à¥ĩ )
à¤®à¤¹ à¤¬
ra in
1 30
M E
Ġà¤¬ à¤Ĺà¤¦
à¤²à¤ļ à¤²à¤¨
ol l
pt ion
ĠAnd roid
à¤¼ :
Ġà¤ı à¤ħà¤°
Ġà¤ıà¤ķ à¤¨
à¤° à¤Ľ
Ġà¤ħ à¤°à¤®
Ġà¤§ à¤®à¤¨
Ġ37 7
end ra
Ġà¤ª à¤łà¤¨
à¤ļà¤° à¤°
Ġ24 3
P ro
o ut
Ġà¤ı à¤Ĩà¤Īà¤¸
à¤ıà¤® à¤ıà¤¸à¤ª
ev el
Ġà¤¤ à¤ªà¤¸
à¤°à¤¦ à¤¯
à¤ķà¤² à¤µ
en o
à¤¡à¤¸ à¤ĩ
Ġm Ah
Ġ20 23
Ġ22 5
à¤ı à¤ıà¤¨
Ġà¤Ĺ à¤²à¤µ
Ġà¤¹à¤® à¤¦à¤°
ĠH el
D S
à¥Īà¤Ĥ: -
le ct
um b
n ov
Ġà¤ İ
à¤°à¤® à¤°
st it
Ġ28 0
v e
à¤Ń à¤Ł
à¤ħ à¤¨à¤¨
ĠL aunch
ĠIC ICI
Ġà¤¹ à¥Ľ
à¤µ à¥ľ
à¤¼ à¥Ģà¤Ĥ
à¥Ģ à¤ģ
à¤¹à¤¤ à¤Ĺ
à¥¤ ""
Ġà¤Ĺ à¤«
Ġà¤Ĩà¤° à¤¡
eli ance
Ġà¤ıà¤« à¤ıà¤®
G ST
à¥Ģà¤Ĥ '
Ġà¤ıà¤® à¤ıà¤²à¤¡
ob al
à¤ıà¤¨ à¤µ
à¥Ī? """
ii i
Ġ16 1
ĠC ase
à¤Ĩà¤ª à¤¦
ĠApp le
à °
Ġà¤ĩà¤¨ à¤¬
à¤ľà¤¦ à¤¯
S SC
Ġ li
à¤¾ """
Ġà¤ķ à¤Łà¤¨
Ġà¤ķ à¤µà¤ļ
RC TC
à¤¤ à¤Ł
en cy
: %
ĠHD FC
à¤ı à¤¨à¤ķ
gr ess
à¤°à¤µ à¤¶
à¤®à¤¨ à¤¦
Ġà¤¸à¤° à¤Ĺ
à¤Ķ à¤·à¤§
ru it
à¤¸ à¤ªà¤¨
à¤®à¤¨ à¤¸
es ign
ĠQual comm
à¤² à¤¸à¤¨
in k
à¥ĭà¥¤ ""
Ġà¤ıà¤Ĩà¤Īà¤ıà¤® à¤Ĩà¤Īà¤ıà¤®
E R
Ġà¤ıà¤® à¤ıà¤®à¤Ł
Ġ13 3
Ġ30 7
Ġà¤¶ à¤¤à¤°
Ġà¤ħà¤¨ à¤¶à¤¨
Ġà¤® à¤²à¤ķ
Ġà¤ıà¤¨à¤ıà¤ļ à¤ıà¤Ĩà¤Ī
à¤Ł à¤¤à¤®
à¤ĸ à¤ªà¤¤
à¤ł Ã¯
à¤® à¤¬à¤²
Ġà¤¬ à¤°à¤ķ
à¤¸à¤ļ à¤®
c o
à¤¦ à¤ĸà¤²
Ġà¤° à¤Ĺ
Ġà¤² à¤ªà¤ķ
à¤ħ à¤µà¤§
Ġà¤ıà¤² à¤ĵà¤¸
Ġ196 9
Ġà¤ħ à¤ķà¤°à¤®
à¤ħ à¤¹
Ġà¤īà¤¦ à¤ĺ
20 21
Ġà¤¹à¤ľ à¤°à¤¤
ĠV ideo
Â °
on g
N ew
à¤¦ à¤°à¤µ
à¤¬ à¤°à¤¸
er ies
Ġà¤¸à¤¡ à¤ķ
à¥¨ à¥¦
Ġ196 7
A L
d er
à¤ª à¤µà¤¨
ĠM obile
C L
a har
Ġà¤ħà¤¨ à¤Ł
Ġà¤Ĩà¤µ à¤ķ
Ġà¤Ĩà¤īà¤Ł à¤¸
I F
R ead
à¥ĭ ""
à¤ĵ à¤¹
. """
à¤° à¤ľà¤®
Ġà¤ķ à¤¸à¤¤
à¤¿ ""
à¤Ł à¤¶à¤¬
Ġà¤ĸà¤° à¤Ĺ
à¤² à¤¶à¤¨
à¤ĸ à¤ľ
art ic
Ġà¤ķà¤² à¤¹
à¤µ à¤²à¤¨
Ġà¤¨ à¤ª
ic k
Ġ Âł
à¤Ī à¤Ĩà¤°
à¤Ĩ à¤ĩà¤ª
Ġà¤Ī à¤ıà¤¸à¤Ĩà¤Īà¤¸
Ġà¤¬à¤¦ à¤¸à¤²
Com ment
Ġà¤ª à¤Ĺà¤¡
à¤ıà¤® à¤µ
Ġ16 2
Ġà¤µà¤¨ à¤ª
ak istan
à¤ı à¤Ĩà¤°à¤ª
Ġà¤² à¤ĸà¤µ
à¤ıà¤ļ à¤Ł
i Phone
p le
à¤ĩ à¤¦
à¤¤à¤° à¤ľ
à¤¤à¤¨ à¤¶
à¥ŀ à¤°
Ġà¥¨ à¥¬
du c
v i
à¤ľà¤ª à¤¥
st ruct
re at
Ġor g
S R
à¤°à¤ķ à¤ª
Ġà¤² à¤¹à¤¸
Ġà¤¤ à¤°à¤£
ĠC R
Ġà¥§à¥¯à¥ ¬
Ġ196 3
âĸ «
ĠRe ad
à¤¼ à¥¤
Ġà¤ªà¤Ł à¤µ
Ġà¤¨à¥Ľ à¤¦
Ġà¤Ī à¤¯
er t
Ġà¤®à¤°à¤¤ à¤¬
I B
à¤ł à¤¤à¤®
19 62
à¤¡ à¤ħà¤ª
à¤ıà¤² à¤ľ
er y
ĠR ev
à¤ķà¤® à¤ľ
ay s
ruit ment
Ġà¤² à¤¹à¤ľ
Ġà¤ı à¤ıà¤¸
à¤¾à¤Ĥ '
Ġà¤Ł à¤ļ
à¤®à¤¨ à¤°
an j
Ġ24 5
Ġà¥Ľ à¤¬à¤°à¤¦à¤¸
ĠT o
iv ity
i an
à¤¯ à¤£à¤¨
Ġà¤ľà¤¬ à¤¤à¤ķ
Ġ14 6
Ġà¥© à¥§
J io
Ġà¤¦ à¤Ĺ
à¤¶ à¤Ń
à¤ĵ à¤ªà¤¨
Ġà¤¸ à¤¤à¤¨
à¤ª à¤ķà¤¤
Ġà¤¶ à¤®à¤¨
ing s
up er
A ir
d ition
à¤Ł à¤¶
Ġà¥« à¥¦
N okia
Ġà¤Ĺ à¤§
Ġà¤« à¤ķ
Ġà¤ªà¤°à¤® à¤ľ
à¤²à¤® à¤ª
à¤ı à¤¯à¤°à¤²
Ġà¤¸à¤® à¤¤à¤²
Ġà¤Ī à¤¬
er e
In dian
Ġà¤ħà¤ľà¤¨ à¤¬
N A
Ġà¤¬ à¤¬à¤²
à¤ĵ à¤ıà¤®
à¤µà¤¨ à¤°
ĠO ppo
N O
à¤¤ à¤ķà¤²
à¤ł à¤®à¤²
Ġà¥ ¯à¥
ar k
Ġc o
ĠC S
Ġà¤ıà¤²à¤¬ à¤®
D elhi
Ġ `
à¤² à¤Ī
à¥Īà¤Ĥ âĢ¦
Ġà¤ĸ à¤²à¤¨
à¥ī )
ĠV o
à¤ª à¤Ĺ
Ġà¤¤ à¤¬à¤²
Ġà¤Ī à¤¨
T ek
f in
à¤® à¤Ľà¤²
à¥ģ à¥ģ
Ġà¤Ī à¤¡à¤¨
à¤ıà¤« à¤Ĩà¤Īà¤Ĩà¤°
ow n
Ġà¤Ĩà¤Īà¤ıà¤« à¤ıà¤«à¤Ĩà¤Ī
à¤¡ à¤°à¤¶
à¤¾à¤Ĥ âĢĻ
à¥Ģ) :
Ġà¤² à¤¬
Ġà¤Ĩà¥Ľ à¤®
Ġà¤² à¤²à¤ķ
ĠIn di
ĺ» â
Ġm e
ener gy
T M
à¤¼ à¥Ĥà¤Ĥ
à¤£ à¤°
à¤°à¤µ à¤¤
Ġ19 30
Ġ21 0
Ġà¤Ń à¤°à¤¸à¤ķ
Ġà¤ıà¤ķ à¤¬
à¤¾' '
et rol
à¥Ĥà¤Ĥ. "
Ġà¥ª à¥¦
à¥ĩ \\
à¤°à¤£ à¤¯
Ġà¤¤à¤° à¤²à¤¤
à¥ľ à¤ª
à¤§ à¤¨à¤¤
Ġà¤ħà¤Ĺ à¤°à¤¤à¤²
Ġ26 0
Ġà¤ªà¤° à¤ķ
à¥Ī? "
Ġ32 3
ĠL ED
à¤ĩà¤« à¤¸
Ø§ ÙĦ
tern ational
ĠC O
ĠIn d
Ġà¥§à¥¯à¥ «
Ġà¤īà¤§ à¤®à¤ª
AA P
C O
à¥Īà¥¤ -
ĠC ricket
âĢĻ à¥¤
ĠM S
p ost
Ġà¤¸ à¤¹à¤®
à¥ģ à¥¤
Ġà¤®à¤° à¤¯à¤®
ĠR SS
ĠâĤ ¹
B O
à¤Ĩ à¤¦à¤°
à¤ĺ à¤µà¤¨
Ġà¤¬à¤¢ à¤ķà¤°
à¤ıà¤ļ à¤ıà¤®
Ġà¥§à¥¯à¥ ©
à¦ ¾
evel op
Ù Ī
à¤ª à¤Ĺà¤¢
à¤¬ à¤ķà¤°
Ġà¤ħà¤¸ à¤¹à¤ľ
ĠRaj put
Ġà¤¤ à¤ªà¤¨
à¤ªà¤° à¤«
à¤¦ à¤£
ut e
Ġà¤ı à¤²à¤°
Ġà¤ĩ à¤ķà¤¨
Ġà¤ªà¤¡ à¤¤
19 99
us hant
c ent
à¤¯ à¤ļà¤ķ
Ġà¤® à¤¢
Ġà¤§ à¤¨à¤µ
Ġ19 20
Ġà¤ıà¤¨ à¤Ĩà¤Īà¤¸
à¤ķ à¤¹à¤¨
à¥Īà¥¤ '
ĠD elhi
7 50
à¤¾ """"
ĠT h
d à¤®
z o
à¤ľ à¤¯à¤ķ
en a
à¤° à¤ħ
Ġà¤¬à¤² à¤ľ
à¤ıà¤² à¤ıà¤¸
Ġà¥¨ à¥Ń
Ġ ),
à¤¯à¤° à¤¹
Ġà¤ħà¤ª à¤µà¤°
ĠA s
à¤ĩà¤¡ à¤¨
Ġà¤ı à¤ıà¤®
Ġà¤²à¤¡ à¤ķ
à¤ľ à¤Ī
ĠâĢľ [
S h
à¤¾ à¥į
à¥Ĥ (
à¤¬à¤² à¤¡à¤¨
Ġ19 4
Ġà¥Ľ à¤¬
Ġ196 6
Ġw ith
à¤µ à¤Łà¤°
à¤¬ à¤¨à¤°
Ġà¤ľà¤¨ à¤µ
ĠHel io
âĢį à¤¿à¤Ĥ
Ġà¤¦à¤° à¤Ń
à¤ıà¤® à¤ıà¤µ
Ġ19 14
Ġ19 46
ĠMedia Tek
âĤ ¬
Ġà¤ĵ à¤¨
à¤¸à¤« à¤²à¤¤
à¥Īà¤Ĥ '
Ġà¤ļà¤®à¤ķ à¤¦
T oo
Ġ15 9
Ġt rans
Ġà¤Ĩà¤Ī à¤ıà¤®à¤ıà¤«
Ġ18 5
à¤¼ à¥ĩà¤Ĥ,
Ġà¤¸à¤¹ à¤ľà¤¤
Ġ196 8
P R
à¤Ĩà¤Ī à¤ıà¤¨à¤ıà¤¸
à¤ıà¤¨ à¤ıà¤¸à¤¸
ro w
Ġà¤¨ à¤°à¤µà¤£
Ġà¤° à¤Īà¤¸
ĠS mart
Ġà¤ł à¤¨
P A
c ess
Ġà¤Ĩ à¤²à¤°
à¤ķà¤ª à¤¡
Ġ19 40
à¤¾ %
à¥į à¤Ĥ
à¤°à¤µ à¤ļà¤¨
à¤Ĭ à¤¨
ab ad
m y
à¤ ³
à¥ĭà¤Ĥ ""
Ġà¤ķà¤² à¤ª
el d
l obal
à¥Īà¥¤ âĢĻâĢĻ
à¤¾à¥¤ âĢĿ
ic on
à¤²à¤Ĺ à¤ĩà¤¨
Ġà¤« à¤²à¤¨
Ġà¤¸à¤° à¤¬à¤ľ
à¥ĭà¥¤ "
n a
à¤ıà¤¯à¤° à¤ª
ĠUn iversity
à¤Ĥ âĢĻ
à¤« à¤¸
ĠM inist
à¥ŀ à¤°à¤®
Ġà¤ıà¤ļ à¤ıà¤ıà¤²
U N
à¤® à¤°à¤ķ
Ġà¤¹ à¤¯
à¤· à¤¸à¤¹
à¤ģ ?
Ġà¤¬à¤ļ à¤ķà¤°
Ġà¤ıà¤¨ à¤Ĩà¤°à¤Ĩà¤Ī
ĠR es
G oogle
r ation
à¤¤ à¤¬à¤²
à¤ı à¤¯
re am
à¥§ à¥®
à¤ıà¤Ĩà¤Īà¤ıà¤® à¤Ĩà¤Īà¤ıà¤®
r es
Ġà¤ķà¤¡ à¤ª
Ġ195 4
S A
à¤ĵ à¤ľ
Ġà¤ħà¤¸ à¤°à¤¦
in s
Ġà¤¦ à¤¯à¤¨
Ġ3 10
à¤ľà¤¯ à¤¶
ĠM oto
ĠUpd ate
à¤ķ à¤¦à¤²
à¤¸ à¤¹à¤ķ
Ġà¤ªà¤° à¤²
Ġà¤ı à¤ıà¤«à¤ª
Ġà¤ĸ à¤¸
à¤Ĩà¤Ī à¤«
à¤® à¤ł
Ġà¤¹ à¥ľà¤¤
à¤Ĩ à¤°à¤µ
à¥Īà¤Ĥà¥¤ âĢĿ
Ġs h
li m
p en
u aw
Ġà¤īà¤ª à¤¸à¤Ń
Ġà¤¸à¤¡ à¥ĺ
à¤¼ à¥ĭà¤Ĥ,
à¤ĩà¤¨ à¤ª
Ġ22 6
uaw ei
à¤¹ à¤Ĺà¤¢
à¤Ĺ à¤°à¤ķ
Ġà¤ı à¤¤à¤°
à¤® à¤Ľ
à¤Ĩ à¤ĩà¤Ł
Ġ49 8
à¥ĩà¤Ĥ ),
à¤· à¤¯à¤µà¤¸
à¤ªà¤° à¤ľ
19 90
M oto
à¤° à¥ŀ
à¤² à¥ľà¤ķ
Ġà¤ľ à¤®à¤¨
Ġà¤¸à¤° à¤Ĺà¤°
in ter
r d
Ġà¤Ł à¤°à¤¬
Ġà¤¸à¤¹ à¤Ĺà¤²
ĠE D
Ġb y
ust ral
J D
à¤¸ à¤¹à¤¨
Ġà¤Ĺ à¤ľà¤¬
Ġà¤Ĩà¤ª à¤®
Ġ16 3
Ġs p
ĠH igh
à¤¨ à¤ļà¤°
à¤ı à¤ķà¤²
Ġà¤Ń à¤Łà¤¨
d ay
Ġà¤¤ à¤¸à¤²
Ġà¤Ľ à¤¦
ĠN HT
em b
Ġà¤Ńà¤°à¤¤ à¤ª
u pp
Ù Ĭ
Ġà¤ħà¤°à¤¬ à¤ªà¤¤
Ġà¤ħ à¤ľà¤°
ĠW hatsApp
Ġà¤Ńà¤Ĺ à¤µà¤¤
R R
à¤¹ à¤ľà¤¨à¤ķ
à¤¸à¤ķ à¤²
Ġà¤ıà¤¸ à¤ıà¤®à¤Ī
Ġqu ot
à¤ı à¤Ĩà¤Īà¤¸
à¤ī à¤¬
Ġà¤īà¤ª à¤ķà¤ª
Ġà¤ªà¤² à¤µà¤²
ix el
struct ure
à¤¨ à¤ĵà¤µà¤°
à¤Ĩ à¤¯à¤°à¤²
à¤ıà¤« à¤ıà¤«
à¥Ģà¤Ĥà¥¤ "
ĠT e
à¤ķ à¤¥à¤¨
à¥ĩà¤Ĥ '
à¤ĩ à¤®à¤¨
en se
ur es
ĠOne india
u le
à¥Ī. âĢĻ
à¤¯à¤° à¤¨
ĠIn dian
Ġ un
Ġà¤¦ à¤¨
Ġa pp
à¤Ĩà¤Ī à¤ıà¤ļ
U n
ĠâĢĿ -
Ġ195 8
---- ----
L TE
U V
Ġà¤¦ à¤¹à¤¨
à¤µà¤° à¤«
Ġà¤ıà¤¸ à¤µ
Ġà¤ħà¤¹à¤® à¤¦à¤¨à¤Ĺà¤°
ĠP rime
à¤¾âĢĻ ,
à¤Ĩà¤Īà¤ıà¤® à¤ıà¤«
ĠRec ruitment
à¤ĺ à¤Łà¤ķ
Ġà¤ªà¤¦ à¤ļ
Ġà¤¤à¤¬ à¤¦
um p
à¤Ł à¤¦
à¤ı à¤¡à¤µ
Ġà¤² à¤µà¤²
Ġà¤ī à¤ĸà¤¡
Ġà¤ĩ à¤¦
à¤ĩ à¤¥
is e
gl and
N EET
Ġà¤Ń à¤ľ
Ġ15 6
ĠA f
à¤¤à¤² à¤¹à¤°
à¤Ĩà¤Īà¤ı à¤ıà¤¸
r an
Ġà¤° à¤¨à¤°
à¤¬à¤° à¤²
Ġ14 1
k a
à¤ī à¤ł
à¤¢ à¤¤
ĠR EAD
) /
Ġà¤¸ à¤°à¤µ
à¤² à¤®à¤¨
Ġà¤¬ à¤«à¤°
à¤· à¤¨
à¥Ī: -
ĠL ite
G C
w eather
à¥ĭ à¤ĥ
Ġà¤¬ à¤°à¤¦
ro up
R I
à¤Ĩ à¤«
à¤¤à¤° à¤¬
Ġà¤ıà¤¨ à¤ıà¤«
R aj
Ġà¤° à¤ªà¤¯
à¤Ń à¤®à¤¨
Ġà¤Ĩà¤¨ à¤²
Ġà¤² à¤ı
Ġà¤¤ à¤¹à¤ķ
à¤¶à¤¨ à¤Ĺ
Ġà¤ıà¤® à¤µ
ĠN okia
ele ct
h on
à¤¾ âĢĶ
Ġ17 7
à¤ħà¤µ à¤¸à¤°
à¤ıà¤¨à¤ıà¤ļ à¤ıà¤Ĩà¤Ī
o x
w ard
à¤ĸ à¤®à¤§
à¤¾ à¥Ģ
Ġà¤ķ à¤¢
à¤ķ à¤¬à¤¸
Ġà¤² à¤Ł
Ġ15 8
Ġà¥¨ à¥¯
ch it
ear ch
r id
à¤¤ à¤µà¤°
à¤² à¤¹à¤°
Ġà¤ķà¤® à¤¤à¤°
Ġ3 30
Ġà¤ľà¤Ĺ à¤®
à¤¾' ,
Ġà¤ħ à¤¦à¤®
Ġà¤¬à¤® à¤¬
x is
à¤°à¤§ à¤¨
Ġà¤ķà¤² à¤¸
ĠE MI
light s
Ġ as
à¤¦ à¤°à¤®
"" .
à¤°à¤®à¤£ à¤ķ
ĠU N
- #
à¤¼ à¥ĭ,
bo ok
MO ST
Ġà¤Ĺ à¤ª
port s
Ġà¤ı à¤Ĩà¤°
à¤¶à¤² à¤®
ĠA g
Ġ22 7
th er
Me Too
d e
Ġà¤µ à¤¯
à¤µà¤² à¤¦
à¤ıà¤« à¤Ĩà¤°à¤¡
ĠM ov
Ġb e
Ġà¤¯à¤¶ à¤ª
S ushant
c l
à¤Ĥ à¤¾
à¤ľ à¤Ńà¤°
à¥ĥ -
Ġ3 40
ĠA m
Ġà¤ıà¤« à¤ıà¤®à¤¸
3 50
à¤¸ à¤¹à¤®à¤¤
à¤¾à¤Ĥ .
à¤ıà¤®à¤ı à¤ıà¤ļ
du st
Ġà¤ į
Ġ20 3
Ġ16 7
à¥Ģ' '
à¤¨à¤® à¤¸
à¤¡à¤² à¤°
à¤ıà¤ļ à¤Ĩà¤°à¤¡
im es
k h
Ġà¤ķ à¤¸à¤¨
Ġà¤® à¥ļ
Ġ16 00
ĠA I
Ġi OS
ĠII T
à¤ķ à¤ļà¤°
à¤¹à¤° à¤Ńà¤ľà¤¨
AM E
Ġ19 08
à¤¡à¤° à¤Ĺ
Ġ17 1
ĠN Z
Ġ27 9
ir th
à¤§ à¤°à¤®
à¤µà¤¨ à¤Ĺà¤°
Ġà¤¸à¤° à¤¹à¤¦
à¤ľà¤Ĺ à¤¦
Ġà¥Ľ à¤²
Ġà¤ªà¥Ŀ à¤¤
Ġà¤Ĩà¤ľà¤® à¤Ĺà¤¢
Ġà¤¹ à¤°à¤ķ
Ġà¤ı à¤Ĩà¤Īà¤Ĩà¤°
à¤Ĩà¤Ī à¤¡à¤¬
Ġà¤ªà¤ķ à¥ľà¤¨
IV E
à¤ħ à¤¥à¤µ
Ġà¤ıà¤¨ à¤ıà¤¸à¤¯
1 10
Ġà¤ĸ à¤¤à¤¨
VID EO
our t
à¥ĩ à¤ģ
Ġà¤Ī à¤²
od af
odaf one
7 20
] ,
à¤· à¤§à¤°
ĠL e
F i
ĠS oC
Ġà¤Ĩà¤ī à¤Łà¤«
à¤ľ à¤¬à¤°
ĠS e
Ġà¤Ĺà¤£ à¤ªà¤¤
le d
Ġà¤¿ à¤¾
à¥ĩ âĢĻâĢĻ
à¤¯à¤® à¤ķ
à¤ĩà¤¸à¤² à¤²à¤ı
-- -
pr edict
à¤¨ à¤°à¤¸
à¤¹ à¤Ń
à¤ī à¤ľà¤°
ar b
w it
à¤¸ à¤¶à¤¸
Ġà¤¸ à¤°à¤®
à¤§ à¤¦
Ġà¤Ĩà¤¦ à¤°à¤£
Ġ19 45
Ġ17 8
à ´
Ġà¤ª à¤¨à¤ª
Ġà¤ľ à¥Ľ
à¤ĸ à¤®à¤°
S O
à¥ī à¤¼
à¤Ķà¤° à¤¤
es c
âĢĶ âĢĶ
C ovid
à¤ª à¥Ŀ
à¤ı à¤¹
19 84
Ġ45 00
à¤ķà¤®à¤² à¤¨
C T
à¤ķ à¤«à¤°
à¤Ł à¤ľà¤°à¤²
à¤ī à¤ªà¤¸
à¤ķà¤² à¤ķà¤¤
ĠA N
Ġv alue
ub e
Ġà¤·à¤¡ à¤¯
à¤¯à¤¦ à¤²
Ġ15 7
ĠR eno
ir at
) ""
à ¨
à¤¤ à¤ľà¤¨
Ġà¤¨ à¤ľà¤®
à¤Ĩà¤Ī à¤¯
Ġà¤Ŀ à¤ķà¤Ŀ
à¤Łà¤ķ à¤Ł
Ġ0 11
II MS
à¤µ à¤«
Ġà¤ªà¤° à¤¶
Ġà¤« à¤²à¤ķ
Ġà¤ł à¤¹à¤°à¤¤
Ġà¤ļà¤° à¤ĸ
à¤¬à¤¤ à¤¦
à¤ıà¤Ĩà¤Ī à¤¬
à¥Ģ à¤¼
Ġà¤¥ à¤²à¤¸
ro p
Ġ195 9
à¤Ĩà¤Ī à¤Ĩà¤Īà¤ª
19 96
Ġà¤Ĩ à¤ĩà¤¸à¤²
"" à¥¤"
à¤¦à¤° à¤ª
Ġà¤ıà¤² à¤ıà¤¸
un ction
ĠW est
ĠVo LTE
à¤Ĺà¤² à¤®
in ation
ĠM LA
ed ding
ĠÂ ·
chit ect
à¤° à¤¹à¤¨
à¤² à¤ªà¤®
à¤²à¤¤ à¤®
à¤¯à¤² à¤°
à¤Łà¤² à¤®
à¤ľà¤¹ à¤¬
ĠS ec
ĠA ct
o ok
à¤¨ à¤Ĺà¤¢
à¤ī à¤£
Ġà¤ıà¤¨ à¤Ī
à¤¡ à¤¬à¤²
Ġ19 39
ol ar
ab ility
o ad
Ġà¤¬à¤¡ à¤Ĺ
Ġà¤¤à¤¨ à¤ĸ
ri y
à¤¸ à¤«à¤²
à¤® à¤®à¤¯
à¥Ľ à¤¬
Ġ17 2
Ġà¤ıà¤« à¤¬
ect or
à¤¬ à¤ł
Ġà¤ıà¤ķ à¤®à¤¤
à¤Ĩ à¤ļ
Ġ18 6
Ġ16 9
Ġ30 6
em per
K R
à¤ª à¤¤à¤°à¤¸
à¤§ à¤ļ
Ġà¤Ĺ à¥ľ
à¤ł à¤¯à¤ķ
ĠM atch
ub lic
ies el
ustral ia
Ġà¤ħ à¤¤à¤°
Ġà¤ĩ à¤¯à¤°
Ġà¤Ĳ à¤¬
à¤¹à¤¤ à¤®
ent s
Ġà¥© à¥©
à¤¤ à¤ļà¤°
à¥ĭ /
à¥Ī à¤ģ
Ġà¤Ĩ à¤ķà¤¡
Ġ4 99
à¥ĩ? """
har at
P U
à¤ī à¤§
II T
Ġà¤ª à¤¯
Ġà¤¬ à¤¸à¤°
à¤¬ à¤ľà¤°
à¥Ģà¤Ĥ âĢĻ
Ġ3 99
Ġà¤Ĩà¤Ī à¤Ĩà¤°
à¥Ģ. )
Ġ8 65
à¤īà¤ª à¤ķà¤°à¤£
Ġ ]
à¤Ĩ à¤ĩà¤¡
Ġ3 80
Ġà¤®à¤¤ à¤ªà¤¤
Ġ16 8
à¤Īà¤ĵ à¤µà¤°
Ġà¤Ĳ à¤°
à¤²à¤ķ à¤®
à¤ª à¤ļà¤¯
Ġà¤µ à¤¬
à¥ĩ. """
Ġ196 4
V P
r ess
à¤ª à¤²à¤¬
Ġ20 2
19 47
! """
t s
à¥ĭ à¥ĩà¤Ĥ
à¤ľ à¤¯à¤²à¤²
Ġà¤ħà¤ª à¤¸
Ġà¤ĳà¤« à¤¸
à¥Ľ à¤®
Ġ15 2
25 6
h y
w ork
à¤« à¤°à¤¹
à¥ľ à¤Ĺ
on s
à¤§ à¤¶
Ġà¤ļ à¤¹à¤°
Ġà¤²à¤¡ à¤©
ar m
Ġ18 4
Ġà¤µ à¤¤à¤¨
à¤°à¤£ à¤¤à¤¯
Ġà¤¬à¤¦ à¤ļà¤²à¤¨
Ġà¤µ à¥ĺ
or th
Ġ27 5
T R
Ġà¤ħà¤¨ à¤°
à¤²à¤¬ à¤¤
19 80
ĠN CP
ĠSon y
ĠFirst post
D C
J I
Ġà¤ĵ à¤¢
Ġà¤ħà¤¸ à¤Ĺà¤°
à¤¤à¤ķ à¤µ
à¤Ĺà¤¨ à¤¬
Ġà¥© à¥¨
Ġk g
Ġà¤Ĩ à¤ĩà¤¸à¤ķ
à¤ķà¤ª à¤Ł
à¥§à¥¯à¥ ¯à¥
0 80
i or
à¤Ĥ âĢį
Ġ17 3
it ed
m p
à¥ĭ âĢ¦
Ġà¤¸à¤® à¤µà¤°
Ġà¤¡ à¤®
à¤ĵ à¤Ĩà¤°
ĠA us
um ar
Ġà¤ ¾
ĠP hone
ĠPl an
S I
d à¤²
Ġà¤ıà¤¨ à¤Ĩà¤Ī
à¤īà¤¸ à¤ªà¤°
Ġà¤ĸà¤² à¤¬à¤²
ĠAir tel
l and
Ġà¤¹ à¤°à¤µ
Ġà¤§ à¤°à¤®
à¥Ģ) à¥¤
Ġà¤ķà¤ł à¤ª
ag net
à¥ĭ à¥ĩ
Ġà¤ľ à¤¯à¤ķ
Ġà¤¬à¤¢ à¤¨
Ġ9 99
Ġà¤ľà¤¯ à¤µà¤°
ĠUS B
t i
à¤¡ à¤µà¤¤
à¤¯à¤£ à¤¸
à¤ľà¤¯à¤¨ à¤Ĺà¤°
1 000
2 30
à¤ı à¤ıà¤¸à¤Ĩà¤Ī
ay a
à¤Īà¤ıà¤¸ à¤ıà¤²
à¤¾à¤ĥ %
' à¥¤
Ġà¤² à¤ªà¤Ł
Ġà¤ĸ à¤ļ
à¤¨à¤ķ à¤²
ĠâĢľ %
in fo
Ġ22 2
ov er
3 70
v el
Ġà¤¨ à¤¯à¤¨
à¤¬ à¥Ŀ
Ġ32 4
ĠNar zo
ĠCR PF
ĠP ower
A mazon
Ġà¤ª à¤¸à¤°
à¤Ĺ à¤Ń
Ġà¤īà¤ª à¤¶à¤®à¤¨
à¤¹à¤® à¤®
ul l
à¤¸ à¤Łà¤¨
Ġà¤² à¤ĸà¤¨
à¤ī à¤ļà¤°
Ġ7 37
Ġà¤®à¤¶ à¤µ
Ø ¯
Ġà¤ľ à¤¯à¤¨
Ġà¤Ĩà¤° à¤Ĩà¤Īà¤ıà¤²
à¤ĺ à¤¡
à¥Ļ à¤²
à¤ĩà¤« à¤Ł
ash tra
à¤¡ à¤¹à¤°
ment s
op ra
Ġà¤µ à¥ļ
à¤µà¤° à¤Ĺ
ot or
and hi
Ġà¤¹ à¤µà¤²à¤¦
Ġà¤¦à¤² à¤¦à¤²
Ġ18 3
à¤ıà¤¸à¤ıà¤¸ à¤ıà¤Ĩà¤Ī
f er
à¤ļ à¥Ŀ
Ġ18 9
Ġà¥© à¥«
d à¤¸
à¤¯ à¤¸à¤¨
Ġ19 42
Ġ27 2
ad ha
AT E
à¤¨ à¤Ńà¤¦
Ġà¤® à¤ľà¤¹à¤¬
à¤¶ à¤§
Ġ20 4
19 98
p hone
Ġà¤¸ à¤§
Ġ20 5
à¤ª à¤Łà¤²
Ġ6 60
à¤ķà¤¡ à¤ª
Ġà¤ıà¤² à¤¡
ĠN DA
à¤ħà¤¤ à¤ıà¤µ
ra structure
Ġm an
à¤ª à¤Łà¤ķ
à¤Ŀ à¤Ĺà¤¡
Ġ19 3
Ġ30 3
à¤¸à¤° à¤²
Ġà¤ķà¤® à¥Ľ
à¤°à¤ľà¤¨ à¤¹
Ġà¤¤à¤¹ à¤²à¤ķ
à¤° à¤ĸà¤¨
Ġà¤Ĩ à¤ĩà¤¶
Ġà¤ĺ à¤®à¤£
Ġà¤Ĳ à¤¤à¤°
Ġ19 2
à¤¾? ""
ĠN ational
Ġ80 2
Ġr es
oh li
B udget
à¤¦ à¤ķà¤Ł
à¤¶ à¤Ł
à¤¸à¤² à¤µ
Ġà¥§ à¥¦à¥¦
Ġà¤ħà¤ľ à¤®à¤²
Ġs c
à¥ĭ? """
G P
R eliance
i w
à¤ľ à¤Ł
à¤§ à¤®à¤ķ
Ġà¤Ŀ à¥ľà¤ª
M W
à¤ İ
Ġ7 30
à¤ĳ à¤ª
ot os
à¤ıà¤¨à¤ıà¤¸ à¤ľ
Ġà¤ĸ à¤«
ĠA xis
u es
Ġà¤¯ à¤ķà¤¤
à¤Ĺà¤® à¤Ĺ
io us
A H
P etrol
v alue
Ġà¤ª à¤§
à¤¸à¤® à¤ķ
ĠC BSE
ĠA MO
ĠG ov
Ġà¤² à¤¨
à¤¾à¥¤ âĢĻ
Ġà¤§à¤¨ à¤¬
ĠC lass
à¥§ à¥«
ĠIn ter
à¤¸à¤¹ à¤µ
ri b
ID AI
à¤¬ à¤²à¤¤
à¤ħà¤« à¤¸
Ġkg m
F lipkart
Ġà¤ī à¤¥à¤ª
à¤Ķ à¤¸à¤¤
( )
à¥ĭ ),
à¤¯ à¥Ľ
à¤¹ à¤°à¤®
à¤¨à¤® à¤¨
Ġà¤¸à¤¤ à¤²
er o
à¤Ĺà¤® à¤°à¤®à¤°
ĠA M
re en
R L
à¤¤ à¤¡
à¥ĭ à¤ģ
Ġà¤¬ à¤¸à¤¤
à¥Į ,
à¤ī à¤ªà¤®
à¥ľ à¤Ľ
Ġà¤ħà¤ķ à¤¡
ĠJ NU
nov ation
ĠAMO LED
Ġ an
Ġà¤¨ à¤Ł
à¤ī à¤Ĺ
Ġ19 38
Ġà¤ıà¤¨ à¤ıà¤¸à¤ı
Ġ26 9
Ġà¤Ĩà¤ĩ à¤ķà¤¨
Ġ al
à¤ĸ à¤ļ
Ġà¤« à¤²à¤¤
am il
k s
à¤¹ à¤°à¤¦
à¤¡ à¥ļ
à¤¸à¤® à¤Ĺ
à¤¹ à¤µà¤°
Ġà¤ĩ à¤ľà¤¹
à¤°à¤£ à¤¤
à¤¾- -
al man
Ġ25 1
u z
Ġ it
à¤¦ à¤ľ
à¤ıà¤¨ à¤Ĩà¤Īà¤¸
Ġ7 000
Ġà¤ıà¤² à¤ıà¤²à¤¬
ra ph
os e
ak a
ĠÂł ĠÂł
Ġ11 00
ĠN IA
Ġ36 5
wit ter
Ġà¤¸ à¤¶à¤°
à¤ıà¤² à¤Ĩà¤Īà¤¸
à¤ķà¤Ł à¤Ĺ
Ġin fo
ĠÂ °
irth day
Ġà¤ıà¤ļ à¤Ł
evelop ment
i eld
Ġà¤ħ à¤ªà¤¤
Ġà¤¯ à¤°à¤¦à¤¨
Ġ19 19
Ġ35 00
ĠO f
ahar ashtra
Ġà¤ħ à¤¹à¤¦
à¤ĸ à¤¤à¤°
Ġà¤ľà¤² à¤®à¤Ĺ
Ġà¤ĩà¤² à¤ľ
Ġà¤ıà¤® à¤ıà¤²à¤¸
Ġ17 9
ra il
riy anka
E F
Ġà¤Ĩ à¤£à¤µ
Ġà¤¬à¤¤ à¤²
ur n
à¤Ĺ à¤Ĺ
ĠâĢ ¢
Ġà¤Ĩà¤ª à¤¬
Ġ3 25
Ġà¤ľà¤² à¤Ĺ
chitect ure
à¤ĵ à¤Ĩà¤Ī
à¤µà¤¨ à¤ª
Ġà¤¬à¤¦ à¤¹
in ess
IM IM
h o
Ð °
à¤ħ à¤²à¤¬à¤¤
Ġà¤¨à¤µ à¤ª
Ġà¤®à¥Ľ à¤¦
ĠEn g
v ir
à¤ı à¤¥à¤²
à¤ķà¤° à¤¦
Ġ7 10
ĠMI UI
Ġà¤ıà¤¸ à¤Ĩà¤Ī
h is
Ġà¤« à¤¤à¤¹
à¥ī à¥°
am m
t m
à¥ĭ "
à¤ıà¤« à¤Ĩà¤°
Ġ23 5
Ġà¤Ńà¤ľà¤¨ à¤¹
Ġà¤Ńà¤Łà¤ķ à¤¨
Ġà¤Ĳ à¤¡à¤®
Ġ19 35
à¤ĥ -
à¤°à¤Ĺ à¤®à¤¨
Ġs sc
à¥Ī, ""
à¤Ŀ à¤²
à¤®à¤¤ à¤Ĺà¤£à¤¨
à¤¤à¤¨ à¤§
ĠP ixel
ic es
iv er
à¥Ģ "
à¤ľ à¤ĸ
à¥Ĥ /
Ġà¤ħà¤¨ à¤µà¤°à¤¤
à¥Ĥà¤Ĥ :
à¤®à¤° à¤ľ
à¤ĩà¤¨à¤ķ à¤®
emper ature
Ġ18 7
Ġ Ø§ÙĦ
Ġà¤ķà¤° à¤ª
Ġà¤ªà¤° à¤ļà¤®
à¤°à¤ķ à¤¬
à¤ľà¤¨ à¤¹
Ġà¤ªà¤¡ à¤©
Ġà¤¸à¤ļ à¤¦
à¤ıà¤« à¤¡à¤¬
in i
à¤ıà¤ļ à¤ıà¤ıà¤²
Ġà¤°à¤¬ à¤¡
à¤ľ à¤¯à¤°
à¤ķà¤² à¤°
Ġà¤« à¤²à¤¦
à¤ıà¤¸ à¤ıà¤ļà¤ĵ
Ġà¤ħà¤² à¤®
à¥ŀ à¤ķ
C M
Ġ energy
à¤¤ à¤Ńà¤°
Ġà¤ħ à¤ľà¤¬
à¤µà¤° à¤²
à¤°à¤® à¤¬à¤¦
Ġà¤Ĳ à¤ªà¤²
19 93
ĠS erv
à¤«à¤¡ à¤£à¤µ
ĠÂ »
Ġà¤ªà¤£ à¤ľ
à¥ĩ (
à¤Ĥ ),
à¥ĩà¤Ĥ âĢĻ
à¤Łà¤° à¤¡
Ġà¤Ńà¤Ł à¤ķà¤¤
à¤¤à¤ķà¤° à¤¨
P NB
in es
Ġà¤Ĩà¤® à¤ľà¤¨
re v
ur al
t on
à¤® à¤ªà¤¤
Ġà¤Ń à¤¨à¤ķ
Ġà¤§ à¤µà¤²
Ġ8 50
Ġà¤¸à¤² à¤µ
à¤¾? """
à¤¼à¥ĩà¤Ĥ ]
à¤¦à¤² à¤ª
16 0
3 20
à¤Ĩà¤Ī à¤Ĩà¤Īà¤ıà¤®
Ġà¤¶à¤¹ à¤¬
Ġ37 5
BS NL
à¤¯ à¤«à¤²
"" ."
à¤¹à¤¨ à¤µ
oun d
à¤¯ à¤²à¤¯
Ġà¤ħ à¤¸à¤²à¤®
Ġà¤ªà¤° à¤ª
à¥Īà¤Ĥ âĢĻ
à¤Ń à¤ļ
à¥ĥ .
ĠEn gland
UP SC
umb ai
à¤Ĥ à¥Īà¥¤
Ġà¤¸ à¤Ī
à¤ľ à¤¸à¤ª
à¤Ĩ à¤¡à¤µ
à¤¬à¤² à¤°
Ġ19 1
à¤ıà¤² à¤Ĩà¤Ī
à¤¦à¤® à¤¯
Ġ ed
à¤° à¤ĸà¤°
Ġà¤« à¤ĸà¤°
à¤¦à¤° à¤ĸ
Ġà¤ħà¤¸ à¤¹à¤¨
âĢĿ ,
duc ation
ĠIndi es
hon i
N RC
Ġà¤ľ à¤ª
Ġà¤ī à¤¬à¤²
Ġà¤ı à¤ıà¤¨
Ġà¤¯ à¤¨
à¤¨à¤® à¤ķ
Ġà¤Ĩà¤Ī à¤ĵà¤ı
ĠC C
à¤ħà¤ķ à¤¸à¤°
à¥Īà¤ĥ -
à¤Ĩà¤Īà¤ıà¤« à¤ıà¤«à¤Ĩà¤Ī
E S
E n
T B
c raft
à¤¦ à¤ĸ
à¤®à¤² à¤¯
Ġ20 6
à¤°à¤£ à¤¨
Ġà¤Ĩà¤¯ à¤¶
Ġ8 000
Ġà¤ľà¤Ĺ à¤¨à¤®
Ġà¤²à¤¶ à¤ķà¤°
b sp
à¤£ à¤¦
Ġ2 99
Ġ14 00
Ġà¤Ĺà¥ľ à¤¬à¥ľ
. âĢĵ
I L
Ġà¤® à¤ª
à¤ªà¤° à¤²
à¤ķà¤² à¤®
Ġà¤¬à¤² à¤ª
à¤²à¤ķ à¤¨
ĠA li
Ġà¤¨ à¤¸à¤°
à¤Ŀ à¤°
Ġà¤ıà¤¸ à¤ıà¤¸à¤¬
ĠR ep
ol ution
à¤¸ à¤²à¤¨
A B
à¤Ī à¤ıà¤ķ
Ġà¤¨à¤° à¤Ĺ
Ġ8 45
à¤ħà¤ª à¤¹à¤°à¤£
ĠL ist
Ġa g
SE B
ne ct
way s
h ya
à¤¹ à¤¸à¤¨
Ġà¤Ŀ à¤Ł
Ġ24 9
Ġà¤Ĩà¤ī à¤Łà¤°
. ,
y n
Ġà¤¡ à¤²
à¤ĵ à¤ıà¤¨à¤ľ
Ġà¤Ĩà¤Ī à¤µ
4 50
Ġà¤¨ à¤¨à¤ķ
Ġà¤Ĳ à¤ľ
Ġà¤Ĩà¤µ à¤§
er ror
ĠF inal
us iness
Ġ195 3
Ġà¥¬ à¥¦
ĠMinist er
r at
Ġà¥¤ "
à¤ıà¤¨ à¤ıà¤®à¤¸
Ġà¤ľà¤Ĺ à¤®à¤Ĺ
es ident
Ġà¤Ĺà¤µ à¤Ī
W hatsApp
à¤ī à¤ªà¤ķ
Ġà¤¡ à¤Ĺ
à¤ħ à¤µà¤¸
à¤°à¤® à¤ķ
ar at
I G
Ġà¤ľ à¤¯à¤¤
à¤¶ à¤°à¤£
Ġà¤ªà¤° à¤ĸà¤¨
Ġà¥Ľ à¤ķ
ra v
is ion
Ġp er
ĠAl so
M an
Ġà¤ħà¤¨ à¤Ń
Ġà¤ıà¤ļ à¤ıà¤¸
à¤ıà¤² à¤ıà¤®
Ġà¤īà¤² à¤Łà¤«
ĠA cc
us e
ĠCh opra
app y
s ha
Ġ Ð
à¤¾ âĢľ
à¤ı à¤¤
Ġà¤Ĩ à¤¹à¤°à¤£
à¤ıà¤² à¤ĵà¤¸
it ies
oun c
ater ial
a ir
r ed
à¤ª à¤ĸ
Ġà¤Ł à¤ļà¤¸
18 0
ĠW I
! "
Ġ à¥ģ
à¤® à¤¬à¤¨
à¤ĩà¤¸ à¤¬
à¤ıà¤« à¤ıà¤®à¤ıà¤¸
Ġà¤ıà¤¯à¤° à¤¬à¤¸
ĠH C
Ġc ase
ĠK h
um ber
N CR
P SC
Û Į
à¤² à¤¯à¤®
à¤¡ à¤§
19 97
Ġà¤§à¤° à¤ªà¤ķà¤¡
ĠR ate
ĠM y
Ġ29 5
ace book
ĠMov ie
à¤¸ à¤Łà¤°
Ġà¤® à¤Łà¤°
à¤Ł à¤°à¤¤
à¤°à¤ķ à¤Łà¤¨
à¤¯à¤² à¤¸
Ġ6 65
Ġà¤¬à¤° à¤Ĺ
19 91
à¤ıà¤ļ à¤Ĩà¤°
ĠP ad
10 2
Ġ29 4
Ġà¤¤ à¤¨à¤µ
à¤°à¤® à¤¤
19 56
19 92
on line
ĠK ohli
od el
B G
E L
à¤¨ à¤¤à¤°
à¤¸ à¤¬à¤²
à¤ª à¤®à¤¤
à¤ĩ à¤®à¤²
à¤ī à¤ªà¤¦
Ġà¤Ĩà¤° à¤ıà¤«
Ġà¤¢ à¤¹à¤¨
Ġ18 1
l er
Ã ©
à¤· à¤¬
à¤īà¤¨ à¤¶
ĠIM X
eep ika
à¥ ¥
Ġà¤ľ à¤¸à¤¬
Ġà¤ħ à¥ľ
à¤ļ à¤²à¤ķ
à¤°à¤¤ à¤¨
Ġ[ âĢľ
pr ess
M B
à¤¾ \\
Ġà¤ĩ à¤°à¤¶
ĠI D
Ġ23 4
ĠG andhi
a di
m ir
w e
Ġà¤¸ à¤¨à¤ķ
Ġà¤Ŀ à¤²à¤ķà¤¤
Ġ21 5
à¥Ļ à¤¤
stit ute
' %
à¤¼ '
G alaxy
Ġ20 8
Ġà¤ĵ à¤¹à¤¦
à¤¸à¤¤ à¤¤
Ġ22 8
ri end
Ġw hat
Ġà¤²à¤² à¤ı
hat t
esc ri
Ġà¤ı à¤Łà¤²
à¤£ à¤¯à¤¨
à¤ıà¤® à¤Ĩà¤°à¤ª
à¤Ĺà¤² à¤¸
Ġ21 8
Ġs e
ĠD honi
Ġà¤¨à¤µà¤² à¤ĸ
C W
Ġà¤¯ à¤¶à¤°
à¤Ŀ à¤¡
Ġ4 80
Ġà¤¬à¤¦ à¤¬
à¤Ĳ à¤¬
at t
or a
H P
à¥ĩ %
ĠP ar
ĠA ustralia
Ġà¤Ĩà¤ĩ à¤¡à¤²
à¤ľà¤¨ à¤¨
à¤°à¤® à¤ļ
Ġà¤Ĩà¤Ī à¤ıà¤®à¤¡
ĠS outh
oc o
ĺ»â ĺ»â
-# -#
à¤Ĩà¤°à¤Ĩà¤Ī à¤ıà¤²
Ġà¤Ĺà¤ľ à¤ªà¤¤
Ġ z
Ġà¤ħà¤¨ à¤¬à¤¨
à¤¾à¤ģ .
Ġà¤®à¤¨ à¤¶
un j
a id
b s
Ġà¤¸à¤¤ à¤¬
Ġ18 57
Ġ23 9
8 50
Ġà¤¬ à¥ļ
ĠC EO
11 5
à¥§ à¥¦
Ġà¤ıà¤Ĩà¤Ī à¤ıà¤¡
à¥ĩ âĢį
an e
Ġ25 3
Ġ24 4
Ġp ost
Ġn ew
D D
à¤¤ à¤¬à¤°
à¤¤ à¤²à¤µ
Ġà¤Ĩ à¤ĩà¤ľ
à¤¹à¤¨ à¤Ĺà¤°
ĠS E
o f
à¥Į -
âĢ¦ .
ĠJ EE
adha ar
Ġà¤ļ à¤¯
Ġà¤ļ à¤¤à¤°
à¤Ĩ à¤Ń
19 9
10 8
âĢĮ à¤¿
à¤ıà¤¨à¤ıà¤¸ à¤¡
b se
à¤¿ ?
Ġà¤¡ à¤Ĺà¤®à¤Ĺ
Ġà¤ıà¤¨ à¤Ĩà¤°
à¤ıà¤ļ à¤Ī
ĠS A
ĠC N
Ġ100 00
C on
Ġà¤ľ à¤ľà¤ª
à¥ĭà¤Ĥ (
Ġà¤ıà¤ķ à¤ķ
à¤¦à¤° à¤¬
Ġà¤ħà¤ª à¤¶à¤¬
Ġà¤ıà¤¨ à¤ıà¤¸
ĠS SC
ĠR CB
ĠW edding
Ġof f
ec ast
D O
u ra
Ġà¤¸ à¤¦à¤ķ
Ġà¤Ĩ à¤ĩà¤¨
Ġà¤ı à¤¥à¤¨
à¤Ĩà¤Ī à¤ıà¤¸à¤¸
Ġà¤¸à¤¹ à¤ª
Ġ30 9
à¤ĳ à¤¨à¤°
ĠT r
Ġà¥© à¥ª
à¥§à¥¯à¥ ®
ĠCS K
emb ly
d esign
à¤® à¤¢
Ġà¤ķà¤° à¤®à¤¬
Ġà¤ı à¤Łà¤®
à¥§à¥¯à¥ Ń
) âĢĻ
i er
i ence
à¤¼ à¥ĭà¥¤
Ġà¤Ī à¤¸à¤µ
ĠE ducation
Ġ Ï
Ġà¤Ł à¤Ł
Ġ24 7
à¤ħà¤¬ à¤¤à¤ķ
Ġà¤ķà¤Ł à¤µ
a ction
â Ļ
à¤Ĺ à¤¹à¤²
à¥Īà¤Ĥà¥¤ âĢĻ
Ġ3 90
it le
ĠT imes
ĠW in
m s
v al
Ġ ro
Ġà¤ĸ à¤¶
Ġà¤¸à¤® à¤°à¤¸à¤¤
Ġà¤ħà¤° à¤¹à¤°
Ġà¤ļà¤² à¤ļ
à¤Ĺà¤² à¤ªà¤¨
19 70
19 71
à¥Ĥà¤ģ )
at est
Ġra j
à¤¡ à¤¬à¤°
Ġà¤Ĺ à¤¬
à¤Ĩ à¤¯à¤¤
à¤¹à¤® à¤¸
Ġà¤ªà¤² à¤Łà¤ķà¤°
âĢĭ âĢĭ
à¤Ń à¤°à¤£
Ġà¤Ī à¤ıà¤¸à¤Ĩà¤Ī
Ġà¤ł à¤Ł
ĠL IVE
ous e
à¥Īà¤Ĥ? "
à¥ĩ? "
à¥Ļ à¤°
ow s
H igh
W E
à¤® à¤¹à¤°
à¤ħ à¤¸à¤¦
Ġ33 7
com e
ÂłÂł Âł
all y
à¤¾ à¥Ĥ
Ġà¤¥ à¤®à¤¨
à¤¸à¤° à¤¶
Ġà¤ħà¤ª à¤¹
ĠS R
S p
V D
à¥Ģ à¥ĩ
à¤ķà¤° à¤ķ
à¤¢ à¤ķ
à¤Ĩà¤Ī à¤ıà¤¨à¤ıà¤ķ
om y
un e
- )
Ø ¨
à¤¼ à¤¼
à¤Łà¤¤ à¤¯
Ġà¥© à¥Ń
agnet ic
v est
10 80
av e
m in
Ġà¤ıà¤¸ à¤ıà¤®
ĠS uper
Ġ[ (
à¤® à¤¶à¤µ
à¤µ à¤£à¤ķ
Ġà¤®à¤¨ à¤Ĺà¤¢
Ġà¤Ĩà¤² à¤¸
Ġp h
htt p
I O
n bsp
à¤Ĩà¤Ī à¤ıà¤®à¤ıà¤¸
Ġà¤¹à¤° à¤¬
à¤¡à¤° à¤µà¤°
Ġà¤ıà¤¨ à¤ıà¤®à¤¡
à¥ĺ à¤¦
ĠN EET
ĠCom p
ĠCom mission
rad esh
Ġà¤µ à¤¤
Ġà¤ľà¤° à¤¨
Ġà¤ıà¤¸ à¤ıà¤ļà¤ľ
ĠX I
eng al
ĠNar endra
t est
¯ à¥¦
à¤² à¤µà¤°
à¤¼ /
Ġà¤ļ à¤ķà¤¨
Ġà¤ĺ à¥ľ
Ġà¤§ à¤ľ
Ġà¤Ĩà¤° à¤ıà¤¨à¤ı
à¤ıà¤¸ à¤ĵà¤ª
à¤Ĺà¤¤ à¤¤
Ġà¤ħà¤® à¤ľà¤¦
Ġà¤ıà¤® à¤ıà¤¸à¤¸
Ġà¥Ļ à¤¬à¤°à¤¦
à¤ıà¤¸à¤Ī à¤¬
à¥įà¤¾ à¤¾
à¤ĸ à¥ľ
à¤īà¤¨ à¤ªà¤°
Ġà¤Ĳ à¤¹à¤¤
Ġ4 25
Ġà¤ķà¤² à¤ķ
Ġà¤ıà¤¸ à¤ĵà¤ª
ar s
à¤¨à¤Ĺà¤° à¤ª
Ġ26 5
Ġà¤īà¤ľ à¤¡
ific ation
à¤ķ à¤Ĺà¤£
Ġà¤ĺ à¤£
at i
ol a
if ty
I RCTC
Ġà¤¹à¤® à¤ľ
à¤ľà¤¨ à¤°
à¤ıà¤¨ à¤¡à¤¬
al s
ĠB irthday
Ġ21 7
Ġà¤ıà¤ļ à¤¯
Ġà¥ļ à¤²à¤¤
Ġà¤Ĩà¤Īà¤ı à¤ıà¤«
oc ial
all oy
: \\
L C
Ġà¤Ĩà¤Ī à¤ıà¤²
Ġà¤¬à¤¸ à¤µ
am es
Ġà¤Ĩà¤Īà¤ıà¤¸ à¤ĵ
Ġà¤ª à¤Ĺ
Ġà¤Ń à¤Ī
Ġà¤¦à¤² à¤ľ
Ġ30 5
ch an
à¥Ī- -
Ġb i
BO SE
n er
à¥ĭ à¤¼
Ġà¤ı à¤ıà¤®à¤¯
Ġà¤Ĩà¤° à¤Ĩà¤°à¤¬
à¤¤à¤¨ à¤¹
ac c
y pe
à¤ħ à¤¹à¤²
Ġ7 65
ĠI s
ric a
Ġà¤ľà¤¨à¤ķ à¤ª
R SS
à¤ľ à¤Ĺà¤¢
Ġà¤Ĩ à¤ĩà¤ķ
à¤¤à¤¨ à¤Ĺà¤°
à¤¾à¤ģ à¥¤
Ġ9 000
à¤Īà¤ıà¤¸ à¤Ĩà¤°à¤¸
Air tel
escri ption
2 99
u di
à¤¾, âĢľ
à¤ħ à¤ľà¤®
Ġ20 50
ĠI N
om en
Ġ29 0
à¥ĢâĢĻ ,
à¤Ĩà¤Īà¤ıà¤¸ à¤ı
und er
à¤ª à¤Łà¤°
Ġà¤ī à¤Ĺà¤¤
à¤Ī à¤ķà¤°
Ġà¤¶ à¤°à¤¤
à¥Į .
ĠS ports
st his
ĠL TE
and ra
arn at
Ġwhat sthis
P G
t r
Ġà¤ı à¤Ĺà¤°
Ġà¤ļ à¤Łà¤¨
Ġà¤Ľ à¤Ł
Ġà¤ħà¤« à¤ľà¤²
it s
Ġà¤ħà¤¡ à¤µ
.... ..
ÂłÂłÂłÂł ÂłÂłÂłÂł
T O
Ġà¤ ĥ
à¤¸ à¤¤à¤°
Ġà¤® à¤¶à¤°
Ġà¤µ à¤¨à¤µ
à¤ı à¤¥
à¤¾, âĢĿ
Ġà¤Ł à¤¨à¤²
Ġà¤¶à¤¹à¤° à¤ªà¤¨
ĠS ab
ĠR R
Ġà¤¶à¤ªà¤¥ à¤ªà¤¤
ĠGov ern
w ood
à¤ļ à¤Ĺ
à¤« à¤°à¤²
Ġà¤Ĳ à¤®
à¤ĺ à¤¬à¤°
ĠD C
Ġà¥ŀ à¥Ľà¤²
Ġà¤¬à¤¹à¤° à¤¹
Ġà¤ı à¤ıà¤¸à¤ª
Ġà¤ı à¤°à¤°
à¤°à¤¤ à¤µà¤°
Ġà¤« à¤¸à¤¹
Ġà¤¡ à¤Łà¤ķà¤°
19 95
19 89
on es
ant s
unj ab
à¤µ à¤ĺà¤°
à¤¡à¤° à¤Ł
ĠN ow
ĠD iesel
à¥Ģ' ,
à¤īà¤² à¤Ł
W HO
Ġà¤® à¤°à¤µ
à¤Ĺ à¤§
Ġ4 30
Ġà¤Ĩà¤Ī à¤Ĩà¤Īà¤ª
à¤Łà¤ķ à¤ķ
Ġà¤¨à¤Ī à¤®
el f
Ġà¤¶à¤ªà¤¥ à¤Ĺ
à¤¾à¥ħ .
ĠY ou
H onor
c k
Ġà¤ľ à¤²à¤¯
Ġà¤Ł à¤¹à¤²
à¤¼à¥Ģ '
Ġà¤®à¤¨ à¤Ń
Ġà¤¤à¤¯ à¤¶
ĠH ealth
Ġp art
ĠV ID
Ġà¤Ľà¤ł à¤µ
Ġà¤Ĺà¤ľ à¤Ł
e h
Ġà¤ıà¤ķ à¤¸à¤®
ĠS eries
am b
Ġm ore
uk one
arnat aka
l u
v ariable
à¤¤ à¤¹à¤¤
Ġà¤ĵ à¤¬à¤°
Ġà¤Ŀ à¤ªà¤ķ
à¤¬à¤¹ à¤¸
ĠO S
ak ing
Ġà¤İ à¤¸
p os
Ã ī
Ġ à¥ĩ
Ġà¤Ĩ à¤ĩà¤¯
à¥ĩ? ""
à¤¿à¤ĥ %
Ġà¤¦à¤®à¤ķà¤² à¤ķà¤°
ve er
à¤¦ à¤¶à¤ķ
à¤ª à¤µà¤°
Ġà¤¸à¤¹ à¤¤
Ġà¤ĩà¤¨ à¤²
Ġà¤ıà¤¸ à¤ıà¤¨
19 94
âĢĿ à¥¤
Ġs ystem
à¥Ī) .
Ġ37 1
oh n
R A
m on
à¤Ĺ à¤ľà¤¨à¤ķ
à¤Ľ à¤Ł
Ġà¤Ĩà¤Ī à¤ıà¤¸à¤ıà¤¸
Ġà¤Ĩà¤Ĺ à¤®
Ġn ot
ĠIS IS
T ET
i ed
à¤¤ à¤²à¤¨
Ġà¤ı à¤ªà¤²
Ġà¤īà¤ª à¤¸à¤®
à¤°à¤£ à¤ľ
Ġ31 1
P I
Ġà¤ªà¤¦ à¤§
ĠI V
ma il
N TA
à¤¿ à¥°
à¥Ĥ à¥į
à¤Ī à¤ķà¤²
Ġà¤¶ à¤¯
Ġà¤ĵ à¤ıà¤¸à¤¡
Ġà¤®à¤¨ à¤ªà¤¸
Ġà¤¨à¤µ à¤Ĺà¤ł
à¤¾) .
à¤®à¤¦ à¤Ĺ
Ġ13 00
ĠK umar
Ġf rom
pd f
) '
t ion
à¤¯ à¤¦à¤°
Ġà¤° à¤¤à¤²
Ġà¤ļ à¤°à¤¨
à¥Ģ. """
on al
ĠC ent
S on
à¤µ à¤¬à¤¤
Ġà¤Ĩà¤° à¤µ
à¤¨à¤¦ à¤£
ĠT echnology
Ġ35 6
ol ice
ad e
eal and
elect ron
n ess
Ġà¤Ĩ à¤¬à¤¦
Ġà¤ļ à¤ķà¤®
à¥Īà¤Ĥà¥¤ à¥¤
Ġà¤Ĩà¤Ī à¤Īà¤¡
Ġà¤ıà¤¨ à¤ıà¤¸à¤¡
it ive
V ariable
c es
à¤¸ à¤Īà¤¦
à¤ı à¤ıà¤Ĩà¤Ī
Ġà¤ĸ à¤ª
Ġà¤ıà¤¨ à¤ıà¤®à¤¸
Ġ25 7
ĠC oronavirus
Ġ29 8
ĠElection s
Ġup sc
Ġ u
Ġà¤¹ à¤¶
à¤¶ à¤«
à¤Ń à¤°à¤ķà¤®
à¤ķà¤° à¤µ
à¥Ģà¥¤ à¥¤
Ġ25 4
ĠG lobal
ĠH onor
Ġin ter
Ġà¤²à¥ľ à¤¤
ag es
à¤Ĩà¤°à¤ıà¤² à¤ıà¤®
ah ul
H appy
à¤§ à¤ªà¤¤
à¥Īà¤Ĥ "
à¤ħ à¤µà¤ķ
Ġà¤ĺ à¤Ī
à¤²à¤¨ à¤¶
on ment
an veer
Ġ21 3
arb on
Ġà¤ħà¤ªà¤¤ à¤Ł
4 90
Ġà¤® à¥ĺà¤¸
à¤ı à¤ıà¤¨à¤Ĩà¤Ī
Ġà¤« à¤Ĺ
ic y
14 0
à¥ĭ âĢį
Ġà¤¨ à¤ļ
Ġà¤° à¤¸à¤¦
à¥Ģà¤Ĥà¥¤ """
er a
ĠO pen
og raph
ĠQ u
Ġà¤¤à¤« à¤¸
X IP
Ġà¤ħà¤° à¤¹
Ġ19 00
19 50
art ment
à¥Ĭ à¤Ĥ
Ġà¤Ń à¤°à¤ķà¤®
à¤¥ à¤ķà¤¤
Ġà¤ĸ à¤Łà¤ķ
Ġà¤¹à¤Ł à¤¤
am a
iz ation
à¤Ī à¤ķà¤®
à¤·à¤£ à¤µ
ĠâĢĿ ?
Ġà¤¡à¤¬ à¤µ
ĠPh otos
ĠSp ec
V M
à¥ĩà¤Ĥ \\
Ġà¤ľ à¤ķà¤°
ĠP akistan
ic a
Ġà¤īà¤¤à¤° à¤ķà¤°
à¥« à¥¦
Ġà¤ĺà¤¨ à¤¶
ĠZ ealand
à¥Ī"" à¥¤"
N IA
N CP
à¤® à¤ľà¤¨
à¤µ à¤¦à¤¤
à¤ı à¤¹à¤¤
à¤Ń à¤§
Ġ19 31
Ġà¤ıà¤® à¤ıà¤²à¤ı
ĠC o
ĠK ar
oc i
à¤Īà¤ľ à¤Ĺà¤¤
ĠVID EO
u il
à¤® à¤ļà¤°
à¤Ĩ à¤¡
à¤¸à¤° à¤Ĺ
Ġà¤ľà¤¬ à¤¡
Ġà¤¨à¤µ à¤µà¤°
à¤µà¤°à¤£ à¤µ
ĠR ail
Ġà¤¸à¤¦ à¤Ń
ĠK KR
Ġà¤° à¤¯
Ġà¤ĸ à¤¬à¤°à¤¦
à¤Ĩ à¤Ł
à¤¦à¤° à¤¨à¤Ĺà¤°
à¤µà¤¤ à¤ĸ
Ġà¤ıà¤² à¤ı
IC MR
" '
F A
o ot
à ª
à¥Ģ \\
Ġà¤ħ à¤¯à¤ª
Ġà¤Ĺ à¤Ĺ
Ġà¤ĩà¤¨ à¤¡
ĠN et
à¤ħà¤®à¤° à¤¨
à¤Ńà¤ľà¤¨ à¤¹
artic le
M aharashtra
e at
g ar
à¤° à¤Īà¤¸
à¤¿ âĢ¦
à¤¤ à¤®à¤ķ
htt ps
à¤¿ ...
à¤ľ à¤¹à¤°
à¤¯à¤° à¤µ
à¤¹à¤¨ à¤²
à¤ıà¤ķ à¤®
Ġà¤ħà¤ķ à¤®à¤²
Ġà¤ıà¤¸ à¤Ĩà¤°
ĠJ an
t o
à¤Ĩà¤Ī à¤ĵà¤ı
Ġà¤ħà¤µ à¤¯à¤¸
à¤ıà¤ļ à¤¬
Ġ50 9
à¤°à¤Ĺ à¤£
ĠSc ore
w al
Ġà¤¦ à¤¶à¤®
Ġà¤° à¤Ĺà¤¡
Ġà¤Ĩ à¥ľ
Ġ2 19
à¤ĵ à¤ıà¤²
à¤Łà¤° à¤¬
Ġ20 7
Ġà¤Ľ à¤¤à¤°
à¤¤à¤¨ à¤Ń
19 86
Ġ32 6
à¤Ńà¤µà¤¤ à¤¯
uj arat
vir onment
Ø ©
à¤¤ à¤Ĺà¤¤
à¤¸ à¤§
Ġà¤ħà¤¨ à¤ª
Ġà¤®à¤¹ à¤ķà¤®
à¤¹à¤° à¤¨
à¤Ŀ à¤ľ
à¤¤à¤® à¤¸
Ġà¤¢ à¤²à¤¨
Ġà¤ªà¤¦à¤ķ à¤§
Ġd o
Ġ... ...
Ġà¤²à¤µ à¤£
A F
à¤¤ à¤¹à¤°
à¤· à¤¶
Ġà¤¤ à¤¦à¤°
à¤°à¤® à¤¯
Ġ19 44
ĠP radesh
ĠI PS
ĠT MC
ur ing
ĠV s
ĠSch ool
PP O
) ...
N m
R E
á Ģ
à¤ķ à¤¨à¤°
à¥ģ '
à¤ª à¤ķà¤²
Ġà¤Ķà¤° à¤¸
Ġà¤Ĩ à¤£
Ġà¤Ĩà¤Ī à¤¨
H S
S c
r esults
u th
à¤² à¤°à¤¸à¤¨
à¤¾à¥¤ âĢį
à¤ħ à¤µà¤¶
à¤Łà¤° à¤¶
Ġ19 36
Ġ18 60
ec k
Ġâ Ī
bo ard
Ø ³
Ġà¤¶ à¤Łà¤²
à¤°à¤® à¤µ
Ġà¤Ľ à¤¤à¤°à¤ª
Ġà¤ıà¤µ à¤®
à¤Ĳ à¤²
Ġà¥© à¥¬
Ġà¤¬à¤°à¤¸ à¤¤
, ""
Ġà¤¨ à¤Ĺà¤£
Ġà¤ı à¤¦
Ġà¤Ŀ à¤®
Ġà¤ķà¤°à¤µ à¤Ł
ur r
In ter
Ġà¤¬à¤°à¤¤ à¤¤
6 50
Ġà¤ķ à¤²à¤¬
Ġà¤ªà¤¹à¤² à¤Ĺ
Ġ25 5
Ġà¤ıà¤« à¤ıà¤Ł
ĠM B
G S
Ġ20 9
à¤ĺ à¤²à¤¨
à¤ħà¤ª à¤®
Ġ27 3
ĠPad ukone
- "
C D
M L
k ill
Ġ âĸ¡
à¤ľ à¤¯à¤¦
à¤§ à¤¹
Ġà¤ļ à¤£
à¤¤à¤® à¤¬
à¤ıà¤« à¤ıà¤Ł
Ġà¤¹à¤ľ à¤ķ
Ġà¤ªà¤² à¤Łà¤¤
Ġà¤®à¤Ĺ à¤°à¤®à¤ļ
m od
Ġà¤¹ à¤¥à¤ķ
Ġà¤Ł à¤ĸà¤¨
Ġà¤¶à¤° à¤ľ
âĢĺ âĢĻ
Ġà¤¬à¤° à¤ĸ
Ġ24 2
ĠI ND
ĠD e
Ġà¤ĩà¤¶ à¤°à¤¤
Ġà¥Ń à¥¦
à¤ľ à¤Ĺà¤¨
Ġà¤ļ à¤°à¤¸
à¤¼à¤¾ ?
à¤¹à¤¨ à¤ª
à¥ĩà¤Ĥ. "
Ġb l
ĠRev iew
5 50
g n
Ġà¤¦ à¤ĸ
Ġà¤ıà¤¨ à¤ıà¤¸à¤¸
ĠW atch
à¤ıà¤¨à¤ıà¤¸ à¤ı
Ġà¥§à¥¯à¥ ¨
E X
d à¤¤à¤°
Ġ à¥į
à¥ĩ âĢľ
à¤¿ ),
à¤² à¤ļà¤°
à¤® à¤Ŀ
Ġà¤¬ à¤«
à¤ħ à¤¸à¤°
Ġà¤¸à¤° à¤¯
Ġà¤ªà¤¦ à¤®
en ov
ĠD is
ĠAf rica
à¥Ģ âĢį
à¤ı à¤ıà¤«à¤ª
à¤£ à¤¬
Ġà¤Ł à¤ªà¤ķ
à¤ĵ à¤¯
Ġà¤Ĩà¤° à¤ı
à¤¾? "
ĠC A
Ġà¥¨à¥¦à¥¦ à¥®
IM D
à¤ıà¤¨à¤ıà¤¨ l
ense x
1 70
f rastructure
à¤¡ à¤°à¤µ
Ġà¤Ĩ à¤ĵà¤Ĺ
à¤¥ à¤¹
Ġà¤Ī à¤§à¤¨
à¤°à¤ª à¤Ł
ĠD eath
ĠH ot
Ġà¤®à¥ļ à¤«
3 60
à¤ķ à¤¸à¤¨
à¤ķ à¤¦à¤°
à¤¾à¤Ĥ ?
à¤ıà¤¸ à¤Īà¤¸
à¤¾) :
Ġà¤ªà¤°à¤® à¤ª
à¤°à¤ľ à¤ķ
Ġà¤Ĩà¤¦à¤® à¤ª
à¤² à¤®à¤°
à¤Ł à¤ĸ
Ġà¤ĩ à¤ª
Ġà¤ħà¤µ à¤¤à¤°à¤£
Ġ6 75
Ġà¤ıà¤¨ à¤ıà¤ļà¤ª
Ġà¤¬à¤¦à¤² à¤µ
Ġ24 6
ĠPol ice
0 50
à¤ķ à¤¶à¤¨
à¤ıà¤ļ à¤Īà¤ıà¤²
ĠA US
ĠB h
10 1
Ġ26 4
Ġà¤Ĩà¤īà¤Ł à¤¡
Ġà¤īà¤¨ à¤¹
à¤ľà¤¨ à¤¶
ult ure
so ft
Ġà¤¸ à¤µà¤°
Ġà¤¸ à¤°à¤£
à¥ģ âĢĻ
à¤ª à¤¥à¤°
à¤ı à¤Łà¤²
Ġà¤Ŀ à¤°
ĠS hah
'' .
ate g
G ov
S MS
V I
à¤Ĥ à¥ģ
Ġà¤īà¤ª à¤¶
Ġà¤ħà¤¤ à¤ıà¤µ
or p
ĠN ifty
Ġà¤ªà¤ķà¤¡ à¤©
Ġà¤ªà¤² à¤¡
à¥ĪâĢĻ à¥¤
iw ali
d à¤¥
à¤ı à¤ıà¤®à¤¯
Ġà¤Ĺ à¤ľà¤°
à¤¾à¥¤ '
Ġà¤Ł à¤¸
Ġà¤Ĩà¤¯ à¤²
à¥Ĥà¤ģ "
ol ly
Ġà¥ŀ à¤¸
a ut
Ġ ec
Ġà¤® à¤¨à¤ķ
Ġà¤§ à¤¨à¤¤
à¤Ĩà¤Ī à¤ıà¤¸à¤ıà¤¸
Ġs ec
Ġre g
ĠAN I
d à¤¹
Ġà¤¹ à¤²à¤µ
Ġà¤Ĩ à¤¢
Ġà¤Ĩà¤° à¤ıà¤²à¤¡
Ġà¤¨à¤µ à¤¯
ĠA K
Ġ24 8
à¤¼à¥ĩà¤Ĥ .
ĠM ore
Ġs har
ĠK a
à¤ħà¤¦ à¤°à¤ķ
Ġà¤¦à¤¹ à¤ķà¤¤
A E
à¤¨ à¤Ń
Ġà¤ħà¤¨ à¤«
à¤ıà¤ļ à¤ıà¤²
ĠC ourt
Ġ22 9
ĠD escription
k sh
p o
v iew
à¤® à¤¸à¤®
Ġà¤° à¤ļà¤¯
à¤ĸ à¤¬à¤¦
à¤¤à¤® à¤¯
en e
ĠN S
à¤ªà¤Ł à¤¤
re me
Ġà¤ļà¤°à¤® à¤°
E x
R F
à¤® à¤¬à¤¤
à¤µ à¤§à¤°
à¤¼ ),
à¤ĺ à¤¶
Ġ: :
Ġ. "
Ġ40 3
Ġ28 2
à¥ĩà¤Ĥ) à¥¤
23 38
Ġcon t
HD FC
F S
Ù ĩ
Ġà¤Ń à¤¨
à¤« à¤²à¤¸
à¥Ģà¤Ĥ "
à¤¶à¤¨ à¤§
à¥ľ à¤²
Ġà¤ıà¤® à¤ıà¤²
Ġc ard
à¥§ à¥¨
Ġ ~
Ġ article
à¤Ĺ à¤ı
à¤§ à¤¯
Ġà¤ħà¤¨ à¤¹
Ġà¤īà¤ª à¤Ĺà¤¤
Ġà¤Ľ à¤Ĺà¤¨
Ġà¤ĩà¤ķ à¤ł
ic ial
à¤¶à¤° à¤¥
du ction
bh p
Ġ en
à¤² à¤¯à¤ķ
à¤®à¤¨ à¤µà¤®
Ġ3 12
Ġà¤Ĩà¤Ī à¤ıà¤¸à¤ı
Ġ19 29
ur ity
Ġb ihar
IN X
IS RO
Ġcom p
' .
à¤ķ à¤¦à¤¨
à¥ĩà¤Ĥ /
Ġà¤Ł à¤¹à¤¨
Ġ6 25
19 60
Ġ15 000
ĠP at
Ġà¤ļà¤°à¤£ à¤ľ
ĠW i
à¤ħà¤ľ à¤¹à¤°
Ġpr ice
i j
à¤¯ à¤¸à¤°
Ġà¤Ľ à¤ªà¤°
à¥Ģ. ,
Ġ6 36
ĠP ost
Ġà¤¤à¤² à¤Ľà¤Ł
ĠB ihar
ag ement
otor ola
F I
à¤ıà¤² à¤Īà¤¡
à¤¤à¤µ à¤¯
Ġà¤¦à¤² à¤µ
Ġà¤ªà¤ķ à¤µ
ic h
ĠF in
à¤Ĩà¤Īà¤Ĩà¤° à¤ıà¤¸
à¤Ĩà¤Īà¤ı à¤ıà¤«
enov o
à¤²à¤¨ à¤¸
à¤ªà¤ķ à¥ľ
19 0
ĠA B
it i
Ġà¤ªà¤¨ à¤ªà¤¨
ĠPr esident
ash mir
ug h
A d
k e
y m
à¤¡ à¤°à¤®
Ġà¤ĩà¤¨ à¤°
Ġà¤ķà¤² à¤¶
Ġà¤ıà¤¸ à¤ıà¤«à¤Ĩà¤Ī
à¤ļà¤² à¤®
à¤ıà¤ļ à¤ıà¤«à¤ıà¤²
ĠIn ternational
ach chan
3 99
P h
s w
à¤¯ à¤Ńà¤°
Ġà¤¹ à¤µà¤¨
à¤®à¤² à¤²
à¤¯à¤¨ à¤°
Ġ19 25
at ing
Ġ25 2
ĠA ward
Ġ22 3
Ġs mart
Ġs ays
ot t
à¤ħà¤« à¤µ
IC ICI
Ġcon dition
y l
Ġà¤ķ à¤ĩà¤¯
Ġà¤¹ à¥ľà¤ķ
19 87
Ġ23 3
Ġ29 2
A K
Ġà¤¹ à¤¸à¤®
à¤ĸ à¤¤à¤°à¤¨
Ġà¤« à¤¤à¤µ
Ġà¤Ī à¤¡à¤¬
Ġà¤Ĩà¤Ĺ à¤µ
à¤ķà¤¨ à¤Ĺ
à¥§ à¥¬
Ġt echnology
Ġn ta
sp ace
H uawei
d ata
Ġ 000
à¥Ī à¥į
Ġà¤¥ à¤²à¤Ĺ
Ġà¤ªà¤¦ à¤¯
Ġ49 7
Ġà¤²à¤Ł à¤ķà¤¤
ounc il
I m
N ational
O OC
i ent
p m
à¥į )
Ġà¤ħ à¤ĸà¤°
Ġà¤² à¤¥
à¤µà¤ª à¤²
ĠB igg
Ġ35 3
our ce
Raj asthan
olly wood
C I
d à¤µ
à¤² à¤Ńà¤Ĺ
à¤¦ à¤¯à¤¤
à¤Ī à¤µà¤°
à¤¥ à¤¦
à¤Ĩà¤° à¤¯
19 88
Ġ17 00
à¤ħà¤Ĺà¤° à¤ļ
Ġ31 5
ul ar
Ġà¥§à¥¯à¥§ à¥ª
à¤ļ à¤¶
Ġà¤¯ à¤¶à¤¸
à¥ĩ) à¥¤
Ġ21 1
ĠT rans
Ġb and
Ġ43 9
Ġà¤ħà¤®à¤¨ à¤¦
à¤¾ à¥ģ
Ġà¤® à¤Ĺà¤¨
Ġà¤ħ à¥ŀ
à¤¸à¤° à¤ª
Ġ6 30
Ġ6 40
Ġà¤ľà¤Ĺ à¤¦à¤²à¤ª
en n
ro me
Ġ27 1
ĠG S
28 8
à§ į
Ġà¤ħà¤ľà¤° à¤¬
Ġ em
à¤¦ à¤«
à¤Ń à¤²à¤ķà¤°
à¤ĵ à¤Ī
à¥ĩà¥¤ âĢĿ
à¤ģ )
Ġ40 6
à¤ıà¤®à¤ıà¤¸ à¤¡
Ġ34 2
Ġà¤ķà¤¤à¤° à¤¨
Ġà¤¬à¤°à¤¹ à¤ķ
Ġà¤¬à¤°à¤ķ à¤¤à¤µ
3 40
7 99
Ġà¤¸ à¤ĭ
Ġà¤® à¥Ļà¤²
à¥ĩà¤Ĥ ""
à¤¡ à¤ľ
Ġà¤¤ à¤¬à¤°
à¥Ī. '
Ġà¤Ľ à¤¨
Ġ19 37
Ġà¤ħà¤¦ à¤Ń
Ġà¤ıà¤« à¤Īà¤Ī
10 4
12 3
Ġà¤ķà¤¦ à¤°à¤¦
ill ion
Ġà¤¬à¤°à¤¹ à¥ĺ
T h
r b
à¥ ¢
à¤¤ à¤ĺ
à¤¤ à¤¬à¤¦
à¥ĭ %
à¤Ī à¤Ĩà¤Ī
à¤¾à¤Ĥ /
à¤ħ à¤«à¤°
à¤°à¤® à¤¦
Ġà¤Ĩà¤° à¤Ĩà¤°
Ġà¤®à¤¤ à¤µ
à¥Ĥà¤ģ !
à¤®à¤¹ à¤ľ
à¤Ķ à¤ªà¤ļ
à¤¸à¤®à¤Ŀ à¤ķà¤°
Ë Ī
Ĺ Ĩ
à¤¿ âĢĿ
à¤°à¤® à¤ª
Ġà¤īà¤ļ à¤ķ
Ġà¤ıà¤¨ à¤ıà¤«à¤¸
19 85
à¤ªà¤² à¤µà¤²
Ġ21 4
12 9
ĠL G
à¥§ à¥©
tt ar
ĠSt ar
PF O
ĠCN Y
à¤¨ à¤Ĺà¤¤
Ġà¤® à¤¡
à¥Ģà¤Ĥ à¤Ĥ
à¤¶à¤¨ à¤¸
à¤ıà¤¸ à¤ıà¤®à¤ıà¤¸
à¤Ĩà¤° à¤ıà¤¨
Ġà¤Ĩà¤Ī à¤ıà¤¨à¤ı
Ġ19 41
à¤ħà¤² à¤µà¤°
ĠI m
Ġ21 2
Ġà¤¬à¤°à¤¤ à¤°
up sc
um an
à¥ĪâĢĿ à¥¤
DM K
1 21
P O
t ic
Ġà¤¶ à¤Łà¤²à¤°
à¤¡à¤° à¤ª
Ġà¤¢ à¤ķà¤¨
10 5
Ġ23 6
Ġà¤ĵà¤µà¤° à¤²
et er
il m
ĠRe g
ĠOn line
rail er
b and
à¤Ĥ '
à¤Ł à¤ļ
à¤¯à¤° à¤«
à¤µà¤¨ à¤¦
à¤¾. âĢĻ
Ġ19 34
iv al
olog ical
+ +
à¤Ń à¤¡
à¤ĸ à¤Ĺ
à¤Ĩ à¤²à¤®
Ġà¤®à¤¨ à¤ļ
à¤ľà¤¯ à¤¸
Ġà¤¤à¤¬ à¤¸
at or
ĠG o
Ġ35 5
Ġ ent
à¤² à¤¬à¤²
Ġà¤Ĺ à¤¦à¤¹
à¤¸à¤² à¤ķà¤°
Ġà¤ĵ à¤ĸà¤²
Ġà¤ł à¤£
ĠT ax
Ġ34 9
Ġà¥ª à¥«
à¤²à¤Ńà¤Ĺ à¤¢
à¥Ģ """"
à¤¦ à¤°à¤¦
à¤¬ à¤°à¤ķ
Ġà¤ļ à¤ĸà¤¨
à¥Ģà¥¤ ""
Ġà¤ķà¤°à¤¤ à¤¬
à¤¯à¤° à¤¨à¤®
à¤¸à¤¨ à¤¹
Ġà¤¤à¤¬ à¤¤à¤ķ
à¤¨à¤¹ à¤Ĺ
à¤Ĩà¤ĩ à¤Ĩà¤°
ĠSt ate
ang e
M o
w ar
Ġ âĢį
Ġ50 5
am i
ur i
à¤¨ à¥ľ
à¤¦ à¤¹à¤µ
Ġ7 47
S hah
à¤° à¤¨à¤¤
Ġà¤¸ à¤¨à¤¦
à¤ªà¤° à¤µà¤°
Ġ19 32
19 72
Ġà¤ıà¤® à¤Ĩà¤°
Ġà¤®à¤¶ à¤µà¤°
à¤ıà¤¨à¤ıà¤ļ à¤Ĩà¤°à¤¸
N T
e el
Ġà¤¬ à¤ª
Ġà¤ħà¤² à¤¸
à¤ıà¤« à¤ıà¤®
ĠP G
Ġà¤¤à¤® à¤Ĺ
à¤ªà¤¶ à¤ª
Ġc ol
à¤Ĩà¤Īà¤ıà¤® à¤ı
à¤Ĩà¤ł à¤µ
ĠSab ha
à¤¬ à¤Ĺà¤¦
Ġà¤¡ à¤²à¤¹
à¤¦à¤° à¤°
Ġ26 3
as ed
ĠBS F
ĠAss embly
P riyanka
g a
à ¯
Ġà¤¸ à¤ķà¤°
à¥Ī âĢĶ
à¤Ĺ à¥ľà¤¨
à¤¾à¤Ĥ :
à¤ī à¤°à¤ķ
Ġà¤¹à¤® à¤µà¤¤à¤¨
à¤ĺ à¤¤
à¤²à¤ķ à¤¡
ĠS IT
à¤²à¤¹ à¤µ
ĠI RCTC
ĠM ah
ĠT ime
em icon
qu e
emicon duct
N P
r is
r and
à¤¯ à¤ªà¤°
à¥ĩà¤Ĥ "
à¤Ń à¤¸
à¤Ĺà¤² à¤°
Ġ19 43
Ġ25 9
il d
Ġà¤īà¤Ńà¤° à¤ķà¤°
Ġr esults
form ation
à¤° à¤Łà¤°
à¤¸ à¤ľà¤¦
Ġà¤® à¤ķà¤¡
Ġà¤¨ à¤µà¤¸
Ġà¤ħ à¤¶à¤ķ
à¤§ à¤ľà¤¨
à¤· à¤¯à¤°
Ġà¤Ĺ à¤¬à¤¨
Ġ( @
Ġà¤¤à¤ķ à¤¬
Ġà¤ħà¤ľ à¤Ĺà¤°
ĠT R
Ġ26 7
à¥§ à¥Ń
ang ana
Ġà¤ħà¤¸à¤¹ à¤¯
nect ivity
G Hz
à¤¿ (
à¤¸ à¤ıà¤²
à¤Ĩ à¤ªà¤¤
Ġà¤ħà¤¸ à¤¬
à¤¦à¤µ à¤ª
à¤ıà¤ļ à¤ıà¤®à¤¸
Ġà¤ıà¤ļ à¤ıà¤¸à¤¬
Ġfor ecast
f or
g en
à¥ĩ à¤¿
à¤¸ à¤Ī
à¤¹ à¤¦à¤°
Ġà¤ª à¤ķà¤¨
à¤ıà¤¸ à¤ıà¤¨
à¤°à¤¹ à¤¸
10 9
Ġ28 6
ir m
ag ram
à¥ĩà¤Ĥ %
Ġà¤¬ à¤¦à¤¸
à¤ĩ à¤µà¤²
à¤ĺ à¤ļ
à¤¬à¤² à¤ª
à¤ıà¤ķ à¤¦
à¤·à¤° à¤ķà¤°
à¤ıà¤¸à¤ıà¤¸ à¤¬
Ġn ame
SC O
m oh
w o
Ġà¤® à¤Ĭ
à¤¬ à¤ķà¤®
à¤¾à¥¤ âĢĻâĢĻ
à¤ī à¤·
à¤Ĥà¥¤ "
et s
Ġ34 1
à¤ĭà¤· à¤Ń
ĠRes earch
P ad
à¤¡ à¤ķà¤ª
Ġà¤Ĩ à¤®à¤¦
à¤¶à¤¤ à¤¤
Ġà¤ªà¤¢ à¤¨
ĠP O
ĠN ET
ab h
Ġ47 1
ĠAl l
D eepika
Ġà¤¸ à¥ŀ
à¤§ à¤¨à¤ķ
Ġ( '
Ġà¤ħà¤¨ à¤ªà¤¢
à¤ĵ à¤ĵ
Ġà¤Ī à¤ıà¤¸à¤ª
Ġ19 22
ĠI T
à¤¯à¤£ à¤Ĺà¤¢
ind ows
icro soft
Ġ[( -)
à¤¯ à¤µà¤¤
à¤® à¤ı
à¤Ł à¤ļà¤°
à¥ĭà¤Ĥ âĢĻâĢĻ
à¤¼ ""
Ġà¤ı à¤®à¤°
à¤ĩà¤¸ à¤ª
à¤°à¤µ à¤ª
Ġà¤ł à¤ķ
Ġà¤ıà¤¸ à¤Īà¤ľ
Ġ24 1
ĠB engal
10 3
Ġ29 3
ĠU I
Ġ33 6
AT F
P rev
e op
à¤Ĺ à¤²à¤¨
à¤¼ âĢĻ
à¥Īà¤Ĥ )à¥¤
Ġà¤« à¤£
à¤¿à¤Ĥ .
à¤µà¤° à¤¸
on as
Ġà¤ıà¤² à¤ıà¤²à¤ª
Ġ36 6
ap e
Ġr esult
à¤¨ à¤°à¤®
Ġà¤Ĺ à¤¹
om ic
ĠIn stitute
op er
ast e
ff ect
Ġà¤Ĩà¤Īà¤Ĩà¤Ī à¤ıà¤¸à¤¸
W S
à¤ ½
à¤ķ à¤¤à¤¨
Ġà¤¦ à¤¶à¤°à¤¥
à¤¼ âĢįà¤¿
à¥Īà¤Ĥ ),
Ġà¤ı à¤¡à¤²
à¤Ŀ à¤¬
Ġ5 60
19 83
Ġ24 00
à¤¾: -
ĠIn fin
à¤¯à¤£ à¤ª
Ġre c
Ġac c
Ġle vel
1 12
H SE
V irat
à¥Ī. .
à¤¬à¤¦ à¤²à¤¤
ĠP U
ĠM ed
Ġ36 3
48 8
Ġdi st
Ġà¤Ĩà¤¸à¤¨ à¤¸
A mit
à¤® à¤¹à¤²
Ġà¤° à¤¦à¤°
à¤ħ à¤ł
à¥Ģ) -
à¤ıà¤« à¤Ĩà¤Īà¤ª
ĠP art
Ġs ub
re c
as on
13 5
Ġ33 8
à¤ıà¤®à¤Ī à¤ľ
ush ka
à¤ī à¤¡à¤¸
Ġà¤ıà¤¸ à¤Ī
Ġ19 28
st agram
à¥ĩà¤Ĥ) .
T ube
W eather
n ew
à¤¾ âĢĵ
à¤ķ à¤Łà¤ķ
à¤µ à¤¯à¤¸
Ġà¤¯à¤¹ à¤¹
ĠâĢ Į
Ġ3 44
19 79
Ġ30 1
Ġà¥¨à¥¦à¥¦ à¥Ń
ĠAd mission
c le
Ġà¤ķ à¤¨à¤ķ
à¥¤ âĢĿ
à¤¬ à¤µà¤¤
Ġà¤Ĩ à¤¥
Ġà¤ĩ à¤¬à¤²
à¤ĺ à¤¨à¤¤
à¤¦à¤¸ à¤µ
Ġ19 18
19 77
ĠA BS
ĠB and
Ġà¤ĵà¤µà¤° à¤¡
ĠX S
ĠHD R
âĢİ ,
1 18
c lass
i ber
à¤§ à¤¬
Ġà¤¤ à¤Łà¤¬
Ġà¤ļ à¤®à¤¨
à¥Ľ à¤ķ
à¤®à¤¦ à¤²
at ta
Ġ30 8
Ġ50 4
ĠO r
Ġà¥§à¥¯à¥ ¯à¥¦
Ġ43 8
Prev ious
L G
à¤° à¤ĸà¤¤
à¤¸ à¤ıà¤ķ
à¤¦ à¤¤à¤¨
à¤µà¤° à¤µ
à¤¦à¤¨ à¤ķà¤°
Ġà¤ľà¤¨ à¤§à¤¨
Ġ6 99
à¤ĩà¤² à¤°
ĠA IIMS
Ġà¤®à¤² à¤ª
Ġ22 1
ra s
à¥§ à¥ª
hats app
High lights
Ġà¤²à¤¥ à¤ªà¤¥
A m
M A
r est
à¤¨ à¤¬à¤²
Ġà¤Ĺ à¤°à¤¦à¤¨
à¤ħ à¤®à¤²
Ġà¤¸à¤° à¤«
Ġà¤Ŀ à¤ªà¤Ł
à¤°à¤« à¤¤
à¤°à¤¬ à¤ĸ
Ġ23 7
11 4
14 4
à¤¸à¤®à¤Ŀ à¤¨
ĠTr ump
p ar
Ð ¸
à¥Ģ) .
Ġà¤Ķ à¤ļà¤ķ
Ġ23 2
22 4
27 1
ab el
abad di
C o
m et
n ow
à¥ģ à¤¼
à¤¦ à¤®à¤¨
à¤ĩà¤¨ à¤µ
Ġ4 40
à¤ıà¤¨ à¤Īà¤ª
Ġ19 23
ĠS P
Ġà¤ªà¤Ł à¤¸à¤¨
Ġà¤ķà¤Ł à¤ĺà¤°
Ġà¤¦à¤® à¤¨à¤ķ
Ġo ut
Ġà¤ıà¤®à¤ıà¤¸ à¤ķ
Ġw orld
ond ary
Ġà¤ª à¤ľ
Ġà¤Ĩà¤¯ à¤¤à¤¨
Ġà¤Ĩà¤Ī à¤ķ
Ġà¤ıà¤¸ à¤ĵ
à¤ıà¤¨ à¤ıà¤«à¤¸
à¤īà¤¦ à¤¯
Ġ26 2
11 7
Ġn et
ĠX T
Ġ54 3
Ġà¥® à¥¦
à¤Ĺà¤Ī à¤¥
Ġex am
? "
j un
à¤ı à¤ıà¤¸à¤ª
à¥Īà¤Ĥà¥¤ âĢĻâĢĻ
à¤¼à¥Ģ âĢĻ
Ġà¤ĳ à¤ķà¤²
Ġ- "
""" %
19 74
à¤·à¤¤ à¤¯
Ġ21 6
Ġ32 9
ĠW HO
Ø ª
à¥į à¥į
à¤ª à¤¬à¤¦
à¤¡ à¤¦
Ġà¤ĩ à¤ķà¤°
er al
ĠT railer
Ġ23 1
Ġ23 8
il es
ya an
b ability
à¤ı à¤Ń
à¥Ĥ à¥Ĥ
Ġà¤« à¤«
Ġ3 21
Ġà¤Ĩà¤Ī à¤²
à¤°à¤Ń à¤ķ
ra j
58 6
lect ron
Ġ25 8
ĠR JD
à¤ĳ à¤¯à¤²
ak h
ĠPh oto
à¤ľà¤¬à¤² à¤ª
V ideo
à¤ª à¤¦à¤ķ
à¥ĭà¤Ĥ :
Ġà¤ħ à¤ķà¤²
à¤¼ à¥Ģà¤Ĥà¥¤
Ġà¤¹à¤® à¤°
à¥ĩà¥¤ âĢĻ
à¤ıà¤¨ à¤ıà¤ļà¤ª
à¤ıà¤² à¤ıà¤²
à¤ıà¤« à¤ıà¤¸à¤ıà¤²
ĠP er
ĠA L
Ġà¤ıà¤« à¤ıà¤¸à¤ıà¤²
ĠV odafone
Ġst ud
D F
E G
T T
Ġ are
à¥Ģ """
à¤ķ à¤ı
Ġà¤ī à¤¦à¤°
à¤Ń à¤µà¤¹
Ġà¤ħà¤¨ à¤ļ
à¤¸à¤° à¤¨
à¤¬à¤° à¤ª
à¤µà¤² à¤®
19 82
à¤¥à¤¨ à¤Ĺà¤°
10 7
à¥§ à¥§
à¤°à¤ķà¤° à¤¨
ĠU RL
f ace
l ad
o ard
o int
u f
à¤Ĥ !
Ġà¤¬ à¤ľà¤¨
à¤ı à¤Ĩà¤°à¤¸
à¤¡ Ã¯
Ġà¤ªà¤° à¤ļ
Ġ15 11
à¤ľà¤Ĺ à¤£
Ġà¤ķà¤Ł à¤ĳà¤«
Ġ33 2
ĠAd v
M y
à¤² à¤ªà¤°
Ġà¤ľ à¤Ĺà¤°
Ġà¤¦ à¥ŀ
à¤¡ à¤ıà¤®
Ġà¤ĸ à¤Ĺà¤¡
Ġà¤¬à¤² à¤µà¤¨
Ġà¤ıà¤« à¤ıà¤¸à¤ıà¤¸à¤ıà¤Ĩà¤Ī
ĠN o
Ġà¤ıà¤ļ à¤Ĩà¤°à¤¡
Ġc ent
à¤Ĩà¤Īà¤ıà¤« à¤ıà¤¸
gr am
ĠCC TV
l ay
à¥Ī ]
à¤ķà¤° à¤Ĺ
à¤ħ à¤µà¤°
à¤¹à¤® à¤ķ
Ġà¤¸à¤° à¤¹
Ġà¤¸à¤¤ à¤µ
Ġà¤ıà¤® à¤ıà¤«
en ef
ĠH uawei
Ġ34 8
ĠX L
ĠX R
hi ef
Ġà¥¯ à¥¦
C ET
b e
à¤¬ à¤¶
à¤¡ à¤ļ
Ġà¤ıà¤ķ à¤ªà¤ķ
à¥Īà¤Ĥà¥¤ '
Ġà¤®à¤¹ à¤ķ
Ġ19 27
à¤¦à¤µ à¤Ī
Ġà¤¹à¤Ł à¤µ
Ġ28 7
v ers
à¤§ à¤Ĺà¤¯
à¤ķà¤² à¤ķ
Ġà¤ªà¤¦ à¤µ
Ġ19 24
Ġà¤ĸà¤° à¤¡
ĠC ovid
ĠM et
Ġà¤ı à¤®à¤¨
Ġà¤ħà¤µ à¤ļ
ĠC ouncil
Ġ28 5
Ġà¤ªà¤°à¤ĸ à¤ļ
m AH
s l
Ġ am
Ġ ab
Ġà¤¤ à¥ľà¤ķ
Ġà¤ı à¤ıà¤«à¤¸
à¤« à¤µ
à¤¢ à¤¸
à¤ĩà¤Ł à¤¹
à¤°à¤¨ à¤¹
ĠB achchan
à¤Ĩà¤Īà¤ıà¤¸ à¤ıà¤²
à¤°à¤¥ à¤®à¤¦
ers hip
Ġà¥¨à¥¦à¥¦ à¥¬
oh it
SL C
k y
à¤ķ à¤¬à¤¡
à¤¸ à¤¶à¤ķ
à¤Ĺ à¤µà¤¶
à¤Łà¤° à¤¹
ĠR am
ĠI B
ĠB ang
10 6
Ġ26 6
Ġc han
et a
à¤ıà¤¨à¤ıà¤ļ à¤ıà¤®
ĠBS NL
3 80
à¤Ĺ à¤¨à¤°
à¤¶ à¤ļ
Ġà¤¤ à¤«à¤°
er ing
Ġà¤ıà¤« à¤Ĩà¤Īà¤Ĩà¤Ī
Ġà¤ķà¤ł à¤ĺà¤°
Ġ40 1
ĠG T
14 5
Ġ46 8
Ġà¥¨à¥¦à¥¦ à¥¦
a u
f w
à¤¿ %
à¤ħ à¤¥
à¤°à¤£ à¤ķà¤°
Ġà¤ıà¤® à¤Ĩà¤°à¤ª
ĠS S
Ġà¤¶à¤¹ à¤¡
Ġp re
Ġà¤ħà¤ªà¤¹à¤°à¤£ à¤ķà¤°
2 40
u el
à¥ĩ """
à¤¨ à¤µà¤¨
Ġà¤ķà¤° à¤°à¤¹
00 1
à¤ıà¤² à¤Ī
er m
Ġ18 72
à¤²à¤¹ à¤¸
ĠB e
as es
ov e
ĠU l
Ġt echn
ary ana
AS A
t emperature
Ð ¾
Ġ ass
à¤² à¤Ńà¤°
à¤°à¤¤ à¤Ł
Ġà¤¸à¤® à¤¦
à¥Īà¤Ĥ. âĢĻ
Ġ4 70
Ġ19 21
Ġ21 00
Ġs ch
Ġà¤ıà¤¨à¤ıà¤« à¤ıà¤¸à¤ı
A IMIM
Ø Ń
à¤¾ âĢĺ
Ġà¤ª à¤¨à¤µ
à¤ı à¤ħà¤°
Ġà¤Ĩ à¤«à¤°
à¤Ĩ à¤ķà¤²à¤¨
à¤ħ à¤¦à¤¨
à¤¨à¤¤ à¤¦
19 78
ĠS an
ĠK abaddi
à¤¯à¤£ à¤¤
Ġà¤°à¤®à¤¨ à¤¦
ric t
, ,
5 99
O G
à¥Ģ âĢĵ
à¤¹ à¤²à¤¨
à¤°à¤¤ à¤ħ
Ġà¤¸à¤® à¤®
à¤ī à¤«
à¤ĵ à¤ıà¤²à¤Ł
Ġà¤ķà¤® à¤¸
Ġà¤ħà¤¬ à¤¶
Ġà¤ıà¤¨ à¤¡à¤¬
11 1
ĠÂ £
andra yaan
gar h
moh fw
B N
à¤¨ à¤¥
à¤¸ à¤ĭ
à¤µ à¤¤à¤°
à¤« à¤²à¤ķ
à¤¹à¤® à¤¦
à¤¯à¤¤ à¤®
19 48
19 69
Ġà¤ľà¤Ĺ à¤¬
Ġà¤ľà¤¯ à¤ľà¤¯à¤ķ
Ġ36 8
ag ar
Ġà¤¨à¤« à¤¸
ans atta
IB PS
P akistan
U IDAI
Ġ Ã
à¤® à¤ľà¤¸
à¤ļ à¤¹à¤²
à¤µà¤° à¤¶
Ġà¤ĵ à¤¸à¤µ
Ġà¤Ĩà¤Ī à¤ıà¤®
Ġà¤ıà¤¨ à¤ĵà¤¸
à¤¸à¤¤ à¤¹
Ġà¤Ķ à¤ķ
ĠM o
à¤ıà¤¸à¤Ī à¤Ĩà¤°
à¤¾"" ,
à¥Ī' .
) ]
2 20
P ay
U GC
à¤° à¤¶à¤ķ
à¤¡ à¤¸à¤®
à¤ļ à¤¹
Ġà¤Ĺ à¤ªà¤¶à¤ª
à¤µà¤° à¤¬
à¤¦à¤° à¤¬à¤²
Ġ4 10
Ġà¤ľà¤¨ à¤Ń
Ġà¥ĺ à¤¦à¤°
17 5
à¤¾âĢĻ à¥¤
à¤Ĩà¤Īà¤Ĩà¤° à¤ıà¤«
ĠK ey
ce pt
à¤Ĩà¤īà¤Ł à¤ª
ind ra
M bps
Ġ Ùħ
Ġà¤ħ à¤¸à¤¨
à¥Ĥ ""
à¤« à¤Ĺ
Ġà¤§ à¥ľ
Ġà¤ħà¤ª à¤¦à¤¸
19 73
19 81
ar th
le ase
12 7
Ġc ap
et y
Ġ37 9
ĠIS RO
: ,
Ġà¤ķ à¤µà¤ķ
à¥ĭà¤Ĥ âĢĿ
Ġà¤« à¥ľ
Ġt est
à¥Ī! """
if e
) |
l oad
Ġà¤ª à¤¦à¤¨
Ġà¤ľ à¤¯à¤µ
à¥Īà¤Ĥ à¤Ĥà¥¤
Ġà¤ı à¤ıà¤Ĩà¤Ī
à¤ķà¤° à¤°
à¤®à¤² à¤¬
à¤·à¤£ à¤ķ
Ġà¤Ĩà¤Ī à¤¯
Ġà¤ıà¤¨ à¤ıà¤¬
Ġà¤ħà¤Ĺà¤° à¤¬à¤¤
ar ri
ĠB an
ĠN AME
Ġà¤¨à¤ľ à¤«
à¤īà¤ª à¤Ĺ
Ġà¥§à¥¯à¥¯à¥ ¬
bo x
lic ation
ĠTe am
H U
J ohn
V odafone
à¤¯à¤¹ à¤¸
à¥Ĥà¤Ĥ !
à¥Ģ. ),
Ġ8 88
ar g
ĠP unjab
Ġà¤ıà¤« à¤Ĩà¤Īà¤ª
ĠN ame
Ġst at
uk h
uil ding
Ġà¤¸ à¤¶
à¤§ à¤ķà¤¤
à¤· à¤ķà¤¤
Ġà¤ļ à¤®à¤Ĺ
à¤ħ à¤¦à¤¬
Ġà¤Ĩà¤° à¤Ī
Ġ9 50
ar ed
Ġà¤¤à¤² à¤¹à¤Ł
à¤ªà¤£ à¤ľ
Ġc l
Ġ46 7
à¦ ²
Ġ \
à¤Ĺ à¤¨à¤²
Ġà¤° à¤¥à¤¯
à¤ķà¤° à¤ª
Ġà¤Ĩà¤° à¤Ĩà¤Ī
Ġà¤Ĩà¤Ī à¤ıà¤«à¤¸
à¤ıà¤² à¤ıà¤¸à¤ıà¤¸
Ġà¤Ĭ à¤¬
ĠS T
à¥ĺ à¤²
12 6
Ġà¤īà¤¤à¤° à¤µ
iv es
ĠJ onas
ĠJ ansatta
ph ase
are ena
ĠMar ket
à¥į :
Ġà¤¸ à¤ªà¤°
à¤¬ à¤¦à¤¨
à¤ĸ à¤°à¤£
à¤¾à¤Ĥ à¤Ĥ
à¤« à¤¦
Ġà¤« à¤¹
Ġ19 33
Ġà¤²à¤¡ à¥ĺ
12 4
Ġ28 4
Ġs ector
Ġ27 4
ĠG u
re t
c arbon
h el
à¥Ģ âĢĶ
à¤¸ à¤ł
à¤ª à¤°à¤¦
à¤¶ à¤µà¤°
Ġà¤² à¤ļà¤°
Ġà¤ı à¤Ĩà¤Īà¤¬
à¥Ģà¥¤ âĢĿ
à¤Ĩà¤° à¤Ī
Ġà¤Ĩà¤Ī à¤ıà¤®à¤ı
Ġà¤ıà¤ļ à¤Ĩà¤°
Ġ27 6
ĠV er
1 19
à¤¤ à¤²à¤ķ
à¤Ī à¤¡à¤¬
à¤°à¤¤ à¤ķ
à¥Ĥà¤Ĥ -
Ġ4 60
à¤¹à¤¨ à¤¨
Ġà¤ıà¤¡ à¤ľà¤¸
am ent
ĠW ith
à¥Ĥà¤ģà¥¤ ""
RC B
ev a
ĠÂ ²
Ġà¥¨à¥¦à¥¦ à¥«
ĠSR H
r en
z a
à¤² à¤Łà¤¨
Ġà¤® à¤Łà¤ķ
à¤ı à¤¯à¤°à¤¸
Ġà¤ĸ à¤¸à¤°
Ġ35 2
ent ial
à¤Ĩà¤Īà¤ıà¤¸ à¤Ĩà¤Ī
Ġi m
Ġw ork
Ġà¤¿ à¥ĩ
J K
O L
h u
w a
à¥ģ âĢį
à¤¦ à¤¶à¤®
à¤¨à¤¤ à¤µ
Ġ5 20
13 9
ir l
âĸ º
ang u
5 000
f e
à¤¨ à¤Ŀ
à¤® à¤¹à¤®
à¤ľ à¤°à¤µ
à¥Ī. âĢĻâĢĻ
à¤Ĩà¤Ī à¤ıà¤¸à¤ª
Ġà¤ĳ à¤ĸ
Ġà¤Ī à¤¶à¤¨
Ġà¤ľà¤² à¤ľà¤²
à¤²à¤µ à¤®
ĠI AS
ic i
Ġ31 7
ĠH y
ig ital
Ġà¤¹à¤®à¤¸ à¤«à¤°
à¦ ¿
ps c
Ġà¤®à¤°à¤ķ à¤ľ
Ġà¤Ĩ à¤¹à¤²
à¤ĩ à¤ľà¤¨
à¥ĥ âĢį
à¤ħ à¤£
à¤Ĩà¤° à¤Ĩà¤°à¤¬
20 5
ĠA aj
ion al
ĠD VD
Ġ29 6
ra ct
13 4
ur u
ĠV OOC
Ġà¥ļ à¥Ľà¤¬
Ġi bps
Ġà¤®à¥Ľ à¤¹à¤¬
à¥Ī' à¥¤
rad e
A Y
à¤° à¤Ŀ
à¤Ĺ à¤¹à¤¨
à¤Ĺ à¤Ĺà¤¨
à¤¡ à¤°à¤¤
Ġà¤ı à¤¬à¤°
à¤¼à¤¿ âĢį
Ġà¤¬à¤¦ à¤¤à¤®
Ġà¤¶à¤¹à¤° à¤¯
Ġà¤ħà¤¶ à¤«
Ġ31 3
ĠG DP
à¤ıà¤¸à¤Ĩà¤Ī à¤¡
lim ate
_ _
t ing
à¤ķ à¤ĩ
à¤§ à¤Ĺ
Ġà¤¹à¤® à¤¦
Ġà¤Ľ à¤²à¤ķ
Ġà¤Ĩà¤ľ à¤¤à¤ķ
Ġà¤ĵà¤° à¤²
à¤ĩà¤Ł à¤¸
à¥ĩà¤Ĥà¥¤ """
ĠC har
ĠM T
ĠB udget
à¤īà¤¦ à¤¯à¤ª
Ġm m
Ġe lection
U R
Ġ à¥Ģ
à¤ı à¤Ĩà¤Īà¤Ł
Ġà¤ªà¤° à¤Ń
Ġà¤ľà¤² à¤ķ
ĠBo ok
aterial s
6 99
9 85
A IIMS
E P
à¤¸ à¤®à¤²
à¤¬ à¤¦à¤°
Ġà¤¡ à¤Ĺà¤²à¤¸
à¤¨à¤ķ à¤µ
Ġà¤Ī à¤¦à¤Ĺ
à¤ıà¤¨ à¤°
19 76
ĠB usiness
ĠN SE
re ct
us s
ĠL anka
Ġà¤īà¤ľ à¤°à¤¤
Ġd u
à¥© à¥¦
à¤ıà¤¨à¤Ī à¤Ĩà¤°
S alman
à¤ķ à¤Łà¤¨
à¥Ī à¥Īà¥¤
à¤Ń à¤ķà¤°
à¤ī à¤Ńà¤°à¤¤
Ġà¤¸à¤¬ à¤²
Ġà¤ľà¤¬ à¤¸
à¤ıà¤® à¤ıà¤ļà¤ı
à¤ıà¤¨ à¤Ĩà¤Īà¤Ł
Ġà¤ıà¤¨ à¤ı
Ġà¤ıà¤® à¤ıà¤«à¤ª
Ġà¤ıà¤« à¤Ĩà¤ĩà¤Ĩà¤°
Ġ27 8
Ġ32 8
à¥§ à¥¯
ener al
de a
eop le
ï Ĥ
à¤ķ à¤Łà¤®
à¤¡ à¤ĭ
Ġà¤¸à¤® à¤ľ
Ġ3 19
à¤µà¤¨ à¤¯
à¤ıà¤² à¤¡à¤¬
à¤ıà¤² à¤ıà¤Ł
19 61
à¤ľà¤¹ à¤¦
at ic
ĠA t
ĠN D
15 5
Ġd ef
à¤ıà¤¸à¤ıà¤² à¤¸
con t
N AME
g an
s on
à¤¾ à¥°
à¤¬ à¤ļà¤¤
à¤¤à¤° à¤µ
Ġ5 40
Ġà¤¸à¤° à¤ľ
Ġà¤ľà¤¨ à¤ªà¤¥
Ġ31 8
ĠH ome
ĠF l
ol id
em ber
ph ones
amm u
T ak
i um
Â ·
à¤· à¤²
à¤Ī à¤Īà¤ıà¤¸à¤ıà¤²
Ġà¤ı à¤ı
à¤« à¤®
à¤µà¤² à¤°
19 65
Ġà¤¦à¤® à¤ĸà¤®
ĠO TP
Ġt e
à¤ıà¤¨à¤ıà¤¸ à¤¯
à¥§à¥¯à¥ ¬
Ġà¥¦ à¥¦à¥¦
à¤ıà¤¨à¤Ĩà¤° à¤Ī
ĠPlay ing
onal d
à¤Ī à¤ıà¤«à¤ı
à¤Ŀ à¤Ł
à¤®à¤° à¤¨à¤ľ
Ġ7 77
19 75
à¤ıà¤ļ à¤Ĩà¤Īà¤µ
13 3
ain st
.... ....
Ġà¤²à¤ĸ à¤ªà¤¤
ĠBl ack
ĠRep ort
orp or
9 50
K arnataka
s ur
Ġà¤ħ à¤°à¤ķ
à¤ł à¤¹à¤°
à¤°à¤£ à¤¦
Ġà¤ķà¤® à¤¬
à¤¸à¤² à¤Ł
ĠA P
Ġ26 8
11 6
à¤ªà¤¥ à¤ª
à¤ħà¤« à¤¸à¤°
ĠHigh lights
M umbai
V C
Ġ all
Ġà¤ķà¤° à¤ľà¤Ī
Ġà¤ī à¤Ĺà¤²
Ġà¤¶ à¤Ĺ
à¤°à¤¦ à¤°à¤¹
à¤¹à¤° à¤µ
à¤µà¤¸ à¤¤
Ġà¤Ĩà¤Ī à¤Ĩà¤Īà¤Ĩà¤Īà¤Ł
Ġà¤ıà¤¸ à¤Īà¤¸
an ch
Ġà¥Ļ à¥Ľ
ĠN H
12 2
Ġà¤ħà¤¸à¤® à¤¯
à¤Ĩà¤® à¤¦à¤¨
Ġa ction
oy al
B D
G ATE
Ã Ń
à ²
Ġ us
à¥Ī âĢĻâĢĻ
à¤¦ à¤®à¤¤
à¤Ł à¤Ń
Ġà¤² à¤«
Ġà¤² à¤µà¤°
à¤Ĩ à¤¦à¤¤
Ġà¤¡ à¤¯
Ġà¤µà¤° à¤µà¤°
à¤ıà¤ļ à¤Ĩà¤Ī
ĠP NB
15 3
ct a
23 8
Ġ38 4
ĠCh rome
act uring
E M
G A
Ñ Ģ
Ġà¤ħ à¥ŀà¤¸
à¤¼ à¥Ĩ
Ġc raft
à¤ıà¤®à¤Ī à¤Ĩà¤°
ers on
ma x
Ġà¤ıà¤®à¤ıà¤® à¤ıà¤¸à¤¸
An d
Ġà¤Ĺà¤Ĺ à¤¨à¤¦
2 60
à¤¹ à¤¸à¤ª
à¤¦ à¤¨à¤ķ
à¥ĭà¤Ĥ âĢ¦
à¤ļ à¤®à¤ķ
à¤Ĩ à¤ķà¤°
Ġà¤Ĩà¤Ī à¤¡à¤¬
à¤¹à¤¨ à¤¦
19 20
à¤ıà¤ļ à¤ıà¤«
Ġà¤Ĩà¤¹ à¤Ł
ĠE NG
Ġp ol
ĠV I
os ystem
à¥Ī! "
Ġw ater
lad esh
à¤¯ à¤Ĺà¤£
à¤ľà¤² à¤ª
à¤Ĳ à¤¨
19 5
Ġà¤ħà¤« à¤ľ
à¤ľà¤® à¤¬à¤°
or n
à¤ħà¤ª à¤¡
ĠT our
18 2
à¤ıà¤¨à¤Ĩà¤Ī à¤µ
Ġà¤īà¤Ľà¤² à¤ķà¤°
2 80
c ov
à¤¾ \""
à¤² à¤§à¤¨
à¤ľ à¤¸à¤®
à¤ı à¤µà¤°
à¤®à¤¨ à¤ª
ol t
ul ation
Ġm odel
Ġà¤īà¤§ à¤®
ĠY S
à¦ °
Ġà¤ıà¤¨à¤Ĩà¤Ī à¤ĵà¤ıà¤¸
P RO
R D
d om
l ing
à¤¬ à¤ªà¤¤
Ġà¤¥ à¤ªà¤¥à¤ª
à¤īà¤¨ à¤¹
à¤ıà¤¸ à¤Ĩà¤°à¤Ł
Ġà¤ĳ à¤ĩà¤²
Ġà¤¹à¤° à¤¨
Ġ7 12
Ġ19 26
à¤ħà¤¨ à¤ľ
Ġà¤ħà¤ĸ à¤£
17 2
ul y
Ġb ank
Ġà¥ª à¥ª
à¤¾"" à¥¤"
Ġà¥§à¥¯à¥¯à¥ Ń
ys is
M ar
c ovid
à¤¿ à¥ĭà¤Ĥ
à¤ķ à¤ĩà¤¨
à¥Īà¤Ĥ """
Ġà¤¸à¤¹ à¤¦
Ġà¤ħà¤ļ à¤°à¤ľ
Ġà¤ıà¤® à¤Ī
il icon
ĠIn stagram
Ġ37 2
um mit
ist ic
iz e
ĠAcc ount
0 20
3 30
C l
L ok
f ield
u ary
à¤Ĺ à¤®à¤°
Ġà¤ı à¤ħ
Ġ4 35
Ġ4 90
Ġà¤Ĩà¤Ī à¤Īà¤¸
à¤²à¤ķ à¤Ł
à¤ļà¤° à¤ĸ
in c
ĠC l
ĠA TM
ĠD ev
Ġ35 7
ĠW eb
ut i
he et
Ø§ ÙĨ
f l
Ġà¤ı à¤ıà¤®à¤¸
à¤ĩ à¤µà¤¸
à¤Ľ à¤¦
Ġà¤Ł à¤µ
Ġà¤ıà¤¸ à¤Ĩà¤Īà¤ª
ĠA adhaar
13 8
24 3
à¤¨à¤µà¤° à¤¹
ap il
Ġà¥§à¥¯à¥¯à¥ «
Ġà¤ļà¥Ŀ à¤ķà¤°
ĠCon gress
Ġbi h
d à¤ķ
à¤¾ à¥ĭ
Ġà¤ī à¤ľà¤¬
à¤Łà¤ķ à¤®
Ġà¤²à¤ķ à¥ľ
à¤ıà¤ļ à¤ķ
hi k
b ir
Ġ under
à¤¹ à¥ľ
à¤ľ à¥ļ
Ġà¤µ à¤²à¤¸
Ġà¤ķà¤° à¤ķà¤°
Ġà¤ĵ à¤£à¤®
à¤¼à¥ĩ :
à¤°à¤¹ à¤ķà¤°
Ġà¤®à¤¦ à¤¯à¤¨
à¤ĩà¤Ł à¤µ
à¤ıà¤ļ à¤¡à¤¬
Ġà¤¶à¤µ à¤Ĺ
Ġ28 1
Ġ35 1
à¥įâĢĮ ,
ad a
Ġ33 3
Ġh y
à¤¾! "
riend s
M D
à¤® à¤¦à¤¨
à¤ª à¤¬à¤²
à¤Ĺ à¤Ŀ
Ġà¤ľ à¤ķà¤°à¤¬à¤°
à¤Ī à¤ĺà¤°
Ġà¤¶ à¤°à¤®à¤¨
à¤¸à¤ķ à¤¨
Ġà¤ªà¤°à¤® à¤µ
Ġà¤ħà¤µà¤¸à¤° à¤µ
Ġà¤®à¤¸ à¤ĸà¤°
à¤ľà¤® à¤¶
Ġà¤¹à¤¸ à¤°à¤¤
ĠC JI
ĠH ar
Ġc har
Ġà¤Ńà¤Ĺà¤µ à¤¦
Ġ39 8
Ġà¥§à¥¯à¥¯à¥ ®
ĠIS I
anc ed
ĠUl tra
N C
c ore
à¤² à¤°à¤®
Ġà¤¬ à¤°à¤µ
Ġà¤° à¤Ł
Ġà¤° à¤ļà¤¤
Ġà¤Ķà¤° à¤¯à¤¹
à¥Īà¤Ĥ à¤Ĥ
à¤¸à¤° à¤«à¤°
Ġà¤§ à¤¨à¤¨
à¤¼à¥Ģ ?
à¤°à¤¶ à¤°
Ġ18 70
ĠP o
ĠR ank
le g
aria b
ream ing
M G
à¤ļ à¤¦
à¥Ī. âĢĿ
Ġà¤Ĩà¤° à¤ıà¤¨
Ġà¤ĵ à¤¤
à¤¤à¤® à¤ĩà¤¨
ĠC H
ro ph
ro und
ĠF acebook
ĠK ashmir
Ġà¤ıà¤¨à¤ıà¤ļ à¤ıà¤®
ĠBS P
ĠAaj Tak
S B
à¤¯ à¤°à¤ķ
à¤¡ à¤¨à¤°
à¤ıà¤® à¤ıà¤¸à¤ıà¤¸
Ġ- --
à¤·à¤¯ à¤Ĺà¤¤
à¤®à¤Ĺ à¥Ŀ
à¤ĭ à¤°
Ġn e
ĠSec ondary
ĠYou Tube
Inter ior
. -
P r
a ult
Ù Ĥ
à¥ĩ à¥°
Ġà¤¬ à¤°à¤®
à¤¼ à¤¼à¥ģ
à¥ī à¥¤
à¤ľà¤¨ à¤Ĺà¤°
Ġà¤Ĺà¤ı à¤¹
à¤¾. .
Ġ5 30
Ġà¤ĩà¤¨ à¤¦
Ġà¤¸à¤° à¤ļ
Ġà¤Ĭ à¤§
Ġà¤¬à¤° à¤¨à¤¬
Ġs qu
ĠG old
Ġà¥© à¥®
26 4
Ġà¤Ĩà¤ĩ à¤ıà¤¸
à¤ľà¤¯à¤¨ à¤Ĺà¤°à¤®
ox ide
[ [
Ä ģ
Ġ one
à¤ķ à¤·
Ġà¤¤ à¤¶
Ġà¤īà¤¦ à¤¹
à¤ľà¤¬ à¤¤à¤ķ
Ġ8 35
ĠN e
Ġ28 9
ro ss
Ġ31 6
as k
Ġà¥© à¥¯
Ġ54 2
Ġcon nectivity
vest ment
? ""
Ġà¤ľ à¤¸à¤²
Ġà¤ĩà¤¸ à¤¬
Ġà¤Ĩà¤° à¤ıà¤²
à¤¤à¤ķ à¤¥
à¤ıà¤¨ à¤Ĩà¤Īà¤ª
Ġà¤¬à¤ľ à¤¤
à¥Ŀ à¤¤
Ġà¤ıà¤« à¤Ĩà¤Īà¤ıà¤ļ
ĠB harat
ĠB MW
ĠN orth
Ġ22 00
14 8
Ġw ill
Ġâ Ļ
ĠAn sw
IF A
0 11
s m
Í ¾
Ġà¤ ¼
à¤¤ à¤¹à¤¸
Ġà¤ķà¤° à¤²
à¤ªà¤¨ à¤¦
Ġà¤Ł à¤ķà¤¸
à¤¹à¤° à¤ħà¤²
à¤ĩà¤¨ à¤«
Ġà¤ıà¤® à¤ıà¤¸à¤¡
Ġà¤ıà¤« à¤ıà¤¸
Ġà¤ıà¤ļ à¤¬
ĠD ec
13 2
Ġv ariable
Ġ33 5
Ġà¤¶à¤°à¤£ à¤¸
Ġl aunch
amp ions
à¤ķ à¤ķà¤¨
à¥ĭà¤Ĥ ...
Ġ( (
Ġà¤¸à¤® à¤µ
Ġà¤¤à¤ķ à¤¦
Ġà¤ĵ à¤®à¤¨
à¤ıà¤¨ à¤Ĩà¤°à¤ıà¤²à¤ıà¤®
à¤°à¤ª à¤¦
ĠG ames
ĠE l
Ġ33 4
up reme
ep artment
ee k
ĠSc ience
Ġat t
stit ution
acc ine
H y
O PPO
h p
à¥ģ ),
à¤µ à¤¹à¤°
à¥ĩà¤Ĥ |
à¤ı à¤¡à¤¬
Ġà¤ĩ à¥ĺà¤°
Ġà¤ĩ à¥ŀà¤¤
à¤£ à¤ªà¤¶
Ġà¤īà¤ª à¤²
à¤²à¤¨ à¤Ĺà¤¤
à¤¦à¤° à¤¬à¤¨
Ġà¤Ĩà¤Ī à¤ıà¤¸à¤ıà¤²
à¤ıà¤ķ à¤¦à¤®
Ġ18 90
à¤°à¤ľ à¤¤
Ġ50 1
Ġin dia
22 8
ul d
Ġth is
à¤ĩà¤ªà¤° à¤Ł
ific ations
Ġà¤ķ à¤²à¤¨
à¤® à¤¯à¤ķ
Ġà¤¨ à¥ŀà¤¸
Ġà¤« à¤Ĺà¤µ
à¥Īà¤Ĥà¥¤ ""
à¤Ĩà¤Ī à¤ıà¤«à¤¸
Ġà¤Ŀ à¤£
à¤ªà¤² à¤Łà¤¨
ĠN ov
ĠD evelopment
22 7
Ġà¤ªà¤¨ à¤ªà¤¤
ig er
Ġar chitecture
à¤¹à¤°à¤® à¤¨à¤ª
W F
à¥Ģ %
à¤¬ à¤ļà¤¨
Ġà¤Ĺ à¤ľà¤²
Ġà¤ı à¤¶à¤²
Ġà¤ĵ à¤Ľ
Ġà¤ħà¤® à¤°à¤¤
Ġà¤¸à¤° à¤µà¤°
Ġà¤Ī à¤Īà¤ıà¤¸à¤ıà¤²
al ysis
Ġ18 97
ĠC ar
ĠC ET
ĠB ig
Ġ28 3
16 1
ĠK XIP
ur s
os ph
Ġ43 7
Ġa ir
à¤Īà¤ıà¤¸ à¤Ĩà¤Īà¤¸
Ġ66 2
end er
ĠIS O
urr ent
Ġec on
N HT
b y
Ġ over
Ġà¤ī à¤Ĺà¤¨
à¤ĸ à¤°à¤¸
Ġà¤ķà¤® à¤¬à¤ĸ
Ġ5 85
Ġà¤īà¤® à¤¸
Ġ19 17
Ġà¤¸à¤« à¤¦à¤°
Ġà¤¶à¤µ à¤¦
un n
Ġ34 3
Ġa ct
oc al
ĠDay s
ĠCon t
alloy s
à¤¤ à¤²à¤¬
à¤ķ à¤ĸ
Ġà¤¨ à¥ŀ
à¥Īà¤Ĥ âĢĶ
Ġà¤¨à¤¹ à¤¸
Ġà¤Ľ à¤°
Ġ4 17
à¤ıà¤¨ à¤ıà¤¨à¤¯
er c
le y
ĠG PS
14 6
ir al
ag ue
à¤¤à¤°à¤« à¤²à¤ķ
CS K
cent ration
3 10
G L
m o
m agnetic
Ð »
Ġà¤¹ à¤ı
Ġà¤® à¤°à¤¦
à¥Ĥà¤Ĥ '
Ġ"" '
à¤ıà¤¨ à¤Ĩà¤°à¤Ĩà¤Ī
Ġ7 99
ĠS L
ĠC am
16 5
et ail
Ġf unction
à¤¨à¤« à¤°à¤¤
à¥§à¥¯à¥ ª
Ġà¤Ĩà¤Īà¤ıà¤« à¤ıà¤¸
m ber
u ction
Ġ Ġ
à¤µ à¤µà¤¤
à¤ľ à¤ľà¤ª
à¤ı à¤Ĩà¤Īà¤Ĩà¤°
à¤¾, )
Ġà¤®à¤¹ à¥Ľ
à¤ıà¤¨ à¤Īà¤¸
à¤¨à¤µ à¤µ
à¤ıà¤« à¤ľ
à¤¯à¤ª à¤¦
ĠS O
en u
ĠB i
Ġà¤ķà¤Ł à¤ķà¤°
à¤¾' à¥¤
ĠO LED
ĠIn c
ĠU IDAI
à¤Ńà¤² à¤ı
D G
à¤° à¤¶à¤¨
à¤° à¤¡à¤®
Ġà¤Ĩ à¤ĩà¤°
Ġà¤¡ à¤²à¤µ
Ġà¤Ľ à¤²à¤¨
Ġ5 99
Ġ4 27
à¤Ĺà¤² à¤¸à¤°
19 51
à¤¨à¤¦ à¤¹
21 7
ĠT witter
24 5
2 70
2 25
a ff
h ite
p ol
Ġà¤ķ à¤¸à¤¬
à¤¿ à¥Ģ
Ġà¤« à¤°à¤ķ
à¤ī à¤¤à¤°
à¤ıà¤¸ à¤ıà¤ļà¤ľ
Ġà¤Ĳ à¤µ
Ġ4 65
ĠR eliance
Ġà¤¦à¤¬ à¤ķà¤°
)à¥¤ "
à¥ĭ! """
IC S
à¤Ĩà¤°à¤ı à¤ıà¤®à¤ıà¤¸
ĠPol l
ĠAnsw er
s ite
É Ļ
Ñ ģ
à¤¨ à¤¹à¤¸
Ġà¤ª à¤²à¤¨
Ġà¤ı à¤Ĺà¤®
Ġà¤¡ à¤°à¤¬à¤¨
Ġà¤Ĩà¤Ī à¤ıà¤¸à¤¬
à¤°à¤¹ à¤ķ
Ġà¤Ĭ à¤ļ
19 63
ar ge
à¤¸à¤¬ à¤®
it ation
st ate
16 8
Ġc ricket
Ġà¥ª à¥¨
BSE B
PM C
Ġà¥§à¥¯ à¥¦
! ""
Ù ģ
à¥ĭ âĢľ
Ġà¤ª à¤¸à¤²
à¤ĸ à¤Łà¤ķ
à¤ªà¤¨ à¤Ĺà¤°
à¤ī à¤Łà¤°
Ġà¤Ł à¤¹à¤²à¤¨
à¤¹à¤° à¤¸
à¤ĩà¤² à¤¸
Ġà¤ªà¤¢ à¤©
à¥ĺ à¤¬
à¤°à¤Ĺ à¥Ŀ
Ġ23 40
ĠG roup
ĠD o
Ġv al
od y
à¤¾! """
77 7
à¥Ī"" ."
- (
Ġà¤ª à¤Ĺà¤¬
à¤ı à¤¹à¤ķ
à¤¡ à¤µà¤°
à¤· à¤ĭ
à¤Ī à¤Ĩà¤°à¤¸
Ġ( ),
à¤¤à¤° à¤µà¤°
à¤ħ à¤ļà¤²
à¤Łà¤° à¤¯
à¤ĩà¤¨ à¤¬
ĠP TI
or ity
ra b
Ġà¥§à¥¯à¥¯à¥ §
ĠPol icy
ĠAward s
' )
G o
Q u
d y
r ia
s sc
Ð ½
Ħ ¢
à¥ĭ ]
à¤ī à¥ľ
à¤¤à¤° à¤ªà¤¶
à¤Ĩà¤Ī à¤ķ
à¤ĺ à¤°à¤µ
à¤µà¤¨ à¤µ
à¤¯à¤² à¤ķ
à¤Ĩà¤° à¤ıà¤¸à¤Ī
Ġ7 90
Ġà¤ıà¤® à¤«
Ġ18 82
25 2
as p
14 9
13 1
Ġà¥ª à¥®
Ġà¤ıà¤Łà¤² à¤¸
ĠâĪ Ĵ
N DA
b it
à¥į à¥Ģ
à¤ķ à¤ķà¤¥
Ġà¤¸ à¤ĺà¤¨à¤¤
à¤¡ à¤ıà¤¸
à¤¡ à¥ĺà¤°
Ġà¤¶ à¤²à¤Ń
Ġà¤« à¥Ľ
Ġà¤īà¤¨ à¤µ
Ġà¤ĳ à¤¨à¤¸
ĠM a
11 00
ĠH SC
ĠL ok
Ġ36 4
Ġm ar
Ġà¥ļ à¤¨
Ġà¤ĸà¤² à¤²
o j
o ff
à¤° à¤Ĺà¤®
à¤µ à¤Ī
à¤ª à¤ħà¤ª
à¤ļ à¥ľ
âĢ ¢
Ġà¤¶ à¤¯à¤¨
Ġà¤ħà¤¨ à¤µ
à¤ħ à¤§à¤°
Ġà¤Ĩà¤° à¤ĵ
à¤¼à¥Ģ ),
Ġà¤ĵ à¤·à¤§
à¥ľ à¤«
Ġà¤ħà¤ķ à¤¸
à¤ıà¤¨ à¤ıà¤¬
à¤ıà¤« à¤ıà¤¸à¤ıà¤¸à¤ıà¤Ĩà¤Ī
18 5
18 7
Ġs bi
16 00
ĠL atest
23 9
ĠY ear
ens ion
Ġà¤Ĩà¤Īà¤ıà¤« à¤ıà¤¸à¤¸
NO U
ĠPU BG
Ġà¤°à¤¦à¤° à¤«
G ujarat
O O
c al
Ġà¤¸ à¥ŀà¤°
à¤ª à¤¤à¤°
Ġà¤ľ à¤¸à¤®
à¤ı à¤ıà¤®à¤¸
à¤ĩ à¤Łà¤²à¤°
à¤¦à¤¨ à¤¹
Ġà¤Ĩà¤Ī à¤Ĩà¤°à¤ıà¤¸
à¤¬à¤² à¤¸
à¤ıà¤« à¤ıà¤ķ
at ter
ĠP ie
Ġ29 7
ĠU ttar
av a
Ġà¥¨à¥¦à¥¦ à¥¯
Ġà¤ľà¤¨à¤ķ à¤²
Ġà¤Ĩà¤Īà¤ıà¤¸à¤ıà¤¸ à¤ıà¤«
N ET
N ext
T e
i y
s b
Ġà¤µ à¤¦
Ġà¤ļ à¤ªà¤Ł
à¤¤à¤° à¤²
à¤ħ à¤²à¤ķ
Ġà¤īà¤ª à¤¦à¤°
à¤¨à¤® à¤¯
à¤¬à¤° à¤¹
Ġ5 80
Ġà¤ħà¤ļ à¤®
à¤¬à¤¸ à¤µ
er gy
à¤ĩà¤¡ à¤¸
ĠD M
Ġf l
os p
est ival
IN K
à¥§à¥¯à¥ ©
IA DMK
ĠJan uary
4 80
N W
P oco
T ag
Ã ¢
Ð µ
à µ
à¤° à¤ľà¤ª
à¤¤ à¤Ī
Ġà¤¹ à¤Ī
Ġà¤¦ à¤¬à¤¨
à¥Ĥ !
Ġà¤Ń à¤Ĺà¤¨
Ġà¤ļ à¤ķà¤°
à¤Ĺà¤° à¤¹
à¤Ĩà¤Ī à¤Ĩà¤Īà¤¸
in dust
à¤Ĩà¤ª à¤®
à¥Ģà¤Ĥ. "
ad av
à¤ıà¤¨à¤ıà¤² à¤¡
anc er
DU CT
Ġà¤¨à¤ľà¤« à¤Ĺà¤¢
n os
t op
Î ¼
à¥ĩ à¥ģ
à¤¨ à¤°à¤µ
à¥ĭ (
à¤² à¤¦à¤¸
Ġà¤¬ à¥Ļ
à¤¶ à¤¹à¤¦
19 68
19 52
ĠS u
ĠM al
ĠE d
Ġ33 1
Ġd evelopment
à¤ıà¤¨à¤ı à¤ıà¤®
Ġk han
Ġ* .
5 60
b ack
j ee
à ±
à¥Ģ âĢľ
à¤¤ à¤¶à¤¤
Ġà¤Ĺ à¤¹à¤®
Ġà¤ĩ à¤®à¤²
à¥Ģà¥¤ âĢĻ
Ġà¤¤à¤° à¤¨à¤¤
ĠS ri
ĠR anveer
ĠB hatt
14 2
à¥Īà¤ĥ %
Ġâ ĺ»âĺ»â
DR F
TM L
2 90
B A
B harat
W est
e me
n o
w an
à¤° à¤ľà¤°
à¤Ĺ à¤¹à¤®
Ġà¤Ĺ à¤°à¤¬
Ġà¤Ĩ à¤¬à¤°
Ġà¤Ĩ à¤ĸà¤°
Ġà¤ı à¤¡à¤¬
Ġà¤ļ à¤°à¤¬
à¤ĩ à¤²à¤¨
à¤ł à¤¯
à¤®à¤² à¤°
Ġà¤ıà¤¨ à¤Īà¤¸
Ġà¤ªà¤°à¤® à¤¹
ĠS al
à¤ħà¤¬ à¤ķ
st ar
re et
à¥Ļ à¤¬
ĠH TML
ĠF C
à¤Ĩà¤Īà¤Ĩà¤° à¤¡
ol i
In fin
Ġpro ject
P olice
d own
à¤² à¤¢
Ġà¤ľ à¤ļ
Ġà¤µ à¤Ł
à¤ļ à¤°à¤µ
à¤ī à¤¤à¤¨
Ġà¤Ī à¤¸à¤°
à¤ıà¤¨ à¤ıà¤®à¤¡
18 3
ĠK erala
Ġ36 00
Ġ34 5
à¤¨ à¤°à¤ķ
à¥ģ à¤¾
à¤¦ à¤ľà¤¨à¤ķ
Ġà¤° à¤ľà¤µ
à¤¡ à¤°à¤¸
à¤ªà¤¤ à¤²
à¤ıà¤® à¤Ĩà¤Īà¤¸
Ġà¤¸à¤®à¤Ŀ à¤µ
à¤ıà¤« à¤ıà¤®à¤¸
14 7
et oo
ur g
Ġ45 7
24 00
à¤Ķ à¤¸à¤¤à¤¨
ap er
ist s
Ġà¥§à¥¯à¥¯à¥ ¨
Ġà¤Ŀà¤Ĺà¥ľ à¤¤
ĠAs ia
A y
A ss
b r
c a
m ar
à¤¯ à¤¶à¤µ
à¥¤ '
Ġà¤Ķà¤° à¤¨
à¤¾, "
Ġ4 15
à¤µà¤² à¤ķà¤°
Ġà¤²à¤ķ à¤µ
ĠB ollywood
à¤ħà¤ª à¤µ
le t
16 9
à¥ħ à¤Ĥ
ĠU K
one y
Ġà¤ĳà¤² à¤Ĩà¤īà¤Ł
Ġà¤ĸà¥ľ à¤Ĺ
ĠCon st
, \\
D T
H F
Y C
b all
g o
à¤° à¤½
à¤¹ à¤Łà¤ķà¤°
à¥¤ âĢĻ
à¤ĵ à¤ıà¤®à¤¸
Ġà¤Ľ à¥ľ
Ġà¤Ĩà¤° à¥Ľ
Ġ4 45
Ġ19 15
Ġà¤¤à¤² à¤¸
ĠA tt
ic ket
Ġ26 1
17 6
Ø§ Ø
Ġà¥¨à¥¦à¥§ à¥¦
vent ion
u ro
à¤¿ âĢĻâĢĻ
à¤¯ à¥ĺ
Ġà¤¹ à¤µà¤¸
Ġà¤¯ à¤ķà¤¸
à¤Łà¤° à¤Ĺ
à¤ģ à¥¤"""
Ġà¤Ľ à¤ªà¤¨
Ġà¤Ĩà¤° à¤ıà¤®
Ġ19 12
Ġ19 05
à¤¶à¤² à¤ı
ĠS UV
ĠA b
ĠA IMIM
à¤ħà¤ª à¤¶
th i
ĠUP I
2 75
S erv
à¤¿ \\
à¤¹ à¤ķà¤°
à¤§ à¤®à¤¨
à¤Ī à¤Ń
à¤Ľ à¤ķ
à¤ĩà¤¨ à¤ħà¤ª
Ġ19 13
19 4
Ġà¤ķà¤¨ à¤µà¤°
le x
à¤¿. ,
ĠX UV
ust ain
Ġà¤¹à¤ł à¤§à¤°
S a
à¤¸ à¤¬à¤¨
Ġà¤ħà¤¨ à¤¬
à¤§à¤¨ à¤°
à¥Ľ à¤°à¤¤
à¤ķà¤Ł à¤ª
Ġà¤īà¤² à¤«
ĠS ystem
à¤ħà¤Ń à¤¯
Ġà¤ĸà¤¡ à¤¸
ĠN R
ed ule
Ġà¤¹à¤¥ à¤Ĺ
13 6
ĠW omen
Ġt ime
23 3
à¤Ĩà¤Īà¤ı à¤ıà¤²
ab ar
ala ika
ard s
op en
xy nos
à¤ļà¤¯à¤¨ à¤ķà¤°
India S
ond a
Ġà¤¸à¤¹à¤° à¤¸
ĠLaunch ed
row th
ĠÂłĠÂł ĠÂłĠÂł
ĠGovern ment
E A
t rans
Ġà¤¸ à¤¥
à¤Ĺ à¤Ľ
à¥Īà¤Ĥ âĢĿ
Ġà¤ĩ à¤¦à¤°
Ġà¤ļ à¤®à¤ļ
à¤Ľ à¤ķà¤°
Ġà¤Ĳ à¤ļ
à¤¦à¤¨ à¤ªà¤¤
Ġà¤ħà¤¸ à¤«
à¤²à¤ķ à¤¶
à¤ľà¤¯ à¤Ĺà¤¢
à¥ĭà¥¤ à¥¤
ĠR ahul
ĠM us
Ġà¤ķà¤¥ à¤ķ
à¤¨à¤¹ à¤Ł
à¤Ĩà¤Īà¤ıà¤¸ à¤Ĩà¤Īà¤ıà¤¸
Ġh ealth
Ġ39 5
Ġà¥§à¥¯à¥¯à¥ ª
Ch andrayaan
te gr
Ġà¤¦à¤²à¤¬ à¤¦à¤²
Infin ix
M M
M ah
g mail
Î ±
à¤² à¤Ĺà¤¢
à¤¦ à¤¶à¤¨
à¤§ à¤µà¤ª
Ġà¤Ķà¤° à¤īà¤¸à¤ķ
Ġà¤¤ à¤²à¤¨
Ġà¤ıà¤ķ à¤²à¤µ
Ġà¤ĩà¤¸ à¤ª
Ġà¤¸à¤° à¤¸à¤°
20 4
à¤°à¤ľ à¤Ń
ĠA mer
Ġ27 7
17 3
17 8
Ġc up
à¥ª à¥ª
Ġg roup
ap ur
Ġà¤¥à¤° à¤¥à¤°
à¥¬ à¥¦
à¤ıà¤¨à¤Ĩà¤Ī à¤ĵà¤ıà¤¸
ĠMi x
iz ed
ĠBang ladesh
à¤® à¤«à¤²
Ġ( .
à¤°à¤µ à¤§
Ġ8 20
à¤°à¤¬ à¤ķ
Ġà¤īà¤² à¥ŀà¤¤
ĠT ype
ur v
ĠW WE
ri al
op e
ĠIS BN
As us
ĠServ ice
ĠInfin ity
L enovo
N ar
R T
R am
p et
à¤£ à¤ľ
à¤ħ à¤ªà¤ķ
Ġ31 4
om b
15 2
ĠE xynos
40 4
iv ing
ĠJ DU
ĠSt at
t ain
â ĹĨ
à¤ľ à¤°à¤¦
Ġà¤ı à¤ıà¤®à¤Ł
Ġà¤¬à¤¤ à¤ĸ
Ġà¤ıà¤¨ à¤ıà¤¨
Ġà¤ħà¤Ĺ à¤§à¤ķ
à¤ĩà¤ķ à¤¬
Ġà¤ĭ à¤Ĺ
16 7
Ġc bse
à¤¸à¤¹ à¤ľ
In ternational
ist ration
Ġà¤ªà¤¥ à¤ª
à¥Ģ"" ,
red it
mod ule
Ġà¤«à¥ľ à¤¨à¤µ
F or
H ow
K ar
R e
T ok
W B
â Ŀ
à¤° à¤Ĺà¤²
Ġà¤ª à¤ı
Ġà¤ī à¤¹
Ġà¤Ĺ à¤ľà¤¨
Ġ20 000
à¤ıà¤¸ à¤Ĩà¤Īà¤ª
Ġà¤Ŀ à¤ª
Ġà¤¨à¤µ à¤°à¤¤
Ġà¤®à¤¸ à¤ĸ
al y
Ġà¤ĭ à¤¦
ĠM ay
à¤ĳ à¤«à¤°
it a
Ġ40 5
Ġs eries
ur b
24 1
Ġà¥© à¥¦à¥¦
à¥§à¥¯à¥ §
BS P
ĠCol or
ĠÎ ¼
? ?
Ġ ÃĹ
à¤² à¤Ĩà¤īà¤Ł
à¤® à¤°à¤®
Ġà¤µ à¤²à¤¯
à¤ı à¤ıà¤ķ
à¤ħ à¤¨à¤²
à¤ªà¤° à¤ĸ
Ġà¤Ĩà¤° à¤Īà¤¸
Ġà¤ĵ à¤¶à¤¨
ĠâĢĿ âĢľ
19 66
ĠB AR
à¤¡à¤¨ à¤Ĺà¤°
Ġ28 00
Ġp ort
IS F
ĠCh ina
ty pe
As ia
Ġtrans l
-------- --------
ĠServ ices
R JD
d ro
à¤¸ à¤īà¤¦
à¤² à¤Ĺà¤°
Ġà¤¬ à¤Ľ
à¤· à¤ļ
à¤¯à¤ķ à¤®
à¤ıà¤¸ à¤ıà¤Ĩà¤Ī
à¤ľà¤¬ à¤°à¤¦à¤¸
19 49
Ġà¤ıà¤® à¤Ĩà¤°à¤Ĩà¤Ī
ĠS ensex
es is
à¤ĺà¤Łà¤¨ à¤ķ
ĠF ut
ĠIn dust
Ġm aking
Ġà¤ľà¤Ĺà¤¤ à¤¸
um ent
ast er
âĢİ )
kh and
roph y
8 60
V iew
m at
z e
à¤µ à¤ļà¤²
à¥ĩà¤Ĥ @
Ġà¤¬ à¤Ļ
Ġà¤¦ à¤¸à¤°
Ġà¤ªà¤° à¤¬
à¤Łà¤° à¤ļ
à¤®à¤² à¤ķ
Ġà¤¤à¤ķ à¤ķ
à¤ªà¤° à¤ª
à¤Ĩà¤Ī à¤ıà¤¸à¤Ł
Ġà¤¸à¤¬ à¤®à¤°
Ġà¤¸à¤®à¤¯ à¤ª
Ġà¤Ī à¤Ĺà¤²
Ġà¤ľà¤² à¤ľà¤®
Ġ9 11
Ġà¤ıà¤® à¤Ĩà¤Īà¤ıà¤¸
21 5
15 1
23 40
em i
em ain
Ġ43 4
ord s
Ġed u
? """
E N
H IV
v is
à¤ĸ à¤²à¤¤
à¤£ à¤ķà¤°
Ġà¤ħà¤² à¤¬
à¤¦à¤° à¤Ń
Ġà¤ħà¤¸ à¤Ń
à¤ıà¤² à¤ıà¤¨à¤ľ
Ġ25 000
ĠS alman
Ġà¤ªà¤Ł à¤ĸà¤¨
Ġ40 9
Ġ26 00
18 1
11 3
ĠE con
ul a
23 2
Ġb se
ec osystem
à¤ıà¤Ĺà¤ı à¤¹
ksh ay
Ġà¤Ĩà¤°à¤Ĩà¤Ī à¤ıà¤¨à¤ıà¤²
5 10
o om
à¥ĩ à¤¿à¤¾
à¤® à¤Ĭ
Ġà¤Ķà¤° à¤ĩà¤¸
à¤ĸ à¤®à¤¯
Ġà¤Ĳ à¤²à¤¨
à¤ıà¤ļ à¤µ
à¤ıà¤ļ à¤ıà¤«à¤¡à¤¬
ĠS a
ĠP oco
re g
17 4
ĠE VM
ĠV S
45 9
à¥« à¥¦à¥¦
Ġà¥ļ à¤°
Ġh igh
Ġà¥ª à¥©
à¤Īà¤ıà¤¸ à¤ıà¤®
Ġgov ern
Ġà¤Ĺà¤Ĺà¤¨ à¤¯
e or
à¥Ģ à¥Ĥ
à¤¤ à¤¯à¤¶
à¤® à¤¸à¤²
à¤® à¤¶à¤¤
Ġà¤ħ à¤¥à¤°
Ġà¤ķà¤° à¤¸à¤ķ
à¤ıà¤¸ à¤ıà¤Ł
à¤µà¤¨ à¤Ńà¤°
Ġà¤ĵ à¤°à¤¸
Ġà¤ĵ à¤Īà¤¸
à¤¨à¤µ à¤¦
à¤¹à¤² à¤«à¤¨
Ġà¤ıà¤¨ à¤Ĩà¤Īà¤ª
23 5
Ġà¤ķà¤®à¤² à¤ľ
26 7
Ġa f
Ġe lectron
ric ulture
ik e
emiconduct or
, %
B h
Ġ >>
Ġà¤ķà¤° à¤£à¤µ
Ġà¤Ĩ à¤¸à¤ķ
à¥ĩà¥¤ âĢĻâĢĻ
à¤°à¤® à¤¶à¤ķ
Ġà¤Ĺà¤Ī à¤¥
Ġà¤ĵ à¤Ĩà¤Īà¤¸
Ġ9 90
an th
à¤ªà¤Ł à¤¨à¤®
Ġà¥ĺ à¤¦
à¥ĭ. "
Ġd ec
ly mp
Ġdi oxide
à¤īà¤ªà¤ķ à¤ª
R BSE
U K
c ell
Â Ń
à¤¸ à¤ļà¤°
à¤µ à¤¸à¤°
Ġà¤Ĺ à¤Ł
Ġà¤¶ à¤¦
à¤Ĩ à¤°à¤¤
à¤¸à¤° à¤¬à¤ľ
Ġà¤¬à¤¹ à¤ķà¤°
Ġà¤ĵ à¤¤à¤ª
Ġà¤¬à¤² à¤ķ
20 30
Ġà¤ł à¤¹
à¤§à¤° à¤ķà¤°
es ia
ĠM ad
21 2
Ġà¤ķà¤ķ à¤¯
Ġs erv
Ġà¤ĵà¤µà¤° à¤¹
25 7
16 3
14 1
à¤ıà¤®à¤ıà¤¸ à¤Ĩà¤Ī
Ġn cov
Ġh e
ast ic
Ġpro cess
ĠAr ora
Ġà¥§à¥¯à¥® à¥¦
Ġà¤Ŀà¤Ł à¤ªà¤Ł
U C
f li
Ġà¤ķ à¤«à¤°
à¤¼ !
à¤Ī à¤¸à¤µ
Ġà¤ı à¤²à¤ķ
Ġà¤¸à¤® à¤·
à¤ģ :
000 1
Ġà¤«à¤° à¤ľ
ĠN SA
21 1
à¤ªà¤¦ à¤£
13 7
à¤ĭ à¤ļ
Ġt rain
à¤Ķ à¤²
ri m
AR S
Ġà¤¬à¤¦à¤° à¤ª
à¤°à¤½ à¤£
5 20
p artic
à¤² à¤¸à¤°
à¤ª à¤²à¤°
à¤¥ à¤ķà¤µ
à¤Ĩ à¤¸à¤¨
Ġà¤§ à¤¤
à¤Ĩà¤Ī à¤Ĩà¤Īà¤ıà¤¸à¤ıà¤«
Ġà¤ĳ à¤¥
20 3
Ġ19 11
19 30
Ġà¤µà¤¸ à¤µà¤¸
Ġà¤ĩà¤¸à¤² à¤²à¤ı
ĠS olar
ĠP AK
ĠM on
ĠE C
ot s
Ġp ar
23 1
à¤ıà¤Ĩà¤Ī à¤ıà¤«à¤ıà¤«
Ġà¤®à¤¸à¤² à¤¹à¤¤
ĠJ une
em on
ter s
37 9
à¤ıà¤¸à¤Ĩà¤Ī à¤¬
PU BG
4 40
8 99
A G
à¥į à¥Ī
à¤¯ à¤¶à¤°
à¤¹ à¤ľà¤ķ
à¤¦ à¤°à¤¸
à¥ĭà¤Ĥ ]
à¤· à¤°à¤¶
à¤µà¤¨ à¤¤
à¤¤à¤¨ à¤µ
Ġ9 60
Ġ, âĢĺ
Ġin t
Ġ35 8
22 6
iv il
35 5
37 6
Ġli st
predict ion
âĻ ª
ariab les
2 10
N H
o on
s ub
Ġà¤¨ à¤¨à¤¦
à¤· à¤°à¤§
à¤Ī à¤µà¤¨
à¤ĩ à¤£
à¤Łà¤° à¤ıà¤ķ
Ġà¤ıà¤¨ à¤Ĺ
à¤Ĭ à¤«
Ġà¤®à¤¸ à¥Ļà¤°
ĠP ort
ĠP AN
Ġà¤¤à¤² à¤ªà¤¡
ĠB y
ĠN O
ĠD D
ĠD r
Ġà¤ĵà¤µà¤° à¤Ł
ĠU AE
Ġ45 2
Ġo cta
"""" ,
ep end
ĠY SR
ud e
Ġà¤Ĥ à¤¿
ĠIP C
ĠMS ME
Un ion
ĠAB VP
8 40
9 40
c i
n i
w ater
Ġà¤ľ à¤¸à¤°
à¤ı à¤Ķà¤°
à¤¬ à¤°à¤ķà¤¤
Ġà¤Ĩ à¤¸à¤°
à¤ī à¤¬à¤°
à¤¯à¤® à¤µà¤°
Ġà¤Ĩà¤ľ à¤¸
à¤°à¤ªà¤¤ à¤µ
Ġà¤ĳà¤« à¤¶
ĠP ics
15 4
15 9
24 8
23 4
ri es
Ġà¥« à¥¦à¥¦
Ġà¥¬ à¥«
ĠSt reaming
our n
Ġbihar board
N e
R P
l ess
m un
Ġà¤ķ à¤¸à¤¦
à¤¹ à¤ı
Ġà¤° à¤µà¤¨
Ġà¤² à¤¬à¤°
à¤¡ à¤®à¤°
Ġà¤Ķà¤° à¤µ
à¤¼ à¥°
à¤« à¤Ī
à¤µà¤° à¤¹
à¤ªà¤° à¤¬
à¤²à¤¨ à¤ª
à¤ıà¤¸ à¤ıà¤®à¤¸
à¤ıà¤¸ à¤ıà¤®à¤Ī
Ġ4 11
à¤¡à¤² à¤®
à¤¯à¤ª à¤°à¤ķ
ĠC ha
ĠT DP
ĠâĢĻ ?
Ġ35 9
âĢĮ à¥į
ur y
Ġ34 6
Ġd ay
à¤°à¤¥ à¤®à¤¤
Ġà¤«à¤¡ à¤¨à¤µ
à¤¸à¤®à¤Ŀ à¤¦
à¤Ĩà¤Īà¤Ĩà¤Ī à¤ıà¤«
Ġà¤¦à¤ĸà¤² à¤ħ
Ġraj asthan
ĠSpec ifications
à¤ķ à¤¢
à¤¸ à¥Ľ
à¤¸ à¤ĵà¤µà¤°
à¥Ī "",
Ġà¤ľ à¤«
à¤Ī à¤ıà¤¸à¤ª
à¥Īà¤Ĥ --
à¤« à¥ľ
à¤ł à¤¸
à¤ľà¤¨ à¤Ĺà¤£à¤¨
à¤Łà¤° à¤°
Ġà¤ĳ à¤Ĺà¤¸
à¤¾à¤ģ ?
à¤Ĩà¤° à¤¡à¤¬
à¤ıà¤¨ à¤ĵ
à¤Ĭ à¤¥
à¤¬à¤¨ à¤Ĺà¤°
ĠC B
di sha
21 6
Ġ27 00
ĠO lymp
24 9
amp le
uf acturing
C H
E d
g h
à¤¿ ]
à¤¸ à¤¥
à¥Ī à¥Ī
à¤¦ à¤ªà¤¤
Ġà¤Ķà¤° à¤ķ
Ġà¤ļ à¤ªà¤°
à¤°à¤¤ à¤ª
âĢĻ .
Ġ6 20
Ġà¤ıà¤¨ à¤ıà¤²
Ġà¤ıà¤® à¤Ĩà¤Īà¤Ł
Ġà¤ıà¤® à¤Ĩà¤Īà¤ľ
à¤ľà¤¸ à¤µ
Ġà¤¯à¤¦ à¤¦
Ġ18 98
ĠR ed
ĠN m
25 3
Ġt oday
og a
à¤ıà¤¸à¤ıà¤« à¤Ĩà¤Ī
ĠConst able
T ata
n m
à¤¿ à¥ĭ
à¤¨ à¤µà¤¸
à¤¸ à¤ĳà¤«
Ġà¤¨ à¤¤à¤®à¤¸
à¤Ł à¤Ī
à¤ľ à¤ĺà¤°
à¤¥ à¤ľ
à¤« à¤ıà¤ķ
à¤ĩ à¤«à¤°
à¤°à¤¤ à¤°
Ġà¤ĸ à¤°à¤¸
à¤¯à¤¹ à¤¹
à¤¬à¤° à¤¶
à¤®à¤¨ à¤ªà¤¸
Ġà¤ħà¤¬ à¤ķ
ĠM ate
ĠM ac
ĠN G
16 4
à¥Ģ? ""
ĠW e
ad u
26 3
act er
Ġà¤ªà¤£ à¤§
gress ion
à¤¹à¤°à¤¦ à¤Ĺ
PRO DUCT
3 75
G I
S ara
Ġ à¥Ĥ
Ġà¤¸ à¤¨à¤¸
à¤µ à¤ªà¤¨
à¤Ĺ à¤ĸ
Ġà¤° à¤¸à¤²
à¤¬ à¤¸à¤°
Ġà¤ħà¤² à¤ª
19 2
19 67
al ent
Ġà¤ıà¤² à¤Ĳ
ĠC P
ĠT rophy
re ed
Ġà¤Ĩà¤¹ à¤µ
Ġà¤ķà¤ļ à¤¹à¤°
ot a
ĠO ut
Ġt emperature
Ġ33 00
Ġn umber
26 9
ri st
ac ity
à¤ħà¤Ĺ à¤°à¤¤à¤²
Ġà¤ıà¤¨à¤ıà¤ļ à¤Ĩà¤°à¤¸
ĠBl ue
Ġà¤²à¤ĸà¤¨ à¤ª
IndiaS eva
S e
Ġà¤¬ à¤Ľà¥ľ
à¤ļ à¤²à¤ķà¤°
à¤« à¤ľà¤Ī
Ġà¤¬à¤¢ à¥ĺà¤°
Ġ"" (
19 64
à¥ĩ- -
Ġà¤Ńà¤µ à¤Ń
à¤¶à¤® à¤¶
à¤Ĩà¤Ĺ à¤ľà¤¨
Ġ36 2
à¤ıà¤¨à¤ıà¤¸ à¤ĵ
à¥Ĥ) :
Ġb ut
Ġ38 9
à¤Ĩà¤Īà¤ıà¤® à¤ıà¤¸à¤Ł
har khand
38 8
à¤ªà¥ľ à¤¤
Ġà¥§à¥¯à¥¯à¥ ©
à¤¾âĢĿ à¥¤
gl esia
ĠÎ ²
W C
l og
à¤¤ à¤ķà¤¤
à¤ľ à¤ķà¤ª
Ġà¤Ķà¤° à¤ª
Ġà¤ı à¤¤à¤¬
Ġà¤ĩ à¤¥à¤¨
Ġà¤īà¤ª à¤¤
à¤²à¤¨ à¤°à¤¤
Ġà¤Ĳ à¤µà¤ľ
à¤ıà¤¨ à¤ĵà¤¸
Ġà¤ħà¤¬ à¤¦
à¤ıà¤² à¤ıà¤¡
ĠS ub
ĠC an
Ġà¤¸à¤«à¤²à¤¤ à¤®
18 9
ĠD i
re l
Ġ32 2
un ya
ĠK e
ĠO ct
ĠJ ob
Ġà¥¨à¥¦à¥¦ à¥ª
ĠÎ ±
à¤µà¤²à¤¨ à¤¶
enef it
. âĢĻ
O M
d a
g han
à¥Ģ à¤¾
à¤Ĥ à¤¿
à¥ĭ |
à¥ĭ \\
à¤¹ à¤ļà¤°
Ġà¤® à¤®à¤¨
à¥Ī à¤ģà¥¤
Ġà¤ħ à¤¦à¤°
Ġà¤Ķà¤° à¤¦
à¤Ī à¤Ĺà¤µ
Ġ( +
"" ),
Ġ5 500
Ġà¤ıà¤® à¤ıà¤¸à¤Ī
es ari
Ġà¤ıà¤¯à¤° à¤ıà¤¶
Ġà¤¶à¤¬ à¤¨à¤®
it es
ĠG reat
ĠD ef
ĠL im
Ġ37 3
od hya
Ġl a
ĠSt ore
ĠSmart phone
predict ors
ograph y
E PFO
e emain
t ed
à¤Ĥ à¥Ī
à¤® à¤¸à¤°
Ġà¤¹ à¤¸à¤¦
à¤¦ à¤Ĺà¤¢
Ġà¤Ń à¤°à¤µ
à¤¥ à¤°à¤µ
à¤ĸ à¤¯
Ġà¤°à¤¹ à¤µ
à¤Ĩ à¤ķà¤¸
à¤¢ à¤²
Ġà¤§ à¤¨à¤ķ
Ġà¤Ĩà¤° à¤ıà¤®à¤ıà¤²
à¥Ĥà¤Ĥà¥¤ âĢĿ
à¤²à¤ķà¤° à¤¨
ĠM umbai
ĠN ord
Ġ39 4
han a
à¥Ń à¥¦
Ġà¤ļà¤®à¤ķ à¤¨
à¥§à¥¯à¥ «
Ġà¤¤à¤¹ à¤ĸ
uk i
RR B
ĠAm b
Ġtechn ical
fli x
3 90
c d
d ress
à¥ĭ âĢĿ
Ġà¤ħ à¤¹à¤°
à¤Ĩ à¤¯à¤¶
à¤°à¤¸ à¤®
à¤¼à¥ĩ ?
à¤§à¤¨ à¤Ĺà¤°
à¤Ĩà¤° à¤Ĩà¤Īà¤ıà¤¸
20 8
à¤²à¤¬ à¤¦
Ġ6 32
à¤ıà¤¨ à¤Ĩà¤Īà¤¡
Ġ19 10
Ġ19 16
à¤ĩà¤² à¤Ł
à¤°à¤ª à¤°à¤ķ
à¤ĸà¤° à¤¡
at s
21 3
à¥ĭ) .
ra p
um er
Ġw h
ĠY adav
Ġà¤®à¤¦à¤¨ à¤²
4 20
Ø ¹
à¥ĩ âĢĺ
à¤¨ à¤¨à¤ķ
à¤¤ à¤ªà¤°
à¤² à¤ıà¤ļà¤¡
à¥Ī \""
à¥ģ /
âĢ ²
à¤¶à¤¨ à¤Ĺà¤¢
Ġà¤Ľ à¤ªà¤µ
Ġà¤ĵ à¤ĸ
Ġ4 19
Ġà¤ľà¤° à¤¨à¤²
20 25
Ġ6 70
""" âĢľ
19 57
à¤ķà¤ª à¤²
Ġà¤ħà¤¶ à¤°
Ġà¤ıà¤ļ à¤ıà¤«à¤¸
am ic
ĠD iwali
el y
ul es
ĠU GC
47 1
ist er
à¤ļà¤® à¤¡
ĠZ en
Ġto ur
ĠAn n
Ġà¤ıà¤Ĩà¤Ī à¤¯
ens ity
ĠRail way
ici ency
6 30
v id
à¥ĩ à¤¾à¤Ĥ
à¤¤ à¤¹à¤ķ
Ġà¤® à¥ĺ
à¤Ĺ à¤Ĩà¤īà¤Ł
Ġà¤Ķà¤° à¤īà¤¸
à¤Ĩ à¤°à¤®
Ġà¤ĺ à¤ªà¤²
Ġà¤¤à¤° à¤¬
Ġ6 90
Ġà¤¬à¤¦ à¤Ĺ
Ġà¤¢ à¤²à¤¤
al k
ĠS ummit
Ġà¤¡à¤° à¤ķà¤°
ĠT rain
ra w
Ġc an
Ġ32 7
âĢĮ .
Ġth at
AT A
Ġà¥¨à¥¦à¥¦ à¥©
à¥ĪâĢĻ .
Ġup d
out ube
rib ution
amil y
C JI
D E
Ġà¤ķ à¤ľà¤°
Ġà¤ķ à¥Ľ
à¤¿ ''
à¤¬ à¤Ĺà¤²
à¥Īà¥¤ """""""
à¤ĸ à¤°à¤¹
à¤°à¤ķ à¤¨
Ġà¤īà¤ª à¤¸à¤°
à¤®à¤¨ à¤¨
Ġà¤ĵ à¥ľ
Ġ4 47
Ġà¤Ĩà¤Ī à¤ıà¤¨
à¤Ĳ à¤ªà¤²
19 8
Ġ12 000
Ġà¤¶à¤¹à¤° à¤µ
al ity
ĠP and
ĠR S
18 8
un t
ĠV i
28 5
Ġ38 5
Ġ44 8
à¥® à¥¦
Ġà¥« à¥«
ĠCh ampions
ĠPay tm
ĠMed ical
H A
H indi
d ef
g ital
Ġ <
à¤¤ à¤®à¤¨
Ġà¤® à¤ľà¤¨
à¤Ĺ à¥Ľ
à¤ı à¤®à¤¨
Ġà¤Ĺ à¤¦à¤Ĺ
Ġà¤ı à¤ľà¤¬
Ġà¤¯ à¤²
à¤ĩ à¤Łà¤ķ
à¤ī à¤¦à¤°
à¤¯à¤® à¤¤
à¤¯à¤¤ à¤ķ
Ġà¥ Ŀ
Ġ5 36
19 58
ĠS upp
15 7
15 00
25 5
Ġ44 9
55 5
com et
). "
icro max
reat ment
Ġà¤¨à¤¯à¤¨ à¤¤
eat ures
B MW
M otorola
s ystem
Ø ¬
à¤¼ à¥Ģà¤Ĥ,
à¤Ī à¤ıà¤®à¤ıà¤²
Ġà¤ªà¤° à¤Ľ
à¤ĸ à¤ĸ
à¤¯à¤¨ à¤¹
Ġà¤ĳ à¤īà¤Ł
Ġà¤ħà¤¦ à¤¬
à¤·à¤¯ à¤£
ĠS w
ĠS qu
ĠI AF
ro ad
om s
om an
22 2
Ġ43 6
op tion
Ġà¤ļà¤Ł à¤Ĺ
AT O
IS L
Ġà¤Ĩà¤ī à¤Łà¤ķà¤®
à¤ıà¤¨à¤ıà¤« à¤ıà¤¸à¤ı
lim s
IG NOU
à¤ľà¤¯à¤¦ à¤¶à¤®
Ġchan ge
P D
à¤¾ âĢĭ
à¥ĩà¤Ĥ âĢľ
Ġà¤ı à¤ıà¤®à¤ľ
Ġà¤¯à¤¹ à¤¯
Ġ5 10
Ġà¤¬à¤ļ à¤ķ
à¤ªà¤ķ à¤¨
à¥Ľ à¤¦
es k
ĠN ick
Ġ29 1
16 6
ĠF HD
40 6
il li
ĠV irat
ĠW ar
Ġ36 7
ĠJ uly
à¥¨ à¥¬
33 4
Ġà¥Ń à¥«
Ġà¤¨à¤°à¤® à¤ª
ik Tok
ens ite
Ġy ear
ĠAr my
tern et
à¤¹à¤¥ à¤ķà¤°à¤ĺ
ĠKar unya
Ġnet work
0 25
F T
R ahul
a e
c ol
s et
v in
Ġà¤¹ à¤Ĺ
Ġà¤¨ à¤¥
à¤¡ à¤¨à¤ķ
à¤ī à¤¬à¤²
à¤ħ à¤µà¤¤
Ġà¤¤à¤° à¤¸à¤¤
à¤ıà¤® à¤ıà¤¸à¤Ī
Ġ5 70
Ġà¤ħà¤ª à¤ļ
à¤ıà¤« à¤Ĩà¤Īà¤Ĩà¤Ī
ĠâĢĿ !
à¥Ģ- -
à¤ķà¤Ł à¤¸
Ġ18 99
Ġà¤¹à¤¸ à¤¬
ĠC ap
ĠN DRF
le ment
15 8
ĠF und
el angana
ĠE dition
Ġà¤¸à¤¦à¤° à¤²
ant a
gl ish
à¤īà¤ªà¤¨ à¤Ĺà¤°
uc k
Ġch eck
ĠLe ague
S U
w are
Ã ³
Ú ©
à¤² à¤ĸà¤¨
à¥Ī âĢľ
Ġà¤¥ à¤ķà¤¤
Ġ( âĢľ
à¤®à¤ķ à¤¶
Ġà¤ł à¤Ĺà¤¨
Ġ18 81
ĠC hief
Ġ50 2
ic ation
Ġà¤Ĺà¤ł à¤¬à¤¨
Ġà¤ĵà¤µà¤° à¤¬
Ġp ower
ĠW indows
ce mber
Ġf irst
à¤ıà¤®à¤Ī à¤Ĩà¤°à¤Ĩà¤Ī
38 7
à¥ĩà¤Ĥ: -
ell ing
ĠIC MR
Ġle ad
uz uki
à¯ į
d in
o in
t ar
Î ¿
Ù ĥ
Ġ }
à¤ķ à¤¹à¤®
à¤¯ à¤ļà¤°
à¤Ĺ à¤¦à¤¸
Ġà¤Ń à¤Ń
à¤¥ à¤°à¤¨
à¤Ĩà¤Ī à¤ıà¤®à¤¸
à¤ĺ à¤¸
20 2
à¤¤à¤ķ à¤¬
à¤¡à¤² à¤µ
à¥Ľ à¤¹
Ġà¤ıà¤¨ à¤ıà¤²à¤¸
Ġà¤¢ à¤°
à¤°à¤ļ à¤°à¤£
à¤¾: %
ĠN T
ĠN ot
ĠF A
Ġc lass
Ġ36 9
35 7
à¤®à¤¶ à¤°à¤£
Ġà¤ıà¤¬ à¤Ł
à¤¯à¤Ń à¤Ł
ne y
à¤¾"" ."
im um
Ġà¤¹à¤°à¤® à¤¨
à¥Īà¤Ĥà¤ĥ -
uj a
JK BOSE
$ $
3 000
B ook
E l
S anj
d ha
f ess
s ch
à¥ĩà¤Ĥ âĢĿ
à¤Ĩ à¤«à¤¤
à¤ľà¤¨ à¤ķà¤°
à¤¯à¤® à¤²
à¤°à¤£ à¤µà¤¶
Ġà¤¤à¤° à¤¨
à¤¹à¤® à¤ĸ
à¤Ĩà¤Ī à¤ıà¤«à¤Ł
Ġà¤ĵ à¤Ĺ
Ġà¤Ĩà¤Ī à¤Ĩà¤Īà¤ıà¤¸à¤ıà¤«
Ġà¤ľà¤² à¤¡à¤®à¤°
à¤°à¤¬ à¤²à¤¤
Ġà¤¨à¤µ à¤µ
30 2
ĠF ilm
Ġin c
Ġà¤Ĩà¤¦à¤° à¤ª
14 3
ĠU AN
23 7
35 6
à¥¨ à¥«
Ġh as
Ġ46 3
ak s
ep t
Ġe ffect
à¤Ĩà¤°à¤ıà¤² à¤¡
Ġà¥§à¥¯à¥® à¥¯
Ġà¤Ńà¤°à¤£ à¤ª
Ġà¤ļà¤¤à¤° à¤¥
H E
R ohit
T MC
b a
p on
u ch
à ¶
à¥Ģ âĢĺ
à¤¹ à¤²à¤ķ
Ġà¤® à¤¯à¤ª
à¤ª à¤²à¤ķ
Ġà¤ħ à¤Łà¤µ
Ġà¤Ķà¤° à¤®
Ġà¤Ĩ à¤ĩà¤µà¤°
à¤ĩà¤¸ à¤µ
à¤¸à¤° à¤ķà¤°
à¥Ī, "
à¤¹à¤° à¤ª
Ġà¤īà¤ª à¤µà¤°
à¤¨à¤ķ à¤ª
à¤¸à¤¨ à¤Ĺà¤°
Ġà¤Ŀ à¤Ĺà¥ľà¤¨
Ġà¤¦à¤² à¤Ĺà¤¤
ĠB SE
it or
à¤²à¤Ń à¤¤
il ver
Ġà¤Ńà¤°à¤¤ à¤¨
Ġpro duct
à¤ıà¤¸à¤ĵ à¤ľ
tr ance
à¤° à¤¹à¤®à¤¤
à¥į à¥ĩà¤Ĥ
Ġà¤® à¤ķà¤¸
Ġà¤¨ à¤¸à¤¬
Ġà¤¤ à¤Ĺ
à¤¨à¤® à¤¤
Ġà¤¸à¤¹ à¤²
à¤ıà¤® à¤ıà¤¨
Ġ4 29
à¤ıà¤ķ à¤¸
Ġà¤ªà¤¡ à¤¨
Ġà¤ıà¤¸ à¤ıà¤²
Ġ19 06
à¥ĩà¤Ĥà¥¤ ""
an y
al li
à¤ıà¤ļ à¤ıà¤«à¤¸
ĠS am
ĠN av
le ar
à¥ª à¥¦
ist ics
Ġà¤ĵà¤Ŀ à¤²
ins ic
Ġà¤ıà¤¨à¤Ī à¤ıà¤«à¤Ł
Ġag ainst
P AN
Ġà¤¸ à¤Ĩà¤¦à¤¤
Ġà¤® à¤¡à¤Ĺ
Ġà¤ª à¤Ļ
à¤ı à¤ıà¤«à¤¸
Ġà¤ĩ à¤°à¤µ
Ġà¤¡ à¤«
à¤Ĺà¤° à¤ľ
Ġà¤Ĳ à¤Ł
ĠA C
à¤°à¤ļ à¤£
ĠR et
ĠM ag
Ġ23 00
17 9
25 4
ĠF ull
Ġà¤Ńà¤Ł à¤ķà¤²
Ġ48 5
28 2
49 8
à¤¼à¥ĩà¤Ĥ: -
Ġr ate
Pro bability
Ġnew s
angu age
ĠCam era
0 40
6 40
D iwali
P C
e th
Ð º
Ġ eng
à¥ĩ âĢĶ
à¤Ł à¤ľà¤¨
Ġà¤¬ à¤Łà¤°
Ġà¤ľ à¤ľà¤®
Ġà¤« à¤¯
Ġ( *
à¤ĩà¤¸ à¤Ńà¤²à¤ı
à¤¬à¤² à¤µ
Ġà¤¨à¤° à¤¬
à¤°à¤² à¤ı
an bir
à¤ĳ à¤¬
le an
ra c
ĠO F
Ġ64 9
ĠU G
à¤ĭ à¤¦
Ġm in
Ġm on
27 7
Ġ39 2
38 4
à¥Ģà¥° )
Ġ` %
new s
7 47
C ent
à¤® à¤¸à¤Ń
Ġà¤ħ à¤©
à¤¶ à¤¹à¤¨
Ġà¤ļ à¤ªà¤¤
à¤Ĩ à¤ĩà¤ľ
à¤¼à¤¾ :
à¤īà¤¨ à¤Ł
Ġà¤ħà¤² à¤«
Ġà¤ĩà¤¨ à¤¹
à¤ķà¤² à¤ª
Ġ' ,
Ġà¤Ĩà¤Ī à¤ĵ
Ġà¤®à¤¨ à¤¹
Ġ19 01
Ġà¤ıà¤® à¤ıà¤ļà¤Ĩà¤°à¤¡
in u
Ġà¤¤à¤°à¤« à¤¦
ĠC D
ĠC orpor
Ġà¤®à¤ķ à¤¬
ĠG PU
ĠL INK
Ġà¤¬à¤® à¤µà¤°
Ġ... ..
ĠEn trance
anc ial
ĠSch edule
lect ric
Ġà¤ľà¤¯à¤¨ à¤Ĺà¤°
2 21
C har
E WS
K L
O R
v en
Ë Ĳ
à¤ı à¤£
Ġà¤¤ à¤«à¤¤
Ġà¤ı à¤Ĩà¤Īà¤Ł
Ġà¤¶ à¤Łà¤°
Ġà¤¨à¤¹ à¤²
à¤Ĩ à¤ī
Ġ20 35
à¤Ŀ à¤Łà¤ķ
Ġà¤Ľ à¤¬
Ġà¤ĵ à¤¯
Ġà¤ĵ à¤ıà¤®à¤¸
à¥Īà¤Ĥ, ""
Ġ4 44
Ġà¤ľà¤¨ à¤Ķà¤·à¤§
Ġà¤ıà¤¸ à¤ıà¤¨à¤¸
à¤Ĳ à¤Ĺ
19 7
à¤ľà¤¸ à¤¹
ĠF r
ra h
44 7
ĠV accine
ĠU p
24 6
Ġ36 1
em ple
Ġd r
Ġà¤Ĩà¤Īà¤ı à¤Ĩà¤°à¤Ĩà¤Ī
à¤Ĩà¤Īà¤ıà¤« à¤Ĩà¤°
ĠØ ¨
ĠDe cember
V A
o le
à¤¿ âĢľ
à¤² à¤Ĺà¤¨
Ġà¤¹ à¤¬à¤ķ
à¤ļ à¤ļ
Ġà¤Ĺ à¤Ľ
à¤ıà¤¸ à¤ıà¤ª
à¤¾à¤ģ !
Ġà¤ħà¤® à¤°à¤ķ
Ġà¤Ĩà¤µ à¤¦
Ġà¤ľà¤¨ à¤¶
Ġà¤ĺà¤° à¤¬
an ic
it iz
ĠD ual
ot al
ur der
à¤ĭ à¤Ĺ
Ġà¤ħà¤Ł à¤ªà¤Ł
Ġ34 7
à¤¸à¤« à¤¦à¤°à¤ľ
Ġ38 1
ĠEx ams
und ai
) âĢĿ
6 60
A adhaar
b ose
p aid
Ġ ic
Ġ ann
à¤¤ à¤µà¤ª
Ġà¤® à¤²à¤µ
à¤ı à¥ĺ
à¤¡ à¤ıà¤«à¤ıà¤¸
à¤ĩ à¤ĸ
à¥Ģà¤Ĥ ...
Ġà¤Ł à¤¬
Ġà¤¡ à¤ķà¤µà¤°
à¤¾. )
Ġà¤ĩà¤¨ à¤ľ
à¥ĩ. âĢĻ
Ġà¤ĺà¤° à¤ĺ
Ġà¤Ĩà¤® à¤¸à¤Ń
Ġ18 93
ĠS SLC
Ġà¤ıà¤« à¤ĵà¤¬
à¥ĭ) à¥¤
Ġ| |
id d
65 2
Ġà¥ļ à¤®
à¦ ¨
ail y
à§ ĩ
Ġit em
ĠFut ures
1 125
D r
R ep
d ict
ã ĥ
à¤ı à¤²à¤¨
à¤§ à¤ľ
Ġà¤ĩ à¥Ļà¤¤
Ġà¤¯à¤¹ à¤¦
à¤ħ à¤¤à¤°
à¤Ĩà¤° à¤ĵà¤ª
Ġ6 500
à¤ħà¤¨ à¤¸
ĠI dea
30 3
Ġà¤ıà¤¡ à¤ľ
18 00
Ġs et
à¥Ļ à¤¬à¤°à¤¦
Ġin novation
Ġc ell
Ġp ay
à¥© à¥©
Ġà¥ª à¥Ń
34 2
Ġà¤ªà¤ķà¥ľ à¤ķà¤°
erv ation
Ġà¤§à¤°à¤® à¤ľà¤¯à¤Ĺà¤¢
we et
R es
p at
r ing
u a
Ġà¤ķ à¤¸à¤ķà¤°
à¤¤ à¤ĵ
à¥Ī âĢį
à¤ı à¤¹à¤¸
à¥Ĥ ?
Ġà¤¤ à¤ľà¤µ
à¤¼ à¥ħ
Ġà¤¯ à¤µà¤¤à¤®
à¤¿à¤Ĥ à¤Ĥ
à¤°à¤® à¤²
à¤°à¤® à¤¬à¤²
Ġà¤µà¤¹ à¤®
Ġà¤Ľ à¤ľ
Ġ3 200
à¤¦à¤° à¤Ĺà¤¢
Ġà¤Ķ à¤¸
Ġà¤²à¤ķ à¤®à¤²
ar ch
ĠP ak
ol es
ĠL CD
à¤ıà¤Ĩà¤Ī à¤ıà¤¸
Ġn t
Ġf ield
29 6
37 8
39 8
ĠâĢ¦ .
IA F
uz z
oci ety
A g
g es
à¤¯ à¤ľà¤°
à¤Ł à¤ĵà¤µà¤°
Ġà¤ħ à¤°à¤£
Ġà¤µ à¤·
Ġà¤ı à¤ıà¤¨à¤ıà¤®
à¤ľà¤¨ à¤ª
à¥ĩà¥¤ '
à¤Ĩà¤Ī à¤ıà¤®à¤Īà¤Ĩà¤°
Ġà¤¸à¤¹ à¤¬à¤¦
Ġ4 75
19 6
ĠS ector
ĠM C
à¤ķà¤® à¤Ĺà¤¢
ĠG e
17 1
ĠH ouse
Ġà¤ĵà¤µà¤° à¤ĳà¤²
el s
à¤īà¤ª à¤¹
à¤ıà¤¸à¤Ī à¤ľ
24 7
Ġ37 4
Ġ75 00
26 8
li ament
he ad
IS IS
ĠPl ans
Ġà¥¨à¥¦à¥§ à¥ª
Ġà¥§à¥¯à¥« à¥¦
electron s
7 37
H C
M in
N et
m and
Ï Ĥ
à ½
à¤Ĥ (
Ġà¤¸ à¤¨à¤®
à¤Ĺ à¤²à¤¯
à¤Ĺ à¤ªà¤Ł
Ġà¤ķà¤° à¤¸à¤ķà¤¤
Ġà¤¤ à¤Ĺà¥ľ
à¤¾à¥¤ -
à¤¼à¤¾ âĢĻ
à¤¬à¤° à¤µ
Ġà¤ħà¤² à¤®à¤¸
Ġà¤ıà¤¸ à¤ıà¤®à¤¸
ĠâĢľ âĢĺ
à¥Ĥà¤Ĥà¥¤ à¥¤
ĠS ar
ĠI F
ĠN a
ĠH IV
Ġp m
Ġt error
à¤Ķ à¤ľ
ĠJ a
38 6
ha i
ĠSt art
Ġà¤ıà¤Ĩà¤Ī à¤ıà¤«à¤ıà¤«
Ġà¤®à¤Ŀ à¤Ĺ
uc ation
Ġà¥§à¥¯à¥Ń à¥¦
arm ing
Ġà¤ļà¤°à¤¨ à¤ľ
ĠColor OS
6 10
j a
j p
à¤ı à¤ªà¤²
à¤Ĩ à¤µà¤°
à¤ł à¤ª
à¤¸à¤¨ à¤¦
20 6
à¤¤à¤® à¤ª
19 3
ĠS heet
ĠP ass
ĠR TI
à¥Īà¤Ĥ? """
Ġà¤¸à¤ľ à¤Ĺà¤¤
ĠD epartment
17 7
ĠF orm
th e
ĠE M
à¤ıà¤¡ à¤µà¤°
à¤²à¤Ŀ à¤¨
à¤ĩà¤¶ à¤°à¤¤
ĠIM D
DM A
6 70
8 80
F IFA
P E
â Ī
à¥ĩ ''
à¤° à¤Ĺà¤¨
à¤¸ à¤¹à¤¸
à¤Ĺ à¤¥
à¤Ĩ à¤Ľ
Ġà¤¸à¤® à¤ª
Ġà¤Ł à¤²à¤¤
à¤ľà¤¨ à¤¸à¤Ń
à¤ĺ à¤¦
à¤®à¤¨ à¤ľ
Ġà¤ĵ à¤Ĩà¤°à¤ıà¤¸
Ġ4 16
Ġ4 14
Ġà¤Ĩà¤Ī à¤ıà¤®à¤ª
à¤°à¤¬ à¤¤
à¤Ĭ à¤¤
at o
à¤¦à¤¬ à¤°à¤®
à¤ĳ à¤«à¤²
70 7
Ġs upp
ĠK i
em a
88 8
Ã¯ à¤¸
Ġst art
à¤ıà¤®à¤ıà¤« à¤¬
Ġshar ed
ĠAdv anced
indust an
F acebook
Q L
h igh
Ġ ir
à¤Ĥ à¥Ĥ
à¤µ à¤¬à¤°
Ġà¤µ à¤¡à¤¨à¤Ĺà¤°
à¤ı à¤Ĩà¤°à¤Ĩà¤Ī
Ġà¤ī à¤Ńà¤¯
Ġà¤ı à¤¹
Ġ( &
à¤°à¤¸ à¤²
à¤ıà¤¸ à¤ıà¤ļ
à¥ľ à¤µ
Ġ5 25
Ġà¤ħà¤° à¤¨
Ġ- :
à¤Ĩà¤° à¤Ĩà¤Īà¤ª
à¤¹à¤² à¤¹
Ġà¤ıà¤¨ à¤Ĩà¤Īà¤¡
19 46
Ġà¤®à¤¤ à¤²
à¤Ĭ à¤¤à¤ķ
ar esults
Ġ18 86
Ġ40 7
ĠE m
is garh
à¥ļ à¤²
ĠIn t
ĠW ater
39 2
hi m
Ġà¥§à¥« à¥¦
if t
oun s
ust ice
OC SO
CT ET
B l
L D
b ar
r ate
Ġà¤ª à¤Ĺà¤²
Ġà¤¯ à¤¬
Ġà¤ļ à¤°à¤ķ
à¤ĵ à¤ıà¤Ĩà¤Ī
Ġ20 26
à¤Ĺà¤² à¤¬
19 55
ĠC han
am an
à¤²à¤¦ à¤¹
ĠF iber
ĠF estival
Ġc g
à¥Ģ? "
ot ential
il led
28 1
Ġl atest
Ġà¤· à¤·
ant i
se b
Ġst ates
Ġfor m
pl oy
ĠIC J
Ġpl ay
New s
7 67
y cl
à¥Ģ à¥ĩà¤Ĥ
à¤ľ à¤ªà¤°
Ġà¤Ĩ à¤ķà¤²
Ġà¤ı à¤®à¤°à¤ľ
à¤Łà¤° à¤¬à¤°
19 40
Ġà¤ıà¤® à¤ıà¤¨à¤ıà¤¸
à¥Ŀ à¤¨
ĠS i
Ġà¥§ à¥¦à¥¦à¥¦
à¤¦à¤² à¤¹à¤¨
ĠN C
ĠD igital
Ġc ourt
is ation
Ġm et
à¤ıà¤ı à¤ıà¤¸
33 3
im al
ĠEx press
Ġà¥§à¥¯à¥¯à¥ ¯
ĠSh ow
hatt isgarh
tic le
asp x
Ġaf ter
5 271
6 80
Y S
b l
Â §
à¤° à¤ľà¤¨à¤ķ
à¤¤ à¤µà¤²
à¤® à¤®à¤¨
à¤µ à¤ĺ
à¥¤ âĢĻâĢĻ
Ġà¤¬ à¤¤à¤°
Ġà¤¦ à¤¦
Ġà¤Ł à¤¯
à¤Ĩà¤Ī à¤ıà¤¨à¤ı
ĠâĢĺ %
Ġà¤Ĩà¤Ī à¤¶
Ġà¤ķà¤ª à¤Łà¤ª
à¤¾- âĢĺ
ĠS D
ĠF DI
ĠE p
24 2
Ġà¤ħà¤¸à¤² à¤¹
à¤ıà¤¨à¤ıà¤¸ à¤Ĩà¤Īà¤¸
28 6
ĠPro test
Ġ44 2
Ġ49 4
ab ir
Ġi Pad
ĠUn ited
à¤Łà¤°à¤ķ à¤¨
Ġà¤Ĩà¤Īà¤Ĩà¤° à¤ıà¤¨à¤ıà¤¸à¤ıà¤¸
Ġdist rict
ria ge
Nar endra
comet ax
0 30
T OS
p ower
à¤² à¤µà¤¨
à¥ģ à¤¿
Ġà¤ķà¤° à¤¸
à¥Īà¤Ĥ ""
Ġà¤ı à¤ıà¤ļ
Ġà¤ļ à¤¸
à¤¾à¤Ĥ ),
Ġà¤¡ à¤¨
à¥Ģà¥¤ âĢĻâĢĻ
à¤ģ !
à¤°à¤£ à¤ķ
Ġà¤¸à¤¬ à¤µ
à¤¾. '
à¥ĩ, ""
à¤¸à¤² à¤¬
Ġà¤¸à¤Ń à¤°à¤µ
Ġà¤ĵ à¤ľà¤¸
Ġ5 26
Ġà¤ĩà¤¨ à¤ªà¤°
Ġà¤Ī à¤ĵ
Ġ6 10
à¤ıà¤¨ à¤Ĩà¤°à¤¡
Ġ19 07
à¤°à¤¨ à¤Ł
19 59
à¤¾) -
Ġà¤Ĩà¤¸ à¤«
ĠC ity
Ġà¤ĭ à¤ľ
ĠM icrosoft
ĠB R
di ate
ĠIn novation
Ġ48 9
Ġ39 1
Ġg as
39 7
ist ance
ff er
im d
ou ch
pr il
ĠRaj asthan
ple ment
Ġà¤°à¤¨à¤° à¤ħà¤ª
M art
U ri
à¥ĩ """"
à¥Ģ à¥į
à¤ķ à¤¬à¤²
Ġà¤® à¤ļà¤¨
à¤ª à¤Ń
à¤ª à¤ļà¤°
à¤¬ à¤Łà¤²à¤°
Ġà¤Ĩ à¤®à¤²
à¥ĥ à¥į
à¤¨à¤® à¤£
Ġà¤ĳ à¤°à¤²
Ġà¤ĵ à¤ıà¤«à¤¬
Ġ4 22
Ġà¤ķà¤Ī à¤¯
Ġ6 80
Ġà¤ľà¤² à¤ľ
à¤°à¤¹ à¤Ł
Ġ9 80
à¤°à¤¬ à¤ļà¤¨
ro ach
Ġs ocial
ĠD NA
Ġc la
à¤ıà¤¸à¤ıà¤¸ à¤Ĩà¤°
Ġv ideo
à¤Ĩà¤Īà¤ıà¤¸ à¤¡
à¥ĭ! ""
Ġà¥ª à¥¬
Ġà¤ħà¤Łà¤ķà¤² à¤¬
Ġà¤Ĺà¤Ĺà¤¨ à¤ļ
DR DO
own load
rid ge
ĠIN X
1 200
4 30
4 70
9 20
D is
K h
M T
M ad
] )
j i
o pp
Î ½
à¥ĩ âĢĵ
à¤° à¤°à¤¤
à¥į à¤¿à¤¾
à¤ķ à¤ķà¤²
à¤¸ à¤¡à¤ķ
à¤¸ à¤ĳà¤°
à¤ı à¤²à¤¯
à¤£ à¤¯à¤ķ
à¤ħ à¤ĺ
à¤ıà¤¸ à¤Ĩà¤°à¤¸
Ġ4 200
Ġà¤Ĩà¤¦ à¤¤à¤¨
Ġ19 09
à¤ıà¤² à¤µ
Ġà¤¹à¤ľ à¤®
Ġ18 69
en c
en ew
à¤ĳ à¤²à¤°
ĠN irm
Ġà¤Łà¤¨ à¤Ń
ĠD GP
23 6
Ġ55 5
ec ial
ers ons
à¤Ĩà¤ĩ à¤ıà¤¸
he ar
Ġy ou
ij ay
à¤Ĺà¤Ĺà¤¨ à¤¯
, ...
3 37
J AC
L E
W D
a ugh
h ouse
n ership
r up
r insic
v ind
à¥ĩ à¤¼à¤Ĥ
à¤° à¤¹à¤¤
Ġà¤¸ à¤²à¤¤
à¤® à¤§à¤°
Ġà¤Ľ à¤ªà¤¤
Ġà¤ĳ à¤¨à¤¬
Ġ5 11
à¤ıà¤² à¤ıà¤®à¤Ł
Ġà¤®à¤° à¤¹à¤®
à¤µà¤ľ à¤µ
ĠN A
15 6
re ement
à¤ıà¤¸à¤ıà¤¸ à¤¡
Ġ500 00
id s
Ġ37 8
à¤ıà¤Ĩà¤Ī à¤ıà¤¡
ĠJ o
os itive
45 6
Ġà¤ħà¤Łà¤² à¤ľ
Ġe u
Ġon line
Ġà¤ļà¥Ŀ à¤¨
And roid
Ġà¤Ĭà¤§ à¤®à¤ª
cometax india
9 30
9 80
9 60
C AT
N R
N PR
g ed
k i
o ch
à¥Ī %
à¤ı à¤ıà¤®à¤ª
Ġà¤° à¥ŀ
à¤¬ à¤¬à¤°
Ġà¤¤ à¤Łà¤°
Ġà¤ī à¤ķà¤¤
Ġà¤Ĺ à¤®à¤²
à¤¥ à¤¨à¤¤
à¤Ľ à¤Ĺà¤Ľ
Ġà¤¯à¤¹ à¤¸
Ġà¤¡ à¤°à¤ª
Ġà¤¹à¤® à¤µ
Ġà¤ĵ à¤µà¤¨
Ġ5 75
à¥Ģ) /
Ġ7 40
Ġà¤ıà¤® à¤ıà¤ļ
at r
Ġ18 50
ic an
ĠM otorola
ĠH i
ĠF ATF
ĠF eatures
à¤¸à¤¹ à¤ķà¤°
Ġ33 9
ap s
37 2
Ġà¤¸à¤¹à¤¨ à¤¶à¤ķ
ĠSt and
à¤Ĺà¥ľ à¤¤
Al l
D ata
M icrosoft
R io
u v
à¤Ĥ ""
à¥ĭà¤Ĥ à¥ĩ
Ġà¤° à¤Ĭà¤«
à¤¬ à¤¹à¤²
Ġà¤¤ à¥Ľà¤ķ
à¤ĵ à¤ıà¤«à¤¬
à¥Ģà¥¤ '
at ors
Ġà¤µà¤¸ à¤Ī
ĠA G
Ġà¥Ľ à¤°à¤°
21 4
ĠT a
18 6
Ġs o
ct or
à¤¾' .
iv ate
Ġ48 7
Ġ38 6
ru g
ĠEn vironment
à¤Ĩà¤Īà¤ıà¤« à¤ıà¤«
Ġj eemain
MC X
à¤ĩà¤ªà¤° à¤²
Ġà¥¨à¥¦à¥§ à¥§
vent ions
Ġme dia
ĠNet work
ĠPart y
7 30
K XIP
R ele
R anveer
T ech
c at
s ec
s ilicon
Ã ¼
à¤¨ à¤ľà¤¦
à¤ķ à¤®à¤¸
Ġà¤® à¤¯à¤¸
à¤ı à¤ıà¤¸à¤Ĩà¤°
à¤¶ à¤¤à¤°
à¤ļ à¤¤à¤¤
Ġà¤Ń à¥ľ
Ġà¤ı à¤Īà¤ıà¤¸
à¤µà¤° à¤Ł
Ġà¤Ĩà¤° à¤ıà¤¸à¤ª
à¤ıà¤® à¤ıà¤®à¤Ł
Ġ4 12
Ġ4 26
Ġà¤ıà¤¸ à¤ıà¤«
Ġ7 75
à¤Ĺà¤¨ à¤Ĩà¤°
ĠP ublic
ĠA h
Ġ50 8
ĠR OG
ĠM O
ĠN CB
Ġà¤ħà¤ĸ à¤²
di r
Ġs ingh
ĠD ream
as er
Ġt itle
Ġm i
Ġà¥ŀ à¤¤
à¥¨ à¥¨
28 7
Ġd el
Ġ49 1
36 4
ĠSt ory
ob er
if ied
ND RF
Con gress
ateg or
2 19
3 23
7 80
K areena
j ri
x t
Ñ Ĥ
Ġà¤ķ à¤µà¤¯
à¤¸ à¤°à¤®
à¤µ à¤¯à¤®
à¤µ à¤¶à¤¤
Ġà¤ľ à¤łà¤°
Ġà¤ħ à¤ķà¤°
Ġà¤Ķà¤° à¤Ĳà¤¸
Ġà¤Ĩ à¤¹à¤°
Ġà¤Ł à¤²à¤¨
à¤ħ à¤·
à¤ħ à¤¨à¤®
à¤ħ à¤¨à¤ķ
à¤Łà¤° Name
Ġà¤µà¤¹ à¤¶
Ġà¤Ĩà¤° à¤«
à¤ıà¤ķ à¤ľ
à¥ĩ. .
19 1
à¤°à¤ľ à¤µ
Ġà¤ħà¤ľ à¤µ
ĠI NS
18 4
25 1
ĠE V
Ġ48 2
Ġm atch
à¤Ķ à¤±
ĠUP SC
Ġà¤ıà¤¨à¤Ī à¤Īà¤Ł
Ġsmart phones
Ġecon omy
ĠOlymp ics
D iesel
S ch
U M
W A
m ed
n g
u id
Ï ģ
à¤¤ à¤¬à¤¸
à¤ķ à¤ªà¤¨
à¤¸ à¤ħà¤ª
Ġà¤¨ à¤µà¤¤
à¤ī à¤¸à¤°
à¥Ī, âĢľ
à¤ıà¤® à¤ıà¤ļà¤Ĩà¤°à¤¡
Ġà¤Ĩà¤Ī à¤ĵà¤Ł
20 7
20 9
Ġà¤īà¤² à¤®
er i
ĠS uzuki
ĠA IADMK
ĠN PR
el p
ig a
Ġm y
Ġm icro
os is
li ance
Ġà¤¿ à¥ĭ
Ġà¥¨à¥¦à¥§ à¥©
HO TOS
Ġà¤¹à¤ľà¤°à¤¤ à¤Ĺ
à¤ªà¤°à¤µà¤° à¤¦
ĠMah indra
ĠOr gan
etail s
etoo th
) ),
8 70
8 75
P o
P ar
p re
Ã ¡
à¤° à¤Ķà¤°
à¤¨ à¤°à¤¹
à¤¤ à¤¤à¤®
à¤ķ à¤ĵà¤µà¤°
à¤¯ à¤¨à¤®
Ġà¤® à¤¸à¤°
à¤ĸ à¤°à¤¤
Ġà¤ªà¤¹à¤² à¤ķà¤¦à¤®
à¤Ķà¤° à¤¯à¤¹
Ġ7 70
à¤¡à¤° à¤¨
Ġ12 50
Ġà¤Ķ à¤§
à¤¼à¥ĭà¤Ĥ )
le ge
30 4
ĠG ood
ĠD iv
ĠH e
as kar
28 3
Ġ38 2
29 3
Ġ44 3
Ġ46 2
37 1
36 3
ĠSt ates
ine ering
Ġst ate
Ġà¥¨à¥¦à¥§ à¥«
à¤Ĩà¤ľà¤® à¤Ĺà¤¢
à¤¬à¥Ŀ à¤¤
oot ball
ĠNS G
Ġval ues
ĠAtt ack
Ġà¤Ĺà¤¦à¤Ĺ à¤¦
3 15
4 25
5 90
E lection
F ATF
K S
p ad
à¥Ī à¥Īà¤Ĥà¥¤
à¤µ à¤ªà¤ķ
à¤ħ à¤²à¤°
à¥Ī. ...
à¤°à¤µ à¤£à¤¤
Ġ4 21
Ġ4 23
Ġ"" ,
Ġà¤Ŀ à¤²
Ġ10 75
à¤¾- '
à¤²à¤¹ à¤Ł
Ġà¤®à¤¶ à¤Ĺ
ĠD em
16 2
22 3
à¤¡à¤ķà¤° à¤¨à¤Ĺà¤°
à¤īà¤ª à¤ľ
ĠIn frastructure
ĠV iral
Ġm ed
27 6
ist ant
Ġà¥¬ à¥¬
IS S
IM F
Ġsp ace
-#-# -#-#
Rele ase
0 49
3 21
3 65
H ar
L e
M ost
P ET
m ark
Ġ upp
à¤¿ !
à¤¨ à¤Łà¤°
Ġà¤° à¤ª
Ġà¤ī à¤ĺ
Ġà¤¶ à¤°à¤®
à¤ĩ à¥Ľ
à¤ł à¤¹
à¤ľà¤¨ à¤¸à¤®
à¤ħ à¤ľà¤¨
à¤¸à¤® à¤µ
Ġ5 45
Ġà¤ħà¤° à¤ľ
Ġà¤Ī à¤·
Ġà¤ħà¤ķ à¥ľ
à¤¨à¤µ à¤¶
à¤ħà¤¨ à¤§
ĠM ake
it er
st er
44 2
Ġn i
à¤Ĩà¤Īà¤ıà¤¸ à¤ĵ
ĠPro cess
Ġd ata
55 7
ak ta
ĠEn ergy
Ġà¥§à¥¯à¥§ à¥¯
Ġà¥§à¥¯à¥¬ à¥¦
Ġà¤¸à¤²à¤¤ à¤¨à¤¤
0 35
5 25
7 60
7 65
W WE
n an
Ġ à®
à¤¦ à¤·
Ġà¤¨ à¤²à¤ķ
Ġà¤Ĩ à¤®à¤°
à¤Ī à¤ľà¤°
à¤Ĩ à¤ĩà¤¨
à¤®à¤¤ à¤Ń
à¤ļà¤¨ à¤ľ
Ġà¤ªà¤°à¤® à¤¬
Ġà¤ıà¤® à¤Ĩà¤Īà¤ıà¤®
à¤Ĭ à¤ªà¤¨
Ġ18 94
Ġ18 61
25 8
40 1
Ġà¤ªà¤¨ à¤Ĺà¤¢
Ġv ol
Ġm ov
ut t
29 8
Ġà¥¨à¥¦à¥¦ à¥§
ind er
ug s
ond on
ĠPre lims
CW G
ĠRail ways
jri wal
0 60
9 21
H aryana
L IC
O n
o uld
p a
É ª
Ġ Å
à¥Ģ à¤¿
à¤¸ à¤ıà¤®à¤ıà¤²
à¤² à¤§
à¤² à¤°à¤¹
à¤® à¥Ľ
à¤ľ à¤¬à¤°à¤¨
à¥ĭà¤Ĥ ),
Ġà¤¦ à¤¦à¤²
à¤ļ à¤£
à¤ļ à¤Łà¤°
Ġà¤ĩ à¤¤à¤®
à¥Īà¥¤ ...
Ġà¤¯ à¤¨à¤®
à¤Ľ à¤°à¤¦
Ġà¤Ł à¤ª
Ġà¤²à¤Ĺ à¤ķà¤°
à¤®à¤² à¤ı
à¤Ĺà¤° à¤¨
Ġà¤īà¤® à¥ľ
Ġà¤ıà¤¸ à¤ĵà¤¸
à¤¡à¤² à¤Ĺà¤¢
99 3
âĢĿ .
Ġ40 2
Ġs u
is ode
à¤īà¤ª à¤µ
Ġp o
65 7
Ġb usiness
26 6
27 4
Ġ38 3
Ġ49 5
64 2
Ġre l
oun ter
ĠSC O
ĠIM F
à¥Īà¤ģ |
à¤īà¤§ à¤®à¤ª
iti ative
Amit abh
Ay odhya
âĿ ĳ
8 30
à¥į à¥ĩ
à¤¸ à¤Ĩà¤°
à¥ģ ""
à¤ľ à¤²à¤¨
à¤¶ à¤°à¤ľ
Ġà¤Ķà¤° à¤ľ
Ġà¤Ĺ à¤¸
Ġà¤ı à¤¡à¤¨
Ġà¤ı à¤¤à¤¦
à¤£ à¤§à¤°
Ġà¤ļ à¤ķà¤¤
Ġ( âĢĺ
à¤Ĩ à¤¯à¤°
Ġà¤¡ à¤µà¤²à¤ªà¤®
à¤µà¤° à¤¦
à¤°à¤µ à¤¨
Ġà¤ĵ à¤Ĩà¤°à¤ĵà¤ª
Ġ4 24
Ġà¤Ĩà¤Ī à¤ıà¤®à¤Ł
à¤¨à¤µ à¤¯
à¥Ĥà¤ģ -
ĠP a
ĠA uction
ĠB ill
Ġà¤Ĩà¤ł à¤µà¤²
ĠH S
ĠE PFO
is a
à¥Ĥà¤Ĥ. """
44 8
65 5
Ġ43 1
Ġà¥ª à¥§
Ġw e
à¤¸à¤®à¤Ŀ à¤¤
à¤Ĩà¤°à¤ı à¤ıà¤¸
ex Uri
Ch ina
ĠSc am
An ushka
Ġad mit
IO N
po th
Ġatt ack
partic les
exUri Serv
3 25
6 25
7 10
à¤² à¥ľ
Ġà¤® à¤ľà¤®
à¥Ī /
à¤µ à¤¨à¤®
à¤µ à¤¤à¤°à¤£
Ġà¤ªà¤¤ à¤Ŀà¤¡
Ġà¤īà¤¦ à¤¯à¤Ń
Ġà¤¬à¤¦ à¤¹à¤µ
à¤ıà¤« à¤ıà¤¸à¤Ĩà¤Ī
Ġ18 80
ĠR ukh
ĠM SP
ĠT echn
18 57
à¥Ģ? """
à¤ĩà¤®à¤° à¤ľ
em ical
39 1
à¥§à¥¯à¥ ¨
ip le
CR PF
Ġà¤Ĩà¤Īà¤Ĩà¤Ī à¤ıà¤¸à¤Īà¤Ĩà¤°
ĠâĻ ª
. %
5 12
N BC
Q OO
b ab
s ide
Â ²
à¥ĩ à¥Ĥ
Ġà¤ķ à¤ªà¤ķ
à¤¿ âĢĭ
à¤¨ à¤ĺ
à¤¨ à¤ľà¤®
à¤ķ à¤¨à¤ķ
à¤¡ à¤ªà¤®
à¤¼ à¥ĥ
à¤¥ à¤¬
Ġà¤¹à¤® à¤¬
à¤ªà¤° à¤°
à¤¨à¤® à¤¥
Ġ5 90
Ġ5 49
Ġà¤Ĩà¤Ī à¤ıà¤®à¤Ī
Ġ6 35
Ġ8 99
Ġà¤ıà¤® à¤ĵà¤ª
Ġà¤¹à¤¤ à¤ª
ĠS and
ĠS pe
ĠS kill
ĠA S
à¤¼à¥ĩà¤Ĥ ...
Ġà¤ªà¤Ł à¤ªà¤¡
ĠM ission
GB SE
ĠT amil
Ġà¤ĩà¤® à¤°à¤¤
Ġin frastructure
Ġp ic
44 9
Ġt witter
od a
39 5
36 2
Ġà¥ª à¥¦à¥¦
Ġà¤ĩà¤« à¤ķ
à¤ĵà¤ı à¤ıà¤¸
ust en
ĠExam ination
ĠFor ce
Ġà¤į à¤«
ĠCA G
enn ai
dom ain
ĠDM K
0 90
4 26
9 75
C lass
M a
Q I
S u
c el
d à¤¡
e ff
l or
u an
à ¹
â Ħ¢
à¤¿ à¤¿
à¤¨ à¤¨à¤µ
à¥Ī ''.
à¤Ĺ à¤°à¤¦
à¤ļ à¤ķà¤¤
à¤¥ à¤Īà¤¸
à¥Ģà¤Ĥ âĢ¦
à¤Ĩ à¤¯à¤°à¤¨
à¤°à¤¸ à¤°à¤ķ
Ġà¤Ĩà¤° à¤¡à¤¬
Ġà¤Ĩà¤° à¤ĵà¤¬
Ġà¤Ĩà¤° à¤ıà¤ıà¤«
à¤ıà¤® à¤ıà¤«à¤ª
Ġ5 37
Ġà¤Ĩà¤Ī à¤ıà¤¸à¤¸
Ġà¤ļà¤² à¤µ
à¤ıà¤² à¤ıà¤¸à¤ı
à¤¯à¤ª à¤Ĺà¤¤
à¤ķà¤Ł à¤°à¤®à¤£
Ġà¤ħà¤Ĺà¤° à¤ķà¤°
ĠP C
ĠM ot
ĠB uzz
ĠT RS
70 5
40 5
40 7
and a
Ġd em
à¤Ĩà¤Īà¤ıà¤® à¤Ł
Ġ43 2
Ġh er
à¤ıà¤®à¤ĵ à¤ª
à¤ıà¤¸à¤ı à¤ıà¤®
der abad
SR H
Ġà¤Ŀà¤ªà¤ķ à¤¨
Ġsec urity
ustain able
3 19
6 24
8 12
P PF
g ing
v ii
} }
à¤° à¤Ĩà¤¤
à¤¸ à¤ľà¤¨
à¤¡ à¤¸à¤°
Ġà¤¸à¤® à¤Ń
à¥ĩà¥¤ -
Ġà¤²à¤Ĺ à¤¯
à¤Ĩà¤Ī à¤Īà¤Ł
à¤§à¤¨ à¤µ
à¤Ĩà¤° à¤Īà¤¡
à¤ķà¤°à¤£ à¤ķ
Ġà¤¬à¤¦ à¤¬à¤ĸ
Ġà¤ıà¤¸ à¤ıà¤Ĩà¤Ī
Ġ19 03
Ġà¤Ĭ à¤Ł
Ġ: âĢĵ
Ġà¤²à¤¡ à¤¨
à¤Ĭ à¤·
à¥Ĥà¤Ĥà¥¤ âĢĻ
Ġ18 96
ĠS ays
ĠS ocial
50 2
it ical
Ġà¤ıà¤ļ à¤ıà¤¸à¤¸
Ġc ount
Ġc bs
ĠL aw
40 3
Ġp ass
Ġ) à¥¤
os h
37 4
36 1
Ġà¥« à¥ª
à¤¾"" )
à¤Ĩà¤Īà¤Ĩà¤Ī à¤¬
à¥ĩ' ,
Ġe qu
58 2
Ġà¤¹à¤°à¤¦ à¤®
Ġre t
IM E
ĠEn ter
Ø§ Ø±
à¥ĪâĢ¦ .
à¥ĩâĢĿ à¥¤
ĠSec urity
985 43
3 13
4 36
6 49
J ammu
S har
c ul
f ord
g round
i pl
l ab
Ñ ĥ
à¥ Ħ
à¤¾ ]]
à¤ª à¤§
à¤ı à¤¹à¤¦
à¤ļ à¤Ī
à¤Ĩ à¤ĩà¤¸à¤²
à¤ĩà¤¸ à¤¶à¤²à¤ı
à¤ĵ à¤Ĩà¤Īà¤¸
à¤ľà¤¨ à¤Ńà¤°
à¤ľà¤¨ à¤ªà¤¦
00 2
à¤Ĩà¤Ī à¤Ī
à¤µà¤¨ à¤Ĺ
à¤ıà¤® à¤ıà¤ļ
à¤ıà¤® à¤Ĩà¤Īà¤ıà¤¸
Ġ5 15
Ġ5 17
à¥Ģ. .
à¤µà¤² à¤ľ
Ġà¤ıà¤¸ à¤¡à¤¬
à¤¨à¤° à¤Ī
Ġà¤¢ à¤²à¤µ
ĠP rav
ĠA ut
Ġà¤ķà¤¨ à¤«
à¥ĺ à¤¦à¤®
Ġà¤ıà¤« à¤ı
à¥Ģ: -
30 1
ĠT ri
ĠD eal
à¤¾âĢĻ .
ot es
75 5
28 9
27 8
27 9
Ġ38 8
Ġà¥« à¥¨
à¤¯à¤Ĺ à¥Ŀ
à¤ıà¤®à¤ı à¤ıà¤¸
Ġre v
ĠAn ushka
ta ct
à¤ıà¤«à¤ı à¤ĵ
ĠTR AN
ĠCorpor ation
atr ina
6 95
K KR
P l
T DP
Ã ¶
à ·
à¤¿ âĢĵ
à¤² à¤ĸà¤µ
à¤µ à¤¡à¤°
Ġà¤ħ à¥Ļà¤¬
Ġà¤µ à¤¨à¤°
à¤¬ à¤¶à¤°
Ġà¤Ĺ à¤®à¤¨
Ġà¤ı à¥Ļà¤¤
Ġà¤ĸ à¤¤à¤®
Ġà¤¸à¤® à¤°à¤¸
Ġà¤ħà¤¨ à¤ķà¤¹
à¤µà¤° à¤ļà¤¨
à¤¢ à¤°
à¤¯à¤° à¤°
à¤ıà¤® à¤ıà¤¨à¤Ĩà¤°à¤Ī
à¤§à¤¨ à¤¹
Ġà¤ħà¤µ à¤ķà¤²
Ġ5 21
à¤Ĩà¤° à¤Īà¤¸
Ġà¤Ī à¤ıà¤®à¤¯
à¤¬à¤² à¤¬
Ġ8 60
Ġ12 67
at ory
es e
ĠR a
ĠM ess
30 7
am ir
Ġà¤¶à¤¹ à¤µà¤¤
Ġc ha
ĠK ir
Ġp oll
à¤ıà¤®à¤ıà¤¸ à¤ı
à¤ħà¤¸ à¤¹à¤®à¤¤
75 8
Ġn o
à¤ıà¤¯à¤° à¤«
à¥® à¥Ń
ep h
Ġl og
ev i
Ġà¤¹à¥ĺ à¤¦
Ġà¤ľà¤¦ à¤ıà¤¸
Ġdi s
US U
à¤ħà¥Ľ à¤¸à¤°à¤¤
Ġà¤Ĳà¤µ à¥Ľ
usten ite
i ya
o an
o ud
Â ¡
Ġà¤ķ à¤ĭ
à¤ķ à¤¸à¤®
à¤¸ à¤¹à¤°
à¥Ī âĢĵ
à¤ľ à¤¤à¤°
Ġà¤¶ à¤¹à¤¤
à¤ķà¤° à¤²
à¤ĵ à¤ıà¤«
à¤ħ à¤¸à¤¹
Ġà¤¦à¤° à¤¯
à¤¸à¤² à¤ı
à¥Īà¤Ĥ. .
Ġà¤¸à¤ļ à¤²
à¤ľà¤² à¤¸
Ġ8 21
à¤¡à¤° à¤¬
Ġà¤ıà¤¨ à¤¯
Ġà¤ıà¤¨ à¤Īà¤ª
Ġà¤ıà¤¨ à¤ıà¤¸à¤ĵ
Ġà¤ıà¤® à¤¯
on t
à¤Ĭ à¤Ł
à¤°à¤ľ à¤®à¤²
ĠR T
ĠI SC
ĠN TA
Ġà¤ħà¤ĸ à¤®
30 5
ra y
44 4
à¤ħà¤¸ à¤«à¤²
47 2
Ġ38 7
à¥ĭ? "
Ġw eb
IC AI
Ġà¥« à¥©
SC II
Ġl aw
Ġl abel
if y
ric es
Ø§ Ùħ
ry st
val ues
Ġà¤Ľà¤Ł à¤ªà¤Ł
ĠCent re
2338 1125
arri er
5 40
6 32
S D
S outh
W eb
Ã ¤
Ġ et
à¤¨ à¥Ľà¤°
à¤¡ à¥ŀ
Ġà¤ķà¤° à¤ľ
Ġà¤ı à¤ıà¤²
à¤¨à¤® à¤°
Ġà¤¸à¤¹ à¤ħà¤¸
Ġà¤ĵ à¤¦
Ġà¤ĵ à¤ªà¤°
Ġà¤ĵ à¤Ĩà¤Īà¤ıà¤²
à¤°à¤Ń à¤ľ
à¤ıà¤ķ à¤¬
Ġ19 04
Ġà¤¬à¤° à¤Ĺà¤²
Ġà¤ıà¤¨ à¤ıà¤µ
à¤ķà¤¸ à¤°à¤¤
19 08
à¤¹à¤¤à¤° à¤®
Ġ18 85
ĠS o
ĠP riyanka
à¤ªà¤Ł à¤µ
Ġà¤ıà¤ļ à¤¡à¤¬
ĠG eneral
22 9
ol ence
ch ange
75 2
à¥Ĩ à¥¤
27 3
29 5
36 7
ess ment
Ġà¥¬ à¥¦à¥¦
à¥Ģà¤Ĥ? """
ou gh
ĠApp lication
Al ia
ĠSch eme
à¤ĵà¤ªà¤¨ à¤°
à¤Ĩà¤ĩà¤Ł à¤®
Ġà¤ħà¤¸à¤¹à¤¨ à¤¶
ĠND TV
Ġà¤Ĩà¤°à¤ıà¤² à¤ıà¤¸à¤ª
, âĢĵ
E ND
P TI
V T
c ase
f it
p lus
s y
v ariables
à ©
á ±
Ġ ct
à¤¯ à¤¸à¤²
Ġà¤¹ à¥ŀ
à¤ª à¤¶à¤ķ
Ġà¤µ à¤ĺ
à¤ī à¤µ
à¤ģ -
à¤¯à¤¹ à¤Ń
00 00
Ġà¤ĵ à¤ı
Ġ5 65
Ġ5 77
Ġ19 02
à¤ĩà¤Ł à¤®
à¤®à¤¦ à¤°à¤¸
er man
99 8
à¤ªà¤® à¤¯
ĠN i
Ġ40 8
30 9
ĠT error
Ġs pe
à¤¨à¤¹ à¤Łà¤¨
us es
Ġà¤¦à¤® à¤¦à¤®
ĠK esari
il ing
Ġ45 5
Ġt wo
Ġf in
à¥Ĥà¤ģà¥¤ "
li st
og en
à¥ĩ: -
à¤Ĩà¤¦ à¤°à¤£
Ġà¤°à¤¤à¤¨ à¤²
BS F
ict ion
ord er
NS A
Ġà¤¸à¤°à¤µ à¤¨
ĠRR B
ĠMB BS
reed om
0 10
3 48
5 80
7 90
A kshay
H IM
n ar
r ig
à¤² à¤ĸà¤£
à¤µ à¤ªà¤°
à¤Ł à¤£
Ġà¤² à¤²à¤¨
à¤ļ à¤®à¤¤
à¤£ à¤¹
à¤ĩ à¤°à¤²
à¤¾, ''
Ġà¤¹à¤® à¤¸à¤°
à¤ħ à¤°à¤®
à¤ħ à¤®à¤¨
00 4
à¤ıà¤¸ à¤ıà¤ļà¤¸
à¤µà¤¨ à¤ªà¤°
à¤Ĺà¤¤ à¤¯
à¤¤à¤¨ à¤°
à¤Ķà¤° à¤ĩà¤¸
Ġ6 19
Ġà¤ħà¤ª à¤¹à¤°
à¤°à¤¹ à¤ª
99 5
ĠB a
ĠD eepika
ĠH ind
à¤¨à¤ķà¤° à¤¨
ĠW hatsapp
à¤ĭ à¤ı
Ġa p
ap h
à¤Ĩà¤°à¤ıà¤« à¤ª
95 1
88 7
Ġà¤īà¤Ľ à¤²à¤¤
end ram
all s
ell ig
âĻ ¦
Ġà¤ªà¤°à¤Ń à¤£
sur ance
ĠTRAN SL
3 29
4 75
5 70
D onald
P an
T N
j it
l l
Ð ²
à¤ķ à¤¸à¤°
à¥Īà¤Ĥ âĢĿà¥¤
Ġà¤ı à¤²à¤µ
à¤ĩ à¤ķà¤¨
à¤ĵ à¤ıà¤¨à¤Īà¤Ĩà¤°
à¤¢ à¤¡
Ġà¤§ à¤µ
à¤ģ à¤¾
à¤²à¤¤ à¤¤
à¤ķà¤² à¤¹
Ġ"" à¥¤"
à¥ĭ, ""
in et
à¤ķà¤Ł à¤°à¤®à¤¨
à¥ĩ) .
à¤®à¤ļ à¤²
à¤ªà¤£ à¤¤
Ġ50 3
Ġ50 7
Ġà¤ıà¤« à¤ıà¤ķ
ĠM ob
ĠD R
Ġà¤ĵà¤µà¤° à¤«
ĠF e
is hi
75 1
65 6
45 2
Ġd ate
48 7
Ġà¤ħà¤¹ à¤¸à¤¨
38 2
à¤ıà¤¨à¤ı à¤ıà¤¸
Ġà¤ķà¥ľ à¤µ
à¤Ĩà¤°à¤ı à¤ıà¤«
our ces
Ġà¤īà¤¬ à¤²à¤¨
con f
gl ass
oll ar
à¤¦à¤°à¤µ à¤¨
Fi ber
predict or
2338 5271
ATO RS
ĠPrav akta
endram odi
ĠTRANSL ATORS
0 70
6 20
7 25
a ar
o z
Ġà¤ľ à¤ķà¥ľ
à¥Ĥ à¥°
Ġà¤° à¤ľà¤¬
Ġà¤Ķà¤° à¤°
Ġà¤ī à¤ľà¤²
à¤Ĩ à¤¬à¤ķ
Ġà¤Ĩà¤° à¤ıà¤«à¤ª
Ġà¤Ĳ à¤®à¤ľ
à¤Ĩà¤Ī à¤Īà¤¸
à¤Ĩà¤Ī à¤ıà¤¨à¤¸
à¤¸à¤¦ à¤ķ
Ġ18 000
Ġà¤Ĩà¤² à¤®à¤Ĺ
ĠR iver
ed u
ĠH aryana
ĠL enovo
il it
ĠV iew
Ġ45 8
à¤Ĩà¤Īà¤ıà¤¸ à¤¬
ak es
Ġà¥« à¥¬
ist ory
à¤¹à¤ľ à¤°à¤¤
à¤¨à¤ľ à¤±
ĠZ à¤ķ
im s
Ġre ad
ech arge
ight s
As ian
edict ion
ksh aya
ĠFin ale
Ġà¤Ŀà¤ª à¤Łà¤®
ĠSqu ad
ĠEp isode
2 44
3 16
3 49
6 75
F D
L og
N orth
r un
v ol
à¤¿ î
à¤² à¤ĸà¤°
à¤¡ à¤£
à¤ļ à¤ĸ
Ġà¤Ĺ à¤²à¤¨
Ġà¤Ĺ à¤¨à¤°
à¤µà¤° à¤¯
à¤¹à¤° à¤¨à¤¡
à¤Ĩà¤Ī à¤ĵà¤Ł
à¤§à¤¨ à¤ª
Ġà¤ħà¤® à¤°à¤ª
Ġ5 48
Ġ4 18
à¤¨à¤¨ à¤¹
ĠâĢĿ ,
à¤ķà¤¨ à¤Ĺà¤°
in o
er esults
ed ub
Ġin tegr
à¥ļ à¤°
Ġ45 9
à¤Īà¤ĵ à¤Ĩà¤Ī
Ġf inal
26 2
Ġ55 3
Ġà¤ªà¤°à¤µ à¤²à¤¯
Ġà¤¬à¤Ł à¤£
38 5
Ġà¥« à¥§
indi an
à¤ıà¤«à¤Ĩà¤Ī à¤ıà¤ļ
à¥ĩ! """
96 1
Ġk m
à¤°à¤¹à¤® à¤£
ĠTest ing
ivers ary
à¤ħà¤Ł à¤ķà¤²
lic k
NG A
Ġra di
edub oard
3 35
B R
J AY
g roup
j ay
v s
Ġ ep
à¥ĩ \""
Ġà¤ķ à¤ķà¤²
à¤¨ à¤Ĺà¤¨
à¤ķ à¤Ľ
à¤² à¤µà¤ķ
à¤² à¤µà¤²à¤ķà¤°
à¤µ à¤Ĺà¤¤
Ġà¤ħ à¤ĸà¤¨
Ġà¤Ĩ à¤·
Ġà¤ļ à¤¹à¤¤
Ġà¤« à¤ĸ
à¥įâĢį âĢį
Ġà¤Ł à¤«
à¤ľà¤¨ à¤®à¤¤
à¤ģ ...
Ġ7 48
Ġ8 40
à¥ĩà¤Ĥà¥¤ à¥¤
Ġà¥Ļ à¤¤à¤°
ĠA c
ĠR os
ĠR oad
50 6
50 9
21 8
Ġ60 7
Ġà¤¦à¤® à¤ķà¤¤
Ġà¤¹à¤¡ à¤¸à¤¨
27 2
37 3
38 3
op h
à¤ıà¤¨à¤ıà¤² à¤¸
58 9
ang al
Ġà¥§à¥¯à¥® à¥®
ĠSp ace
ver t
ĠBl u
Un ited
Mar uti
Ġmar ket
/ )
4 12
9 16
F IR
N a
O ne
S ensex
l aw
w k
à¤ľ à¤©
à¥Ĥ à¤ĥ
Ġà¤Ĩ à¥ŀà¤¤
à¤¼ ?
Ġà¤¥ à¤®à¤¤
à¤ĵ à¤²à¤®
à¤ħ à¤¸à¤¤
à¥Ģ) )
Ġ8 70
Ġà¤ıà¤® à¤ıà¤®à¤ıà¤¸
Ġ11 000
Ġà¤®à¤¸ à¤ľ
Ġ18 91
ĠA pril
Ġà¤ĸà¤¡ à¥ļ
ĠG ujarat
ĠE UR
ĠL ink
40 2
60 4
ĠO PPO
Ġ43 3
Ġ39 7
Ġ46 4
Ġe le
à¥¯ à¥¦
57 6
ach in
put er
à¸ ²
Ġ(* .
Ġà¤īà¤Ńà¤¯ à¤ļà¤°
% ],
0 99
4 17
5 14
6 35
N I
n c
s d
ã Ĥ
à¤¸ à¤ı
à¤® à¤µà¤¤
Ġà¤¹ à¥ľ
à¤Ĺ à¤¬à¤¨
à¤¬ à¤¸à¤¨
Ġà¤¤ à¥ĺà¤°
Ġà¤Ĩ à¤¶à¤¨
à¤Ī à¤¥
Ġà¤ı à¤Ĩà¤Īà¤ıà¤¸
Ġà¤ĩ à¤°à¤ķ
à¤ĩ à¤¯à¤°
Ġà¤ĸ à¤°à¤ªà¤¤à¤µ
à¤ķà¤° à¤¬
à¤¾, ...
à¤¯à¤® à¤¸
Ġ' (
Ġà¤Ĩà¤Ī à¤ıà¤®à¤¸
à¤ıà¤« à¤Ī
er jee
ĠS un
70 4
ĠG l
re ad
ĠE ast
à¤Ĩà¤Īà¤Ĩà¤° à¤ıà¤¨à¤ıà¤¸à¤ıà¤¸
is ed
et ing
Ġp H
26 1
od es
09 6
Ġà¥¬ à¥ª
68 2
69 3
ob ject
ain s
à¤Ĩà¤Īà¤ıà¤« à¤ıà¤¸à¤¸
per t
con duction
ĠØ ³
à§ ģ
Ġà¥§à¥¯à¥ª à¥Ń
âĢĶâĢĶ âĢĶâĢĶ
Ġacc ount
ïĤ ·
ghan istan
ĠBlu etooth
4 28
B P
R oyal
W TS
m al
n on
Ġ om
Ġà¤ķ à¤¨à¤µ
à¤¼ à¤¾à¥¤"
Ġà¤¶ à¤²à¤ı
Ġà¤¸à¤® à¤¬
à¤ĵ à¤ıà¤¨
à¤¼à¤¾ '
à¤Łà¤° à¤ľ
à¤¾. ...
à¥Ĥà¤Ĥ âĢĻ
à¥Īà¤Ĥ. '
Ġà¤Ĩà¤Ī à¤Ĩà¤Īà¤¸
Ġà¤Ĩà¤Ī à¤ıà¤¨à¤ıà¤²à¤¡
à¤£à¤¨ à¤«à¤²
ĠT i
ĠH ow
ĠH industan
ra di
ra ck
ĠL ook
il a
ur ed
Ġ48 6
35 4
90 3
à¥¨ à¥ª
28 4
em ic
Ġg lobal
37 7
Ġw ar
ort y
à¥¯à¥ ®
78 7
AN I
ock ey
Ġà¥§à¥¯à¥ª à¥«
à¥ĥ- à¤¿
ĠSe ason
EF T
oci ation
epend ence
2 65
3 39
6 28
9 15
D o
J DU
P rime
à¤¹ à¤¹
à¥Ī à¥ĩ
à¥Ĥ à¥ģ
à¤· à¤¡
Ġà¤ī à¤ĩà¤ķ
à¤Ī à¤¬à¤°
à¤Ī à¤Īà¤ª
Ġà¤ļ à¤¯à¤¨à¤ķ
à¤ªà¤¤ à¤¨
à¤ıà¤® à¤ıà¤¨à¤ıà¤¸
à¥Ĥà¤Ĥ âĢ¦
Ġà¤ĩà¤¨ à¤Ł
à¤Ķà¤° à¤ķ
à¤Ĺà¤² à¤¦
20 24
Ġ6 29
à¤ıà¤ķ à¤¤à¤°à¤«
à¥Ľ à¤ª
Ġà¤ªà¤°à¤® à¤ªà¤µ
Ġà¤Ķ à¤¨
ĠS ak
ĠP an
en ge
Ġà¤ľà¤¯ à¤Ńà¤Ĺà¤µ
ĠD ha
ĠH ai
Ġà¤ĵà¤µà¤° à¤°
is an
40 8
à¤¸à¤¹ à¤Ń
id es
Ġ58 6
eng th
TP C
Ġman agement
ĠGovern ance
4 10
4 15
4 39
4 34
D L
O ff
c are
p ib
Û ģ
ï ĥ
Ġ à¨
à¤¨ à¤Łà¤¨
à¤ķ à¤ĭ
à¥ģ à¥ģà¤Ĥ
à¤ľ à¤ļ
à¤ı à¤ıà¤¸à¤¸
Ġà¤¤ à¤¹à¤ľ
à¤¼ à¤ĥ
à¤Ī à¤ĸ
à¤¾à¤Ĥ !
à¤« à¤Ĺà¤µ
à¤ĩ à¤®à¤¸
à¤ħ à¤µà¤®
Ġà¤§ à¤§à¤ķà¤¤
à¤¯à¤° à¤Ł
à¤ıà¤¸ à¤ıà¤ķ
à¤·à¤£ à¤ķà¤°
à¤ıà¤® à¤ıà¤¸à¤¸
à¥ľ à¤®
à¥Ģ. âĢĻ
à¤Ńà¤µ à¤ľà¤¨
ĠS it
ĠC ore
ĠA sh
ĠI ED
ĠN CR
11 0001
ra sh
ĠK apil
Ġ70 8
ĠL and
Ġ48 1
à¥¨ à¥§
Ġ44 1
ri x
ri ke
38 1
88 1
68 6
89 4
ĠIC U
ĠMar ch
Ġad dress
230 98543
ler k
3 27
4 60
5 35
6 90
8 20
8 90
A t
B L
B ank
N ASA
h and
t en
Ġ à°
Ġà¤ķ à¤ķà¤¡
à¥ģ ]
Ġà¤¨ à¤Łà¤µà¤°
à¤ľ à¤ĭ
Ġà¤ħ à¤Łà¤°
Ġà¤µ à¤ĭ
à¥Ĥ à¤¼
Ġà¤¤ à¥ŀà¤¸
à¤¼ à¥Ĥà¤ģ
à¤Ī à¤¤
Ġà¤ı à¤Ĩà¤Īà¤ľ
à¥Īà¥¤ )
à¤Ń à¤Ń
à¤¾à¤Ĥ âĢį
à¤ĩ à¤ĵ
Ġà¤ĸ à¤±
à¤¶à¤¨ à¤ª
Ġà¤ħà¤² à¤ľ
à¤²à¤¬ à¤ļ
Ġ6 37
Ġà¤ıà¤¸ à¤ĵà¤ľ
Ġ7 60
Ġà¤ıà¤¨ à¤Ĩà¤ĩà¤ı
Ġ9 70
al u
Ġ18 89
ĠR echarge
Ġà¤®à¤² à¤ľà¤²
à¤²à¤® à¤Ł
Ġà¤ıà¤« à¤ľ
à¤§à¤µ à¤Ĺà¤¢
ĠT ata
ĠG P
Ġc or
as a
à¤ıà¤¸à¤Ī à¤ıà¤¸
à¥¨ à¥©
45 1
Ġh ere
SE E
07 7
Ġ57 8
ev e
MS P
ud y
ĠRe open
ĠHot star
ept ember
Cent ral
5 30
7 70
B a
N o
N an
R NA
f lu
s er
Ġ use
à¤¿ \""
à¤¨ à¤ĩ
à¤¨ à¤µà¤²
à¤¨ à¤¹à¤²
à¤¨ à¤ĭ
à¤¯ à¤ªà¤¤
à¤ı à¤ıà¤ļ
à¤¶ à¤¬à¤¨
Ġà¤² à¤¹à¤²à¤¹
à¤¡ à¤ĩà¤¨
Ġà¤Ĺ à¤¦à¤°
à¤£ à¤²
à¤°à¤¤ à¤¤
à¥Ģà¤Ĥ ""
à¤Ĩ à¤£
Ġ20 31
Ġà¤ĵ à¤¨à¤°
Ġà¤ħà¤° à¤¯
Ġà¤Ĩà¤Ī à¤ıà¤¸à¤ª
Ġà¤Ĩà¤Ī à¤ıà¤ı
Ġà¤¬à¤² à¤¶
à¤ıà¤« à¤Ĩà¤Īà¤ı
Ġà¤«à¤° à¥Ľà¤¨
Ġà¤ħà¤Ĺ à¤®
Ġà¤®à¤° à¤ķà¤°
Ġ18 67
ĠC GL
ĠA mit
ĠR F
à¤²à¤® à¤£
50 3
ĠN ASA
à¤ªà¤¹à¤² à¤µ
à¤¡à¤¬ à¤¡
Ġ40 4
ro s
el er
ol k
Ġà¤®à¤¨à¤® à¤°
Ġ64 7
à¤ıà¤Ĩà¤Ī à¤Ĩà¤Īà¤¬
Ġo pen
Ġà¥ļ à¤²à¤¬
Ġà¥ļ à¤«à¤²à¤¤
à¥ĭà¤Ĥà¥¤ "
à¤ıà¤¸à¤ıà¤« à¤¡
IC SI
à¤²à¤« à¤¤
88 9
qu est
Ġ! !
Ġk apoor
Ġâ ĹĨ
Ġcon centration
ĠOff er
act or
duct ivity
te ction
Ġà¤Ĩà¤Īà¤Ĩà¤Ī à¤ıà¤®à¤¸
Ġad ject
Al so
ĠPre paid
Ġsmart phone
à¤¾à¥° à¥¤
' >>
4 11
7 68
9 22
O N
P SEB
l abel
à¤² à¤ªà¤²
Ġà¤¸ à¥ľ
Ġà¤® à¤®à¤²
à¥Ī Í¾
Ġà¤ħ à¤¤à¤¨
Ġà¤² à¥ļ
Ġà¤Ĺ à¤Ĺà¤°
Ġà¤ı à¤ıà¤¸à¤¸
à¤ħ à¤ľà¤¹
à¤ıà¤¸ à¤ıà¤®à¤Ł
Ġà¤Ĳ à¤¤à¤¬
à¥ĩ, "
à¤¸à¤¨ à¤µ
Ġ5 35
Ġà¤Ĩà¤§ à¤°
Ġà¤®à¤¦ à¤¹
Ġ8 10
à¤²à¤ķ à¤°à¤¤
à¥Ŀ à¤ķ
Ġ18 95
ĠC al
ĠR C
à¥ī. )
50 1
âĢĻâĢĻ à¥¤
70 3
Ġà¤¹à¤¥ à¤ķà¤¡
ĠF eb
ing le
as ic
iv en
ir d
ĠW C
Ġ48 8
Ġ33 10
75 7
ce ption
Ġf e
47 6
29 4
Ġ49 3
48 5
à¤ıà¤¸à¤Ĩà¤Ī à¤Ĩà¤Īà¤¡
95 8
77 1
ev er
à¤®à¤¨à¤® à¤°
à§ Ģ
Ġpl an
ĠAg ency
à¤ªà¤Łà¤ķ à¤¥
Ġoff icial
ĠWin ner
ĠReg istration
osp ital
Ġâĺ»âĺ»â ĺ»â
0 24
7 28
D N
E ast
K abir
f unction
h ra
n el
o e
r ish
Ġà¤ķ à¤¬à¤°
Ġà¤ķ à¤ķà¤¸
à¤¹ à¤°à¤ķ
à¤¦ à¤¸à¤°
à¤ª à¤¶à¤¨
Ġà¤¬ à¤ķà¤¤
à¤ļ à¤°à¤¨
à¤¼ à¥Īà¤Ĥ
à¤Ī à¤ıà¤¸à¤¸
à¤¥ à¤Łà¤¬
à¤Ń à¤°à¤ª
à¤Ĩ à¤ľà¤¸
Ġà¤¹à¤® à¤¶à¤ķ
Ġà¤ħà¤² à¤¹à¤¦
à¤°à¤§ à¤°
à¤¦à¤° à¤¨
Ġà¤Ī à¤ıà¤¸à¤ıà¤²
à¤ıà¤¨ à¤Īà¤ľ
Ġ7 80
à¤ıà¤² à¤ĵ
Ġà¤ıà¤« à¤¡à¤¬
ĠB al
ĠB re
à¤¯à¤ķà¤° à¤¨
it t
ĠG ang
ĠF ootball
th ree
Ġp eople
Ġ49 6
Ġw ind
97 6
58 3
IS A
ru kh
à¤ıà¤®à¤Ĩà¤Ī à¤Ī
à¤ıà¤Ĩà¤° à¤Ī
Ġà¤īà¤¬ à¤²à¤¤
sp ec
Ġdi sp
ish es
reen house
ĠKh abar
Ġà¤Ĩà¤°à¤ıà¤« à¤Ĩà¤Īà¤¡
Ġà¤ıà¤ħ à¤°à¤²
ĠPo K
urv ey
ĠLim ited
Ġct et
ellig ence
3 18
B PSC
T rans
à¤¨ à¤ĸà¤°
à¤¤ à¤Łà¤°à¤ķ
à¤® à¤ķà¤²
à¤¹ à¤¬à¤¤
à¤Ī à¤ıà¤¨
Ġà¤ªà¤° à¤Ńà¤ķ
Ġà¤ı à¤Ĩà¤Īà¤Ĩà¤Īà¤¬
Ġà¤īà¤¨ à¤²
à¤¬à¤° à¤¬
Ġà¤ĳ à¤¥à¤°
à¤ıà¤® à¤Ĩà¤Īà¤Ł
à¤ıà¤® à¤Ĩà¤Īà¤ıà¤®
Ġ4 13
Ġà¤Ĩà¤Ī à¤ıà¤¨à¤¸
à¤¤à¤ķ à¤ķ
à¤ıà¤² à¤°
.. ...
at ell
at ural
Ġs emiconductor
ĠD aily
Ġin di
ĠO BC
ir c
ur ch
à¤Ĥ. "
Ġt ake
Ġm inist
39 4
36 6
à¥© à¥¨
49 7
à¤Ĩà¤Īà¤Ĩà¤Ī à¤ıà¤¸à¤¸
à¦ ¬
78 9
87 1
Ġdi sc
Ġà¤Ĩà¤Īà¤ıà¤¸à¤Ĩà¤Ī à¤ıà¤²
Ġà¥¨à¥¦à¥§ à¥¨
ĠØ ¹
form s
Ġà¤Ńà¤Ĺà¤¦ à¥ľ
Ar jun
fer ence
Ġan alysis
Son am
ĠKa if
ĠAmer ica
esk top
itiz ens
Ġic ai
ycl one
enew able
8 67
G DP
G lobal
M alaika
o op
s hear
u me
à¤Ĥ à¤ĥ
à¤ª à¤¦à¤®
à¤Ł à¤¯à¤®
Ġà¤ľ à¤¹à¤®à¤¤
Ġà¤µ à¤¢
à¤ļ à¤Ń
Ġà¤Ķà¤° à¤µà¤¹
Ġà¤¤ à¤¸à¤ķ
Ġà¤Ĩ à¤ĩà¤µ
Ġà¤ªà¤° à¤Ĺà¤Ł
à¤Ń à¤£
à¤ĵ à¤Īà¤¸
à¤ıà¤® à¤ıà¤¨à¤¸
à¤Ĺà¤² à¤Ĺ
19 45
ĠC E
ĠC or
ĠR ana
à¥ĩà¤Ĥ. """
70 9
ent al
à¤¹à¤¨à¤¤ à¤ķà¤¶
ĠV is
Ġm em
35 9
à¤Ĩà¤Īà¤ıà¤® à¤ª
ab ang
Ġ39 6
Ġ57 6
à¤ıà¤®à¤ıà¤² à¤¸
à¦ ¦
Ġk ey
Ġ$ {
Ġà¥§à¥¯à¥Ń à¥«
ire ment
Ġstud y
ĠSal es
Ass am
- '
5 49
8 15
G E
W indows
f ile
r eno
t oc
Ġà¤ķ à¤¨à¤¸
à¥Ģ \""
à¤¤ à¤Ĺà¤£
à¤¯ à¤¯à¤ķ
à¤² à¤ħà¤ľ
Ġà¤ķà¤° à¤¯
Ġà¤ī à¤Ł
Ġà¤ı à¤ļà¤ķ
Ġà¤ĩ à¥ŀ
à¤ĸ à¤¸à¤ķà¤¤
à¤°à¤ķ à¤¸
à¤ľà¤¨ à¤µ
à¤¯à¤® à¤®
à¤°à¤µ à¤²
à¤ľà¤° à¤¬
Ġà¤ĩà¤¨ à¤Ĺ
19 42
Ġà¥Ļ à¤²
or i
ĠI t
ĠT op
Ġs kill
ĠD ire
re pr
el a
Ġc ar
ĠE BD
ul s
ĠW ork
Ġ37 00
Ġo ption
ĠJ ay
pp er
45 5
47 8
Ġà¤§à¤® à¤¤à¤°
Ġh is
Ġ47 8
hi ps
Ġ51 00
SC E
Ġ68 7
69 2
Ġ78 7
66 1
ĠMe h
Ġà¤ħà¤µà¤¨ à¤¤
inter ior
ĠRep ublic
press ion
- à¥¤
0 48
6 85
B HU
c ut
o i
t itle
Ġ iss
à¤² à¤ĵ
Ġà¤° à¤ľà¤ķ
à¤¬ à¤ķà¤¤
à¤· à¤¬à¤²
Ġà¤Ĩ à¤ĩà¤¬
Ġà¤¸à¤® à¤¯à¤ķ
Ġà¤§ à¤¸
à¤°à¤µ à¤¦
Ġà¤¬à¤¹ à¤¸à¤¬
Ġ5 24
Ġà¤īà¤¦ à¤¦
20 23
à¤¡à¤² à¤¸
Ġà¤¸à¤¤ à¤²à¤ľ
à¤¦à¤® à¤ķà¤²à¤ķà¤°
in n
in cometaxindia
à¥Ī? -
Ġà¤Ķ à¤ª
Ġà¤ıà¤² à¤ıà¤²à¤¸
ĠS I
ĠS ha
à¤ľà¤Ĺ à¥Ŀ
ĠC NG
ĠC PI
ĠA kshaya
ĠR el
à¤¾: âĢľ
à¤°à¤¹à¤£ à¤¶
ĠH er
Ġc y
ir bh
Ġv ision
à¤ıà¤¨à¤ıà¤¸ à¤ķ
Ġb est
Ġ65 9
48 3
à¤ħà¤ľ à¤ľ
Ġg o
Ġg rowth
à¥Īà¤Ĥ) .
Ġ47 2
49 3
95 3
ne ction
46 9
Ġl ine
57 1
58 4
Ġà¥¨à¥¦à¥¦ à¥¨
AI L
Ġ900 1
Ġà¥§à¥¯à¥® à¥¬
ock down
Co V
ïĤ §
ĠTour ism
0 18
0 75
4 22
5 65
5 68
9 70
9 68
R TI
k ash
m enu
à¤¤ weather
à¥ĭ à¤¿
à¥Ī ''
à¤¶ à¤Ĺà¤µ
à¤¬ à¤§à¤¨
à¤§ à¤Ń
Ġà¤ı à¤Ĩà¤°à¤Ł
Ġà¤« à¤¬
à¤¯à¤ķ à¤¹
à¤°à¤® à¤®
à¤ıà¤¸ à¤ıà¤¡
Ġà¤ıà¤µ à¤²
à¤Ĺà¤² à¤ªà¤Ł
à¤¹à¤¨ à¤ľ
Ġà¤ľà¤² à¤§
Ġ7 25
Ġ7 32
Ġà¤¬à¤° à¤«
19 39
Ġà¤ıà¤® à¤ıà¤¸à¤Ł
Ġ14 40
à¥ĺ à¤Ī
99 6
ic ide
ĠM ini
Ġà¤ĸà¤¡ à¤Ĺ
ĠN P
30 6
ĠT ech
Ġà¤ļà¤¯à¤¨ à¤¸à¤®
70 8
Ġin dian
ĠK R
ch i
Ġ64 5
ĠW eek
75 6
35 8
Ġà¤ļà¤® à¥ľ
In di
39 6
36 8
46 2
97 9
ain ik
ore ign
Ġcon s
ĠAd reno
per ia
NG C
ĠMain s
CL AT
ound ation
ĠComp artment
Ġpart ition
3 22
3 24
8 49
9 33
F L
i ble
p oll
r esult
} ,
Î ¹
Ù İ
à¤Ĥ à¥Ģ
à¤¯ à¤ĸ
à¤® à¤¯à¤¤
Ġà¤® à¤¬
à¥Ī âĢĻ,
à¥ĭà¤Ĥ âĢĶ
Ġà¤µ à¤°à¤®
à¤¶ à¤°à¤¤
à¤¶ à¤ĭ
Ġà¤ī à¥ľà¤¨
Ġà¤ĩ à¤ķà¤¤
Ġà¤¶ à¤®à¤¸
à¤ħ à¤¨à¤¦
00 3
à¤Łà¤¨ à¤¸
Ġ5 28
Ġ5 32
Ġà¤ĸà¤° à¤ĸ
Ġà¤ıà¤¨ à¤ıà¤¸à¤Ĩà¤Īà¤¸
à¤²à¤µ à¤£
à¤ĸà¤° à¤Ĺ
ĠP ict
ĠB ay
ĠH WTS
ĠF D
Ġ45 1
Ġ45 3
à¤¯à¤£ à¤®
Ġb ack
Ġ# -#-#-#-#
har ti
49 2
85 4
68 9
69 1
78 6
Ġà¤¤à¤°à¤ķ à¤¶
oron a
Ġj k
ener ation
eng ers
CA B
à¤Ĩà¤Īà¤ıà¤¨ à¤ıà¤¸à¤Ł
unn y
. /
6 98
o th
y r
Ġ æ
à¤¤ à¤ĭ
à¤Ł à¤Ĺà¤¨
à¤ľ à¤¡à¤¨
Ġà¤Ķà¤° à¤¯à¤¦
Ġà¤Ĺ à¤ĩ
Ġà¤¸à¤® à¤§
à¤Ľ à¤ªà¤°
à¤ģ "
00 5
à¤µà¤¸ à¤ķà¤°
à¥ĩà¤Ĥà¥¤ âĢĿ
Ġà¤īà¤ªà¤²à¤¬ à¤§
à¤®à¤¦ à¤¤
Ġà¤Ĩà¤¸ à¤µà¤¨
ar am
à¤Ĺà¤® à¤ª
ĠC TET
Ġ17 50
ĠM G
ĠB ud
Ġà¤°à¤£ à¤Ń
à¤ĩà¤® à¤Ł
om ens
ĠH P
25 9
ĠK B
80 1
60 8
ĠIn vestment
Ġ49 2
48 4
ap t
ma ch
Ġ59 8
98 4
ĠUn ion
ib ility
Ġà¦ ľ
ĠRev olution
à¤İ à¤¸
air s
ïĥ ĺ
) "
3 45
5 16
5 26
6 11
6 34
R EAD
W hatsapp
Y ou
d ec
Ê ¹
Ġ ×
Ġ à¥ĭ
à¥Ģ *
à¤² à¤¥
à¤Ĺ à¤ľà¤¬
Ġà¤¤ à¤µà¤ķ
à¥Īà¤Ĥ ]
Ġà¤ı à¤ıà¤«
Ġ( ,
à¤¯à¤ķ à¤ķ
à¤ĵ à¤Ĩà¤Īà¤ıà¤¸
à¤ħ à¤ªà¤¸
à¥ģà¤Ĥ à¤Ĥ
à¤¼à¥Ģ /
Ġà¤¸à¤¹ à¤ļà¤°
à¤ıà¤® à¤ıà¤®à¤ıà¤¸
à¥Īà¤Ĥ. âĢĻâĢĻ
à¤¯à¤² à¤µ
à¤°à¤¶ à¤°à¤£
Ġà¤ıà¤¸ à¤ıà¤ļ
Ġ7 49
Ġ8 30
à¤¹à¤² à¤µ
19 54
à¥Ĥà¤Ĥà¥¤ """
Ġ18 54
ĠA qu
ĠB AN
Ġà¤¬à¥Ŀ à¤ķ
50 4
Ġà¤ıà¤ļ à¤ľ
Ġ/ -
70 6
ĠF rom
Ġin d
80 2
35 1
35 3
Ġ38 00
Ġ39 3
Ġi phone
Ġ54 6
46 6
34 1
88 2
98 1
Ġà¤²à¤Łà¤ķ à¤¨
Ġà¤īà¤²à¤Ŀ à¤¤
Ġà¤ľà¤¯à¤¸ à¤µ
rit hik
uc lear
Ġà¥¯à¥ ¯
ĠSpec ial
Ġà¤ıà¤¬à¤° à¤¡
Ġte am
Ġele ments
- \\
. '
0 28
6 22
7 19
7 15
T amil
j u
n ath
r ateg
s en
Ã ¨
à¤Ĺ à¤®à¤²
Ġà¤° à¤ªà¤ı
à¤¡ à¤°à¤ķ
à¤Ī à¤ĳà¤ķ
Ġà¤ı à¤Łà¤ķ
à¥Į )
à¤µà¤¨ à¤°à¤ķ
à¤ıà¤® à¤ıà¤Ĩà¤Ī
Ġà¤Ĩà¤Ī à¤®
Ġ6 24
Ġà¤ħà¤ª à¤ĺà¤Łà¤¨
Ġà¤ıà¤¨ à¤ıà¤«à¤ıà¤²
à¤ľà¤¯ à¤Ń
à¥Ĥà¤ģ ...
à¤ľà¤® à¤ķà¤°
ĠP e
à¤¸à¤°à¤ķ à¤¶
ĠC ut
ĠI d
ĠI IM
Ġà¥Ľ à¤ķà¤°
ĠB SEB
50 8
it ness
ed es
om et
ĠE vent
Ġp olice
65 1
Ġb re
à¥¨ à¥®
47 3
Ġd esign
à¤ħà¤« à¤ľ
Ġ56 2
à¤ĩà¤° à¤¡
64 1
xy gen
06 1
04 2
ach ine
Ġà¤Īà¤¯à¤° à¤«
ĠPlay ers
à¥§à¥¯à¥¯à¥ ¯
Ġà¤ıà¤ıà¤¨ à¤Ĩà¤ĩ
Ġper cent
ĠBh askar
Pay tm
ĠVer dict
Ġbse h
à¸² à¸
ĠRana ut
4 33
5 98
6 000
7 18
7 40
8 14
8 35
9 25
9 48
9 31
à¤¨ à¤ļà¤ķ
à¤¯ à¤µà¤¨
à¤¦ à¤¯à¤¸
Ġà¤¨ à¤Ĺà¤®
Ġà¤Ĩ à¤Ĺà¤¤
Ġà¤Ń à¤¡à¤ķ
Ġà¤ı à¤¨à¤²
Ġà¤ı à¤ıà¤®à¤Ĩà¤°
à¤ĩ à¤¹
à¤ĩ à¤ªà¤°à¤¸
à¥Ģà¤Ĥ à¤ĥ
à¤ħ à¤°à¤¸
à¤ħ à¤°à¤¶
Ġà¤®à¤¹ à¤¨
à¤ģ à¤ĥ
à¤·à¤£ à¤¤
Ġà¤ĵ à¤®à¤°
Ġà¤īà¤¦ à¤Ĺ
à¤Ĩà¤° à¤ıà¤ļ
à¤µà¤² à¤¸
Ġà¤¨à¤° à¤¹à¤°
Ġ8 80
Ġ18 87
ĠC lerk
à¤ĩà¤¡ à¤¬
Ġà¤ıà¤ļ à¤ıà¤²
ĠT able
ĠT ikTok
Ġin dust
à¤ıà¤¸à¤ıà¤¸ à¤ı
à¤ıà¤¸à¤Ī à¤Ł
à¤Ķ à¤ªà¤¨
35 2
ce iver
me diate
90 9
45 3
29 7
Ġ46 1
95 6
ĠRe lease
iz er
ĠAr jun
à¤Ĺà¤°à¤® à¤Ĭ
ign ou
ib r
int rinsic
ĠMinist ry
emiconduct ors
osph ere
àµ į
Ġbiharboard online
" ''
' :
4 000
5 97
6 45
L S
P ress
U T
l ared
p ect
r r
u it
y y
y le
Ġ ealth
à¥į âĢĻ
à¤¿ >
Ġà¤¹ à¤¡à¤ķ
à¥Ī """"
Ġà¤¨ à¤²à¤Ĺ
à¤Ł à¤ķà¤²
Ġà¤¬ à¤°à¤¸à¤¨
à¤ı à¤ıà¤¸à¤¡
Ġà¤ķà¤° à¤ĺ
à¤ĸ à¤°à¤¬
à¤°à¤£ à¤§
Ġà¤ħà¤² à¤¬à¤°
Ġà¤ħà¤µ à¤Ĺ
Ġà¤Ĩà¤Ī à¤Ĩà¤Īà¤ıà¤¸
Ġà¤Ĩà¤Ī à¤Ĩà¤°à¤¡
Ġà¤ıà¤¸ à¤ıà¤¸à¤ľ
à¤ıà¤¨ à¤ıà¤¸à¤Ł
Ġà¤¬à¤° à¤Ĺà¤¦
Ġà¤ĸà¤° à¤¨
à¤°à¤¬ à¤¦
Ġ18 58
ĠT CS
re y
ĠE lectric
ĠL PG
80 46
60 7
ĠJ ohn
à¤ıà¤®à¤Ī à¤ıà¤¸
Ġg ap
39 3
49 6
77 2
com ing
69 4
57 8
87 6
ath er
à¤ħà¤Ĺ à¤§à¤ķ
ĠFor ecast
duc ational
ĠInd ex
my gov
My Gov
ĠÃ Ĥ
âĪ Ĵ
ĠNirm al
/ .
5 37
6 19
9 35
E W
J ag
L B
b ital
m icro
Ù ¾
à¤° à¤¨à¤²
Ġà¤® à¤Łà¤¨
à¤µ à¤¹à¤¤
à¤¦ à¤°à¤ķ
à¤¬ à¤ĺ
à¤¡ à¤ħà¤²
à¤§ à¤¨à¤¤à¤®
Ġà¤Ķà¤° à¤īà¤¨
Ġà¤ĩ à¤Ĺà¤²
Ġà¤¯ à¤¯
Ġà¤ħà¤¨ à¤Ľ
à¤Ĩà¤Ī à¤ıà¤¨à¤¡
à¤¦à¤° à¤¹
à¥ľ à¤ĸ
Ġ5 38
à¤¬à¤² à¤¦
Ġ6 18
Ġà¤ľà¤² à¤¶à¤ķ
Ġ7 68
Ġà¤Ĭ à¤¬à¤¡
Ġà¤ıà¤¨ à¤ıà¤¸à¤ıà¤«
Ġà¤¢ à¤ķà¤ķà¤°
Ġà¤Ĩà¤® à¤°à¤£
ĠP ri
en ces
ĠN I
Ġà¤®à¤ķ à¤Ī
Ġà¤ªà¤ķà¤¡ à¤¨
ĠG reen
ĠD ist
à¤īà¤ª à¤¬à¤¨
Ġ64 8
Ġv is
à¤Īà¤ĵ à¤¡à¤¬
Ġm ini
à¤ĩà¤« à¤²à¤®
ĠPro ject
à¤¸à¤¡ à¥ĺ
ri pt
95 2
Ġw as
à¥¬ à¥¬
98 7
Ġà¥Ń à¥¨
aj aj
ĠEn d
Ġà¤¦à¤¹à¤¶à¤¤ à¤Ĺà¤°
à¤¾âĢ¦ .
IP C
Ġà¥§à¥¯à¥® à¥Ń
ĠSp ied
à± į
à¤Ĩà¤ī à¤Łà¤²
ĠRos han
4 35
4 65
5 21
5 31
7 26
7 29
9 10
9 47
F O
I s
N SE
N av
N CB
` %
e qu
à¤Ĺ à¤¸à¤°à¤ķà¤°
Ġà¤ħ à¤¢
à¤¬ à¤¹à¤¤
à¤Ī à¤ıà¤¸à¤Ĩà¤Ī
Ġà¤ĩ à¤µà¤¨
à¥Į à¥Ī
à¤°à¤® à¤¥
à¤Łà¤¨ à¤Ĺà¤°
Ġà¤Ĩà¤¯ à¤¡
Ġà¤ĵ à¤ķà¤²
Ġà¤ĵ à¤®à¤ķ
à¥Ĥà¤Ĥ )
Ġà¤ħà¤® à¤¸
Ġ5 14
Ġ5 29
Ġ6 44
Ġà¤ıà¤¸ à¤ıà¤ķ
à¤ıà¤¨ à¤ıà¤ª
à¤ľà¤² à¤ķ
Ġ9 30
à¤®à¤¹ à¤¸
Ġà¤ķà¤¶ à¤®à¤ķà¤¶
Ġ18 92
Ġà¤®à¤ľ à¤¹à¤°
ĠD ainik
Ġ60 6
ĠK arnataka
il ities
ur ation
Ġm p
Ġo b
Ġf uel
mi um
55 3
55 8
05 3
op ulation
88 4
Ġk a
ĠCh ak
ost an
our s
pl in
duct s
ver y
à¤ıà¤¨à¤ıà¤¸à¤ıà¤¸ à¤ĵ
Ġà¤®à¥ļ à¥ŀ
Ġà¥Ľà¤² à¥Ľà¤²
udi o
ĠAL SO
ĠAmb ani
Mart ensite
0 38
0 55
3 26
3 38
4 27
6 15
7 24
7 75
7 98
8 85
M al
N i
g rain
l am
o ther
s k
à¤ķ à¤ľà¤¨
à¤¦ à¤¯à¤°
Ġà¤µ à¤°à¤¦à¤°
à¤ı à¤¯à¤¹
à¤Ī à¤Ĺà¤°
Ġà¤ı à¤¥à¤°
à¤Ĩ à¤®à¤¨
Ġà¤ħà¤§ à¤ľà¤²
à¤ĵ à¤¤
Ġ20 28
Ġà¤Ĩà¤° à¤¯
Ġà¤Ĳ à¤«
à¤¯à¤¤ à¤¤
Ġà¤ĵ à¤Īà¤ıà¤®
à¤¼à¥ĩ à¤ĥ
à¤§à¤¨ à¤¶
Ġ5 27
Ġà¤Ĩà¤Ī à¤ıà¤¸à¤Ł
Ġà¤¬à¤² à¤¹
Ġà¤Ī à¤Īà¤ª
Ġà¤īà¤® à¤¦
à¤Ĳ à¤®
à¤°à¤¨ à¤¸
in ce
à¥Ĥà¤ģ |
Ġà¤Ķ à¤¶
à¤¥à¤² à¤¸
à¤¹à¤ķ à¤®
ĠP al
ĠI TR
Ġà¤ıà¤« à¤ıà¤ĵ
Ġà¤Ĺà¤£ à¤ķ
Ġà¤ľà¤¯ à¤ļ
el ine
Ġc ode
ĠL AC
80 5
Ġp lus
Ġp otential
à¤¿à¤¼ à¤Ĥ
09 5
Ġ47 7
05 6
85 1
à¤Ĩà¤ĩ à¤ıà¤®
à¤ıà¤¨à¤ı à¤ıà¤²
oc us
66 6
ai pur
Ġcon f
Ġdi gital
ĠÎ ³
à¥¨à¥¦à¥¦ à¥®
ple x
rest ed
Ġserv ice
olk ata
7 44
A US
S uper
U L
U ttar
c ar
h vi
p art
ð Ł
à¤° à¤ľà¤¹
à¤Ĥ ...
à¤ķ à¤ªà¤°
à¤ķ à¤ķà¤°à¤£
à¤¯ à¤²à¤¨
à¤² à¤ļà¤¨
Ġà¤ª à¤ªà¤¡
à¤µ à¤Ńà¤ķ
à¤ľ à¤«à¤°
Ġà¤µ à¤°à¤£
à¤¶ à¤®à¤£
à¥Ĥ âĢĵ
à¤¡ à¤ı
à¤¡ à¤Ľ
à¤· à¤¹
Ġà¤ī à¤µà¤°
Ġà¤ı à¤¹à¤²
à¤ĩ à¤¯à¤¤
Ġà¤Ł à¤ªà¤ķà¤¤
à¤ħ à¤ĸà¤°
à¤¶à¤¨ à¤¦
Ġà¤ħà¤² à¤ĸ
Ġà¤ªà¤¤ à¤µ
à¤¾à¤ģ :
Ġà¤Ī à¤ıà¤¸
Ġà¤ıà¤¸ à¤ıà¤²à¤Ĩà¤°
à¤Ĳ à¤°
à¤Ĳ à¤¡
Ġà¤Ĭ à¤ªà¤ľ
à¤¡à¤° à¤¬à¤°
an ism
ar un
à¤¼à¥ĭ )
Ġ18 83
à¤¬à¤¨ à¤¡
ĠP PF
ĠA ug
ĠI glesia
ĠB illion
ĠN ations
Ġ31 00
Ġà¤ĭà¤£ à¤ķà¤°
ĠF ort
ra cy
40 9
il os
ĠU M
65 4
Ġb et
ĠX X
29 2
ab s
55 1
05 7
Ġw edding
34 3
Ġ66 6
ĠPM O
à¥§à¥¯à¥ ¯à¥¦
ĠEn field
à¤ģà¥¤ ""
ĠCent ral
ĠNet flix
Ġà¤ıà¤¡à¤² à¤µ
Ġstat us
ĠRank ings
uro pe
Re ceiver
ĠKe jriwal
news state
Po K
à¤ħà¤ľà¤¨ à¤¬
irbh aya
4 18
4 23
5 15
5 22
5 42
7 35
8 22
P IB
S IT
W WF
i que
s i
Ì ģ
Ġ dia
Ġ %),
Ġ end
à¥į '
à¤ķ à¤®à¤¨
Ġà¤¸ à¤¦à¤Ĺ
à¤® à¤¨à¤ķ
Ġà¤² à¤Ľ
à¤¬ à¤¹à¤ķ
Ġà¤ī à¤ĩà¤Ĺà¤°
Ġà¤ªà¤° à¤°
Ġà¤ĩ à¤®à¤¦
Ġ( $
Ġà¤Ł à¤¹à¤²à¤¤
Ġà¤¡ à¤¡à¤Ĺ
à¤¯à¤¹ à¤ķ
Ġà¤Ī à¤ıà¤¨à¤Ł
Ġ6 16
Ġ6 26
à¤ıà¤ķ à¤¹
Ġ7 13
19 22
à¥Ĥà¤Ĥà¥¤ âĢĻâĢĻ
Ġ18 75
Ġà¤§à¤¨ à¤ª
ĠP S
ĠP ET
ĠR A
ĠI R
ĠB BC
ĠB enefit
Ġà¤ķà¤Ł à¤¤
st ream
ĠT emple
ĠG as
ĠK N
et t
à¥ĢâĢĻ à¥¤
Ġt r
Ġt ext
ĠJ AM
47 7
48 2
85 7
IC J
68 1
à¤¼à¥ĩà¤Ĥ: \\
Ġà¤Ńà¤Łà¤ķ à¤ķà¤°
qu ery
58 7
ber t
ĠOff ers
à¤ıà¤®à¤ıà¤® à¤µ
man n
oy ota
Ġres earch
ĠPar liament
ĠKir in
3 31
5 44
6 21
6 65
F er
K BC
v a
Ġ á
à¥Ģ ]]
Ġà¤¹ à¤ļ
Ġà¤® à¤«
à¤¦ à¥ľ
à¤ª à¤«
Ġà¤ľ à¤¤à¤¨
à¤ı à¤Īà¤ıà¤¸
à¤Ī à¤ªà¤°
à¤Ī à¤ıà¤®à¤ıà¤¸
à¥Īà¤Ĥ âĢĻà¥¤
à¤£ à¤ĺ
à¥Ģà¤Ĥ |
Ġà¤¸à¤® à¤°à¤µ
à¤ħ à¤ªà¤²
Ġà¤®à¤¹ à¤¦
Ġà¤īà¤ª à¤¹à¤¤
à¤Ĩà¤Ī à¤Īà¤ı
à¤¾. âĢĻâĢĻ
Ġà¤ĳ à¤µà¤°
Ġ5 23
Ġ6 15
Ġ6 17
Ġà¤ħà¤ª à¤Ń
à¤ıà¤ķ à¤¡
Ġ9 40
Ġà¤ıà¤® à¤ıà¤¨à¤Ĩà¤°à¤Ī
Ġà¤°à¤¨ à¤¬
Ġà¤°à¤¸ à¤Ĺ
Ġ13 50
Ġ18 76
à¤ıà¤ļ à¤ıà¤¸à¤¬
ĠS emi
ĠA uth
à¤¿âĢį ,
à¤°à¤ĸ à¤§
à¤¯à¤¯à¤¨ à¤°à¤¤
it ish
st ant
Ġà¤ıà¤ļ à¤ıà¤®à¤Ł
30 8
70 1
18 60
Ġs ale
ĠD eb
ĠH is
un ity
ir it
and s
id er
45 4
em at
Ġd eath
Ġ44 6
Ġ43 00
Ġ47 4
Ġi it
08 5
46 1
46 3
07 1
88 6
98 2
98 9
AP I
à¤ıà¤²à¤ıà¤« à¤ıà¤¸
ĠMar riage
à¤ıà¤¨à¤ıà¤« à¤ıà¤²
pro bability
ĠPre view
Ġà¥¯à¥ §
En g
HP BOSE
Im port
oper ation
Ġstud ents
Ġsqu ared
Ġbut ton
lement ary
poth esis
ĠHind ostan
0 33
5 33
6 31
7 12
9 45
A sh
A mer
C GBSE
H R
S upreme
s ample
à¤¸ à¤²à¤¤
à¤ª à¤¦à¤¨
à¤ľ à¤²à¤¤
à¤ļ à¤°à¤®à¤ª
Ġà¤Ĩ à¤ļà¤°
à¥Ī, )
à¤¾. âĢĿ
Ġ5 16
Ġ4 28
Ġà¤ķà¤² à¤µ
Ġà¤īà¤² à¤Łà¤¨
à¤ħà¤² à¤®
à¤®à¤ļ à¤°à¤£
ĠS m
ĠS upreme
à¤¬à¤¨ à¤Ł
ĠC DS
99 1
Ġà¤¸à¤¨ à¤«
ĠD h
ra ud
à¤²à¤ļ à¤Ł
et ty
80 8
ĠIn formation
Ġt ax
Ġt ype
Ġf ile
90 2
Ġb eg
à¤īà¤¥ à¤ª
à¤Ĩà¤µ à¥Ľ
Ġi i
97 2
Ġl ink
oc ument
87 9
ĠPr ediction
Ġà¤īà¤¬à¤° à¤ķà¤°
à¤ıà¤¨à¤Ĩà¤° à¤ıà¤ļà¤ıà¤®
Ġà¥§à¥¯à¥® à¥«
Ġà¥§à¥¯à¥® à¥ª
ĠâĤ ¬
rb an
ĠAnn iversary
ĠEM UI
atell ite
. ""
4 29
5 95
7 91
8 10
C ol
F one
G F
K apil
R s
S ec
h al
l ink
w ik
Ġ å
à¤² à¤ĵà¤µà¤°
Ġà¤¸ à¤ľà¤¨
Ġà¤ª à¤Ī
à¤ª à¤łà¤¨
Ġà¤¦ à¤®à¤£
Ġà¤ī à¤£
à¤ī à¤¥à¤®
à¤ĵ à¤ıà¤¸à¤Ī
à¤ĵ à¤ıà¤¸à¤¸
à¤°à¤¦ à¤ķ
à¤µà¤¨ à¤ļà¤°
âĢĻ -
à¥Īà¤Ĥ. âĢĿ
à¤ıà¤¨ à¤Ĩà¤Īà¤Ĩà¤Īà¤ıà¤«
Ġà¤ĩà¤² à¤ķ
19 14
19 53
in ary
à¤Ĭ à¤ľ
Ġà¤Ķ à¤µ
Ġ18 79
Ġà¤ķà¤¨ à¤ªà¤Ł
ĠR N
à¤²à¤¸ à¤ķà¤°
it em
à¤¯à¤¡ à¤¸
à¤ħà¤° à¤°
ĠG ATE
à¤®à¤£ à¤µ
as hi
60 2
60 3
ay an
ĠW hite
65 3
à¥Ī! ""
47 4
ĠX Z
Ġd evelop
ri p
à¤ıà¤¯à¤° à¤¬à¤¸
Ġà¥ª à¥¯
Ġw ho
IC SE
à¤¿: -
à¤ıà¤¨à¤ı à¤ıà¤Ł
oc ation
RC P
à¥Ģ"" )
Ġà¤¦à¤£ à¤¡à¤µà¤¤
con centration
ĠUP A
AL L
En gland
Sp ace
ÂłÂłÂłÂłÂłÂłÂłÂł ÂłÂłÂłÂłÂłÂłÂłÂł
Ġcont rol
urb an
ĠOct ober
ĠSak thi
rateg ic
3 11
3 17
3 47
5 28
6 14
9 65
A X
D NA
F r
S ar
S ur
U AE
b re
d à¤ª
e M
à¥ Ĳ
à¤¯ à¤Ĺà¤¤
à¤² à¤¤à¤°
à¥Ī à¤ģ,
à¤Ł à¤ªà¤¨
à¤¬ à¤«
à¤ļ à¤ªà¤¨
Ġà¤¤ à¤°à¤¤
à¥Īà¤Ĥ ""à¥¤"
Ġà¤ı à¤ªà¤°
Ġà¤ı à¤°à¤¨
Ġà¤¸à¤® à¤¶
à¤ħ à¤²à¤µ
Ġà¤Ĳ à¤¥
à¤Ĩà¤Ī à¤ıà¤Ł
Ġà¤¦à¤° à¤ª
à¤®à¤¤ à¤µ
à¤µà¤¸ à¤µà¤¸
à¤ıà¤® à¤ĵà¤¸
à¤§à¤¨ à¤¬
Ġ5 39
Ġà¤Ĩà¤Ī à¤ıà¤ļà¤ıà¤®
Ġà¤ıà¤® à¤ĵà¤¸
Ġà¤Ĺà¤° à¤ľà¤¨
à¤Ĺà¤¨ à¤¹
Ġ18 55
Ġ18 73
ĠA R
ĠA PI
or age
en vironment
Ġà¤ªà¤Ł à¤µà¤°
ĠM c
ĠM otor
50 5
Ġà¤Ńà¤² à¤ı
ĠG rand
Ġc m
ĠL a
ĠL ondon
80 6
Ġp oint
Ġ48 4
Ġà¤ªà¥Ŀ à¤ķà¤°
Ġ75 9
90 8
Ġà¤ıà¤° à¤¡
65 9
45 7
45 8
Ġ55 2
Ġ46 9
85 2
68 3
57 2
57 4
AM U
aw az
ach h
Ġcom mit
à¤ıà¤¨à¤ıà¤« à¤ıà¤¸à¤ıà¤®
Ġà¤ıà¤¨à¤ıà¤¸à¤ıà¤¸ à¤ĵ
IF T
tm l
ĠAcc ident
ĠMB A
FI X
Ġâĺ»âĺ»âĺ»â ĺ»
0 12
0 16
3 32
4 13
5 34
6 69
7 22
N Z
P er
P at
S am
[ (
c oron
c ounter
d à¤Łà¤°
s hip
y e
à¤° à¤¨à¤°
à¥į à¤ĥ
à¤¨ à¤§
à¤¤ à¥Ļ
à¤¸ à¤ľà¤¨à¤ķ
Ġà¤ľ à¤¯à¤¹
à¤¶ à¤°à¤®
à¤§ à¥ľà¤ķ
Ġà¤ªà¤° à¤·
Ġà¤ı à¤Ĩà¤°à¤¸
à¤¾à¥¤ ]
Ġà¤¯à¤¹ à¤ķ
à¤¹à¤° à¤«à¤¨à¤®
à¤²à¤¨ à¤µ
Ġà¤¸à¤¬ à¤ªà¤°
à¤·à¤£ à¤®
à¤µà¤¨ à¤¨
Ġà¤ħà¤® à¤°à¤¦
Ġ5 34
Ġ6 21
Ġà¤ħà¤¤ à¤¹à¤°
à¥ĭ, "
Ġà¤īà¤ł à¤µ
19 34
à¤¬à¤¦ à¤ķ
Ġ18 74
à¤ıà¤ļ à¤ıà¤¸à¤ıà¤²
à¤¼à¥ĭà¤Ĥ -
ĠC hat
ĠN FC
st ra
di d
Ġà¤ıà¤¡ à¤¸
âĢľ %
à¤ıà¤¸à¤ıà¤¸ à¤ĵ
ol v
à¥ħ à¥Ĥ
un it
et ition
Ġ48 3
à¤ħà¤¸ à¤«à¤²à¤¤
23 97
à¤ıà¤Ĩà¤Ī à¤¯
75 3
ĠX peria
Ġh ave
Ġh ssc
Ġà¤ķà¤¦ à¤®à¤¤
à¥¬ à¥«
67 2
Ġ66 9
à¤Ĩà¤Īà¤ıà¤² à¤ĵ
à¥ĩâĢĻ à¥¤
ud ents
Ġà¥¨à¥¦à¥§ à¥¬
af ale
ĠSon g
oll ow
VP AT
Ġà¤ľà¤« à¤°à¤¯
Ġ(+ )
) \\
, -
0 29
4 31
6 36
8 45
9 88
F F
J an
L a
L IVE
M on
P B
c et
Ġà¤ ±
à¤¤ à¤ªà¤¤
à¤¦ à¤Ī
Ġà¤¨ à¤ĸ
Ġà¤¨ à¤²à¤µ
Ġà¤µ à¤¸à¤²
Ġà¤° à¤²
Ġà¤Ĺ à¤¡à¤¬à¤¡
Ġà¤ı à¤ıà¤ı
à¤Ń à¤ľ
à¤ķà¤° à¤¸
à¤Ĩ à¤ľà¤°
Ġà¤§ à¤¨à¤²
à¤®à¤¨ à¤Ń
à¤¸à¤® à¤¬à¤°
à¤¯à¤¨ à¤¸
à¤¯à¤¨ à¤Ĺà¤°
19 00
19 28
19 38
Ġ12 80
Ġà¤Ķ à¤ľà¤²
al am
ĠS hi
ĠS eptember
ĠS three
ĠP ra
ĠC ivil
ĠB ar
ĠT O
ĠG irl
Ġc re
à¤Ĩà¤Īà¤Ĩà¤° à¤ª
80 3
60 6
ĠO disha
ir ed
ĠIn come
Ġt op
ĠJ ud
90 6
à¤Ńà¤°à¤¤ à¤ª
Ġh elp
ri um
ag er
Ġg irl
55 2
36 9
49 1
49 5
à¤Īà¤ıà¤¸ à¤ı
Ġà¤¹à¤¸à¤¨ à¤ª
Ġ68 4
68 4
ac y
à¥ĩâĢĻ ,
à¥ĩ' à¥¤
69 6
if ier
Ġà¤¸à¤Ĺ à¤°à¤®
Ġà¥§à¥® à¥¯à¥
à¤Īà¤ıà¤® à¤¯
Ġà¤ļà¥Ŀ à¤¤
ĠAr ch
IND IA
pro cess
à¥¨à¥¦à¥¦ à¥«
Ġà¦ ¬
à° ²
NO ME
à¦¾ )
ĠAf ter
elect ric
ĠAm ar
Ġraj eduboard
eh ic
Ġab out
HF W
à¤ıà¤®à¤ıà¤¨ à¤Ĩà¤°à¤ıà¤«
Ġcbs eresults
toc ol
0 34
3 28
5 64
5 88
8 44
P re
W h
à¤¨ à¤®à¤²
à¥Ī ',
à¤µ à¤Ĺà¤¢
à¤Ī à¤¡à¤¨
Ġà¤ı à¤¯à¤°à¤®
Ġà¤¶ à¤Łà¤¡
à¤ī à¤¹
à¤ī à¤łà¤¨
à¤Ľ à¤¯
Ġà¤īà¤ª à¤ĸà¤£
Ġà¤¬à¤¤ à¤¶
à¤¸à¤² à¤Ĺ
à¤¸à¤¨ à¤¨
Ġà¤ħà¤® à¤ļ
Ġà¤¹à¤° à¤²
Ġà¤ħà¤° à¤ª
Ġà¤¸à¤° à¤ķà¤°
Ġ7 14
Ġà¤ħà¤Ĺ à¤¡
à¥Ĥà¤ģ :
an ia
ar ies
al le
à¤ıà¤ļ à¤ıà¤®à¤ıà¤¸
es ent
ĠP F
ĠP DA
Ġà¤ıà¤« à¤Ĩà¤°à¤ª
ĠN ation
di sc
ĠT B
ĠT ED
Ġs l
ĠF ree
Ġ60 2
ĠE c
ĠE PF
Ġà¤Ĺà¤² à¤µà¤¨
60 1
Ġ45 6
Ġ34 00
47 9
ĠX C
Ġd ev
og i
46 8
Ġà¤ľà¤¶ à¤ª
à¥Ģ"" à¥¤"
end ul
Ġà¤ªà¤ķà¥ľ à¤¤
76 1
76 3
AM CET
Ġ96 11
ary a
ill a
BS HSE
à¥ĩ"" à¥¤"
à¤ıà¤²à¤¬ à¤®
ener ic
form ance
amp a
à¤į à¤«
mer ce
Pro cess
Ġli fe
ER T
ym pt
à¤ķà¤ı à¤£
hel plin
anch al
Ġtrain ing
nar endramodi
Ġà¤Ĩà¤Īà¤ıà¤ı à¤ıà¤«
0 65
A O
H onda
V o
t rop
u ery
w orld
Ã ŀ
Î »
à¤° à¤²à¤¤à¤®
à¤® à¤Łà¤¨
Ġà¤® à¤²à¤¤
Ġà¤ª à¤²à¤¤
à¤ª à¤²à¤¨
à¤Ĺ à¤¡à¤¨
Ġà¤¨ à¤ķà¤°
Ġà¤¨ à¤¦à¤µ
Ġà¤¦ à¤®à¤ķ
à¤§ à¤µà¤°
à¤¼ à¤¼à¤¾
Ġà¤ļ à¤ķà¤µ
à¥Į à¤¼
à¤Ĩ à¤ĩà¤ķ
à¤ľà¤¨ à¤®
à¤ħ à¤Ľ
Ġà¤ĺ à¤Ĺ
Ġà¤ħà¤² à¤ķà¤¨
à¤°à¤µ à¤®à¤¯
Ġ5 44
Ġà¤¹à¤° à¤ļ
à¤Łà¤ķ à¤ª
Ġ9 18
ĠS ur
ĠS anj
ĠC redit
ĠM in
ĠH all
ĠF old
ĠE N
ĠE v
à¤¨à¤Ł à¤ļ
80 4
ir ender
ad har
75 4
Ġf und
Ġb hp
ab adi
Ġh ai
48 6
09 8
67 8
à¤¿: %
Ġ57 4
ĠY oga
à¥Ģ! "
à¤ħà¤¶ à¤°à¤«
AP A
AN S
ĠCol lege
à¥¨à¥¦à¥¦ à¥§
ĠAss istant
arm ers
Ġà¤Ĩà¤Īà¤ıà¤² à¤ĵ
à¤µà¤¬à¤¤ à¤²
ga on
akh and
Ġpol icy
, .
0 23
0 67
4 16
4 24
5 24
5 94
6 18
8 29
9 67
E r
S w
m inist
v avirus
w in
Ġ ice
à¤¨ à¤Ĺà¤łà¤¨
à¤² à¤ĸà¤¤
à¤¦ à¤ı
à¥ĭà¤Ĥ ''
à¤¶ à¤²à¤ķ
Ġà¤Ĺ à¤®à¤Ĺ
âĢį à¤Ĥ
à¤°à¤® à¤¹
à¤īà¤¨ à¤Ĺ
à¤ľà¤¬ à¤¸
Ġà¤ķà¤² à¤µà¤°
Ġà¤ıà¤¸ à¤ıà¤«à¤ıà¤¸
à¤°à¤« à¤°
à¥ĩà¤Ĥà¥¤ âĢĻ
à¤°à¤² à¤µ
19 32
Ġ15 20
an cy
Ġ18 65
ĠA z
en umber
Ġ0 44
ĠN umber
Ġà¤ıà¤¡ à¤Ĺà¤°
ĠT ab
ĠT ier
à¤¿) à¥¤
Ġp i
à¥¦à¥¦ à¥¦à¥¦
id a
90 7
ab y
est ing
ID S
46 4
Ġ41 00
64 3
à¥ĩà¤Ĥ? ""
Ġth em
ub le
Ġre port
ell s
IV O
à¤Ĩà¤°à¤Ĩà¤° à¤Ĩà¤°
Ġà¤ķà¤²à¤® à¤¬à¤¦
ĠMar uti
RI L
Ġed ucation
pos ition
ograph ic
Ġreg ion
++ ++
à¤ıà¤¸à¤ıà¤¨ à¤ıà¤ı
coron vavirus
2397 8046
endul kar
helplin enumber
coronvavirus helplinenumber
0 15
0 22
0 27
3 36
4 19
6 33
8 42
9 49
E ST
I PS
M et
P ul
S i
S ri
d à¤ļ
p an
Ġ ovid
ĺ º
à¤¨ à¤¸à¤®
à¤¤ à¤¦à¤°
à¤ķ à¤ĳà¤«
à¤¸ à¤ľà¤Ĺ
à¤® à¤ľà¤²
Ġà¤ª à¤ļà¤¨
à¤¦ à¤Ĺà¤²
à¤Ł à¤ªà¤°
à¤ľ à¤¯à¤²à¤ķ
Ġà¤¦ à¤²à¤ķ
à¤ı à¤Ĩà¤Īà¤ª
à¤ı à¤ıà¤ª
à¤¬ à¤ķà¤µ
Ġà¤Ń à¤®
à¤Ī à¤Ĩà¤ķ
à¤£ à¤¶
à¤ĩ à¤ıà¤¸
à¤ĩ à¤ĵà¤µà¤°
à¤ĵ à¤¶
à¤ĵ à¤ıà¤¸à¤¡
à¤ħ à¤°à¤ķ
à¤ħ à¤ķà¤°à¤®
Ġ20 40
Ġ20 27
00 8
à¤ıà¤¸ à¤ıà¤¨à¤¸
Ġà¤ĵ à¤ķà¤Ł
âĢĻ :
à¥ĩ. ...
à¤ıà¤¨ à¤ıà¤¡
à¤ıà¤² à¤Ĳ
Ġ8 25
Ġà¤¬à¤° à¤ľ
Ġ9 20
à¤¬à¤¦ à¤²à¤¨
à¤¼à¥ĭ .
à¤¬à¤¤ à¤ª
Ġ50 20
à¤ķà¤ª à¥ľ
à¤²à¤® à¤¡
ĠD G
ĠD ata
Ġin ch
ĠL oC
Ġv er
Ġ45 4
à¤ıà¤®à¤ıà¤¸ à¤¬
à¤Ĺà¤£ à¤ªà¤¤
os a
65 8
Ġb oard
In t
har ma
09 1
Ġ47 6
à¥© à¥«
85 8
ĠâĢ¦ à¥¤
à¥® à¥«
06 6
88 3
à¦ ®
he a
IM A
IA S
ust om
Ġj ac
TC S
ĠAr chitecture
à¤į à¤¨
DM RC
CS BC
à¥¨à¥¦à¥¦ à¥Ń
Ġà¤®à¥ļ à¤°
ĠSe lection
ĠMy Gov
ĠFin ance
ĠGS M
EG IN
rab orty
Ġproject s
ĠEcon omy
Ġupd ate
3 14
5 39
5 92
6 27
7 23
8 24
9 46
9 62
D i
H BSE
K YC
M ac
P ol
S im
S ingh
a ustenite
d raw
i od
k n
y an
Â ¨
Ï Ħ
Ð ¹
Ø ´
à¤° à¤ı
Ġà¤ķ à¤ķà¤°
à¤¤ à¤ªà¤¸
à¤¯ à¤¦à¤¨
à¤¸ à¤¹à¤®
à¤¸ à¤ĸà¤£
à¤² à¥ĺ
Ġà¤® à¤ķà¤µ
à¥Ī (
à¤µ à¤®à¤¯
à¤Ĺ à¤¬à¤²
Ġà¤¨ à¤Ń
à¤ı à¤ıà¤®à¤ıà¤¸
Ġà¤ªà¤° à¤ĸà¤¤
à¥Ī, âĢĿ
Ġà¤§ à¤¨à¤¸
à¤Ŀ à¤ªà¤¨
à¤ĺ à¤¨à¤¨
Ġ8 24
Ġà¤ıà¤® à¤ıà¤ļà¤ı
à¤°à¤ª à¤²
er g
al og
Ġà¤ıà¤² à¤Ĩà¤°
ĠS in
ĠA D
ĠI X
ĠG a
ĠD ates
ĠD etails
à¤¬à¤¡ à¤Ĺ
Ġc ost
14 40
60 5
à¤ĭ à¤Ī
id ation
à¤ıà¤¨à¤ıà¤¸ à¤ıà¤«
Ġf ind
48 1
09 2
à¤Ĩà¤īà¤Ł à¤¸
07 3
67 1
67 6
67 7
Ġ58 2
06 9
Ġ67 2
av y
Ġ59 7
97 8
à¤ļà¤¸ à¤ĸ
Ġk now
Ġr ed
87 4
all enge
ru e
à¤ıà¤¨à¤ıà¤ļ à¤¬
Ġà¤ıà¤¸à¤ı à¤ıà¤¸
cc i
Ġà¤ıà¤¨à¤ıà¤¸à¤Ī à¤ıà¤²
ĠAss ociation
ĠAs us
à¤°à¤ĸà¤° à¤ĸ
Ġoff ice
Ġsqu are
à¤ıà¤¸à¤ıà¤Ĩà¤Ī à¤¡
Ġmem ory
5 17
5 43
7 38
B uilding
E I
H TC
M icromax
c urrent
d s
d à¤¯à¤ķ
p ay
Ñ ĭ
Ġ ^
à¥į à¥¤
à¤ķ à¤ĩà¤¯
Ġà¤ª à¤²à¤¸
à¤ª à¤ĭ
à¥ĩà¤Ĥ \""
Ġà¤ħ à¥ĺà¤²
à¥Ĥ âĢį
Ġà¤° à¤¦à¤Ĺ
Ġà¤Ķà¤° à¤¬
Ġà¤« à¤¹à¤®
Ġà¤« à¤¨à¤Łà¤ļ
à¤Ĩ à¤ĩà¤¬
Ġà¤¡ à¤¡
à¤°à¤® à¤ªà¤°
à¤¸à¤° à¤µ
Ġ20 33
à¤Ĺà¤° à¥Ľ
à¤ıà¤¸ à¤ıà¤¸à¤Ł
Ġà¤ĳ à¤µ
à¤ıà¤® à¤Ĩà¤Īà¤¡
âĢĻ (
à¤Ĩà¤° à¤ıà¤®à¤ıà¤¸
à¤°à¤Ń à¤°
à¤¡à¤² à¤ķ
à¤¨à¤¨ à¤Ĺà¤°
Ġà¤¬à¤° à¤¬à¤¸
ĠâĢĿ )
à¤¸à¤¤ à¤²
Ġ. ...
Ġ18 88
ĠS id
ĠS ARS
ĠA y
ĠA re
à¥ĺ à¤®à¤¤
à¥ĺ à¤¤à¤¨
Ġà¤ıà¤« à¤Ĩà¤Ī
Ġà¥Ľ à¤¹
it ro
it ude
ro ugh
Ġà¤ĭà¤£ à¤¶
ĠG Hz
ĠF ed
Ġc urrent
ot ion
44 5
Ġ64 2
ĠW ill
Ġm odi
Ġn ational
Ġà¥ļ à¤²
Ġà¤ħà¥Ľ à¤¸à¤°à¤¤
um n
Ġg et
38 9
05 9
Ġà¤ħà¤«à¤¸à¤° à¤¶
Ġà¤Ńà¤ľà¤¨ à¤ª
Ġà¥¬ à¥§
à¥Ģà¤Ĥ? "
Ġà¤ķà¤£ à¤Ńà¤°
ĠAn and
ĠÂ ½
ĠEn glish
ĠCom mon
Ġà¥§à¥¯à¥© à¥¯
ĠÏ ĥ
val ence
Ġbl ock
Ġport al
0 32
5 32
5 96
7 93
8 11
8 25
8 68
B EGIN
M HT
T witter
d elhi
Ã ł
Ï Ģ
à¤° à¤¯à¤²
à¤¤ à¤Łà¤¸
à¤® à¤ªà¤²
Ġà¤® à¤ľà¤°
à¤ı à¤ıà¤«à¤Ĩà¤Ī
Ġà¤īà¤¨ à¤ĭ
à¤Ľ à¤®
à¤ĵ à¤¦
à¤¹à¤° à¤ľ
Ġà¤ĵ à¤«
Ġ- \\
Ġà¤Ĩà¤µ à¤Ńà¤Ĺà¤¤
Ġ6 85
Ġà¤ıà¤¸ à¤ıà¤²à¤ª
Ġà¤ıà¤¸ à¤ıà¤¸à¤ıà¤²à¤¸
Ġà¤ıà¤® à¤ıà¤¨à¤ıà¤«
Ġ14 000
ĠP eople
Ġà¤µà¤¨ à¤ľ
it ch
Ġ/ /
om in
à¤Ĺà¤ľ à¤Ĺà¤¤
ĠD el
ĠH T
el ines
à¥Ī) ?
à¥§ à¥¦à¥¦
80 9
Ġp ersons
Ġo pt
Ġà¤ľà¤Ĺà¤¤ à¤ª
ag h
li b
og n
Ġ58 4
à¦ ķ
qu es
qu ake
he k
ĠSt reet
ĠPr ess
ĠCh ild
Ġà¤īà¤¬ à¤°à¤¤
ef ore
Ġà¤īà¤ĸ à¥ľ
ĠAl liance
à¤ıà¤¨à¤Ĩà¤° à¤ıà¤Ĩà¤Ī
ib bi
Ġà¤ħà¤°à¤® à¤Ĺ
ÙĪ Ø±
ĠTe aser
ĠAM T
Son y
ĠPat el
Ġà¤ıà¤¸à¤ıà¤«à¤Ĩà¤Ī à¤ĵ
Ġcol lection
Ġà¤®à¤¦à¤¯à¤¨ à¤µ
ĠLok mat
ĠUttar anchal
Mah indra
Ġgovern ment
Ġelectron s
ouns elling
0 44
6 37
7 21
9 41
E ducational
G ood
M odi
N N
] .
g reenhouse
Ġ ignou
Ġà¤ ŀ
à¥į ÂŃ
à¤Ĥ âĢ¦
Ġà¤¸ à¤Ĺà¤°
Ġà¤® à¤²à¤¨
Ġà¤® à¤¸à¤¨à¤¦
à¤µ à¤§à¤¨
à¥ĩà¤Ĥ âĢĺ
Ġà¤ı à¤ıà¤¨à¤¸
à¤£ à¤§
à¤ĩà¤¸ à¤°à¤²à¤ı
à¤¤à¤° à¤ªà¤°
à¤µà¤° à¤ľ
à¤Ŀ à¤ªà¤Ł
à¤²à¤¨ à¤¹
Ġà¤Ĳ à¤¥à¤²
à¤ĺ à¤¨à¤ķ
à¤¯à¤¨ à¤ľ
Ġà¤ĳ à¤¨à¤ķ
Ġà¤ĵ à¤ķà¤°
Ġ7 22
à¤¦à¤® à¤¦
19 35
19 33
Ġ18 66
Ġ18 84
ĠP etrol
ĠA F
ĠM D
ĠM ult
ĠH TC
à¤Ĩà¤Ĺ à¤®à¤¨
ĠV id
ĠU rban
Ġ48 00
Ġt reatment
Ġm ess
à¤ıà¤Ĩà¤Ī à¤¡
ĠJ DS
à¥¨ à¥Ń
ĠPro gram
95 9
07 6
77 3
ST C
Ġ77 4
Ġk ar
Ġr ank
à¤ķà¤ļ à¤¹à¤°
AT M
89 2
ik h
à¤īà¤ľ à¤¡
UP PSC
Ġdi rect
St eel
pl ot
CP I
Ġy our
AR T
ĠAr ts
OC O
led ge
ĠWeb site
ĠRank ing
Ġadject ive
ĠChak raborty
+ ,
0 31
3 46
4 21
5 85
6 23
6 97
9 19
9 34
C al
E PF
L ive
P unjab
b es
o ung
t d
à¤¨ à¤§à¤¨
à¤® à¤°à¤¦
à¤® à¤łà¤¤
Ġà¤® à¤°à¤¹
à¤¦ à¤µà¤°
à¤ľ à¤®à¤¨
à¤ı à¤Īà¤ª
à¤· à¤¯à¤®
à¤¥ à¤®à¤ķ
Ġà¤ı à¤Ŀ
à¤ªà¤¨ à¤¡
à¤Ĩ à¤¨à¤²
à¤¼à¤¾ à¤ģ
à¤¯à¤¹ à¤ª
Ġà¤Ĳ à¤¡à¤µ
Ġà¤ĵ à¤ªà¤²
à¤Ĩà¤° à¤ıà¤¸à¤ª
Ġà¤ľà¤° à¤Ĺà¤°
à¤¬à¤² à¤®
à¤ľà¤¬ à¤¬
Ġà¤ľà¤® à¤ĺà¤Ł
Ġà¤Ĩà¤¨ à¤°
Ġà¤ıà¤¸ à¤ıà¤ª
à¤ıà¤¨ à¤ıà¤ļà¤¡
Ġà¤ıà¤¨ à¤Īà¤ľ
in ch
Ġà¤Ĺà¤¤ à¤µà¤°
ĠS en
ĠA BC
ĠM odel
Ġ, âĢĻ
Ġà¤ħà¤°à¤¬ à¤µ
Ġà¤ıà¤ļ à¤ıà¤®
à¤ªà¤¦ à¤Ń
ĠD O
Ġ29 00
Ġà¤ĩà¤° à¤¡
is k
à¥Ģ' à¥¤
ĠO ver
Ġ75 7
à¤ıà¤Ĩà¤Ī à¤ıà¤®à¤ª
Ġn ote
Ġd ep
à¤¦à¤¶ à¤®à¤²à¤µ
Ġ65 2
Ġ65 5
Ġh uman
Ġa ut
Ġà¤ªà¤¬ à¤ľ
har aman
ag a
Ġg t
08 2
08 8
à¤ıà¤¸à¤ıà¤« à¤ıà¤¸
op al
Ġ57 2
à¤¦à¤¹ à¤¶à¤¤
Ġà¤Ĩà¤ĩ à¤Ĩà¤ĩà¤Ł
à¤¬à¥ľ à¤¤
à¤ıà¤¨à¤ıà¤ļ à¤ıà¤¸
Ġdi es
St ate
à¥Ĥà¤ģ? """
à¤ıà¤®à¤ıà¤® à¤ıà¤«
erv e
ĠPay ment
Ġà¤ħà¥ľ à¤ļà¤¨
Ġro ad
Ġsec ond
Ġrec ord
ĠNov ember
5 62
6 67
7 45
7 49
7 85
7 42
8 34
A v
C E
D e
D h
L O
L AC
f r
f il
Ï ĥ
Ø ²
â ģ
Ġ à´
à¤¿ à¥ģ
à¤¨ à¤Ķà¤°
à¤¤ à¤µà¤¨
à¤¦ à¤ļ
à¤¦ à¤¯à¤µ
à¤ª à¤ļà¤ķ
à¤Ĺ à¤Ńà¤¦
à¤¬ à¤¬à¤²
Ġà¤Ń à¤ĩà¤¯
à¤Ń à¤¹
Ġà¤¥ à¤¨à¤¬à¤°
à¤Ĩ à¤¢
Ġà¤īà¤¨ à¤¤
à¤ĩà¤¸ à¤¸à¤²à¤ı
à¤īà¤¨ à¤«
à¤®à¤² à¤ª
Ġ20 29
à¤ģ /
à¤°à¤£ à¤®
à¤ªà¤° à¤¶
à¤²à¤¯ à¤¸
00 7
à¤Ĩà¤Ī à¤Ĩà¤Īà¤ı
à¤µà¤¨ à¤²
à¤®à¤¤ à¤®
Ġà¤ĳ à¤Ĺ
Ġ5 22
Ġ- ---
Ġà¤¬à¤² à¤Ńà¤¦
à¥Ģ. âĢĿ
Ġ6 38
à¤ıà¤ķ à¤¨
Ġà¤ıà¤¸ à¤Ĩà¤ĩà¤Ł
Ġà¤ıà¤¨ à¤ıà¤¸à¤Ł
Ġà¤ıà¤¨ à¤Ĩà¤°à¤ľ
Ġà¤ıà¤¨ à¤ıà¤ıà¤¸
à¤°à¤¬ à¤¡
Ġà¤¨à¤µ à¤ķà¤°à¤£
Ġà¤ıà¤® à¤ıà¤¨
in novation
on y
à¤Ńà¤Ĺ à¤µà¤¤
Ġà¥Ļ à¤¯
ĠS ociety
ĠP DT
ĠC ode
ĠA SCII
en ch
à¤¹à¤°à¤£ à¤¸
Ġà¥ĺ à¤¸
70 2
om a
ĠF oundation
Ġà¤ĩà¤° à¥ŀ
ĠL ife
ĠIn ternet
44 1
Ġt ree
à¤Ĩà¤Īà¤ı à¤Ĩà¤°à¤Ĩà¤Ī
ĠJ ag
Ġb ox
Ġ44 00
48 9
har d
à¥ĭ? ""
55 4
55 9
67 4
77 4
77 6
av ing
Ġ68 1
04 1
97 3
à¤Ĩà¤Īà¤Ĩà¤Ī à¤ıà¤®à¤¸
Ġe vent
Ġà¤¿ à¥Ģ
à¤Īà¤Ī à¤Ī
à¤¦à¤¹ à¤ı
ru st
ile t
ĠCon s
HT ML
Ġà¥¨à¥« à¥¦
à¤¯à¤¨à¤ķ à¤ķ
comm and
NS G
Ġà¥§à¥¯à¥© à¥¦
row n
Ġapp roach
Ġse ction
Ġph oto
ĠISO FIX
Te am
Ġsupp ort
ĠDha wan
repr ene
Ġovid IndiaSeva
3 44
5 11
5 45
5 46
7 64
A f
B B
E arth
H e
K angana
M V
e er
l ock
t ime
Ġ error
à¥ĩ à¥ĩà¥¤
à¤° à¤ªà¤ķ
à¤° à¤¨à¤µ
à¥Ģ âĢĭ
à¤ķ à¤¬à¤°
à¥Ī à¤¼
Ġà¤¨ à¤ĭ
Ġà¤¬ à¤ķà¤²
à¥ĭà¤Ĥ --
à¤ı à¤ıà¤¸à¤ı
Ġà¤¶ à¤¯à¤¨à¤ķà¤ķ
à¤¾à¤Ĥ ):
Ġà¤ĸ à¤²à¤¤
à¤Ĩ à¤£à¤µ
Ġà¤¯à¤¹ à¤Ń
à¤ľà¤¨ à¤ķà¤ª
à¤ħ à¤ľà¤¬
à¤ıà¤¸ à¤ıà¤«à¤¸
Ġ6 22
Ġ7 45
à¤¡à¤° à¤¡
Ġà¤ıà¤¨ à¤Ĩà¤Īà¤ıà¤®
19 36
Ġ9 78
in st
à¤īà¤¸ à¤µ
à¥Ģà¤Ĥà¥¤ à¥¤
Ġà¤ĭ à¤¸
ĠM il
ĠM aharashtra
à¤Ĥà¥¤ à¥¤
Ġà¤ķà¤Ł à¤Ĩà¤īà¤Ł
ĠN Y
ĠT endulkar
ĠK areena
ĠK YC
Ġm ass
Ġo ur
Ġ55 8
à¥ģ. )
Ġw aste
Ġà¤īà¤§ à¤®à¤¸
av id
Ġà¤Ĩà¤ĩà¤ı à¤ıà¤¸
se ase
Ġre al
Ġre view
Ġre gression
à¤°à¤¹à¤® à¤ª
Ġcom mand
CB T
à¥ĪâĢĿ .
ĠIP O
Ġà¥§à¥¯à¥Ń à¥ª
PA K
Covid IndiaSeva
Ġman ufacturing
AB VP
ourn al
ourn ami
ĠAh uja
ategor ical
Ġradi o
Ġminist er
0 45
0 64
5 67
8 32
8 46
C ISF
T F
c lus
d ev
p g
s a
w ord
Å ¡
à «
à¤¤ à¤µà¤ķ
à¤¸ à¥ľ
Ġà¤¨ à¤¤à¤¨
à¤ľ à¤µà¤°
à¤ľ à¤§à¤°
Ġà¤¬ à¤Łà¤°à¤«
Ġà¤ħ à¤ĳà¤«
Ġà¤¦ à¤¡
à¤ı à¥ŀ
à¤¶ à¤ªà¤¤
Ġà¤¤ à¤²à¤¤
Ġà¤ı à¤¹à¤°
Ġà¤¶ à¤Ł
Ġà¤¶ à¤¤à¤ª
Ġà¤¡ à¤µ
Ġà¤¡ à¤£
Ġà¤ħà¤§ à¤®à¤°
à¤ĵ à¤Ŀ
à¤ħ à¤µà¤¨
à¤ıà¤¸ à¤ıà¤ľ
Ġà¤īà¤¤ à¤ĭ
à¤ĺ à¤²à¤¤
Ġà¤¸à¤° à¤¬à¤¤
Ġà¤ľà¤¨ à¤Ĩ
Ġà¤ķà¤² à¤Ī
à¤ıà¤« à¤Ĩà¤Īà¤¡
Ġà¤ıà¤¨ à¤Ĩà¤°à¤ıà¤²à¤ıà¤®
19 18
à¤ķà¤¨ à¤ķà¤°
in du
Ġà¤Ĩà¤ķ à¥ľ
ĠS W
ĠS l
ĠP HOTOS
ĠC ancer
ĠA TS
à¤²à¤® à¤ĸ
à¤Ĩà¤ľ à¤¤à¤ķ
Ġà¤ıà¤ļ à¤µ
Ġà¤ªà¤µ à¤Ī
ĠT er
à¤ıà¤¸à¤ıà¤¸ à¤ıà¤²
th ane
... ]
ĠK ing
ĠL IC
ĠL ead
ĠU j
and ard
Ġm od
Ġà¤īà¤ªà¤¨ à¤¦
à¤ĩà¤« à¤ķ
75 9
ĠJ ammu
90 1
ab or
Ġ55 4
Ġ55 6
Ġ56 3
Ġ56 9
ess ion
ST ag
ant ic
ex pos
ĠQ HD
UP TET
ach er
ust er
ĠIC SE
à¤ıà¤¨à¤Ĩà¤° à¤Īà¤ľ
Ġà¥§à¥¯à¥Ń à¥§
out come
CL T
Ġà¥¯à¥ «
à¥Īà¤Ĥ' .
rid or
rail ways
raj asthan
enef its
Ġcap acity
Ġelection s
Ġcraft s
ĠSupp lementary
Rep ublic
ĠDR DO
ampa ign
- >
0 13
6 17
6 16
6 38
8 21
8 69
F l
I X
R ail
T a
c limate
d ar
d en
f ul
h ot
Ä «
à¥ĩ à¥Ī
à¤° à¤²à¤¤
à¤¹ à¤ļ
à¥Ī à¤¾
à¥Ī à¤¿
Ġà¤ľ à¤®à¤¤
à¤¬ à¤«à¤°
à¤ļ à¤°à¤ķ
à¤ļ à¤°à¤¸
Ġà¤ĩ à¤¹à¤°
Ġà¤ļ à¤°à¤¤
à¤ĩ à¤Ĩà¤ķ
à¤ªà¤¨ à¤¹
à¤ªà¤¨ à¤µ
à¤ī à¤ķà¤¸
à¤¤à¤° à¤ĸ
à¤ľà¤¨ à¤µà¤¸
Ġà¤īà¤ª à¤µà¤¨
00 9
Ġ6 14
Ġà¤ıà¤¸ à¤ıà¤¸à¤ķ
19 31
in ema
Ġà¤ħà¤¦ à¤ľ
à¤ķà¤µ à¤ļ
Ġ11 50
à¥Ĥà¤Ĥà¥¤ '
ar chitecture
ĠS anta
ĠP DP
ĠI L
ĠB A
à¤°à¤¹à¤£ à¤ķà¤°
ro ck
ĠF E
ĠF ac
Ġ60 5
ĠE AMCET
us ed
ent y
à¤ıà¤¸à¤Ī à¤ıà¤®
Ġà¤¹à¤¡ à¤¤
and er
Ġt n
Ġt able
Ġo per
ĠX s
Ġd es
Ġ55 7
Ġ46 6
II M
85 6
85 9
à¥Ń à¥«
Ġà¤Ńà¤ľà¤¨ à¤²
Ġ58 8
Ġà¤ĸà¥ľ à¤Ĺà¤ª
à¦ ¼
57 3
IN T
ind hu
à¤¾... ...
Ġà¤Ĩà¤Īà¤ıà¤¨à¤ıà¤¸ à¤µ
ĠBank ing
]] ,
ĠOne UI
à¤ıà¤¨à¤ıà¤¸à¤Ī à¤ıà¤²
Sh iv
use um
riend ly
CW C
ĠBengal uru
Ġsch ool
Hy undai
Shar e
sy ch
ĠRF ID
6 26
9 17
A ustralia
N PS
P al
T r
f iles
à¥ĭ âĢĵ
à¤² à¤ķà¤²
à¤² à¤ªà¤¥
à¤® à¤Łà¤°
à¤® à¤¥à¤¨
Ġà¤¹ à¤°à¤£
à¤µ à¤ªà¤¤
Ġà¤¨ à¤°à¤Ńà¤ķ
à¤ı à¤ĸ
à¤ı à¤ķà¤°
à¤ı à¤Ĩà¤°à¤¡
à¥Īà¥¤ """"
à¤Ĩ à¤²à¤¸
Ġà¤¡ à¤Ĺà¤°
à¥Ī. ''
à¤ªà¤° à¤¡
à¤¯à¤¨ à¤µ
à¤µà¤¸ à¤¹
Ġà¤ĵ à¤°à¤®
à¤¸à¤ķ à¤ķà¤°
à¤§à¤¨ à¤ĸà¤¡
Ġ5 18
à¤¸à¤¦ à¤®
à¥Ģ) '
Ġà¤®à¤¨ à¤ĺà¤¡
Ġ6 98
Ġ8 90
Ġà¤ıà¤¨ à¤Ĩà¤°à¤¡
Ġà¤ıà¤¨ à¤Ĩà¤°à¤ıà¤¸
Ġà¤ªà¤¢ à¤¤
Ġà¤ıà¤² à¤ĵà¤¯
ĠC ele
ĠA k
Ġà¤ıà¤« à¤Ĩà¤Īà¤ı
Ġà¤ļà¤°à¤£ à¤¦
ĠB O
ĠB ad
di es
ĠT weet
am in
Ġs aid
ĠD U
ĠD onald
ĠF ire
Ġ60 9
à¤ıà¤¸à¤ıà¤¸ à¤ıà¤¸
Ġp hone
ir i
ult ural
Ġh indi
Ġ46 00
ap an
55 6
han k
08 3
à¥ĭ! "
49 4
ard ar
à¤ħà¤¸à¤® à¤°
ers ion
Ġ56 8
IC E
à¤§à¤ª à¤°à¤ķ
à¤¾à¤ĥ -
op ic
06 3
Ġth an
97 1
à¤ħà¤¹à¤® à¤¦à¤¨à¤Ĺà¤°
Ġà¤¥à¤ķ à¤ķà¤°
MS ME
89 3
AN D
tern al
Ġà¥ĺà¤¤ à¤Ī
à¥¨à¥¦à¥¦ à¥¬
Ar ticle
ĠHigh er
âĻ «
Ġà¤ĩà¤ª à¤«
oper ative
ĠCH SL
Min India
Mad hya
augh ter
% .
. âĢĿ
0 26
0 39
4 14
4 32
5 77
7 33
8 47
G O
G eneric
I OC
N ick
N USU
e es
k ey
Î ²
à¤² à¤ªà¤¨
à¤¹ à¤ł
à¤µ à¤¢
à¥ĩà¤Ĥ (
à¤Ł à¤²à¤¨
à¤¶ à¤¹à¤ľ
à¤¡ à¤Ĩà¤°
Ġà¤Ķà¤° à¤ħà¤¨
à¤Ń à¤²à¤¨
à¤£ à¤®à¤¯
à¤°à¤ķ à¤°à¤¤
à¤ī à¤¥à¤µ
Ġà¤Ł à¤¨à¤ķà¤ª
à¤ĵ à¤«
à¤¢ à¤°à¤ª
à¤Ĺà¤° à¤ĸ
à¤¯à¤¹ à¤ķà¤¹
Ġà¤Ĩà¤¯ à¤¶à¤°
à¤Ķà¤° à¤µ
Ġà¤Ĩà¤Ī à¤Ĩà¤°à¤¬
Ġà¤Ī à¤ıà¤®
à¤°à¤¹ à¤¸à¤¨
à¤ıà¤¨ à¤Ĩà¤Īà¤ıà¤®
Ġ8 19
à¤ıà¤« à¤Ĩà¤°à¤ª
19 19
19 37
à¤¬à¤Ī à¤µ
Ġà¤°à¤ķ à¤ħà¤¤
Ġà¤ľà¤Ĺ à¤ª
er emon
Ġ18 71
ĠP ract
ĠC ISF
ĠA T
à¤²à¤¸ à¤ļ
ion ee
ĠT iger
Ġà¤¤à¤¨ à¤¹
re m
25 00
ra z
Ġc r
Ġc al
is es
ĠL ong
ay er
Ġp at
ĠV II
ĠV ision
ad or
à¤ĭ à¤¯
à¤ĭ à¤Ĩ
ew ork
Ġh ome
Ġ47 3
05 2
67 3
67 9
à¤ıà¤¸à¤ı à¤Ĩà¤°
Ġ58 7
à¤ķà¤ľ à¤Ī
97 4
Ġl and
à¦ ¯
à¤ıà¤®à¤Ĩà¤° à¤ıà¤²
96 3
Ġà¤Ĺà¤® à¤Ľ
ĠÂ ¨
ĠAl ert
à¤ıà¤®à¤ıà¤® à¤Ĩà¤°à¤¡
ĠMar k
ann ing
Ġà¥§à¥¯à¥ª à¥¦
à¥§à¥¯à¥® à¥¦
for ce
ĠInfin ix
Ġcent re
oj ana
sb c
ĠZen Fone
ĠIF SC
Ġupp sc
Ġjk bose
0 14
3 12
5 75
7 31
7 92
8 98
E U
N AM
s uper
à ¬
Ġ âĸª
à¤Ĥ à¥į
à¤ķ à¤®à¤¹
à¤¹ à¤µà¤¨
à¤µ à¤®à¤¨
Ġà¤ľ à¥ľà¤¨
à¤ı à¤ĩà¤¸
à¤ı à¤Ĩà¤ĩ
à¤¶ à¤£
à¤¡ à¤ıà¤ķ
Ġà¤ĩ à¤²à¤¯
à¤Ń à¤Ī
à¤Ĩ à¤ĩà¤µ
à¤Ĩ à¤ļà¤°à¤£
Ġà¤¡ à¤°à¤µ
à¤ĵ à¤£à¤®
à¤¹à¤® à¤£
à¤ľà¤° à¤¹
Ġà¤ħà¤® à¤°à¤ļ
à¤Ĩà¤° à¤ıà¤ª
Ġà¤Ī à¤Ĩà¤Īà¤ı
Ġ6 12
Ġà¤Ŀ à¤ķ
ĠâĢĿ .
à¤°à¤¬ à¤¸
Ġ18 68
à¤ıà¤ļ à¤ıà¤¡
ĠP ournami
ĠI G
Ġà¤ıà¤« à¤Ĩà¤°à¤ıà¤®
ĠB MC
di st
ĠT icket
Ġs olution
Ġin menu
Ġc are
th od
us p
60 9
Ġà¤Ĩà¤īà¤Ł à¤Ĺ
44 6
ĠW eather
Ġà¤ķà¤®à¤² à¤¦
29 1
Ġ65 4
In novation
Ġ39 00
Ġ47 9
à¥© à¥§
08 6
ak k
05 1
à¤ıà¤¸à¤ıà¤« à¤Ĩà¤Īà¤ĵ
78 3
Ġà¥® à¥¬
end s
end ment
ide os
Ġà¤ħà¤®à¤¨ à¤ª
aw ards
à¤ħà¤°à¤¬ à¤ªà¤¤
Ġà¥§à¥¬ à¥¦
ber g
Ġà¥§à¥¯ à¥¦à¥¦
ĠUn ivers
ĠUn der
ater al
Ġra il
ĠMan agement
Ġtrans port
we en
Mo HFW
5 13
7 43
8 23
8 96
9 12
D VD
b in
f one
r ang
t rib
w aste
à¤¾ à¤¾à¤ģ
à¤¤ à¤ľà¤²
Ġà¤¸ à¤¨à¤²
à¤¹ à¤Ķà¤°
à¤¦ à¤®à¤ķ
à¥ĭà¤Ĥ """"
à¤¬ à¥ļ
à¤§ à¤Ĺà¤®
Ġà¤Ĺ à¤Ń
à¤¼ à¥Ĥ,
Ġà¤ı à¤Ĩà¤°à¤Ĩà¤Ī
Ġà¤« à¤®
à¤°à¤¸ à¤¦
Ġà¤Ĳ à¤Ĺ
à¤¨à¤ķ à¤®
Ġ5 95
à¤ķà¤² à¤¶
Ġà¤īà¤¦ à¤Ĺà¤®
à¤¦à¤¨ à¤µ
Ġà¤Ī à¤µà¤¨
à¤²à¤¬ à¤¹
Âł Ġ
à¥ĩ. âĢĻâĢĻ
Ġà¤ıà¤¸ à¤Ĳ
Ġà¤ıà¤¨ à¤Ĩà¤Īà¤µ
Ġ9 999
à¤Ńà¤Ĺ à¤¦à¤¡
Ġ14 50
ĠS ky
à¤ľà¤Ĺ à¤ľ
ĠP R
Ġà¤ħà¤ľ à¤²à¤¨
or ph
ĠR h
ĠR ohit
Ġà¤¸à¤¨ à¤¥
12 80
ĠT en
ed ic
Ġs olar
Ġin ternational
ĠL ove
il i
ir t
Ġv i
Ġm aterial
Ġà¤ķà¤®à¤² à¤ª
pp ing
Ġh p
46 7
Ġ67 1
ĠY ork
66 3
à¥¯à¥ ¯
à¥ĩ! ""
end ed
ru ary
pl ain
ish w
IT R
ip ur
ĠIM EI
EC E
Ġà¥¯à¥ Ń
ane et
udi es
ateg ory
ĠNS UI
ĠMet eor
ĠIB PS
ĠChar ge
........ ........
ĠâĻ «
ĠChampions hip
ĠSit haraman
à¤ħà¤°à¤¶ à¤¦
Generic Name
eremon y
- à¥¤à¥¤
0 21
0 36
5 29
6 39
6 64
8 55
8 39
B T
B MC
D ef
O BC
P OCSO
T H
W e
_ $$
g i
h old
m ca
t echnology
u y
} '
ð Ŀ
Ġ Ë
à¥ĭ ',
à¤¸ à¤ĩ
à¤Ĺ à¤µà¤¸
Ġà¤¨ à¤²à¤¬
à¤ľ à¤¯à¤®
à¤ı à¤¨à¤¤
à¤¶ à¤µà¤¸
Ġà¤¤ à¥Ļ
Ġà¤ĩ à¥Ľ
Ġà¤¶ à¤ķà¤°
à¤£ à¤¨à¤¨
Ġà¤ļ à¤¦
à¤« à¤°à¤¸à¤¨
Ġà¤ıà¤ķ à¤µ
âĢį âĢį
ĠâĢ º
à¤¯à¤° à¤ª
Ġà¤¸à¤¹ à¤ļ
Ġà¤ħà¤µ à¤°à¤ķ
Ġ6 67
à¤®à¤ķ à¤¦
à¤¤à¤ķ à¤°à¤¤
Ġ7 35
à¤ıà¤² à¤ĵà¤ıà¤¸
Ġà¤ĩà¤² à¤¸
à¤ľà¤² à¤Ĺ
à¤²à¤ķ à¤¦à¤®
Ġà¤ıà¤® à¤¡à¤¬
à¥ĩ) "
à¤¸à¤¤ à¤ª
à¥Ģà¤Ĥà¥¤ ""
er it
Ġ18 17
ĠC WC
or ies
à¤·à¤® à¤¯
ro om
Ġà¤®à¤¶ à¤°à¤«
ĠâĢĻ ,
Ġs ource
ĠH MD
Ġà¤¤à¤Ł à¤ķà¤°
ĠF amily
ot ta
à¤īà¤ª à¤ĸ
il le
Ġm a
Ġm ult
à¥¨ à¥¯
à¥¨ à¥¦à¥¦à¥¦
em y
à¤ıà¤ı à¤ı
In fo
Ġ55 1
à¥ª à¥®
09 7
à¤ıà¤¸à¤Ĩà¤Ī à¤ıà¤¸à¤ª
ak er
ec no
à¥Ń à¥Ń
Ġ85 7
à¤Ĩà¤Īà¤Ĩà¤Ī à¤Ĩà¤Īà¤Ł
IN G
Ġà¥§à¥® à¥«
SS LC
ind ex
Ġà¥§à¥¯à¥® à¥©
form at
Ġpr ess
à° ¾
land s
à¤Ĩà¤¸à¤¨ à¤¸
ĠNG O
Ġtechnical uery
Ã³ n
$$ _
inu x
Bl ack
sd l
à¤¨à¤ĩ à¤¯à¤¨
Fer mi
Process ess
% %)
4 37
5 66
7 14
7 39
8 19
8 27
8 37
8 78
A amir
B ar
I dea
M agnetic
N M
V i
W Y
X T
d o
u h
v as
y p
ã ģ
à¤¾ à¥ĭà¤Ĥ
à¤¨ à¤¹à¤®
à¥ĭ ..
à¥ĭ âĢĻâĢĻ
à¤¯ à¤ı
à¤¯ à¤ªà¤ķ
Ġà¤¨ à¤¸à¤²
Ġà¤ħ à¤¸à¤ķ
Ġà¤° à¥Ľ
à¤¬ à¤Ĺà¤°
Ġà¤ķà¤° à¤®à¤ļ
Ġà¤Ĺ à¤ļ
à¤Ī à¤®à¤°
Ġà¤ı à¤ıà¤®à¤ıà¤²
Ġà¤ı à¤ıà¤«à¤¡
à¤Ń à¤Łà¤ķ
Ġà¤ķà¤¹ à¤«
à¥įâĢį à¤¾
Ġà¤ħà¤¨ à¤¥à¤ķ
à¤¸à¤° à¤ľ
Ġà¤īà¤ª à¤®à¤£
à¥Ģ, ""
à¤¹à¤® à¤¦à¤°
à¤°à¤¸ à¤ª
à¤ĺ à¤Łà¤¤
Ġ6 23
Ġ8 49
Ġà¤ıà¤® à¤ıà¤®à¤ª
Ġà¤ħà¤Ĺ à¤ª
an pur
Ġà¤Ķ à¤·
ĠR ai
99 7
Ġ, âĢĿ
Ġà¤ķà¤Ł à¤ª
ĠT S
ĠT ele
ĠH a
Ġc hief
Ġ70 7
Ġ64 3
ad v
os ition
um m
à¤ķà¤¬ à¤ľ
à¤ıà¤¯à¤° à¤ıà¤¶
08 7
ist a
Ġ59 3
ac es
à¥Ģ! """
78 4
87 3
pl astic
ĠPl at
ood le
rit ten
Ġpr esident
à° ¿
à¤ıà¤¯ à¤°à¤ķ
ĠLe ak
Ġà¤ıà¤¨à¤Ĩà¤Ī à¤ıà¤«à¤Ł
âĢĭâĢĭ âĢĭâĢĭ
Ġlead er
Ġweb site
ĠAug ust
6 62
7 36
8 28
8 38
9 14
9 36
P ak
S k
S ub
V S
c ast
s ep
v iii
Ġ art
Ġ ant
Ġ àª
à¤¾ âĢĮ
à¤° à¥ĺ
à¤¿ """"
à¤¤ à¤²à¤¤
à¤¸ à¤£
à¤® à¥Ļ
Ġà¤® à¤Łà¤®
à¤Ł à¤¶à¤¨
Ġà¤¬ à¤Łà¤µ
Ġà¤µ à¤¯à¤ķ
Ġà¤² à¤ĸà¤¬
à¤¬ à¤¨à¤¨
Ġà¤Ĺ à¤µà¤²
Ġà¤Ĺ à¤ĭ
à¤Ī à¤¨à¤°
à¤Ī à¤ıà¤®à¤¸
Ġà¤ı à¤ĵà¤ıà¤²
à¤« à¤ľ
à¤« à¤«
à¥Ģà¤Ĥ âĢĿ
à¤ĵ à¤Īà¤ıà¤®
Ġà¤Ĳ à¤¬à¤Ł
Ġà¤¸à¤° à¥Ľà¤®
Ġà¤Ĩà¤Ĺ à¤¨
Ġ6 28
Ġ6 77
à¤ľà¤¬ à¤¹
à¤ıà¤² à¤ıà¤²à¤ª
Ġ10 50
à¥Ľ à¤«
à¤Ńà¤Ĺ à¤µà¤¦
à¤°à¤ª à¤µ
Ġà¤īà¤² à¤«à¤¤
Ġà¤§à¤° à¤ķà¤°
Ġà¤ıà¤² à¤Ĺ
ĠS port
ĠC L
ĠC re
ĠC are
ĠR oy
Ġà¤ħà¤¶ à¤¦
ĠM as
ĠM ir
ĠM iss
Ġ, ""
ĠB est
Ġà¤ıà¤¶ à¤Łà¤¨
ĠN PS
Ġà¤ıà¤ļ à¤ıà¤®à¤ıà¤¸
le ased
Ġà¤łà¤¹à¤° à¤ķà¤°
Ġà¥ĺ à¤µ
Ġà¥ĺ à¤²à¤®
am al
ĠF BI
Ġ60 1
as at
ĠO xygen
90 5
Ġb psc
Ġd x
Ġà¤¶à¤°à¤£ à¤¨à¤Ĺà¤°
Ġi ii
85 3
à¥® à¥¯
à¤Ĩà¤°à¤Ĩà¤Ī à¤ıà¤¨à¤ıà¤²
op t
68 7
Ġ53 00
Ġà¤Ķà¤² à¤ĸ
à¤ıà¤Ī à¤Ĩà¤°
ath emat
ore a
ĠCh rist
ell ness
pl or
à¤ıà¤®à¤ıà¤® à¤ıà¤¸à¤¸
gl obal
âĤ ¹
ĠSmart phones
Ġà¤ıà¤¨à¤ıà¤« à¤ıà¤Ĩà¤Ī
ĠIm ages
ÃŃ a
Ġà¤ļà¤®à¤ļ à¤®
' (
' -
5 36
6 46
8 13
9 11
9 29
C EO
D ATE
P ST
R eg
V GA
b ed
b ank
m aterial
s ar
t ot
v ision
w atch
w eb
Ġ q
Ġ %)
à¥ĩ âĢĭ
à¥į à¥Ĥ
à¤² à¥ĺà¤¤
à¤® à¤Ńà¤°
à¤¹ à¤¬à¤¦
Ġà¤¹ à¤Łà¤ķ
à¤ª à¤ĸà¤µ
à¥ĩà¤Ĥ à¥ĩ
Ġà¤¬ à¤Īà¤¦
Ġà¤ħ à¤°à¤¦
Ġà¤µ à¤§à¤µ
à¤· à¤®à¤²
Ġà¤¤ à¤®à¤¸
à¤ĩ à¤²à¤¤
Ġà¤« à¥ĺà¤¤
Ġà¤ħà¤¨ à¤ķà¤°
à¤°à¤® à¤Ĺ
à¤Ŀ à¤ķà¤¤
à¤²à¤¤ à¤®à¤¨
Ġà¤¸à¤¹ à¤²à¤Ĺ
à¤¨à¤¤ à¤²
à¤ıà¤® à¤ıà¤«à¤Ĩà¤Ī
à¤Ĩà¤° à¤Ĩà¤Īà¤¸
Ġ6 88
à¤¶à¤¤ à¤¯
Ġ7 23
à¤¯à¤¦ à¤£
Ġà¤Ĭ à¤¤
à¥Ľ à¥ĺ
19 24
Ġà¤ıà¤® à¤Ĩà¤°à¤ĵ
à¤Ĭ à¤§
Ġà¤§à¤° à¤ªà¤ķà¥ľ
al se
à¤ħà¤¨ à¥ĺà¤°
à¤ļà¤² à¤ª
à¤¥à¤² à¤Ĺà¤¡
ĠP erson
ĠA p
ĠR ob
50 7
ĠN ex
Ġà¤ıà¤ļ à¤ıà¤¸à¤ıà¤¸à¤¸
Ġà¥ĺ à¤¹
Ġà¤ľà¤¸ à¤ľ
à¤ĺà¤¨ à¤ķà¤°
âĢ¦ âĢ¦
Ġin itiative
Ġc limate
Ġ70 4
à¥ļ à¤°à¤ľ
Ġp seb
ĠIn vest
ĠIn surance
à¤ĭ à¤ķ
Ġm ah
Ġ? "
Ġf ilm
Ġà¤ıà¤®à¤ıà¤¸ à¤ıà¤®
à¥ª à¥¦à¥¦
08 4
08 9
Ġ58 1
Ġà¤ħà¤ķà¤¬à¤° à¤ª
78 2
Ġâ Ħ¢
UP I
Ġj oin
orm al
ft ware
Ch hattisgarh
ron t
Ġà¥¨à¥¦à¥§ à¥Ń
ĠAir port
ous ing
ann es
ys ics
à¤¾'' .
ĠAM U
Ġà¤ıà¤¨à¤Ĩà¤° à¤ıà¤ļà¤ıà¤®
RA ID
Ġà¤¦à¤²à¤µ à¤Ī
ris is
rec ord
ĠMet ro
ĠIB M
__ __
ĠÂłĠÂłĠÂłĠÂł ĠÂłĠÂłĠÂłĠÂł
ĠStat us
Sanj u
5 23
5 27
6 12
6 13
6 68
7 13
7 27
8 18
8 65
9 44
H ealth
H SSC
J harkhand
O disha
S W
U NGA
b et
c m
c ross
j e
l ish
m sp
à¥į à¥ĭà¤Ĥ
à¤¨ à¤¸à¤¸
à¥ĭ âĢĺ
à¤¸ à¤Ĺà¤°
Ġà¤¸ à¤¨à¤¤
à¤® à¤¶à¤°
Ġà¤¹ à¤ľà¤°
à¤Ł à¤¯à¤°
à¤¬ à¤Ľà¤¡
à¤· à¤Ł
à¤¼ (
à¤¥ à¤ķà¤°
à¤¥ à¤¨à¤®
Ġà¤¶ à¤¨à¤®
à¤ħ à¤Łà¤°
à¤ħ à¥ŀ
à¤°à¤® à¤µà¤°
à¥Ī. %
à¤Łà¤° à¤¨à¤°
à¥Ī, -
à¥Ī, âĢĵ
à¤¹à¤° à¤¹
à¤²à¤¨ à¤ķà¤°
à¤¯à¤¹ à¤¦
00 6
à¤ıà¤¸ à¤¨
à¤ıà¤¸ à¤Ĩà¤ĩà¤Ł
à¤®à¤¨ à¤²
Ġ5 47
Ġà¤Ĩà¤Ī à¤Ĩà¤°à¤ıà¤«
Ġ6 27
Ġ7 95
à¤¨à¤µ à¤¶à¤ķ
Ġà¤Ĭ à¤¬à¤°
à¤¾- ""
à¤ıà¤« à¤ķ
Ġà¤ıà¤® à¤Ĩà¤Īà¤¡
at om
Ġà¤ıà¤² à¤¡à¤¬
ĠP aper
en ue
à¥ĺ à¤¨
ĠR anbir
Ġ0 80
Ġà¤¨à¤Ĺà¤° à¤¨
à¤ķà¤¶ à¤°
à¤ľà¤ķ à¤µà¤°
Ġà¤ıà¤« à¤Ĩà¤°à¤¬
ĠN TPC
it ics
à¤ķà¤® à¤Ĺà¤²
ĠT ur
ĠD ownload
ĠH SLC
à¥ĭ. """
Ġin stitution
ra du
ĠK al
Ġ70 3
ch amp
ĠV ijay
Ġà¤ķà¤µà¤° à¤ĳà¤²
ĠJ ustice
90 4
à¤ĩà¤¬ à¤°à¤¤
ĠPro tection
à¥« à¥¬
ri f
est ination
ction s
à¥¬ à¥©
77 8
à¤ıà¤®à¤Ĩà¤° à¤ı
à¤ıà¤¨à¤Ĩà¤Ī à¤ıà¤«à¤Ł
Ġthe ory
ric k
Ġà¤īà¥ľ à¤¤
PM O
mit h
à¤µà¤£ à¤Ĺ
Ġà¤²à¤ĸ à¤®
ĠSon am
à® ¿
à¥Īà¤ĤâĢ¦ .
ĠAs ian
Ġsp ecial
à¤ıà¤«à¤Ĩà¤° à¤Ī
à¤ħà¤ªà¤¹à¤°à¤£ à¤ķà¤°
Ph oto
ĠAqu a
ĠHT TP
, '
4 38
5 19
5 18
7 94
8 17
9 18
A V
B engal
E SCO
_ {
h am
l in
m odel
s hi
s olid
Ã ¦
Ù Ĳ
à¤¤ à¤Ĺà¤°
à¤² à¤ĭ
à¤¦ à¤Ĺà¤°
à¤Ł à¤Ĺà¤°
Ġà¤¬ à¤¬à¤°
Ġà¤µ à¤£
Ġà¤µ à¥Ľà¤¹
à¤¼ à¥Ģà¤Ĥ.
à¤¼ âĢĶ
à¤Ī à¤ıà¤¸à¤Ł
Ġà¤ĩ à¤¦à¤²
Ġà¤« à¤Łà¤¤
Ġà¤ķà¤¹ à¤²à¤µ
Ġ( /
à¤°à¤ķ à¤µ
à¤ªà¤° à¤ļ
à¥Ĥà¤Ĥ ...
à¤ŀ à¤¨
à¤Ķà¤° à¤Ĳà¤¸
Ġà¤¸à¤° à¤¬
à¤Ĩà¤° à¤ıà¤¸à¤¬
Ġà¤Ĩà¤Ī à¤ıà¤¨à¤¡
Ġ"" [
Ġ6 31
Ġ6 64
à¤¹à¤¨ à¤¸
Ġà¤ľà¤² à¤Ń
Ġà¤¬à¤¦ à¤¦
Ġà¤ıà¤¸ à¤ıà¤Ł
Ġ7 46
Ġà¤ĵà¤° à¤Ľ
Ġà¤ĩà¤² à¤¹
à¤ıà¤« à¤Īà¤Ī
19 25
19 41
Ġà¤¦à¤² à¤ªà¤¤
Ġà¤¬à¤¸ à¤µà¤°
Ġ18 30
Ġ18 53
à¤Ĺà¤® à¤¯
ĠR oyal
ic er
Ġà¤ıà¤« à¤Ĩà¤°
ĠB HIM
ĠN adu
à¥ŀ à¤²à¤¤
Ġà¤¸à¤¦ à¤«
Ġà¤ıà¤ļ à¤Ĩà¤°à¤ı
di k
à¥Ī: âĢľ
ĠT it
Ġs k
ĠG ro
om ent
ĠD es
ĠF DA
Ġc ele
ĠE U
iv ery
ĠW omens
Ġt ar
Ġà¤ķà¤²à¤° à¤ĵà¤ıà¤¸
In f
Ġh i
Ġh ead
Ġa st
um ul
est ion
à¥Ī| âĢĿ
08 1
ers onal
Ġ56 4
ĠY outube
Ġà¤· à¤£à¤®
Ġà¤¹à¤°à¤¦ à¤¯
IS DN
Ġà¥§à¥¨ à¥¦
Ġst ruct
ens it
CP EC
bo ut
ble m
Ġà¤ļà¤¹ à¤²à¤ķà¤¦à¤®
ron g
so on
à¤Ĩà¤Īà¤ĵ à¤Ĩà¤°
à¥ĩà¤ĤâĢ¦ .
Ġà¦ ¸
PR ID
inter ventions
iw ari
of india
acc ination
ĠTrans port
Shah id
Ġà¤«à¤£ à¤¨à¤µ
Ġà¤°à¤¦à¤° à¤«à¤°
sl ide
ĠDec lared
ĠCont rol
ĠPoll s
ĠIndust rial
ĠMC X
abang g
% )à¥¤
7 97
8 62
9 38
A IC
G eneral
N F
O r
P V
P od
P ost
P ics
R anbir
U ND
W ar
b p
b à¤ķ
i OS
l ines
m ov
t es
t ee
Â ¶
Ã ±
Î µ
Ð ±
Ġ el
Ġ uri
à¤¸ à¤¤à¤ķ
à¤² à¤µà¤¤
Ġà¤ª à¤ªà¤°
à¤Ł à¤¬à¤¦
Ġà¤¬ à¤Łà¤®
Ġà¤ľ à¤Ī
à¤ı à¤Ĩà¤°à¤Ł
à¤¶ à¤¹à¤¬
à¤§ à¤ĺ
Ġà¤¶ à¤¬à¤°
à¤Ĩ à¥Ľ
à¤Ľ à¤¬
à¤¸à¤° à¤¬
à¥Ī, '
"" """
à¤ıà¤® à¤Ĩà¤Īà¤ľ
Ġ5 19
à¤Ķà¤° à¤¸
à¤Ĩà¤° à¤ıà¤Ĩà¤Ī
à¤®à¤ķ à¤¸à¤¦
Ġ7 15
Ġà¤¸à¤¤ à¤¤à¤¤
Ġà¤ıà¤¨ à¤Īà¤Ĩà¤°
19 21
Ġà¤ıà¤® à¤ıà¤®à¤¡
in ical
à¤®à¤¦ à¤ª
Ġà¤¦à¤² à¤¬à¤²
Ġà¤Ĺà¤° à¤ľà¤¤
à¤·à¤¯ à¤ªà¤°
Ġà¤Ķ à¤Ł
à¤Ĺà¤łà¤¨ à¤ķà¤°
Ġà¤ıà¤² à¤«
ĠP ur
ĠP ink
ĠP ark
ĠC AT
ĠC ounselling
ĠA v
ĠA PMC
ic ha
à¤¹à¤¸ à¤ļ
Ġà¤ıà¤« à¤Ĩà¤Īà¤ıà¤«
ĠM ary
ĠN IT
ĠN EWS
it ure
st at
GB T
ro ff
à¤īà¤¦ à¤¹
Ġs ee
ĠD SP
ĠD utt
à¥Ģà¤Ĥ. """
à¥Ļ à¤¨
ĠH AL
ĠH ero
Ġà¤ĵà¤µà¤° à¤Ĩà¤²
ĠF ast
Ġ'' à¥¤
à¥Ģ' .
ĠW ild
à¤Łà¤ķà¤° à¤¨
à¤ıà¤ı à¤Ĩà¤°
Ġà¤ĺà¤¨ à¤ĺ
Ġ54 00
Ġw omen
07 9
à¥Ń à¥¨
ow ance
Ġ67 3
04 3
Ġ69 2
ĠBo y
ex ual
Ġfor ce
AP F
Ġà¤ħà¤¸à¤¹ à¤ľà¤¤
ill s
ell a
PS L
ĠAl t
ood s
DI ST
à¥įà¤¿ à¥Ģ
act ive
Ġad dition
arn ing
Ġà¤¨à¤µà¤² à¤°
à¨ ¾
rop a
Ġsc ience
ĠInter mediate
rat ri
oot ing
ĠWi Fi
Ġà¤Ĩà¤Īà¤ıà¤® à¤ıà¤ķ
ĠSand hya
Ġspe ed
ĠBay es
ĠSin ha
ĠUj ala
0 17
0 47
0 46
5 91
D il
D ec
G PS
G SEB
L AN
M ay
N irbhaya
P H
P a
T oyota
U G
c r
c re
d on
p or
p ons
u i
à¤¾ à¥¢
à¤² à¤Łà¤°
à¤² à¤¡à¤ķ
à¤® à¤£à¤¨
à¤® à¤Łà¤ķà¤°
à¤¹ à¤ķà¤¤
à¤Ĺ à¤¨à¤®
Ġà¤µ à¤¨à¤®
à¤ı à¤¬à¤°
Ġà¤¤ à¤¹à¤®
à¤Ī à¤ıà¤®à¤Ĩà¤Ī
à¤¥ à¤¯à¤®
à¤ĩ à¤ķà¤¸
à¤ķà¤° à¤¯
à¤ħ à¤¹à¤°
Ġà¤¬à¤¨ à¤ķ
à¥Ī. )
Ġà¤¸à¤¹ à¤¸à¤ļ
Ġà¤ĵ à¤ıà¤²à¤Īà¤¡
à¤°à¤§ à¤°à¤ª
Ġ5 13
Ġ5 33
à¤Ĺà¤² à¤®à¤¯
Ġà¤Ī à¤¤
Ġ6 13
à¤ĩà¤Ł à¤¡
19 29
19 07
Ġ9 35
er ry
Ġ18 35
Ġ18 62
ĠS ee
à¤°à¤ľ à¤µà¤¨
ĠA ur
ĠM alaika
ĠM icromax
Ġà¤Ĭà¤ªà¤° à¤µ
18 90
Ġs on
ĠG rowth
et te
à¤ĩà¤ª à¤«
ov a
ĠV VPAT
id ence
Ġm ain
Ġm ost
Ġm ission
Ġ75 5
à¤ĩà¤¬ à¤°à¤¸
ĠX ML
ab inet
Ġ65 6
ec ology
à¤Ĩà¤°à¤ıà¤« à¤Ĩà¤Īà¤¡
Ġ56 6
Ġ67 8
av i
Ġ57 1
78 1
im ur
ub ia
86 1
ĠEx it
Ġor bital
ĠQual ity
ĠFor um
Ġà¥§à¥¯à¥Ń à¥¯
Ġà¥§à¥¯à¥§ à¥®
Ġà¥§à¥¯à¥© à¥¬
rid evi
ĠSec ret
à¤ļà¥Ŀ à¤ķà¤°
à¤Ĩà¤Īà¤ıà¤¸à¤ıà¤¸ à¤ıà¤«
Im age
Th ugs
Ġà¤§à¥ľ à¤ķà¤¨
angu ages
à¥§à¥¯à¥¬ à¥¦
Ġchar acter
cal cul
aly t
Sanj ay
ĠSi asat
Ġà¤Ńà¥ľ à¤ķà¤¤
. }
7 17
7 95
7 46
7 34
7 69
9 23
9 69
9 43
C ov
I glesia
K I
S M
U D
Z E
b io
f are
h en
m ic
m ap
u x
w ag
Ø ·
à¥Ģ &
à¥Ģ à¥Ģ
à¤¤ à¤ķà¤°à¤£
à¤² à¤®à¤ķ
à¤® à¤¶à¤ķ
Ġà¤® à¤°à¤²
Ġà¤ª à¤Ĺà¥ľ
à¤µ à¤·
à¤ª à¤¹à¤¨
à¤ı à¤¤à¤¨
à¤¶ à¤²à¤¨
à¤¬ à¤ĩ
Ġà¤¤ à¤ªà¤¤
Ġà¤Ĩ à¤¹à¤¨
à¤Ī à¤Ĩà¤Īà¤ı
à¤Ī à¤ıà¤«à¤Ĩà¤Ī
à¥Īà¥¤ .
à¤« à¤¯
Ġà¤¥ à¤¨
à¥ĥ ,
à¤ł à¤¦
à¤ħ à¤Ĺà¤µ
à¤°à¤¦ à¤¶
à¤Ĩà¤Ī à¤Ĩà¤Īà¤ıà¤¸
à¤®à¤° à¤¹
à¥Ģ. '
Ġ6 95
Ġà¤Ŀ à¤¨
Ġ8 75
Ġ8 79
Ġà¤Ĭ à¤¹
Ġà¤¨à¤µ à¤Ń
in ue
Ġà¤Ĩà¤® à¤ļ
ĠS QL
ĠC PU
ĠA QI
ĠR aw
99 2
ĠI OC
à¤ĳ à¤ķà¤²
ĠB en
ĠB omb
om atic
ĠH ead
ĠF lu
us er
Ġ64 1
ĠV III
Ġt ask
Ġb uilding
à¤¹à¤¬ à¤ķ
Ġd eb
up s
Ġg l
09 3
à¤Ĩà¤ĩ à¤ıà¤²
06 8
Ġà¤ļà¤Ł à¤ªà¤Ł
ĠZ à¤¸
Ġto olt
SS AI
ĠQ R
orm ation
Ġor der
Ch h
NG T
CA G
vent ive
ĠMan dir
ys ical
ĠAg riculture
EF A
ren ch
Ġnt aneet
ĠMot ors
ĠUM TS
Ġtoolt ip
5 48
5 41
6 48
7 32
7 66
9 13
9 27
B i
B irender
G H
H i
M AT
O H
P age
P CL
T elangana
d r
f ect
f riend
p i
à¥ĩ "",
à¤ķ à¤Ķà¤°
à¤¯ à¤Ĺà¤¡
à¤² à¤ľà¤¯
à¥ĩà¤Ĥ âĢĶ
à¤Ł à¤§
à¤Ł à¤¬à¤°
à¤ļ à¤«
Ġà¤Ń à¤·
à¤ĸ à¤¶
à¤¾à¤Ĥ ""
à¤« à¤¹
à¤°à¤¤ à¤Ĺà¤¢
Ġà¤¥ à¤ķà¤¨
à¤ķà¤° à¤¹
à¤ĩà¤¸ à¤¹
à¤ī à¤Ń
à¤ħ à¤¨à¤°
à¤¼à¤¾ !
à¤¸à¤° à¤¹à¤¦
à¥Ī, âĢĺ
à¥Ī, ...
à¤ģ @
à¤²à¤¨ à¤ªà¤¤
à¤¹à¤® à¤ªà¤°
à¤Łà¤¨ à¤Ł
à¤Ĩà¤Ī à¤Īà¤¡
à¤Ĩà¤Ī à¤ĵà¤ıà¤¸
à¤§à¤¨ à¤Ĺ
Ġ5 200
Ġà¤Ĩà¤Ī à¤Īà¤ı
à¤µà¤¤ à¤¤
Ġà¤ľà¤² à¤¦
à¤µà¤² à¤ķ
Ġà¤ıà¤¸ à¤ĵà¤ıà¤¸
à¤ıà¤¨ à¤Ĩà¤ĩà¤ı
à¤¾- (
à¤ĸà¤¨ à¤Ĺà¤°
Ġà¤ıà¤¨ à¤ıà¤ıà¤®
19 23
19 27
à¤¬à¤Ī à¤ķà¤°
Ġà¤¨à¤µ à¤Ĺ
Ġà¤ħà¤¦ à¤¦
ar pur
ar ters
al it
ĠR ape
Ġ0 20
Ġà¤¨à¤Ĺà¤° à¤µ
Ġà¤¹à¤² à¤«
ĠT ET
Ġs ize
om aterials
à¤¿- à¤¿
ot ak
Ġà¤ħà¤°à¤µ à¤²
ĠIn tel
Ġm ag
Ġf ree
Ġb ased
Ġà¤°à¤« à¤¤
Ġd om
ut y
Ġà¤ħà¤¹ à¤ľ
à¥ª à¥©
à¥ª à¥Ń
05 4
Ġ54 1
ha v
op s
Ġ59 4
Ġ57 9
Ġà¥¬ à¥©
57 9
ĠZ à¤¥
58 1
): -
56 3
hat ma
86 3
Ġà¤¤à¤¹ à¥ĺ
Ġà¤£ à¤¦
ex am
Ġà¤«à¤²à¤¸ à¤«
"""\"" (
eng er
ĠIndi ans
Ġà¥§à¥¯à¥© à¥«
Ġà¤ĩà¤¯à¤° à¤«
TR AI
yn amic
Î¼ à¤¤
eor ge
ĠCP EC
6 44
9 28
9 64
A CC
G T
L R
M ult
U E
o id
à¤° à¤ªà¤¨
à¥ĭ à¤¾
à¤¯ à¤ħà¤¤
Ġà¤¸ à¤ł
Ġà¤® à¤²à¤¹
à¤ª à¤Ī
Ġà¤¬ à¤ķà¤¨
Ġà¤² à¤Ļ
à¤ļ à¤Ĺà¤¨
Ġà¤ªà¤° à¤Ĺ
à¤ĩ à¤ķà¤Ł
à¤°à¤¤ à¤¸
à¤Ĩ à¤¥
à¤Ĩ à¤ıà¤Ĺ
à¤¶à¤¨ à¤ķà¤°
à¤Ŀ à¤£
à¤¹à¤® à¤°
à¤ıà¤¸ à¤ıà¤®à¤ı
à¤µà¤¨ à¤ļà¤ķ
à¤ĩà¤¨ à¤¦
à¤ĩà¤¨ à¤ªà¤°
Ġà¤Ī à¤ıà¤²à¤ıà¤¸à¤ıà¤¸
à¤°à¤Ń à¤¸
à¤°à¤¯ à¤Ĺ
Ġ6 39
Ġà¤ľà¤² à¤¶
à¥ĩ. '
Ġà¤ıà¤¸ à¤ıà¤¸à¤¡
Ġà¤Ĭ à¤§à¤®
à¤ıà¤« à¤ıà¤¸à¤¡
Ġ: \\
Ġà¤ªà¤°à¤® à¤¶
er ic
Ġà¤ıà¤² à¤ıà¤²à¤ıà¤®
Ġ18 24
ĠP et
ĠP RO
ĠR MB
Ġà¤®à¤² à¤®à¤²
ĠI TI
ĠM oney
à¤¯à¤¯à¤¨ à¤ķà¤°
ĠN RI
à¥ŀ à¤²
Ġà¤ıà¤ļ à¤ıà¤²à¤ıà¤²
ĠT ra
à¤¤à¤¬ à¤¤à¤ķ
Ġà¤¨à¤ľ à¤±
ing ton
Ġc sbc
ul f
ĠO ld
44 3
à¤¶à¤¹à¤° à¤¯
Ġ90 9
ĠPro duction
ter ed
li e
Ġ56 1
à¤ıà¤®à¤ĵ à¤ıà¤¸
ha j
06 2
à¦ ¤
à¦ Ĺ
Ġà¤¿ à¤Ĥ
Ġk illed
IN S
Ġà¤ıà¤¨à¤ıà¤ļ à¤ıà¤¸
Ġà¥§à¥® à¥¦
ef iling
An il
ific ial
ĠAss essment
ĠRev eal
ÙĬ ÙĨ
ÙĬ Ø©
JI O
TB P
ounc ed
ĠGo a
ĠAll owance
eta Info
ĠBook ing
Ġtechnical query
ĠVi olence
PD DR
ĠRet urn
itizens hip
Ġbet ween
urope an
Ġbeg in
Birender Singh
5 47
6 88
7 11
7 48
8 43
9 39
9 42
C DS
H AL
R hea
S un
S ush
T iger
Y SR
m l
t ect
Â ³
Â ½
Î ´
Ġ ov
Ġ est
Ġ Ø§
Ġ uk
à¤° à¤¯à¤ķ
à¤¦ à¤§
à¤ª à¤Ĺà¥Ŀ
à¥ĩà¤Ĥ à¥į
à¤Ĺ à¤ĺ
à¥ĭà¤Ĥ \""
Ġà¤µ à¤ª
Ġà¤µ à¤®à¤¨
à¤ı à¤Łà¤®
Ġà¤² à¤²à¤ļ
à¤§ à¤¨à¤®
à¤ļ à¤°à¤®
Ġà¤¤ à¥ĺà¤¦
Ġà¤ī à¤©
à¤Ī à¤ľà¤¹
à¥Īà¤Ĥ âĢĻâĢĻ
Ġà¤ı à¤Ī
Ġà¤ĩ à¤Łà¤°
à¥Īà¤Ĥà¥¤ """""""
Ġà¤¡ à¤¡à¤²
à¤¼à¥Ģ ""
à¤¹à¤¤ à¤¨
à¤¹à¤¤ à¤ķà¤°
à¤ıà¤® à¤ıà¤®à¤ª
Ġ5 31
à¤ķà¤² à¤¬
Ġà¤Ī à¤ļ
à¥Ģ) âĢĻ
Ġà¤®à¤¨ à¤ļà¤²
Ġà¤ľà¤² à¤®à¤²
Ġà¤Ŀ à¤ªà¤ķà¤¤
Ġà¤ıà¤¸ à¤ıà¤¸à¤ı
à¤ıà¤¨ à¤ıà¤¸à¤ª
Ġ8 12
Ġ8 14
Ġ8 500
à¤ıà¤« à¤ıà¤ļà¤Ł
Ġà¤ıà¤¨ à¤Ĩà¤Īà¤Ĩà¤Īà¤ıà¤«
à¤·à¤¯ à¤µ
à¤Ĭ à¤Ĺ
an esh
Ġà¤§à¤¨ à¤¬à¤²
ĠR IL
à¤Ĺà¤¦ à¤²
Ġà¤ıà¤« à¤ıà¤ļà¤Ł
ĠM at
ĠN CC
ĠN ext
ĠN eh
Ġà¤¸à¤¨ à¤¶
à¤²à¤Ĺ à¤¥à¤¯à¤®
21 60
Ġà¤ķà¤¥ à¤ķà¤²
ĠT itle
ĠT wo
Ġin list
ol istic
is ing
Ġ70 2
Ġ80 8
à¤ıà¤¸à¤Ī à¤Ĩà¤°à¤¬
ĠV IP
ĠW hat
Ġm obile
à¤ıà¤Ĩà¤Ī à¤ıà¤«
à¤²à¤¡ à¤ª
ĠJ E
ĠJ un
à¤¨à¤ı à¤¯à¤°
Ġh ar
ri k
Ġ\"" ,
Ġg n
est ic
05 8
77 9
Ġ77 6
Ġk i
ob s
à¤ĵà¤ıà¤¸ à¤ĵà¤¸
ud din
end re
ant um
Ġst orage
ex pression
SS SC
ĠRe ception
ach e
olog ies
ĠIS L
TE L
Ġà¤Īà¤¯à¤° à¤¬à¤¡
Ch BirenderSingh
tra in
rol l
int on
Ġ00 1
à¥¨à¥¦à¥¦ à¥ª
ena ult
UN SC
ĠUN SC
ĠMov ement
Ġà¤§à¤°à¤® à¤ª
Ġit s
à¤ıà¤ļà¤Ī à¤ıà¤«à¤ı
Ġraj results
Ġen vironment
ient ific
ĠHy undai
à¤ıà¤®à¤ıà¤¸à¤ıà¤¸ à¤µ
tain ment
ĠEcon omic
Ġterror ism
Ġrev olution
Steel MinIndia
Ġinlist box
8 48
B M
K al
K atrina
P T
l ast
p ublic
× Ļ
Ġ à¥Ī
Ġà¤ķ à¥ľà¤ķ
à¤¨ à¤¦à¤°
à¤¯ à¤¥à¤¨
à¤¯ à¤§à¤°
Ġà¤ª à¤ķà¤¤
à¥Ī à¥Īà¤Ĥ
Ġà¤¨ à¤Ĺà¤²
à¤ı à¤ıà¤¸à¤ľ
à¤¼ à¤¼à¥Ģ
Ġà¤¶ à¤ª
Ġà¤¯ à¤°à¤µà¤¦
à¤ĩ à¤ıà¤®
à¤°à¤¤ à¤¯
Ġà¤« à¤¬à¤¤
à¤¤à¤° à¤®à¤¹
à¤ĵ à¤°à¤²
à¤ħ à¤µà¤²
à¤ħ à¤Łà¤ķ
à¤ħ à¤¯à¤¸
à¤ªà¤° à¤Ł
Ġà¤Ĩà¤ª à¤Ł
à¤Ĩà¤Ī à¤Īà¤ª
Ġà¤ıà¤µ à¥Ľ
Ġà¤ĩà¤¨ à¤µà¤°
à¤ķà¤² à¤¸
Ġà¤ħà¤ª à¤ª
Ġà¤ķà¤² à¤Ĺ
Ġà¤ıà¤¸ à¤ıà¤¡
Ġ7 97
à¤¡à¤² à¤Łà¤¨
Ġ8 95
Ġ8 64
à¤Ĳ à¤¹à¤¤
à¤¾- --
19 26
Ġ9 65
Ġ9 48
Ġ9 71
ĠP OCSO
ĠC ases
Ġà¤®à¤² à¤ı
ĠI TBP
à¤ľà¤ķ à¤®à¤²
Ġà¥Ľ à¤µ
ĠB ack
Ġà¤ķà¤Ł à¤¹à¤²
ĠT rade
ed s
à¤¤à¤² à¤¹à¤®
ĠD oodle
ĠH onda
Ġ60 3
Ġ| "
MP BSE
ĠO per
ĠIn rastructure
ĠIn stitution
ur ve
ĠV al
ĠV ol
ĠU RI
à¤Ĩà¤® à¤ľà¤¨
Ġà¤ıà¤®à¤ıà¤¸ à¤ľ
ter m
Ġw ife
ity a
Ġà¥« à¥¦à¥¦à¥¦
07 8
Ġ59 1
Ġr bi
Ġà¤Ńà¤Ĺà¤¤ à¤¸
AA RC
ide a
oun ty
à¤ıà¤¨à¤ıà¤ļ à¤¸
à¥Ī... ...
pl ay
ĠAl ia
ear ing
Ġup msp
à¤ıà¤¨à¤Ī à¤ıà¤²à¤ª
Ġle x
ram ework
arn ath
Ġà¥§à¥¯à¥Ń à¥©
craft s
ĠIN R
Ġpart nership
ĠAdmission s
Ġà¤Ĭà¤§ à¤®à¤¸
Î¿ ÏĤ
Net flix
ĠBR ICS
enc ies
Log istic
ĠTi ps
ishw arya
WY G
! !
/ %
7 62
8 31
9 26
C ar
G a
L oC
P CR
P res
P lay
R ed
X L
d à¤¨
f an
n sdl
s qu
w enty
| """
Ñ ı
à¤° à¤¯à¤¹
à¤¤ à¤°à¤¤à¤®
à¥ĭ "",
à¤² à¤µà¤²
à¤¹ à¤¨à¤®
à¥ģ à¥ĩ
Ġà¤µ à¤¸à¤¨
à¤ı à¤ıà¤Ł
à¤ı à¤ıà¤®à¤ıà¤²
à¤¶ à¤ļà¤¨
à¤¡ à¤ļà¤²
à¤Ī à¤ıà¤«à¤¸
à¥Īà¤Ĥ "",
à¥Īà¤Ĥ ""."
à¤ĸ à¤¨à¤²
à¤£ à¤¶à¤ķ
à¤¿à¤Ĥ à¥į
à¤¼à¤¾ ),
à¤¶à¤¨ à¤®
Ġà¤§ à¥ľà¤ķ
Ġà¤Ĩà¤° à¤ıà¤ķ
à¤ıà¤¸ à¤Ĩà¤°à¤µ
à¤Ĩà¤Ī à¤ıà¤ļà¤ľ
à¤°à¤µ à¤Ĺ
à¤ıà¤® à¤ıà¤¨à¤ıà¤«
Ġà¤ĵ à¥Ŀà¤¨
Ġà¤Ī à¤ıà¤®à¤¬
à¤ıà¤¨ à¤Īà¤¡
à¤ıà¤¨ à¤ıà¤µ
à¤ıà¤¨ à¤ıà¤®à¤ª
Ġ7 18
Ġ7 27
Ġ8 26
Ġà¤¸à¤¤ à¤Ĺ
ĠâĢĿ à¥¤
19 10
à¤Łà¤® à¤£
in à¤ªà¤°
Ġà¤ľà¤Ĺ à¤µ
Ġ13 000
Ġà¤ıà¤² à¤Ĩà¤Īà¤ľ
à¤ıà¤ļ à¤ıà¤²à¤¸
à¤ıà¤ļ à¤ıà¤®à¤ıà¤¸à¤Ĩà¤Ī
ĠS ena
ĠS ilver
ĠP SL
ĠP rices
ĠC AB
âĢĿ )
di s
Ġs uper
ĠH istory
ĠE S
ĠE ase
ch e
ch ar
ĠL eg
Ġm aterials
'' ,
Ġà¤ĸà¤¨ à¤ĸà¤¨
me an
Ġf r
Ġf ull
os ys
Ġ# %
ut ual
à¤ħà¤« à¤ľà¤²
à¥ª à¥«
Ġi mp
ec i
à¥Ń à¥¯
à¤¨à¤Ĺ à¤°à¤®
Ġà¤ªà¤ļ à¤¡
ĠY ojana
oc racy
à¥¯à¥ ©
ĠSt rike
Ġà¤¬à¤¦à¤¨ à¤¸
iss an
IR F
oh amm
sh ape
ĠSh iv
cc ess
ari an
à¤ıà¤¨à¤Ī à¤Īà¤Ł
ĠPlay er
Ġpl ant
Ġà¥§à¥¯à¥ª à¥®
Ġà¥§à¥¯à¥¬ à¥«
ĠAM G
ott ed
Im ran
met al
ĠBan erjee
Su hana
Ġcy cle
ibr ary
Er ror
" [
6 29
7 16
7 96
8 33
9 24
H LA
J et
P CB
U RL
c er
d à¤ªà¤¤
n ot
s ites
s ingle
t k
Â º
Ù ī
Ġ iv
Ġ ut
à¥ĩ à¥ĭ
à¤® à¤Ĺà¤²
Ġà¤ª à¤²à¤µ
à¤Ĺ à¤°à¤¤
à¤Ĺ à¤ıà¤¹
Ġà¤µ à¤ļ
Ġà¤µ à¤¡à¤ķ
Ġà¤Ń à¤¯à¤ª
à¤¥ à¤«
Ġà¤ı à¤Īà¤ª
à¤£ à¤Ń
Ġà¤ıà¤ķ à¤¹
à¤ī à¤©
Ġà¤ħà¤¨ à¤¸à¤°
à¤¤à¤° à¤§
Ġà¤¹à¤® à¤īà¤®
Ġà¤¸à¤ķ à¤ķ
à¤Ŀ à¤µ
à¤Ĺà¤° à¤²
à¤ıà¤¸ à¤®
à¤ıà¤® à¤ıà¤ķ
à¤ıà¤® à¤ıà¤®à¤Ĩà¤°
âĢĻ )
Ġà¤ħà¤µ à¤²à¤®
Ġà¤¸à¤° à¤ªà¤Ł
Ġà¤Ĩà¤Ī à¤°
Ġà¤¬à¤² à¤Ĺà¤®
Ġà¤Ĩà¤ľ à¤®à¤Ĺà¥Ŀ
Ġà¤ħà¤ª à¤¶à¤ķ
à¤ıà¤¨ à¤Ĩà¤Īà¤ıà¤¸
Ġ7 96
à¤Ĳ à¤ľ
à¤ĩà¤² à¤®
à¥Ľ à¤¬à¤°à¤¦à¤¸
19 44
Ġà¤ıà¤® à¤ıà¤®à¤Ĩà¤°
ĠS M
Ġ16 000
Ġ16 50
ĠP CB
ĠA ction
ĠA SI
Ġà¤ĩà¤ķ à¤¹à¤°
ĠR u
ĠR eal
ĠI ST
ĠM RP
ĠB id
à¤¨à¤¯ à¤¶
Ġà¤ľà¤¯ à¤Ń
ĠT iwari
re es
Ġin rastructure
Ġ70 5
Ġà¤ļà¤¢ à¤©
ĠW ishes
Ġt ank
Ġà¥ŀ à¥Ľ
Ġd elhi
Ġà¤īà¤Ĺ à¤²à¤¨
ab ri
Ġà¤ĸà¤Ł à¤ªà¤Ł
har th
Ġw oman
98 3
à¤ıà¤¸à¤ıà¤² à¤Ĩà¤°
Ġà¤Ńà¤Ĺ à¤µà¤¨
à¤Ĩà¤Īà¤Ĩà¤Ī à¤Ĩà¤Īà¤¡
Ġl oss
ort s
à¥¯à¥ Ń
ĠSt eel
à¤ıà¤¨à¤Ĩà¤Ī à¤ıà¤«
ev en
ain a
se ction
à¤ĵà¤ı à¤ıà¤²à¤ª
Ġà¤ķà¤· à¤Ĺà¤®
our se
SS SB
Ø§ Ø¯
pl ace
Ġà¤²à¤¯ à¤¬à¤¦
Ch ennai
Ġà¥¨à¥¦à¥§ à¥®
ari ant
ĠØ ª
ĠØ ¯
Ġà¤¸à¤°à¤²à¤¤ à¤®
Ġà¥§à¥¯à¥ª à¥¨
nov ations
Ġà¤²à¤ĸà¤¨ à¤ī
urn iture
Ġcont ribution
Ġtour ism
Ġeu ropa
ĠFeb ruary
Ġwind ow
ĠPict ures
Ġindust ry
A b
B en
B ad
B est
C yclone
L exUriServ
M ir
N on
S at
c ount
d op
m ha
n ers
s id
s olar
w ast
} ""
Ã §
Ã º
Î ¯
Ð ´
Ġà¤ Į
à¤° à¤ĵ
à¤° à¤³
Ġà¤ķ à¤ı
Ġà¤ķ à¥Ŀ
à¤¤ à¤ªà¤¨
à¤¸ à¤ıà¤®
Ġà¤¸ à¤ľà¤²
Ġà¤¹ à¤¬à¤²
à¥¤ )
à¤Ł à¥ŀ
à¤ľ à¤ĺà¤¨
Ġà¤° à¤°
Ġà¤° à¤ľà¤¸
Ġà¤² à¤µà¤¨
Ġà¤¤ à¥ŀà¤°
Ġà¤Ĩ à¤ĩà¤«
Ġà¤Ń à¤Ńà¤ķ
à¥Īà¤Ĥ âĢĵ
Ġà¤¡ à¤¬à¤°
à¤¤à¤° à¤¸à¤°à¤ķ
Ġ20 34
00 59
Ġ3 2001
Ġà¤ĵ à¤·
Ġà¤īà¤¦ à¤¯à¤¨à¤°
Ġà¤Ĩà¤¦ à¤®à¤ķà¤¦
à¤®à¤ķ à¤¬à¤°
Ġà¤ħà¤¬ à¤¸
à¤Ĳ à¤Ł
à¤Ĳ à¤¡à¤®
à¤¨à¤µ à¤Ĺà¤ł
à¤®à¤¦ à¤¦à¤Ĺ
à¤¥à¤® à¤ª
à¤ħà¤¨ à¤µà¤°
Ġ18 40
ĠC ost
di um
Ġà¤ħà¤¸à¤® à¤®
Ġà¤ªà¤² à¥ľ
Ġs olid
ĠD ub
ĠF ar
Ġin formation
ĠK ai
à¤Ĭà¤¦ à¤ª
ĠL am
ĠL exUriServ
ĠL PDDR
ĠO NGC
ad y
Ġt erm
Ġn ar
Ġ56 7
à¥® à¥§
07 2
Ġà¤ªà¤ļ à¤¹à¤¤
Ġ85 4
com p
Ġl ook
oc rat
à¥Ģà¤Ĥ? ""
à¥¯à¥ §
Ġà¥® à¥«
Ġà¤ıà¤¨à¤ıà¤ļ à¤Ĩà¤Īà¤¡
ach ers
pr ise
Ġcom mission
ĠUS A
ĠSh etty
TV S
ĠRec ords
Ġà¥§à¥¯à¥¬ à¥©
hon es
Ġà¤į à¤¨
à¤ĵà¤Ĩà¤° à¤ĵà¤ª
AB etaInfo
yn am
EL EX
itle y
ĠGS AT
Shah rukh
ĠHy derabad
olt age
ĠHar ry
erc edes
Ġtransl ations
ĠNG T
ĠZen fone
Ġcg bse
Ġvol ts
ĠReopen ing
8 16
8 64
9 32
A IADMK
C an
H L
H RD
H oli
I ST
O bs
R N
c rit
d à¤¯à¤®
i QOO
k g
l it
n am
r in
w hite
Å į
× ķ
Ú ¯
à¤¿ à¥ĩà¤Ĥ
à¤¿ à¥¤"
à¤¨ à¤ľà¤«
à¤¸ à¤¹à¤¦
à¤² à¤¸à¤®
à¤® à¥Ŀ
à¤® à¤Ńà¤ķ
Ġà¤® à¤ķà¤¤
Ġà¤¨ à¤°à¤ķà¤Ł
à¤Ł à¤ı
Ġà¤¬ à¤®à¤¨
à¤ı à¤ıà¤®à¤Ĩà¤°
à¤ı à¤ıà¤²à¤ª
à¤ı à¤ıà¤«à¤¡
à¤¶ à¤µà¤¨
à¥Ĥ à¥Ģ
Ġà¤Ĺ à¤Ĭ
à¥Īà¥¤ ''
Ġà¤¶ à¤®à¤°
Ġà¤¶ à¤¹à¤²
à¤£ à¤µà¤°
à¤Ĩ à¤¹à¤°à¤£
à¥ĥ à¤¾
Ġà¤ħà¤§ à¤®
à¤ħ à¤ľà¤°à¤¬
à¤¢ à¤µ
à¤¢ à¤ķà¤°
à¥Ī. ""
à¤Łà¤¨ à¤¬à¤°
à¤¨à¤¤ à¤ª
à¤ıà¤® à¤Ĩà¤°à¤ıà¤«
à¤ıà¤® à¤ıà¤¨à¤ıà¤®
Ġà¤ĵ à¤¨à¤²
à¤ĩà¤¨ à¤¹
à¤²à¤¬ à¤¨
Ġ6 34
à¥ĩ. âĢĿ
Ġà¤ıà¤¸ à¤ıà¤«à¤ľ
Ġ7 26
Ġ8 29
Ġ8 37
Ġ8 36
à¥Ľ à¤°à¤¨
Ġ9 25
Ġà¤«à¤° à¤¹à¤¤
ĠâĢĺâĢĺ (
à¥Ĥà¤ģ ."
an et
an ath
ĠS ing
ĠP ir
ĠC rime
à¥ĺ à¤®
à¤µà¤ļ à¤°à¤£
Ġà¤ıà¤« à¤ıà¤®à¤ª
Ġà¥Ľ à¤¹à¤°
ĠM aj
ĠB HU
ĠN B
ĠN PA
Ġà¤Ĺà¤£ à¤¤à¤¨
à¤ħà¤° à¤¹à¤°
ĠT et
am pl
ĠG NU
ĠG DM
ĠH uman
Ġc redit
à¤Ĩà¤Īà¤Ĩà¤° à¤Ł
ot ic
ĠK ings
à¤īà¤ª à¤ª
ch o
ĠL oan
à¥ĢâĢĻ .
ir es
ĠW arri
Ġt rade
Ġm g
ĠJ K
Ġb enefit
à¤¿. )
Ġ65 1
Ġà¤¶à¤°à¤£ à¤ľ
um ents
Ġg u
li ps
95 4
Ġw arming
à¥® à¥¦à¥¦
Ġà¤ªà¤¥ à¤ķà¤°
op hy
ĠY outh
Ġr un
AT S
Ġà¤¤à¤°à¥ŀ à¤¦
Ġdi sease
ppo int
Ġà¥§à¥¯à¥® à¥§
Ġà¥§à¥¯à¥® à¥¨
à¥ĢâĢĿ à¥¤
ject s
Ġà¤ıà¤¡à¤µà¤° à¤Ł
Ġpl ot
Ġli ke
Ġà¤²à¤ªà¤ķ à¤¨
Ġà¥§à¥¯à¥¬ à¥¯
ert il
Ġà¥§à¥¯à¥« à¥®
à¤¸à¤¹à¤¨ à¤¶
âĢĶâĢĶ âĢĶ
hy dro
Ph ase
CI SCE
Qu ery
ĠEm ploy
à¤ıà¤®à¤ıà¤®à¤ıà¤¸ à¤µ
ehic le
umul ative
8 26
8 95
8 91
C orona
E NG
F R
M inist
P ixel
T op
b al
c ing
c os
r c
ä ¸
Ġ à¸
Ġ Ú©
à¤Ĥ âĢĿ
à¤¤ à¤Ĩ
à¤¹ à¤²à¤¯
Ġà¤¹ à¤Ĩ
Ġà¤ľ à¤¯à¤®
Ġà¤¦ à¥ļ
à¤¶ à¤¯à¤¤
Ġà¤Ķà¤° à¤īà¤¨à¤ķ
à¤¼ âĢĿ
Ġà¤ı à¤¸à¤°
Ġà¤ı à¤²à¤¯
Ġà¤ı à¤Ĩà¤°à¤ª
à¥ī -
à¤¤à¤° à¤Ĺ
à¤¤à¤° à¤¨à¤¤
à¤ĵ à¤ĸ
à¤¶à¤¨ à¤¨
à¤²à¤¯ à¤¦
Ġà¤Ĩà¤° à¤¹
à¤ĺ à¤ĺ
Ġà¤ĳ à¤²à¤¸
à¥Ĥà¤Ĥ |
à¤¸à¤¨ à¤¸à¤¨
Ġà¤Ĩà¤Ī à¤Īà¤ıà¤¸
Ġà¤ľà¤¨ à¤¸à¤®à¤°
à¤¹à¤¨ à¤µà¤¤
Ġà¤ıà¤¸ à¤ıà¤Ĩà¤°
Ġ7 17
Ġ7 64
Ġ7 98
à¤ıà¤² à¤ĵà¤¯
Ġà¤ħà¤¤ à¤²
Ġ9 16
Ġ9 28
à¤¥à¤¨ à¤¹
Ġ13 20
ĠC r
à¤£à¤¯ à¤ľ
or ial
à¤¼à¥ĩà¤Ĥ )
à¤¼à¥ĩà¤Ĥ âĢ¦
ĠR uss
Ġà¤īà¤ªà¤¸ à¤ļ
99 4
ĠM angal
à¤ªà¤Ł à¤¸à¤¨
ĠG od
Ġin st
el vin
us ion
ĠL og
à¤¯à¤¶ à¤ª
il ot
il ib
Ġ64 6
ad oop
ut es
Ġ65 3
Ġ65 7
Ġ66 8
à¤ĳà¤« à¤¸
Ġe vel
Ġl ayer
im p
IS I
Ġà¤ıà¤®à¤ĵ à¤Īà¤ıà¤«
Ġà¤¦à¤®à¤¨ à¤Ĺ
Ġà¤¹à¤°à¤® à¤Ĺ
à¥ĩ... ...
Ġà¤«à¤Łà¤ķ à¤¨
St ock
Ġcom mun
Ġpro fess
à¤ıà¤¸à¤ĵ à¤Ĩà¤Ī
ĠâĢİ âĢİ
ĠSh roff
act s
mission s
Ar chitecture
Ġà¤īà¤« à¤¨à¤¤
vi ation
ĠQu otes
Ø³ Øª
ĠPresident ial
à¤ķà¤Łà¤® à¤¯
ĠEd ge
On line
Ġcha in
8 77
8 41
9 37
J DS
O P
S ocial
S unny
V ol
Z F
c ategorical
d d
d em
f india
m as
r ength
à¥į à¤ĥ-
à¥ĭ âĢĶ
à¤ķ à¤µà¤ķ
à¤¯ à¤¡à¤°
à¤® à¥Ļà¤²
à¤¦ à¤ĺ
à¤¦ à¥ĺ
à¤ª à¤µà¤¤
à¤ª à¤µà¤ķ
à¥ĩà¤Ĥ à¤¿
à¥ĩà¤Ĥ âĢĻâĢĻ
à¥ĩà¤Ĥ --
Ġà¤¨ à¤ĸà¤°
à¤Ł à¤ªà¤²
à¤ľ à¤Ĺà¤®
à¥Ĥ à¤¾
Ġà¤° à¤ļà¤ķà¤°
Ġà¤° à¤īà¤«
à¤¬ à¤Łà¤°
Ġà¤ķà¤° à¤¹
Ġà¤¤ à¥ĺà¤¸
Ġà¤Ĺ à¤Łà¤°
à¥Īà¤Ĥ ''.
Ġà¤ı à¤µà¤¨
Ġà¤ı à¥ŀ
Ġà¤ı à¤Ĩà¤Īà¤ª
Ġà¤¯ à¤Ĺ
à¤ĩ à¤·
Ġà¤« à¤°à¤¦
Ġà¤« à¤¹à¤¦
Ġà¤« à¤±
à¤Ĩ à¤µà¤ķ
à¤Ľ à¤¤à¤°
à¤ħ à¤¥à¤°
Ġà¤§ à¤§à¤ķ
Ġà¤¤à¤° à¤µ
Ġà¤ħà¤² à¤¹
à¤µà¤¨ à¤ľ
à¤°à¤§ à¤¨à¤®
à¤¤à¤¨ à¤¯
Ġà¤¹à¤° à¥ļ
à¤Ķà¤° à¤ľ
à¤Ĩà¤° à¤ıà¤®à¤ıà¤²
Ġà¤Ī à¤ı
Ġ7 69
Ġ7 94
à¤ıà¤² à¤Ĩà¤°à¤Ĩà¤Ī
à¤¡à¤² à¤¬à¤°
à¤¡à¤° à¤¬à¤¨
Ġ9 98
Ġ9 83
Ġ15 50
à¤Ńà¤µ à¤¶
à¥ĭà¥¤ -
ĠS indhu
à¤ľà¤Ĺ à¤¦à¤²à¤ª
Ġà¤¤à¤² à¤ļà¤°
ĠC IA
ĠA kh
à¥ĺ à¤¸à¤®
ĠR BSE
à¤µà¤¶ à¤°
ĠB endre
Ġà¤¸à¤¦ à¥ĺ
Ġà¤ıà¤ļ à¤Īà¤ıà¤«à¤ı
di gital
Ġà¥ĺ à¤¨
am eter
ĠD ol
à¥Ļ à¤¸à¤¤
ĠF M
Ġin vestment
Ġp erson
ĠV irus
ĠU V
Ġo x
à¤ıà¤®à¤Ī à¤ª
à¤ıà¤®à¤Ī à¤Ĩà¤Īà¤Ł
Ġd own
II FA
SE AN
07 4
Ġ67 6
Ġ59 6
Ã¯ à¤¯
à¤ıà¤«à¤Ĩà¤Ī à¤¯
end ing
Ġà¤īà¥ľ à¤¦
ik i
à¤Īà¤ıà¤® à¤¬
.... ...
ĠIC AI
ĠCom merce
ĠAr ticle
ĠAr vind
ÂłÂłÂłÂł Âł
ĠØ ¬
ÙĨ Ø¯
Ġar rested
artic ip
ĠComp any
Ġà¤ıà¤®à¤Ĩà¤° à¤ıà¤¨à¤ı
ĠSan itation
Ñģ Ðº
à¤ļà¥ľ à¤ĸ
Ġà¤¶à¤¯à¤¨ à¤¯
ĠMus ic
Ġgovern ance
Ġà¥ļà¤® à¥ļ
ĠPri ze
Ġà¤¤à¥ŀà¤° à¥ĺ
. âĢĻâĢĻ
5 93
6 47
7 88
8 66
9 77
A ct
B ig
C ut
F in
G e
H MD
L PG
M at
M ission
O T
O sc
W omen
b ra
d ensity
n ing
o S
p ha
y ap
y outube
à ³
à ¼
â Ĺ
Ġà¤ķ à¤µà¤²
à¤¯ à¤¹à¤°
à¤¦ à¤¯à¤ª
à¤Ĺ à¤§à¤°
à¤ľ à¤ľà¤®
Ġà¤ľ à¤°à¤ķ
à¥Ĥ âĢĿ
Ġà¤² à¤Ń
Ġà¤Ĺ à¤¦à¤²
à¤Ī à¤Ĳà¤¸
à¤Ī à¤ıà¤¸à¤ıà¤¸
Ġà¤ĩ à¤®à¤¤
Ġà¤¶ à¤¬à¤¦
à¤« à¤¤à¤µ
à¤°à¤¤ à¤°à¤¤
Ġà¤ĩà¤¸ à¤¶à¤²à¤ı
Ġà¤ķà¤¹ à¤²à¤Ĺ
à¤ķà¤° à¤°à¤¹
à¤Ĩ à¤¯à¤¤à¤¨
à¤ī à¤ªà¤¶
à¥ĥ à¥ĥ
à¤ĵ à¤®à¤ª
à¥Ī, âĢĻ
Ġà¤Ĩà¤° à¤Ĩà¤°à¤Ł
à¤Łà¤¨ à¤¹
à¤ıà¤® à¤Ĳ
à¤ıà¤® à¤ıà¤¸à¤Ł
à¤ĩà¤¨ à¤¡
à¤Ĩà¤° à¤Ĩà¤°à¤ıà¤¸
Ġà¤Ĩà¤Ī à¤ıà¤¸à¤¡
à¤¶à¤ķ à¤ľ
Ġ8 42
à¤²à¤ķ à¤ªà¤¨
19 12
Ġ9 22
in um
Ġà¤¸à¤² à¤ı
à¤¥à¤² à¤¹à¤®
ĠS af
ĠS PG
ĠP ositive
à¤ªà¤£ à¤ĸ
or ic
à¤¹à¤¦ à¤¦
Ġà¤°à¤£ à¤¤
15 20
ĠF R
ĠF reedom
Ġc is
as i
is on
et ic
ĠL ast
ĠL iber
80 7
ĠO R
ad h
Ġm ech
Ġm AH
Ġm enu
Ġm urder
Ġ75 000
Ġd en
Ġd ead
ab ha
Ġh ot
Ġh ouse
har y
han g
à¥® à¥ª
à¤¼à¥ĩà¤Ĥ: âĢĭ
Ġl anguages
à¥¯à¥ ¨
à¥ĩ! "
ob ility
à¥Ģ"" ."
BSE H
IS O
PM LA
à¤¾âĢĿ ,
ĠTV S
CB DT
Ġup results
à¤¶à¤ªà¤¥ à¤Ĺ
anc ing
à¤ıà¤¨à¤Ī à¤ıà¤«à¤Ł
nov ative
Ġorg anic
ĠMS M
à¥Īà¤Ĥ' à¥¤
ĠAf ghanistan
oad ing
ĠEng ineering
Ġag riculture
Ġdo ing
gn ome
Ġem ission
Ġass embly
OL D
à¥ĪâĢĻâĢĻ à¥¤
ĠAmer ican
rim ary
option al
Ġintegr ated
ĠBud s
rock ers
5 69
D B
D ay
G U
H ero
H rithik
M AH
S he
S IP
e in
j ust
m ult
s emiconductor
à¤° à¤Ĩ
à¤° à¤°à¤¹
à¤¿ âĢĺ
à¤Ĥ âĢĻâĢĻ
à¤ķ à¤ĺ
Ġà¤¹ à¤Īà¤¶
Ġà¤® à¥Ŀ
à¤Ł à¤ħà¤Ł
Ġà¤¬ à¤¹à¤®à¤¨
à¤· à¤Ńà¤°
Ġà¤¤ à¤Īà¤ª
Ġà¤Ĩ à¤²à¤µ
à¤¥ à¥ľ
à¤Ń à¤¶
à¤ĸ à¤°à¤µ
Ġà¤ļ à¤®à¤°
à¤ĩ à¤¥à¤¨
Ġà¤ĸ à¤¬
Ġà¤¸à¤® à¤¥
à¥Īà¤Ĥà¥¤ ...
à¤ħ à¤µà¤ľ
à¤°à¤® à¤ķà¤¤
Ġà¤Ĩà¤° à¤Ĩà¤Īà¤¡
à¤ıà¤¸ à¤Ĩà¤Īà¤ı
à¤ıà¤¸ à¤Ĩà¤Īà¤ıà¤¸
Ġà¤¸à¤¬ à¤ľ
à¤¸à¤® à¤µà¤°
à¤Ĺà¤¤ à¤ª
à¤Ķà¤° à¤¯à¤¦
Ġà¤Ī à¤Ĩà¤°
Ġà¤Ī à¥Ľ
à¤Łà¤ķ à¤¨
à¤ıà¤¨ à¤Īà¤Ł
Ġ7 36
Ġà¤¬à¤° à¤²
19 43
Ġ9 10
Ġà¤ıà¤® à¤ıà¤ķ
Ġà¤ıà¤® à¤Ĩà¤°à¤ıà¤«
à¤ħà¤² à¤®à¤¸
al es
Ġ14 99
at ab
Ġà¤ıà¤² à¤ıà¤ļà¤¬
à¤¹à¤ķ à¤¦
à¤¼à¥ĩà¤Ĥ ?
à¤ķà¤ª à¤Łà¤¤
ĠR em
Ġ17 99
à¤ªà¤² à¤ļ
Ġà¤µà¤¨ à¤Ĺ
ĠM or
ĠM urder
Ġà¥ĺ à¤¤à¤°
ĠD NS
à¤ķà¤¹ à¤ķà¤°
Ġc lean
th ers
ĠL td
à¤ıà¤¸à¤Ī à¤Ī
ul b
ur l
ad ak
à¥Ĥ) à¥¤
Ġf il
ĠPro ducts
Ġà¤Ńà¤¡ à¥ĺ
Ġà¤Ĩà¤Īà¤ı à¤Īà¤ı
Ġg ate
09 4
Ġw eather
à¥¬ à¥¨
à¥ĩà¤Ĥ? "
Ġà¥¬ à¥®
Ġà¤²à¤µ à¤£à¤¤
à¥ĩâĢĻ .
à¤Ĩà¤Īà¤Ĩà¤Ī à¤ıà¤¸à¤Īà¤Ĩà¤°
Ġl ive
Ġl anguage
ff ic
à¤Īà¤ı à¤ıà¤¸
à¤ĵà¤µà¤° à¤¸
Ġj io
ry pt
à¤Ĺà¤°à¤£ à¤ľ
Ġà¥¦ à¥¦
rol led
ĠMar ÃŃa
ĠAg ainst
ther mal
ĠAm endment
à¥§à¥¯à¥¯à¥ Ń
à¥Īà¤ĤâĢĻ .
Ġà¤ľà¤ķà¤° à¤¯
à¤°à¤¨à¤¤ à¤¶à¤¤
class ification
sur face
Ġà¤ıà¤ħ à¤°à¤ª
Go a
à¥§à¥¯à¥§ à¥ª
rig ation
mach al
7 41
8 72
B ollywood
F ar
F armers
I MS
N SS
V al
V is
c ular
j unction
k m
p ath
r ent
r ite
z apur
É Ľ
Ġ ase
à¤° à¤ļà¤°
à¤¨ à¤«à¤°
à¤¸ à¤ıà¤¸
à¤² à¤¹à¤®
Ġà¤ª à¤¤à¤°
à¤µ à¤®à¤§
à¤ľ à¤ķà¤²
Ġà¤ľ à¤ĭ
Ġà¤ľ à¤³
à¤¶ à¤ķà¤°à¤¨
à¤¡ à¤Ń
Ġà¤ķà¤° à¤®à¤ľ
Ġà¤ī à¥Ľ
à¤Ī à¤¡à¤°
à¤£ à¤ļ
Ġà¤ıà¤ķ à¤µà¤ļà¤¨
Ġà¤°à¤¹ à¤ķ
à¤ķà¤° à¤¸à¤ķà¤¤
Ġà¤ħà¤¨ à¤Ĺà¤¢
à¤ĵ à¤ªà¤°
à¤ĵ à¤¨à¤²
à¤ħ à¤Ī
à¤°à¤¦ à¤¬
Ġà¥¤ âĢĿ
à¤¯à¤® à¤°
Ġà¤īà¤ª à¤ķà¤²
à¤Ŀ à¤°à¤¨
à¤°à¤£ à¤¹
Ġà¤Ĩà¤° à¤Ĩà¤°à¤Ĩà¤°
Ġà¤Ĳ à¤¯
à¤Ĩà¤Ī à¤ıà¤ª
ĠâĢĺ (
à¤Ķà¤° à¤īà¤¸
Ġà¤Ĩà¤¤ à¤ķ
Ġà¤Ĩà¤Ī à¤ıà¤¨à¤ľ
Ġà¤Ī à¤¥à¤°
Ġ"" )
Ġà¤ľà¤¨ à¤²
Ġà¤ľà¤² à¤°
Ġà¤ıà¤¸ à¤Ĩà¤Īà¤ıà¤ļ
à¤ıà¤² à¤ıà¤¨
à¤¤à¤® à¤ľà¤¦
à¤¾- à¤¾
à¤¹à¤² à¤°
Ġà¤ıà¤¨ à¤ıà¤¡
19 06
à¤ķà¤¨ à¤¸
Ġ9 29
Ġà¤ıà¤® à¤ıà¤®à¤ıà¤²
à¤¸à¤ª à¤²
à¤¤à¤µ à¤®
à¤ħà¤² à¤¸
Ġ18 77
Ġ18 56
à¤ıà¤ļ à¤ıà¤®à¤¡
à¤ıà¤ļ à¤ıà¤ıà¤®
ĠS ushant
ĠS ource
ĠP DF
ĠC PM
Ġà¤®à¤² à¤®
ic ine
ĠM ur
à¤ªà¤Ł à¤ķà¤°
Ġà¤Ĺà¤£ à¤ª
à¤Ĺà¤¡ à¤©
ĠT om
ĠT erm
à¥ĭ- -
ĠG W
ra se
Ġ35 000
us am
il ateral
Ġp ron
ĠW B
Ġm ark
me thane
à¤ıà¤®à¤Ī à¤Ł
à¥« à¥«
ew ater
Ġg seb
Ġi mm
Ġw ay
Ġ58 3
Ġ66 3
98 6
Ġ74 2
qu ality
CC TV
à¥¯à¥ «
Ġà¤· à¤Ł
ob e
à¤Īà¤Ī à¤Ĩà¤°à¤Ĩà¤Ī
Ġà¥§à¥¨ à¥«
ĠCh eck
Ġà¤Ĩà¤ĩ à¤ĵà¤ıà¤¸
sc en
à¤ıà¤¨à¤ıà¤ļ à¤ıà¤«à¤¡
ind a
sp ir
Ġà¤ıà¤®à¤ıà¤® à¤Ĩà¤°à¤¡
ens ive
à¤¸à¤ĸ à¤¸
à¥ĩâĢ¦ .
cy cl
Ġà¤¶à¤¹à¤¨ à¤µ
Ġra pe
pro tot
Ar vind
à® ¾
ĠTh in
Ġà¤ıà¤¨à¤ıà¤« à¤ıà¤¸à¤ıà¤®
Ġà¤¨à¤Ł à¤ĸà¤Ł
att le
Con t
ĠÏ Ģ
ĠKar an
Ġshar e
ĠMed al
ĠPart nership
ĠÙħ ØŃ
Ġà¤¨à¥ŀ à¤°à¤¤
âĢ¢ à¤¾
Tag s
à¤ħà¤ªà¤ķ à¤®
def ault
ĠInt elligence
eff iciency
Ġcount ry
ĠRa o
iction ary
ĠAc ad
Nan omaterials
ĠMeh ta
ĠAuth ority
0 37
F irst
M is
P WD
f ps
g u
h z
o har
w ama
Ø µ
Ġ Ù¾
à¥ĭ """
Ġà¤¹ à¤¦à¤¯
Ġà¤® à¤ĸà¤¦
à¤µ à¥Ľ
Ġà¤ħ à¤²à¤¤
Ġà¤ħ à¥ĺ
Ġà¤° à¤Łà¤¨
à¤¬ à¤¦à¤¸
à¤¡ à¤ıà¤«
à¤ļ à¤ķà¤ª
à¤· à¤°à¤¹
Ġà¤¯ à¤®à¤°
Ġà¤¯ à¤®à¤ķ
Ġà¤ĸ à¤°à¤ķ
Ġà¤ĸ à¤¦à¤°
à¤Ĩ à¤ĺ
à¤ħ à¥ŀà¤¸
à¤¯à¤® à¤Ĺ
Ġ20 60
à¤ĺ à¤ª
à¤Ĺà¤¤ à¤ķà¤°
à¤¤à¤ķ à¤Ĺ
Ġ7 19
Ġ7 39
Ġ7 33
Ġ8 15
Ġà¤ıà¤¨ à¤¹
Ġà¤ıà¤¨ à¤ıà¤«à¤¡
""" .
à¤ķà¤¨ à¤¹
Ġ9 75
Ġà¤¨à¤µ à¤¬
Ġ11 30
Ġ18 51
ĠS IP
ĠP ras
ĠC I
à¤°à¤ļ à¤ķ
ĠR FC
ĠR RR
ĠI r
ĠM achine
it is
Ġà¤ıà¤ļ à¤ıà¤®à¤¡
Ġs ign
Ġs emiconductors
ĠG et
ĠD a
re al
ĠH RD
ĠE arth
as an
ot ing
ĠK isan
Ġ70 6
ĠW ire
and e
id hi
Ġà¤Łà¤ķ à¤Łà¤ķ
Ġb ook
em es
Ġà¤īà¤Ĺ à¤²à¤¤
ter ror
à¤ıà¤¯à¤° à¤¬
à¤ıà¤®à¤ĵ à¤ıà¤«à¤ª
à¤Ĩà¤Īà¤ıà¤² à¤ıà¤¸
à¥° )
ĠZ ee
ĠZ ero
à¥¯à¥ ¬
Ġk e
ob el
Ġà¥® à¥¦à¥¦
end ar
ĠÂ ¶
Ġà¤ıà¤®à¤ĵ à¤ıà¤«à¤ª
Ġcon nection
Ġgov t
Ġ{ }
UP SEE
ach ing
DA Y
ĠUn ity
ĠCom ment
Ġat oms
ĠÎ ´
Ġex t
Ġqu ality
CL R
Ġun it
Ġà¤į à¤ķ
ĠInter view
Ð° ÑĢ
ĠEng ine
adi um
Ġà¤¹à¤¶ à¤®à¤¤
Gov ern
Ġcol or
Ġà¤ıà¤®à¤ıà¤« à¤ıà¤¨
Ġhy pothesis
Ġchar ge
ĠMac Book
vin ce
ĠCap ital
âģ Ħ
Earth quake
% à¥¤
0 19
9 66
C annes
D IC
E RS
G M
O pen
T ikTok
a ug
h ost
p ir
v es
y al
y am
à¤¾ $
à¥ĩ à¥Ģ
à¤° Name
à¤ķ à¤¶à¤ķ
à¤¯ à¤ĸà¤²
à¤¸ à¤Ĩà¤Ī
à¤² à¤§à¤°
à¤² à¤ªà¤Ł
à¥ģ âĢĿ
à¤¦ à¤¨à¤®
à¤Ĺ à¤¬à¤¹
Ġà¤¨ à¤¥à¤¨
à¤ľ à¤°à¤¸
Ġà¤¬ à¤¹à¤®
Ġà¤ľ à¤°à¤®
à¥ĭà¤Ĥ âĢĵ
Ġà¤ħ à¤ªà¤¯
Ġà¤ħ à¤ľà¤¦
Ġà¤ī à¤¥à¤®
à¤Ī à¤ªà¤Ł
à¤Ń à¤¯à¤¤
Ġà¤¯ à¤ª
à¤¾à¥¤ """""""
à¤ķà¤° à¤ľ
à¤Ĩ à¤µà¤§
à¤Ľ à¤Ľà¤°
Ġà¤ħà¤¨ à¤¶
à¤ł à¤¬
à¤¤à¤° à¤°à¤ķ
Ġà¤¤à¤° à¤¨à¤ľ
à¤¬à¤° à¤ĸ
à¤ĺ à¤ľ
Ġà¤¸à¤¹ à¤ħà¤§
à¤¨à¤ķ à¤¨
à¤µà¤¨ à¤¹
Ġà¤ĳ à¤Ĺà¤®
à¤¼à¥ĩ :-
Ġà¤ħà¤µ à¤¦
Ġà¤¹à¤° à¤ļà¤°à¤£
à¤¦à¤¨ à¤Ĺ
Ġà¤Ĩà¤Ī à¤Ĩà¤Īà¤ıà¤«
à¥Ģ. ...
Ġà¤Ī à¤ıà¤¸à¤¸
à¤°à¤Ń à¤µ
à¤µà¤¤ à¤ķ
Ġ6 11
à¤ıà¤² à¤Ĩà¤Īà¤ľ
Ġà¤®à¤¦ à¤¤
Ġ8 98
Ġ8 83
à¤Ĳ à¤¶à¤¨
à¤²à¤ķ à¤µ
à¥Ľ à¤µ
Ġ9 500
à¤¾) ?
à¤Ĺà¤¨ à¤¸
à¤¯à¤µ à¤µà¤¸
Ġ18 78
à¤ıà¤ļ à¤Ĩà¤Īà¤ıà¤²
ĠS he
à¤ľà¤¦ à¤ıà¤¸
ĠA st
Ġ50 89
à¤°à¤®à¤£ à¤®
ĠM all
ĠM bps
ĠB on
ĠB or
Ġ21 30
âĢĻâĢĻ ,
Ġà¤ıà¤ļ à¤Ī
di g
ĠT ower
ĠâĢĻ !
Ġs ports
re o
ĠF ind
ĠF ile
ĠF IFA
ĠE X
âĢĮ âĢĮ
ĠL evel
à¤ıà¤¸à¤Ī à¤¡
ĠV ariable
ĠU s
Ġm ay
à¤¯à¤¬ à¤ľ
ce an
Ġn on
os hi
à¤®à¤¶ à¤µà¤°
à¤ĩà¤¬à¤° à¤¨
Ġb ond
à¤īà¤¥ à¤¶
em ission
Ġà¤ħà¥Ľ à¤¹à¤°
Ġ42 30
han kar
Ġi im
og e
ec on
ID BI
Ġà¤ļà¤ª à¤²à¤¤
ha ck
à¥Ń à¥¬
Ġ120 7
ĠY ZF
Ġl iving
Ġ69 4
à¦ ¸
ĠZ X
oss il
ass ment
ĠAn alysis
ĠEx change
Ġà¥§à¥§ à¥¯
St at
Ġà¤®à¤ł à¤µ
con s
con ductivity
à¤Ĺà¤²à¤¤ à¤«à¤¹à¤®
Ġà¤ļà¤¹ à¤ļà¤¹
tra ct
ĠQual ification
Ġà¦ ķ
Ġà¥§à¥¯à¥« à¥¨
Ġsh ould
ull s
Ġbi as
à¤¡à¤°à¤µ à¤²
Ġus er
ĠYS RCP
ĠChan ge
ĠJo har
ĠHS BC
Ġà¤ıà¤ıà¤² à¤ıà¤ļ
plex ity
alle l
Pres ident
ĠThin Q
- %
B H
B re
D igital
E VM
F orm
J oe
T ecno
V ijay
d onor
i us
p al
s mart
w adi
É ĳ
Ê Ĭ
Î º
Ð ¼
Ñ Į
Ġ ÙĤ
à¤¨ à¤¯à¤®
à¤¨ à¤Ĺà¤¦
à¤¤ à¤¤à¤°
à¤¤ à¤²à¤®
à¤² à¤¶à¤¸
à¤² Name
à¤¹ à¤¸à¤¦
à¤¹ à¤¬à¤²
à¤µ à¤¯à¤°
à¤ª à¤¦à¤¸
à¤ª à¤Ĺà¤¡
à¤Ĺ à¤¤à¤°
Ġà¤¨ à¤ķà¤¸
à¤ı à¤¹à¤°
à¥Ĥ ...
à¤¬ à¤¨à¤¤
Ġà¤¤ à¤¸à¤¨
Ġà¤ªà¤° à¤ĸà¤ķà¤°
Ġà¤ĩ à¤¯à¤°à¤¬
Ġà¤ĩ à¤ĭà¤°
à¤£ à¤ľà¤¯
Ġà¤¯ à¤µà¤¸
âĢį à¤¾
Ġ( #
Ġ( [[
à¤Ĩ à¤²à¤°
à¤Ĩ à¤®à¤¦
à¤ī à¤¸à¤¦
Ġà¤Ł à¤®à¤Ł
à¥Ī. ?
Ġà¤µà¤¹ à¤¦
Ġ20 32
Ġà¤§ à¤°à¤¦à¤¬
à¤Ŀ à¤²à¤ķ
à¤°à¤£ à¤ª
à¤¹à¤® à¤ľ
à¤°à¤µ à¤¹à¤¨
à¤ıà¤® à¤ıà¤®à¤¸
Ġà¥ Ĳ
Ġà¤¹à¤° à¤«
Ġà¤īà¤¦ à¤¯à¤¨
Ġà¤Ī à¤¥à¤°à¤¨
Ġà¤¶à¤° à¤¬à¤¤
à¥ĩ. )
Ġ7 34
Ġ8 33
à¤¶à¤² à¤ª
Ġà¤ıà¤¨ à¤Ĩà¤Īà¤ıà¤«
""" '
19 15
Ġ9 69
Ġà¤¨à¤µ à¤ªà¤°
Ġà¤Ķ à¤¹à¤¦
à¤°à¤ª à¤£
Ġà¤®à¤¸ à¤µ
ar h
à¤£à¤¨ à¤ĸ
à¤ıà¤ļ à¤ıà¤¸à¤¸
à¤¨à¤Ī à¤®
à¤ħà¤® à¤°à¤ķ
Ġ17 000
ĠM aterials
ĠB ro
à¤¦à¤² à¤ľ
Ġà¤¸à¤¨ à¤Ĺ
Ġà¤¡à¤° à¤¹à¤®
ĠT v
à¤ªà¤¦ à¤¯
ĠG iga
ĠL T
ĠO b
Ġp ict
ig ation
Ġm at
Ġm illion
Ġ75 1
In come
à¤Ĺà¤ķà¤° à¤¨
ri ed
Ġa i
Ġi QOO
95 7
Ġw b
à¥Ń à¥ª
Ġ67 4
Ġ59 2
Ġk umar
if orm
se ek
Ġà¤ıà¤¨à¤ıà¤ļ à¤ıà¤«à¤¡
ĠCh andrayaan
ĠCh ennai
Ġà¥§à¥© à¥¦
IP B
ĠAr t
RO M
Com mon
ĠSp ark
Ġà¤Ĩà¤Īà¤Ĩà¤Ī à¤ıà¤«à¤Ł
org an
Ġà¥§à¥¯à¥ª à¥¯
Ġà¥§à¥¯à¥¬ à¥§
Ġà¥¯à¥ ª
ustral ian
ĠAg reement
ĠGov t
à¯ ģ
leg es
ĠNe o
itor ing
Ġmov ie
rish na
Jag ran
Ġvis it
à¤ķà¤ľà¤¨ à¤¶à¤ķ
Jan hvi
ðĿ Ĺ
yp es
Ġgn ome
B e
R ak
R ev
U AN
V R
d ot
e ffect
f und
j oin
r ight
u acturing
} %
Ġ ics
à¥į :-
à¤¨ à¤¯à¤°
à¤® à¤¡à¤²
Ġà¤ª à¤¬à¤¨
à¤µ à¤ķà¤¤
à¤¦ à¤²à¤¬
Ġà¤µ à¤ĸ
à¤¶ à¤¯à¤²
à¤¬ à¤¨à¤¸
Ġà¤ķà¤° à¤¬
Ġà¤ī à¤ĸà¤°
Ġà¤Ĺ à¤Ĳ
à¤¼ )à¥¤
à¤Ī à¤ıà¤ª
âĢ ı
Ġà¤¶ à¤ķà¤¤
à¤¾à¤Ĥ âĢ¦
à¤ĩ à¤°à¤¨
à¤°à¤ķ à¤¯
à¤ľà¤¨ à¤ĵ
à¤¸à¤° à¤«
à¤ªà¤° à¤Ń
Ġà¤µà¤° à¤¯
à¤²à¤¤ à¤«
à¤¬à¤° à¤«
à¥ģà¤Ĥ à¥¤
Ġà¤¸à¤¬ à¤ĳà¤°
à¤®à¤¤ à¤¤
à¤µà¤¹ à¤Ĳà¤¸
à¤ıà¤® à¤°
à¤Ĩà¤° à¤Ĩà¤°à¤Ł
Ġà¤ħà¤¸ à¤¤à¤¤
à¤®à¤ķ à¤¡
Ġ7 11
Ġ10 24
à¤¨à¤° à¤Ĺ
Ġ8 22
à¤ıà¤« à¤Ĩà¤ĩ
Ġ9 21
Ġ9 14
Ġ9 77
Ġ9 41
à¤Ĭ à¤ķ
er ed
Ġ18 48
à¤¥à¤² à¤®
à¤ıà¤ļ à¤ıà¤ļ
ĠS k
Ġà¤ıà¤¯à¤° à¤ĩ
ĠA ff
ĠA ud
ĠR at
Ġà¤¨à¤Ĺà¤° à¤¸
ĠM A
ĠN HS
ĠN EFT
Ġà¤°à¤£ à¤¥
am ata
ed back
ĠG D
Ġin tr
us band
ot i
à¤ıà¤¸à¤Ī à¤ª
ĠO IS
ĠV C
ĠV ideos
ĠW ALL
Ġf ire
Ġà¤Ĩà¤« à¤¸
Ġb ar
Ġb irthday
ĠX II
Ġh ost
Ġà¤ĸà¤Ł à¤ķà¤¤
ap a
à¤ıà¤¸à¤Ĩà¤Ī à¤ıà¤²
à¤ıà¤¸à¤ıà¤« à¤ľ
IC EF
à¥¬ à¥ª
à¤ıà¤®à¤ĵ à¤ıà¤ļà¤ıà¤«à¤¡à¤¬
Ġ68 00
à¤Ĩà¤Īà¤Ĩà¤Ī à¤ıà¤«à¤¸
oc ket
ff iciency
Ġà¥Ń à¥®
à¥ĭ: -
MS BSHSE
se di
aj pay
ath on
à¤ıà¤«à¤ĵ à¤Ł
ĠCh andra
Ġà¤¤à¤²à¤¬ à¤Ĺ
à¤ĵà¤µà¤° à¤²
Ġdi g
ach ar
à¤¾âĢĿ .
ĠCon f
ug c
Ġà¤ķà¤« à¤°à¤¨à¤¹
à¤Ĩà¤Īà¤ĵ à¤ıà¤¨à¤ıà¤¸
Ġ(% .
à¥¨à¥¦à¥¦ à¥¯
rit sar
à® ķ
En glish
Ġpart y
ĠBh ag
Ġà¤Ŀà¤ªà¤Ł à¤ķà¤°
Ġstud ent
ĠFl ash
fl ow
Sa if
ĠIndust ry
ĠJa itley
Ġcla use
opp ing
clus ive
ĠFac el
ĠMeteor ological
calcul ate
ĠReveal ed
ĠDol by
5 38
8 36
A BC
H I
M etoo
T o
X X
Y es
g old
n ik
n ame
n ight
w eta
Ġà¤ ³
à¤° à¤¨à¤ķ
à¤° weather
Ġà¤ķ à¤¤à¤¨
à¥Ģ à¥ģ
à¤¨ à¤ĺà¤°
à¤¤ à¥ŀ
à¤¯ à¤¯à¤¤
à¤¸ à¤¬à¤¤
à¤® à¤ħà¤ª
à¤¦ à¤¹à¤ķ
à¥ĩà¤Ĥ ..
à¤Ĺ à¤łà¤ķ
Ġà¤ħ à¤ľà¤²
à¤¶ à¤¬à¤°
à¤¶ à¤®à¤¯
à¤¬ à¤®à¤¨
à¤¡ à¤²à¤¬
Ġà¤Ķà¤° à¤¨à¤¹
Ġà¤ı à¤Ĩà¤Īà¤¡
à¤« à¤ľà¤²
à¥Ģà¤Ĥ )à¥¤
Ġà¤ħà¤¨ à¤ĭ
à¤ľà¤¨ à¤§à¤¨
Ġà¤ĺ à¤¨à¤®
Ġà¤īà¤ª à¤ľà¤¤
Ġ20 39
à¤°à¤£ à¤²
à¤²à¤¨ à¤Ł
à¤¹à¤® à¤¯
Ġà¤Ĳ à¤µà¤°
à¤Ĩà¤Ī à¤Īà¤ıà¤¸
Ġà¤īà¤¤ à¤ķ
à¤ĺ à¤ķà¤°
à¤®à¤¤ à¤ķ
à¥ĩ, ...
à¤Ĩà¤° à¤Ĩà¤°à¤Ĩà¤Ī
Ġà¤Ī à¤Īà¤ľ
à¤ªà¤ķ à¤ª
à¤ıà¤ķ à¤ķ
à¤ıà¤¨ à¤Ĩà¤Īà¤Ĩà¤°à¤ıà¤«
Ġ7 67
Ġ7 93
Ġ8 27
Ġ8 32
à¤ıà¤« à¤¯
à¤ıà¤« à¤ıà¤«à¤¸
à¤¨à¤² à¤Ĺ
Ġà¤ıà¤¨ à¤ıà¤ķ
Ġà¤ıà¤¨ à¤Ĩà¤Īà¤Ĩà¤°à¤ıà¤«
19 01
Ġ9 97
Ġ9 61
Ġà¤ıà¤® à¤Ĳ
à¤ħà¤¨ à¤¬
à¥ĭà¥¤ âĢĿ
Ġ18 59
ĠS ign
ĠS urvey
ic raft
ĠB harti
à¤ķà¤® à¤ª
ed a
ed y
Ġà¤ĭà¤£ à¤ªà¤¤
Ġs ur
ct c
ĠE lectron
ol f
ĠK M
Ġ70 1
MP S
ĠIn f
id amb
Ġ75 2
à¤Ĩà¤Īà¤ıà¤® à¤Ĩà¤°
Ġà¤²à¥ľ à¤ķà¤°
à¤ħà¤ľ à¤®à¤²
Ġg old
SE R
à¤Ĩà¤ĩ à¤ıà¤®à¤¡
à¤ķà¤°à¤¨ à¤ľ
Ġ67 9
av es
Ã¯ à¤¤
ĠY our
Ġ69 6
à¤¤à¤¹ à¤²à¤ķ
ĠZ à¤¹
ast ers
Ġr enewable
ud ent
ĠCh hattisgarh
Ġst eel
aw ar
ĠHD MI
Ġac id
à¥Ĥà¤ģ? ""
Ġ08 30
ack age
uk e
ug u
ip al
ock er
eg ative
ount ry
ated ral
ĠAss am
IF S
Ġà¥§à¥¯à¥¬ à¥ª
Ġsh ort
Ġsp ec
ĠLe one
rop y
DC GI
ines e
ĠID BI
mir ror
à¤¸à¤Ī à¤ıà¤¨
ason ic
ĠCl ub
cell ency
ĠDD CA
Ġyear s
Ġeng ine
rac otta
idd le
Sch ool
ĠBa at
At al
You Tube
ĠPe ace
radu ate
ĠGro ver
Ġevel op
à¼ ĭ
ajpay ee
) %
) âĢĻ,
) "",
: :
A BS
G iver
K wik
P OCO
W hat
h ab
h ome
n u
t ext
w ara
Ã Ķ
Ï Į
Ø ®
Ġ ali
à¤ Į
à¤° à¤ĩà¤¸
à¤° à¤ĺà¤°
à¤¤ à¤¸à¤¬
à¤¸ à¤¨à¤®
à¤¹ à¤¶à¤¤
à¤Ĺ à¤Ķà¤°
à¤¶ à¤°à¤ķ
Ġà¤² à¤²à¤Ĺà¤¥à¤¯à¤®
Ġà¤Ķà¤° à¤ĩà¤¸à¤ķ
à¤¼ ]
Ġà¤ĩ à¤¡à¤²
à¤Ń à¤°à¤®
à¤£ à¤¦à¤£
à¥Ģà¤Ĥ \\
Ġà¤« à¤°à¤²
à¤Ĩ à¤·
à¤ĩà¤¸ à¤®à¤²à¤ı
à¤¤à¤° à¤Ĺà¤¤
à¤ĵ à¤¡à¤¬
à¤ħ à¤¬à¤°
à¤¸à¤° à¤¯
à¤®à¤² à¤ľ
à¤°à¤£ à¤¸
à¤°à¤¸ à¤µà¤ª
Ġà¤Ĩà¤° à¤ıà¤¸à¤Īà¤Ł
à¤Łà¤¨ à¤ķ
à¤ĺ à¤Ĺ
à¤µà¤¹ à¤¸
Ġ' .
Ġà¤Ĩà¤Ī à¤ıà¤®à¤ıà¤¸
Ġà¤ħà¤ª à¤°à¤¦à¤¨
à¤¤à¤ķ à¤®
à¤ıà¤¨ à¤¹
Ġ7 44
Ġ7 88
Ġà¤¸à¤®à¤Ŀ à¤¬
à¤ıà¤² à¤Īà¤Ł
Ġ8 39
Ġ8 46
Ġ8 74
Ġà¤¬à¤° à¤«à¤¬
à¤¤à¤® à¤ľ
à¤ĥ )
19 05
Ġà¤ıà¤® à¤ıà¤«à¤Ĩà¤Ī
Ġà¤¸à¤² à¤Ĺ
à¤²à¤µ à¤Ł
er ia
Ġ18 45
ĠS er
ĠS ix
ĠS mith
Ġà¤ıà¤¯à¤° à¤ļ
ĠA kshay
ĠM Hz
ĠB ased
Ġ23 38
ĠH ockey
Ġ60 8
Ġc c
Ġc am
à¤īà¤ª à¤¸à¤Ń
ch emical
Ġ80 3
Ġ80 6
Ġp e
ur thi
ĠW ritten
and al
Ġm ake
à¥Ī- (
Ġ150 7
Ġb ec
à¤ıà¤®à¤Ī à¤ı
em pt
Ġa ff
à¥© à¥Ń
à¥Ĥ. )
ity anath
à¥¬ à¥Ń
à¤ıà¤¸à¤ı à¤ıà¤«
ote ch
Ã¯ à¤ķ
ok a
Ġl ight
à¥Ģà¤ĥ %
à¥Ģà¤ĥ -
56 1
:// ..
Ġà¤ıà¤¨à¤ıà¤ļ à¤¬
ru ction
Ġcon omy
Ġ= %
à¤Ĩà¤°à¤ıà¤² à¤ª
aw a
ax in
ell o
ash ion
EE E
odi sha
ĠCon test
ib re
ĠPre mi
Ġà¤¹à¤ľà¤°à¤¤ à¤¬à¤²
NO R
Ġà¥§à¥¯à¥« à¥Ń
Ġà¥§à¥¯à¥© à¥§
Ġtrans fer
war aj
Ġare a
ĠAdv ani
DG CA
WB JEE
Ġupd ates
alli um
rug s
bab ilities
ĠSpe ech
reprene urs
Minist ry
, )
D ev
E PA
F ord
J MM
K ashmir
L ockdown
R esult
R PSC
S mart
U p
W W
W i
W YS
] à¥¤
b à¤¸
b rid
l ow
m b
r ant
t imes
} )
Ø ¸
ï Ģ
Ġ à¥ĥ
à¤¾ Â·
à¤¤ à¤¸à¤²
à¤² à¤ªà¤ķ
à¤¹ à¤§
Ġà¤¹ à¥ľà¤ª
à¤ª à¤ªà¤°
à¤ª à¤¦à¤°
à¤Ł à¤µà¤ķ
à¤ľ à¤°à¤®
à¤ľ à¤Ĺà¤°
à¤ľ à¥ľ
à¥ĭà¤Ĥ à¤¾
à¥ĭà¤Ĥ à¤¿
à¤ı à¤Ĩà¤°à¤ı
à¤· à¤ľà¤¨
à¤· à¤ªà¤¦
Ġà¤¤ à¥ĺà¤²
Ġà¤ī à¤ķà¤²
Ġà¤ĩ à¥Ľà¤¹
à¤« à¤ª
Ġà¤ĸ à¤ķ
à¤ªà¤¨ à¤¬
à¤ĵ à¤ĸà¤²
à¥Ī. -
Ġ20 47
à¤®à¤¨ à¤¤
Ġà¤ĳ à¤¯à¤¨
Ġà¤ħà¤° à¤«
Ġà¤Ĩà¤Ī à¤µà¤°
Ġ6 97
Ġà¤Ŀ à¥ľ
à¤ıà¤¨ à¤ıà¤Ł
à¤ıà¤¨ à¤Īà¤ıà¤¸
à¤ıà¤¨ à¤ıà¤«à¤¡
à¤ľà¤² à¤®
Ġ8 61
à¤ıà¤« à¤ıà¤¸à¤¸
à¤ķà¤¡ à¤°à¤®
19 16
Ġ9 45
Ġ9 46
à¤µà¤ķ à¤¥
à¤ķà¤Ł à¤ļà¤²à¤®
on ia
ĠâĢĺâĢĺ âĢĺ
à¤Ĭ à¤¨à¤²
an aph
at ives
ĠC ID
ĠC limate
ĠC inema
ĠA bh
à¤£à¤¯ à¤ķà¤°
or al
à¤¿âĢį âĢį
ĠR PM
ĠM U
à¤¸à¤¬ à¤¬
ĠB rit
Ġà¤°à¤£ à¤ķ
Ġà¤°à¤£ à¤¸
à¥ĭ- à¥Ģ
18 85
Ġs y
ĠF our
el t
ĠK o
ĠL oading
Ġp ri
à¤Ĥ. -
ĠV accination
Ġv accine
ad s
à¤ıà¤®à¤ıà¤¸ à¤ķ
Ġ"""" """
à¤Ķ à¤ķ
pp ort
à¤Ĩà¤Īà¤ıà¤¸ à¤¯
Ġh and
ter racotta
Ġà¤Ĩà¤¯à¤ķà¤° à¤¦
à¤ħà¤®à¤° à¤ľ
ak sh
ak kar
ment al
Ġà¤Ĺà¤¡ à¤Ĺ
ers e
à¥® à¥®
à¤ıà¤¸à¤ıà¤² à¤ª
Ġe adu
Ġe very
Ġ69 1
à¦ ¶
ĠZ oom
MS SB
se lect
Ġà¤ıà¤¨à¤ıà¤ļ à¤ıà¤²
sc atter
Ġpro duction
à¤ĭà¤£ à¤¦
MC D
ĠÎ »
ĠØ ´
ous and
net work
à¤®à¤¦à¤° à¤¬
ĠMan ufacturing
ME A
Ġà¥§à¥¯à¥¬ à¥Ń
Ġsp irit
à¥§à¥¯à¥¯à¥ §
Ġà¤ıà¤¸à¤ıà¤® à¤ıà¤ļà¤ıà¤¸
Ġà¤Ĩà¤Īà¤ıà¤² à¤Ĳ
à¤°à¤¨à¤¤ à¤ķ
ĠTR AI
eral ism
ĠMad hya
ĠPort al
Ġmov ement
ĠAut o
irt ual
ilib rium
9 55
B oard
J CET
R DA
S H
S ilver
S QL
a er
d à¤Ľ
d el
m inton
w er
y th
| |
à º
á ŀ
Ġ igh
Ġ amb
à¤° à¤¡à¤¸
à¤¨ à¤ľà¤ķ
à¤¯ à¤¤à¤°
à¤¸ à¤łà¤µ
Ġà¤¹ à¤¸à¤°
à¤¦ à¤¹à¤¨
Ġà¤ľ à¤¸à¤¦
Ġà¤ħ à¤¯à¤¨
Ġà¤¦ à¤ľ
à¤ı à¤ªà¤°
à¤¶ à¤¯à¤¨
Ġà¤² à¤ķà¤°
à¤¬ à¤¨à¤µ
Ġà¤¤ à¥ľà¤ª
Ġà¤ī à¤Ŀ
Ġà¤ī à¤ĩà¤Ĺ
Ġà¤Ń à¤¯à¤®
à¤¼ à¤¼à¥ĩ
à¤Ī à¤¯à¤¤
à¤Ī à¤¨à¤²
Ġà¤ı à¤ıà¤²à¤ª
Ġà¤ĩ à¤¹
à¥Īà¥¤ âĢľ
Ġà¤¶ à¤µà¤¯
à¤ĩ à¤µà¤¨
à¤ĵ à¤ıà¤¸à¤ı
à¤ĵ à¤Ĩà¤Īà¤ıà¤²
à¤°à¤® à¤ĸ
à¤¯à¤¹ à¤®
à¤¯à¤¹ à¤¬
à¤¹à¤® à¤¸à¤«à¤°
Ġà¤Ĩà¤ª à¤ªà¤°
à¤¦à¤¨ à¤ª
à¤Ķà¤° à¤ª
à¤®à¤° à¤¯à¤®
à¤ĩà¤Ł à¤«
à¥Ľ à¤ĸ
19 13
à¤Łà¤® à¤¸
Ġà¤Ĩà¤ı à¤¶
Ġ12 60
à¤¤à¤µ à¤ľ
à¤²à¤µ à¤¶
an o
Ġà¤®à¤° à¤Ĺ
Ġ18 49
Ġ18 46
ĠS elf
ĠP IN
ĠC VC
ĠA way
Ġà¥Ľ à¤ĸ
ĠB C
ĠB road
Ġà¤ľà¤¸ à¤ķà¤°à¤£
ĠG E
ĠG i
ĠD P
re w
ĠH B
Ġc ore
à¤¤à¤ª à¤Łà¤²
ĠE P
as ing
ĠL i
ĠL GBT
ul i
ir y
ĠU r
Ġm oment
à¤ıà¤Ĩà¤Ī à¤ıà¤¸à¤ıà¤«
à¤Ĩà¤Īà¤ı à¤Īà¤ı
ĠJ SA
ĠJ MM
Ġb ow
Ġb ody
Ġb efore
Ġ300 00
à¥ª à¥¨
ag ing
Ġw in
à¤ıà¤®à¤ĵ à¤ı
Ġà¥« à¥®
ma usam
Ġ68 3
à¥ĩ' .
Ġe v
Ġe ase
Ġ78 6
à¦ ľ
Ġâ ī
se x
ang a
AM O
Ġà¤ıà¤Ĩà¤Ī à¤ıà¤«
Ġcon v
old er
Ø§ Ùģ
ah o
ĠCom mit
ord able
ĠSc i
AS H
ations hip
mart ensite
ĠØ Ń
Ġle g
As k
Ġà¤¤à¤°à¤£ à¤¤
ĠAN C
ĠEng agement
yn ch
àª ¾
Ġsch eme
à¥§à¥¯ à¥¦
Hy derabad
ustain ability
Kar an
Ġà¤§à¤¨à¤ķ à¤¡
Ġinc re
aks hi
Ġà¤Īà¤ĵ à¤¡à¤¬
ĠDiv X
Ġà¤Ĩà¤Īà¤ıà¤®à¤Ī à¤Ĩà¤Ī
BR ICS
Na ive
ĠSun il
ĠDire ct
à¥įà¤ĥ âĢĵ
Ġstruct ure
à¤¨à¤ľà¤« à¤Ĺà¤¢
ampl ing
idamb aram
' t
) !
, "
A jay
B ajaj
G DM
I E
O ut
P HOTOS
R ec
S achin
U TC
V IP
b est
b uilding
d ep
f i
h oles
r sm
Ġ ç
à¤¾ à¤¿à¤¾
Ġà¤ķ à¤ªà¤°
à¤¿ ',
à¤¨ à¤¶à¤¨
à¤¤ à¤Ĺà¤¢
à¤¸ à¤¶à¤°
à¤² à¤µà¤¸
à¤ª à¤¥à¤¨
Ġà¤ľ à¤°à¤µ
Ġà¤ħ à¤¯à¤®
Ġà¤ħ à¤ľà¤¸
à¤¶ à¤¸à¤¨
Ġà¤° à¤¸à¤¤
Ġà¤ī à¤µ
Ġà¤Ĺ à¤¨à¤¤
à¤Ī à¤ıà¤¨à¤ıà¤¸
Ġà¤ªà¤° à¤¯
à¤¥ à¤¨à¤ķ
Ġà¤¥ à¤¡
Ġà¤¸à¤® à¤¹
Ġà¤ħà¤ªà¤¨ à¤¤
à¤µà¤° à¤°
à¤Ĺà¤° à¤Ĺà¤¢
à¤¬à¤° à¤Ĺ
à¤ıà¤¸ à¤ıà¤®à¤ª
Ġà¤Ĳ à¤¹
à¤ĺ à¤®à¤¶
à¤µà¤¹ à¤ķ
à¤¨à¤¤ à¤¨
à¤ıà¤® à¤ıà¤®à¤ı
à¤ıà¤® à¤ıà¤®à¤ıà¤²
à¤§à¤¨ à¤¸
à¥ľ à¤Ń
Ġà¤¸à¤° à¤Ń
Ġà¤Ĩà¤Ī à¤Ĺ
Ġà¤¬à¤² à¤¸
Ġà¤Ĩà¤Ĺ à¤¬à¤¬
à¤Łà¤² à¤ķ
Ġà¤ıà¤¸ à¤ıà¤ľ
Ġ7 16
Ġ7 24
Ġ7 92
Ġ8 38
Ġ8 66
à¤ıà¤« à¤Ĩà¤Īà¤¸
Ġà¤ıà¤¨ à¤Ĩà¤Īà¤ıà¤¸
""" ,
19 11
Ġà¤®à¤¤ à¤§
Ġà¤ħà¤Ĺ à¤¨
Ġà¤ľà¤Ĺ à¤¸
ar my
à¥Ģà¤Ĥ, "
Ġ18 18
Ġ18 38
Ġ18 63
Ġà¤§à¤¨ à¤ľ
Ġ0 22
à¤ªà¤² à¤®
à¤µà¤¯ à¤¨à¤ķ
Ġà¤ıà¤« à¤µ
ĠM TV
Ġà¤¬à¥ľ à¤µ
Ġà¤¸à¤¦ à¤¯à¤¤
st one
st rain
ro le
am bo
ĠG NOME
ĠH ub
ĠH EAD
ĠF est
Ġ60 4
Ġc ut
Ġc urve
ĠE k
ot ment
il pa
Ġp ublic
Ġà¤¹à¤¡ à¤¡
ĠV ik
Ġ75 6
Ġo ther
à¤²à¤¡ à¥ĺ
à¤Ĩà¤Īà¤ı à¤ıà¤¨
Ġn be
Ġf iles
os it
Ġà¤¬à¤ķ à¤¬à¤ķ
Ġb ps
ĠX V
ut a
In stitute
Ġa v
Ġa ward
Ġg e
SE C
Ġi st
Ġw atch
à¤ıà¤®à¤ĵ à¤Īà¤ıà¤«
à¤ıà¤®à¤ı à¤Ī
Ġl ab
à¥¯à¥ ª
Ġk eral
Ġà¥§à¥« à¥¦à¥¦
se e
ik k
Ġst ation
à¤ĵà¤µà¤° à¤¡
UP MSP
ah oo
ust ering
Ġj unction
orm s
Ġpro test
Ind ependence
uk la
ĠCon vention
able d
ÙĦ Ùĩ
ÂłÂłÂłÂł ÂłÂłÂł
à¥ĢâĢ¦ .
rad dha
Com plement
à¤Ĩà¤Īà¤ĵ à¤Ĩà¤°à¤ı
à¤ħà¤ķà¤¬à¤° à¤ª
ver age
Ġà¥§à¥¯à¥ª à¥ª
esign s
Ġme et
Ġà¥§à¥¯à¥« à¥§
Ġà¥§à¥¯à¥© à¥Ń
Ġres istance
Ð° Ð½
ĠServ er
âĢĭâĢĭ -
Sc reen
ĠURL s
vers ity
Ġà¤«à¥ľ à¤£à¤µ
ĠDev gn
pol y
Ġà¤Ĺà¤ľà¤¨ à¤µ
ĠIndust ries
ĠDef ence
ĠPand ya
ĠFA STag
rate gy
ĠAmit abh
ĠWeek end
expos ure
-à¥¤à¥¤ ,
Ġox ide
Ġcis ce
ĠFacel ift
Ġevelop ment
Ġeadu arters
+ )
. :
7 000
: """
A ut
D EC
E con
L ine
P ublic
S al
T ax
Z en
b ol
b harat
c or
f urniture
h er
l ar
l ocal
t or
v t
w ind
x ford
Å £
Ë Į
Ġ alloy
à¤Ĥ |
à¥ĭ âĢĻ,
à¤¯ à¤¸à¤ķ
à¤¯ à¤¬à¤¦
à¤² à¤®à¤²
à¤² à¥Ľ
Ġà¤¸ à¥Ļ
à¤µ à¤ĸ
à¤Ĺ à¤¬à¤°
Ġà¤¨ à¤¨à¤°
à¤Ł à¤ªà¤¤
Ġà¤ľ à¤¸à¤ķ
à¥ĭà¤Ĥ à¥į
à¤ļ à¤Łà¤¨
Ġà¤Ķà¤° à¤¶
à¤· à¤ļà¤¨
Ġà¤ı à¤¤à¤ķ
Ġà¤ĩ à¤°à¤®
à¤ĸ à¤¹
à¤ĸ à¤¸à¤°
à¤ĩ à¤©
à¤°à¤ķ à¤£
à¤ĩà¤¸ à¤¦
à¤Ľ à¤łà¤µ
à¤ĵ à¤µà¤¨
à¥Ģà¥¤ -
à¤¸à¤° à¤¹
à¤¯à¤® à¤ª
à¤¯à¤® à¤£
à¤ĺ à¤µà¤ľ
Ġà¤¸à¤¹ à¤ķà¤²
à¤¨à¤ķ à¤¤
à¤®à¤¨ à¤¶
à¤µà¤¹ à¤¦
à¤¨à¤¤ à¤ķ
Ġà¤ĳ à¤²à¤®
à¤¦à¤¨ à¤¨
à¤Ķà¤° à¤¨
à¤Ĩà¤° à¤Ĩà¤ĩ
à¤Ĩà¤° à¤ıà¤¨à¤ı
à¤Łà¤² à¤¸
Ġà¤¬à¤¦ à¤¶
à¤Łà¤ķ à¤Łà¤ķ
à¤¯à¤¦ à¤¦
à¤¤à¤® à¤Īà¤¨
19 04
à¤ķà¤¨ à¤ª
Ġ9 15
Ġ9 27
Ġà¤ıà¤® à¤ĵà¤ıà¤¸
on a
Ġà¤Ĩà¤® à¤¸à¤¹à¤®à¤¤
al ore
à¤¼à¥ĭ !
Ġà¤ıà¤² à¤ļ
Ġ18 36
à¤ıà¤ļ à¤ıà¤¸à¤Ł
à¤ıà¤ļ à¤ıà¤¸à¤¡
ĠS im
ĠS IM
ĠS SP
à¤ľà¤¦ à¤£
ĠC y
ĠC AR
ĠC risis
ĠR GB
ĠR az
Ġ17 30
Ġà¤¨à¤Ĺà¤° à¤ªà¤°
ic it
Ġà¤ĭ à¤¸à¤ķ
Ġà¤Ĺà¤²à¤¤ à¤¬à¤¯
ĠM ount
Ġà¤ıà¤ļ à¤ıà¤¸à¤µ
ĠT im
ĠD A
ĠD ig
ĠD im
ĠD ance
Ġà¤ħà¤¡ à¤¡
à¥Ļ à¤¸
ĠF ood
ĠF unt
Ġin to
ol y
as y
ĠL on
à¥ļ à¤¤
Ġp ract
Ġ90 5
Ġ90 8
ia go
Ġo w
Ġo il
Ġf amily
Ġd et
Ġd eal
à¤¾! ""
ala iv
li fe
art ik
hi b
Ġ66 1
Ġ68 6
Ġà¤Ńà¤°à¤¤ à¤¸
Ġl ic
oc on
à¤Ĩà¤°à¤ı à¤ıà¤¨
ĠÂ ©
iss ing
à¤Ĩà¤°à¤ıà¤² à¤ıà¤¸à¤ª
UP A
Ġpro gram
TE R
per ty
ĠUn ve
ĠOff icial
Ġà¤²à¤ĸ à¤¨à¤µ
ND TV
à¤ıà¤Ĺà¤ı à¤¥
ĠSp otted
à¤ıà¤¨à¤ıà¤« à¤ıà¤Ĩà¤Ī
RS MSSB
Ġà¤Ĩà¤Īà¤Ĩà¤Ī à¤ıà¤«à¤¸
rom agnetic
vi à¤ķ
ert ific
Ġà¥¯à¥ ®
ĠInd ependence
ĠMinist ers
inter face
ÙĬ Ø±
Un iversity
ran ch
val idation
Sp ot
à¤Ĩà¤°à¤ıà¤¨ à¤Ĩà¤°à¤ıà¤²
Ġrec ruitment
Ġsub ject
Ġstat ement
ĠChar tered
ĠNov a
osph eric
PRODUCT NAME
Ġproduct s
Ma hatma
NI OS
Ġiss ue
Uttar akhand
Tr ump
ĠOxygen OS
ĠBid en
Mir zapur
sid y
Obs ervation
WYS WYG
ĠFunt ouch
) ?
, âĢĻ
B ang
C itizenship
D abangg
E Y
G D
K i
K olkata
N CC
N irm
U B
U s
W G
b us
f ire
g ame
g anj
h ed
n agar
z ation
á ¸
Ġ ÙĨ
Ġà¤ķ à¤¦à¤²
à¤¿ âĢĶ
à¤¨ à¤ıà¤ķ
à¤¨ à¤²à¤ķ
à¤¤ à¤®à¤¤
à¤¸ à¤Ķà¤°
à¤² à¤°à¤ķ
à¤Ĺ à¤¸à¤¨
à¤Ł à¤¬à¤²
Ġà¤¦ à¤°à¤¦à¤°
à¤ı à¤Łà¤ķ
à¤ı à¤Ĳà¤¸
à¤ı à¤ĵà¤¸
à¤¡ à¤ªà¤°
à¤ļ à¤§
à¤· à¤¤à¤ķ
Ġà¤ī à¤¯
Ġà¤Ń à¤ł
Ġà¤ı à¤ªà¤¨
à¤Ń à¤ķà¤°à¤£
à¤« à¤£
à¤« à¤°à¤¨
à¥Ģà¤Ĥ ),
Ġà¤ıà¤ķ à¤Łà¤ķ
Ġà¤°à¤¹ à¤¬
à¤°à¤ķ à¤¥à¤¨
à¤¾, """"
Ġà¤ħà¤¨ à¤ĩ
à¤ł à¤¤à¤°
à¤¤à¤° à¤°à¤¤
à¤µà¤° à¤µà¤°
à¤īà¤¨ à¤µ
Ġà¥¤ à¥¤
à¤®à¤² à¤¨
Ġ20 49
à¤Ŀ à¤ª
à¤¯à¤¹ à¤¨
à¤ªà¤¤ à¤®
à¤ıà¤¸ à¤ıà¤¨à¤ľ
Ġà¤ħà¤² à¤ķà¤¸
Ġà¤ħà¤² à¤¬à¤®
Ġà¤¸à¤¬ à¤Ł
à¤¾. -
à¤¾. ''
à¤ļà¤¨ à¤ª
Ġà¥ ł
Ġà¤¤à¤°à¤¹ à¤ķ
à¥ľ à¤¯
à¥Īà¤Ĥ. ...
Ġ' """
à¤Ķà¤° à¤īà¤¸à¤ķ
Ġà¤Ĩà¤Ī à¤ıà¤®à¤ľ
Ġà¤Ĩà¤Ī à¤ĵà¤Ĩà¤°
Ġà¤®à¤¨ à¤¬
Ġà¤ħà¤ª à¤°à¤®
à¥ĩà¤Ĥ, -
à¤ıà¤¨ à¤Ĩà¤Īà¤Ĩà¤Ī
Ġ7 28
Ġ7 29
Ġ8 23
Ġ8 92
Ġ8 71
à¤¨à¤µ à¤Ń
à¤²à¤ķ à¤ķ
à¤ıà¤« à¤ıà¤ı
à¥Ľ à¤ķà¤°
19 17
Ġ9 26
Ġ9 62
Ġà¤ıà¤® à¤Īà¤¸
à¤īà¤¸ à¤¬
er ation
Ġ18 20
Ġ18 05
ĠS et
Ġà¤°à¤µ à¤ľ
ĠP ension
à¤ħà¤® à¤¦à¤¨
ĠC T
ĠC a
ĠI ss
ĠI mp
ĠM useum
Ġ, '
ĠN at
st art
Ġà¤Ĩà¤¦à¤® à¤ĸ
ĠT har
ĠT rib
ĠT elangana
ed arnath
ĠG am
ĠG ad
re port
ĠH ike
ĠH ospital
ra cle
à¤ıà¤¸à¤ıà¤¸ à¤Ĩà¤Ī
à¤ıà¤¸à¤ıà¤¸ à¤ıà¤¸à¤¬
as ia
et itive
ch a
Ġà¤Īà¤¶ à¤¤à¤¨
ul ate
Ġp ump
iv ation
Ġm ode
à¥Ī- --
à¤ıà¤¨à¤ıà¤¸ à¤ıà¤®
à¤ıà¤Ĩà¤Ī à¤Ĩà¤Īà¤ı
à¤Ĩà¤Īà¤ı à¤ıà¤®à¤ıà¤Ĩà¤Ī
ĠJ IO
Ġn ode
Ġf light
ĠPro fess
Ġd ownload
Ġ55 9
Ġh ub
Ġà¤²à¥ľ à¤ĸà¥ľ
à¥© à¥ª
à¤ķà¤ķ à¤¯
à¤§à¤ķà¤° à¤¨
Ġ58 9
op y
ma in
100 00
ĠY am
Ġl ocal
Ġà¤īà¤Ľ à¤²à¤¨
à¤ıà¤«à¤Ĩà¤Ī à¤ıà¤«
Ġ76 1
ain ting
à¥įà¤¾ à¥Ģ
aj a
ĠPr ivate
Ġst ory
Ġ98 10
ss sc
à¤Īà¤ıà¤² à¤ıà¤¸à¤ıà¤¸
Ġà¤ıà¤µà¤° à¤Ĺ
Ġà¤Ńà¤£ à¤¡
ĠIM AP
Ġqu al
Ġà¤īà¤¥à¤² à¤ª
eg a
ĠIP X
Ġà¤Ĺà¥Ŀ à¤µ
Ar rest
Ġà¥§à¥¯à¥ª à¥¬
Ġà¤¹à¥Ľ à¤°à¤¤
Ġà¤¸à¤°à¤Ĺ à¤°à¤¦
Ġorg an
anj an
Ġà¥¯à¥ ¬
Ġme eting
ĠAct ive
Ġà¥§à¥¯à¥¨ à¥¦
Ġacc eler
par ency
cept or
Ġserv ices
ĠNT SC
ĠFr ance
ĠEnter tainment
ipl ine
ilit ary
ĠSanj ay
sep tic
ĠLam bert
% %
4 1600
B ho
C UP
G R
H RC
H AR
L L
N ag
P s
P DF
R enault
S o
T RS
T echnology
X I
b ration
e ed
e ast
g g
p ura
t an
u ation
Ù ı
á ¹
Ġ amp
à¥ĩ à¤ģ,
Ġà¤ķ à¤¶à¤¤
à¤Ĥ """"
à¤¨ à¤µà¤²à¤°
à¤¤ à¤Łà¤µà¤°
à¤¯ à¤ªà¤¨
à¤¯ à¤¸à¤ª
à¤¸ à¤ķà¤°à¤£
à¤¹ à¤°à¤ķà¤¤
Ġà¤® à¥ĺà¤¤
Ġà¤® à¥ĺà¤¦
Ġà¤® à¥Ļà¤¸
à¤µ à¤¹à¤®
à¤µ à¤¦à¤¨
à¤¦ à¤¯à¤¨
à¤¦ à¤Ĩà¤²
à¤ª à¤ªà¤¨
Ġà¤¨ à¥ĺ
à¤Ł à¤¸à¤°
Ġà¤° à¥ļ
à¤§ à¤µà¤²
à¤ļ à¤µà¤Ł
à¤· à¤µà¤¦
Ġà¤¤ à¤¸à¤°
Ġà¤¤ à¤ľà¤²
Ġà¤¤ à¥ļ
Ġà¤Ĺ à¤¨à¤®
Ġà¤Ĺ à¥Ľà¤¬
Ġà¤Ĩ à¥Ł
à¤Ī à¤Ĩà¤Ĺ
à¤Ī à¤Ĩà¤°à¤ıà¤«
Ġà¤ªà¤° à¤¬à¤¤
à¥Īà¤Ĥ /
Ġà¤ı à¥ĺà¤°
Ġà¤ı à¤¹à¥ĺ
à¥Īà¥¤ ]
à¤ĩ à¤²à¤ķ
Ġ( """"
à¤Ĩ à¤īà¤Łà¤°
à¥ī à¤ģ,
à¤Ľ à¥ľà¤¨
à¤ħ à¤¸à¤¨
à¤¼à¤¾ ."
à¤°à¤® à¤°à¤¹
Ġ20 43
à¤Ŀ à¤Ĺà¥ľ
à¤²à¤¨ à¤Ĺ
Ġà¤Ĩà¤° à¤ĵà¤¸
à¤ıà¤® à¤Ĩà¤°à¤Ł
Ġà¤ĵ à¤Ĩà¤°à¤µ
à¤¼à¥ĩ âĢĻ
Ġà¤ħà¤µ à¥ĺ
à¤Ķà¤° à¤®
Ġà¤¸à¤° à¥ļ
à¤¸à¤¦ à¥ĺ
à¤®à¤° à¤ķà¤°
Ġà¤Ĩà¤Ī à¤ıà¤®à¤ĵ
Ġà¤Ī à¤¶à¤°
Ġ"" -"
à¤°à¤¯ à¤¦
Ġà¤ªà¤¡ à¤Ĺ
à¤ıà¤² à¤ķ
Ġà¤ħà¤¤ à¤²à¤¸
à¤¯à¤¦ à¤ķ
Ġà¤ĺà¤° à¤ĺà¤°
Ġ8 68
Ġà¤¬à¤° à¥ĺà¤°
à¤ıà¤« à¤µ
à¥Ľ à¤ħà¤²
Ġà¤ıà¤¨ à¤ıà¤Ł
Ġà¤ıà¤¨ à¤ıà¤ļà¤¡
Ġà¤ıà¤¨ à¤ıà¤¸à¤ķ
Ġ9 55
Ġ12 99
Ġà¤ıà¤® à¤ıà¤¨à¤ª
in à¤Ķà¤°
à¤īà¤¸ à¤¹
Ġà¤¬à¤¸ à¤ľ
Ġ11 40
er r
ar ter
Ġà¥Ļ à¤µ
Ġà¤µà¤¸ à¤ħà¤¤
Ġ18 10
Ġ18 27
Ġ18 33
Ġ16 40
Ġà¤¦à¤¸ à¤¤à¤°à¤¸
ĠC ell
ĠA PP
ĠR afale
à¤·à¤® à¤£
Ġ17 73
Ġà¤µà¤¨ à¤Ń
Ġà¤ĭ à¤®
Ġà¤ĭ à¤¸à¤®
ĠM os
ĠB um
ĠB asic
Ġà¤ıà¤ļ à¤Ĩà¤Īà¤ıà¤²
ro st
à¥ĩà¤Ĥ) :
à¤ľà¤¤ à¤®à¤¨
Ġà¥ĺ à¤°à¤®
Ġà¥ĺ à¤¸à¤¦
Ġà¥ĺ à¤¦à¤°à¤¦
ĠD S
à¥Ļ à¤¤à¤²
Ġà¤ĵà¤µà¤° à¤µ
ĠF un
ĠF ab
à¤ıà¤¸à¤ıà¤¸ à¤Ī
ĠE r
ĠK CR
Ġ70 9
ch ann
ĠL OC
Ġ80 1
ĠO reo
Ġp rices
Ġp sych
à¤ıà¤®à¤ıà¤¸ à¤ľ
ig il
Ġt v
Ġm ax
Ġà¥ŀ à¥ĺà¤¤
Ġn a
à¤¸à¤®à¤¯ à¤¬à¤¦
Ġb enefits
Ġd op
ab a
Ġà¥ļ à¥ŀà¤²à¤¤
ala k
II à¤ķ
à¥© à¥¯
à¤ıà¤®à¤ĵ à¤ıà¤ļà¤¯
op ular
à¤ıà¤¨à¤ıà¤² à¤ıà¤®
Ġ85 1
ive k
à¤¤à¤¹ à¥ĺ
Ġ77 1
Ġ77 9
ĠSt adium
ub lish
Ġr ight
Ġà¥Ń à¥§
all eng
ary an
ly ing
ash t
ile d
Ġà¤¬à¤Ĺà¤² à¤ķ
Ġex ams
eg ree
Ġà¤ıà¤¤ à¥ĺ
Ġà¥§à¥¯à¥ª à¥©
nov ate
à° °
Ġà¥§à¥¯à¥« à¥«
à¥Īà¥¤- "
Ġà¥§à¥¯à¥© à¥®
ÙĪ ÙĦ
Ġapp lication
Ġà¤į à¤§
à¤ªà¥Ŀ à¤¨
à¥§à¥¯à¥¯à¥ «
ĠØ§ÙĦ Ùħ
à¥§à¥¯à¥Ń à¥¯
Ġupsc online
Ġà¤Łà¤ªà¤ķ à¤¨
ĠBang alore
ĠGu id
fl ict
erc ise
aff airs
Ġà¤¬à¥Ļ à¤¶à¤¨
ĠStat ue
Ġà¤Ĩà¤Īà¤ĵ à¤Ĩà¤°à¤ı
Ġann ounced
ffer ent
indian army
Ġwar fare
Ġob ject
Ġdia gram
Ġmess age
Av engers
ĠRh D
Ġà¤Ķà¤· à¤§à¤ķ
Ġà¤Į à¤¨
Ġà¤ħà¤ľà¤¦ à¤¹
sedi ments
41600 3
Ġà¤°à¥ļ à¤¬à¤¤
Ġà¤¤à¥ļ à¤¯
! )
A J
D ig
E SS
F CC
F ile
L ong
M NS
N am
N issan
R el
S AT
S IM
V OOC
b ler
c ial
e en
f light
h om
h ood
h tml
j w
m en
n y
s an
Î ³
Ù Ģ
à¤° à¤ĩà¤°
Ġà¤ķ à¤¸à¤ķ
à¤¿ ï
à¤® à¤¯à¤®
à¤¹ à¥Ľ
à¤¹ à¤°à¤®à¤¨
Ġà¤¹ à¤ķà¤²
à¤µ à¤Łà¤¨
à¤¦ à¤ķà¤°à¤£
à¤¦ à¤ķà¤°à¤¨
à¤Ł à¤£à¤®
Ġà¤¬ à¤²à¤¤
à¥ĭà¤Ĥ \\
Ġà¤ħ à¤¬à¤²
à¤¬ à¤ķà¤¨
à¤¥ à¤Ī
Ġà¤ı à¤¬à¤²
Ġà¤ĩ à¤°à¤¨
à¤£ à¤¯à¤®
Ġà¤ĸ à¤¸à¤ĸà¤¸
à¤¾, ?
Ġà¤¯à¤¹ à¤®à¤¤
Ġà¤Ĩà¤ª à¤µ
Ġà¤Ĩà¤° à¤ıà¤®à¤ıà¤¸
à¤Łà¤¨ à¤²
à¤Ĩà¤Ī à¤ıà¤ļà¤ıà¤¸
à¤¼à¥Ģ !
Ġà¤ķà¤® à¤¹
à¤°à¤µ à¤¯
à¤¼à¥ĩ '
à¥Ĥà¤Ĥ '.
Ġà¤īà¤¦ à¤Ń
Ġà¤ħà¤° à¤¬à¤¨
Ġà¤Ĩà¤Ī à¤Īà¤ıà¤«
à¤Ĺà¤² à¤ĸ
à¤ķà¤¤ à¤Ī
Ġ"" .
à¤ķà¤°à¤£ à¤µ
à¤°à¤¯ à¤¸
Ġà¤ıà¤¸ à¤ıà¤¸à¤Ĩà¤Ī
à¥ĭ, âĢĵ
à¤ľà¤² à¤Ńà¤°
Ġ8 85
à¤²à¤ķ à¤£
à¥ĩà¤Ĥà¥¤ '
Ġ9 13
Ġ9 37
Ġà¤¸à¤« à¤¦à¤°à¤Ĺ
à¤Ńà¤µ à¤µ
ar io
à¤Ĺà¤® à¤ķà¤°
es tern
ĠP V
ĠC ool
Ġ0 800
Ġà¤ªà¤Ł à¤Ł
ĠI Q
ic o
Ġà¤ıà¤« à¤ıà¤¸à¤ı
ĠM uk
ĠM icro
ĠB D
ĠB OLD
à¤ħà¤ª à¤¹
Ġ21 60
Ġà¤ıà¤ļ à¤ıà¤ļ
Ġ22 50
Ġs elf
Ġs ummit
om ato
ĠH ans
ĠH appy
ĠF lip
Ġc all
Ġc ases
à¤¡à¤ķà¤° à¤µ
un av
as ha
ĠK now
ĠL ake
ul let
Ġp ositive
iv ative
Ġv iral
à¤ĭ à¤ľ
Ġà¤Ŀà¤Łà¤ķ à¤¨
Ġt er
Ġt ra
Ġt ri
Ġ90 2
à¤īà¤² à¤Ŀ
Ġn odes
Ġf ac
Ġb jp
Ġà¤ĩà¤¶ à¤«
Ġh oles
à¥ĭà¤Ĥà¥¤ """
Ġà¤ĸà¤Ł à¤®à¤²
up ta
à¤ıà¤¸à¤Ĩà¤Ī à¤Ĩà¤Ī
Ġ56 767
à¤ıà¤®à¤ĵ à¤¡
à¤Ĩà¤°à¤Ĩà¤Ī à¤ıà¤«
Ġà¥« à¥¯
à¤Ĩà¤ĩ à¤Ĩà¤ĩ
à¤¨à¤Ĺ à¥Ŀ
Ġth rough
à¤¹à¤Ĺ à¥Ŀ
Ġà¥¬ à¥¯
Ġà¤ļà¤Ł à¤ĸ
à¦ ¹
Ġ77 3
Ġk de
ĠSt udents
Ġthe ir
ric ts
Ġà¤¬à¤ķà¤° à¤µ
Ġà¤Ĩà¤ĩ à¤ıà¤¸à¤¡
ĠEx plor
ĠEn t
pr ed
Ġj harkhand
AI T
pl os
US B
gr amm
ĠUS D
]] )
SBI E
line ar
ib e
ĠØ ®
Ġà¤®à¤ĸ à¤®à¤²
Ġle t
ĠMP V
ĠMP EG
ann a
org anic
Ġà¥§à¥¯à¥Ń à¥¨
Ġà¥§à¥¯à¥« à¥¬
Ġà¥§à¥¯à¥« à¥¯
RR R
urn s
ĠKh and
ĠCN N
Con f
Ġph otos
ĠIs lam
Ġà¤¶à¤Łà¤² à¤ķ
ĠShah id
Ġshar ma
ĠPost er
ĠFin ancial
yl lab
NP CI
ĠGT K
hel p
rim inal
Se lection
pat tern
Ġmed ical
Class ification
Press Release
ĠChat urthi
did ates
process es
Int ex
Ġhp bose
ĠFlu id
ĠWarri ors
ĠPras ad
Ġiim cat
seek er
Ġics i
ambo o
ertific ate
8 97
A cc
A QI
B HIM
F B
F DI
K aj
M ed
M ob
N V
N Y
O NO
P DP
c à¤°
d f
d ra
d ers
p H
t ech
u ff
Ð ³
à¥ĩ +
Ġà¤ķ à¤«à¤¨
à¤Ĥ )à¥¤
à¤¨ à¤°à¤¶
à¤® à¤ªà¤Ł
à¤¹ à¤ķà¤²
à¤µ à¤ł
à¤¦ à¤ªà¤°
à¤Ł à¤²à¤¬
Ġà¤¬ à¤¥
Ġà¤ħ à¤ľà¤Ĺ
Ġà¤¦ à¤ª
à¤ı à¤ıà¤«à¤Ł
à¤ı à¤¡à¤²à¤µ
Ġà¤° à¤ķà¤¸
à¤ļ à¤¯à¤ķ
Ġà¤ı à¥ľ
à¥Īà¥¤ âĢĺ
à¤Ń à¤Ńà¤ķ
à¤ĸ à¤Ńà¤°
à¤£ à¤¤à¤®
à¤« à¤²à¤¨
à¤ĩ à¤¡à¤®
à¤ĩ à¥Ľà¤°
Ġà¤ĩà¤¸ à¤Ńà¤²à¤ı
Ġà¤ķà¤¹ à¤ķ
à¤¾à¥¤ .
à¤ķà¤° à¤ķà¤Ł
Ġà¤īà¤¨ à¤¨
Ġà¤ħà¤¨ à¤¯
à¤¯à¤° à¤¸à¤¨
à¤ªà¤° à¤ĵà¤µà¤°
Ġà¤Ľ à¤Ľà¤°
à¤¯à¤¹ à¤µ
à¤¬à¤° à¤ľ
à¤ıà¤¸ à¤ıà¤¨à¤¬
Ġà¤¸à¤¬ à¤¡
à¤ľà¤° à¤ª
à¤ıà¤Ĺ à¤ıà¤µ
à¤¸à¤² à¤ª
Ġà¤ĵ à¤ļ
à¤ĩà¤¨ à¤Ł
à¥ľ à¤¸à¤µ
Ġà¤īà¤¦ à¤Ńà¤µ
à¤¯à¤² à¤ª
Ġà¤¬à¤² à¤µà¤¤
à¥Ģ. âĢĻâĢĻ
à¤¬à¤² à¤ľ
à¥ĩ. ,
Ġà¤ıà¤¸ à¤ıà¤«à¤¸
Ġà¤ıà¤¸ à¤ıà¤²à¤¸
Ġ7 62
Ġ8 999
Ġ8 41
Ġ8 94
à¤ıà¤« à¤Ĩà¤°à¤¬
""" -
Ġ9 44
à¤ªà¤¸ à¤¹
à¤¸à¤ª à¤°à¤ķ
on ic
Ġ15 60
à¤ħà¤¨ à¤«
à¤¨à¤Ī à¤¦
ĠS ant
à¤¯à¤¸ à¤°à¤ķ
ĠP HP
ĠP uja
Ġà¤ıà¤¯à¤° à¤¹
ĠR D
Ġà¤®à¤² à¤ĸ
ĠM em
ĠM od
ĠM IT
ĠM NS
ĠM CLR
ĠB Ed
ĠB ridge
ĠB STC
Ġà¤¹à¤² à¤¦à¤°
ĠN M
Ġà¤¸à¤¨ à¤¡
Ġà¤ıà¤ļ à¤ıà¤²à¤ı
à¤ĩà¤® à¤Ĩà¤īà¤Ł
ĠT EE
ĠT alent
18 80
18 82
Ġs ide
ĠG en
Ġc irc
un a
un ci
ĠK atrina
ĠL al
ĠL LC
à¤ıà¤¸à¤Ī à¤ı
MP LB
ĠO cta
il k
Ġà¤ªà¤¨ à¤Ĺ
ĠV aar
à¤ıà¤®à¤ıà¤¸ à¤ıà¤²
Ġt emple
à¤¤à¤ķà¤° à¤¦
Ġ) .
ĠJ oint
ĠJ ournal
Ġn ext
à¤²à¤Ŀ à¤¤
Ġ65 8
In s
ag on
ow der
av er
Ġ57 3
ep s
Ġ68 2
Ġth ousand
Ġ95 3
à¦ ª
qu ence
à¤ıà¤«à¤Ĩà¤Ī à¤ľ
à¤Ļ à¤¨
Ġre action
Ġst ore
Ġà¥§à¥§ à¥¦
Ø§ Øª
pl ate
pl ug
CP U
iz za
à¤ķà¤ł à¤ª
à¤¾âĢĻâĢĻ à¥¤
ivers al
lic ations
Ġà¥§à¥¯à¥Ń à¥®
à® °
Ġch ild
Ġà¥§à¥¯à¥¬ à¥¨
Ġà¥§à¥¯à¥¬ à¥®
Ġme thod
Sh ort
Ġtrans formation
Ġun ic
craft sp
ĠÏ Ĩ
NIA C
Ø³ ÙĦ
ĠPat na
Ph otos
à¤¸à¤ıà¤² à¤Ĩà¤°à¤Ĩà¤Ī
ĠPO K
ĠMo on
ĠVer ma
For bes
ĠRT GS
âĹ ĭ
A xis
D IS
G ionee
G eorge
K hel
K Char
L OG
M ax
M ake
N EFT
Q ual
R ef
W I
b at
b ond
c ure
c oh
f s
g or
i Kwik
l s
n t
s elf
t wo
v anced
w at
Î ¬
Ï ħ
Ġ old
Ġà¤ ©
à¤° à¤ıà¤µà¤°
à¤¨ à¤§à¤°
à¤¯ à¤ħ
à¤² à¤ļà¤ķ
Ġà¤¸ à¤°à¤µà¤£
à¤® à¤°à¤µ
à¤¹ à¥ľà¤¤
Ġà¤¹ à¤ª
à¤µ à¤²à¤¤
à¤µ à¤¯à¤µ
à¤µ à¤Ľà¤¤
à¤Ĺ à¤ªà¤°
à¤Ĺ à¤Īà¤ķ
Ġà¤¬ à¥Ľ
Ġà¤¦ à¤§
à¤ı à¤¥à¤¨
à¤ı à¤īà¤¸
Ġà¤² à¤µà¤ķ
à¤¬ à¤¯à¤°
à¤¡ à¤ĸ
à¤¡ à¤ıà¤«à¤¡à¤¬
à¤ļ à¤Łà¤Ĺ
Ġà¤Ĺ à¤§à¤°
Ġà¤Ĩ à¤¬à¤¨
Ġà¤Ĩ à¤¥à¤°
Ġà¤Ń à¤°à¤ķ
à¤Ī à¤ħ
à¤Ī à¤ıà¤¸à¤¡
Ġà¤ı à¤ĵà¤¸
Ġà¤ı à¤ıà¤®à¤ª
à¤Ń à¤°à¤¨
âĢį à¥Ģ
à¤ªà¤¨ à¤¨
à¤ªà¤¨ à¤¸
à¤Ĩ à¤µà¤°à¤£
à¤Ĩ à¤¶à¤¯
à¤ĩà¤¸ à¤§
Ġà¤¯à¤¹ à¤ª
à¤ł à¤¹à¤°à¤¨
Ġà¤ħà¤§ à¤¨
à¤ħ à¤ªà¤¤
à¤°à¤¦ à¤¶à¤°
à¥Ī. ....
à¤ªà¤¤ à¤¨à¤®
à¤¹à¤® à¤ĩà¤¸
Ġà¤Ĩà¤° à¤ıà¤ļ
Ġà¤Ĩà¤° à¤ıà¤«à¤¡
à¤²à¤¤ à¤ª
à¤Ĩà¤Ī à¤ıà¤ļà¤¸
à¤Ĩà¤Ī à¤Īà¤ıà¤«
à¤Ĩà¤Ī à¤ıà¤¨à¤ıà¤²à¤¡
à¤°à¤µ à¤¸
à¤°à¤µ à¤¡
à¤¾. /
Ġà¤ĳ à¤¡à¤°
à¤¸à¤² à¤²à¤ķ
Ġà¤ĵ à¤¬à¤¦
à¥Ĥà¤Ĥ âĢĻà¥¤
Ġà¤¹à¤° à¤¯
Ġà¤Ĩà¤Ī à¤ıà¤Ł
Ġà¤Ī à¤ıà¤¨à¤¸
Ġà¤Ī à¤ĵà¤Ĩà¤Ī
Ġ"" -
Ġà¤ħà¤ª à¤ĺà¤Ł
Ġà¤ħà¤ļ à¤°
à¤ıà¤ķ à¤ª
Ġà¤ªà¤¡ à¤µ
Ġà¤ªà¤¦ à¤®à¤¶
Ġ10 30
Ġ10 98
Ġ8 11
Ġ8 72
Ġà¤Ĭ à¤®
à¤ıà¤« à¤ıà¤¸à¤ı
19 09
Ġà¤®à¤¤ à¤¹
Ġà¤®à¤¤ à¤ª
Ġ9 24
Ġ9 73
in ia
à¤®à¤¦ à¤¯
an ya
Ġà¤ıà¤² à¤¬à¤°
Ġ18 42
ĠS y
ĠS um
Ġà¤§à¤¨ à¤ĸà¥ľ
à¤ľà¤Ĺ à¤¨à¤®
ĠC DMA
en ior
ĠB ajaj
à¤¡à¤¨ à¤ķà¤°
ĠN CLT
à¤ªà¤¹à¤² à¤Ĺ
Ġà¤ľà¤¯ à¤µà¤¨
am et
Ġs er
Ġs ug
ĠG ame
om obile
ĠD am
ĠF T
Ġin cl
Ġc ategory
Ġà¤ķà¤ļ à¤¡
is hek
Ġ80 4
ul k
à¤²à¤Ń à¤¨
ĠW TI
ĠU C
90 14
à¤ļà¤ķà¤° à¤¨
Ġd ot
Ġd ele
hi st
hi le
Ġà¤¯à¤¶ à¤µà¤°
av la
lus ion
Ġth ree
ac qu
Ġe ven
Ġà¤Ĩà¤Ĺà¤° à¤ķà¤°
gov ern
Ġr ule
à¤Ĩà¤°à¤ı à¤ıà¤²
Ġst rength
Ġà¥§à¥ª à¥«
ĠRe leased
Ġj ee
und red
sh ort
ĠApp ly
à¤ıà¤®à¤ıà¤® à¤Ĩà¤°à¤¸
IP CC
IT BP
à¤Ĩà¤¦à¤® à¤ª
ĠØ ±
anc es
à¸ ¢
NS UI
Ġà¥¯à¥ ¨
emb ers
olar ship
à¥§à¥¯à¥¯à¥ ¨
Ġà¤ıà¤¨à¤Ĩà¤° à¤Ī
ĠSuper VOOC
pos ite
ĠCent er
Ġcomp ound
ĠPO P
ĠPU C
Ġexam results
Ġass essment
cont inu
ĠDev i
Ġà¤Ĩà¤ĩà¤ıà¤¸ à¤Ĩà¤ĩ
osp i
tegr ated
---------------- ----------------
NH AI
ĠRed dy
pon se
Ġsupp ly
rup tion
ĠHi Tech
ĠOrgan ization
Amer ica
trop ical
ĠDG CA
Ġmah result
ĠAkh tar
Ġintr esting
ĠSci ences
ĠLon avla
" âĢľ
- âĢĺ
B E
C ool
D han
E AR
G reat
I g
I t
M us
P e
P ra
P DA
P lease
S olar
T U
Z oom
c ed
g er
t ree
Î ¸
Ġ ËĪ
Ġ à²
à¥ĩ ''.
à¤¤ à¤ı
à¥ĭ +
à¤ķ à¤®à¤Ĺà¥Ŀ
à¤¯ à¤¶à¤ķ
à¤¸ à¤ĺà¤¨
à¤² à¤Ľ
à¤² à¤¦à¤°
Ġà¤ª à¤ŀ
à¥ģ ?
à¤ª à¤¹à¤¸
à¤ľ à¤±
à¤ľ à¤łà¤°
Ġà¤¬ à¤Łà¤²
Ġà¤µ à¤¨à¤ķ
à¤ı à¤ªà¤¨
Ġà¤Ķà¤° à¤īà¤ļ
Ġà¤Ĩ à¤¡à¤®
à¤Ī à¤Łà¤°
à¤Ī à¤¯à¤°
Ġà¤ı à¤ıà¤«à¤Ĩà¤Ī
Ġà¤ı à¤ıà¤«à¤ıà¤®à¤ıà¤¸
Ġà¤ĩ à¤Ŀ
Ġà¤ıà¤ķ à¤µà¤°
Ġà¤ķà¤¹ à¤µ
à¤ī à¤Ĩ
à¤Ľ à¤Ń
à¤Ľ à¤¤à¤°à¤ª
Ġà¤¯à¤¹ à¤°
à¤¯à¤ķ à¤¶
à¤ĵ à¤°à¤¸
à¤¼à¤¾ /
à¤īà¤¨ à¤ľ
à¤ªà¤° à¤Ĺ
à¥Ģ, ...
à¤Ĺà¤° à¤«
à¤¯à¤¹ à¤īà¤ªà¤¬
à¤Łà¤¨ à¤¯
à¤Łà¤¨ à¤°à¤²
à¤ĺ à¤łà¤¨
à¤®à¤¨ à¤Ĺ
à¤ıà¤® à¤ıà¤Ł
Ġà¤ĵ à¤ıà¤®à¤Ĩà¤°
à¥ľ à¤ªà¤¤
Ġà¤ħà¤® à¤°à¤¸
Ġ- %
à¤Ĩà¤° à¤ĵà¤¸
à¤Ĩà¤° à¤ıà¤¨à¤Ł
Ġà¤Ī à¤ıà¤®à¤µ
Ġ"" ...
Ġà¤ľà¤² à¤ľà¤¨
Ġà¤ł à¤ł
Ġà¤®à¤¦ à¤¨à¤®
à¤°à¤¦à¤° à¤«à¤°
à¤¨à¤µ à¤µà¤°
Ġà¤ıà¤¨ à¤ıà¤²à¤¡
19 02
à¤Łà¤® à¤ª
Ġ12 30
Ġà¤¹à¤®à¤² à¤µ
à¤¯à¤ª à¤Ł
Ġà¤ħà¤« à¤¨
Ġà¤ķà¤¶ à¤®
à¤ħà¤¨ à¤Ĺ
Ġ18 64
à¤¨à¤¸ à¤¬à¤°
ĠS G
ĠP ure
à¤ĩà¤¡ à¤°à¤®
à¤°à¤ļ à¤¢
à¤ªà¤² à¤Łà¤µ
Ġà¤ıà¤« à¤¯
ĠN v
à¤ľà¤µ à¤²à¤¨
it co
di rect
à¥Ģ: %
Ġà¤®à¤ķ à¤¦
ĠT el
ĠT rad
Ġà¤ĭà¤£ à¤Ĺ
Ġs m
om es
ĠD ep
re land
ĠF W
ing er
Ġc oll
th s
à¤Ĩà¤Īà¤Ĩà¤° à¤¬
ĠL anguage
Ġà¤Ńà¤¯ à¤¯
à¥Ĥà¤Ĥ. âĢĻ
ul us
Ġp ixel
ĠV HP
ĠW all
à¤ıà¤®à¤ıà¤¸ à¤Ĩà¤Īà¤ıà¤²
Ġà¤ķà¤µà¤° à¤Ĩà¤²
ĠJ ava
Ġa way
Ġa uth
Ġi f
ak i
à¤ıà¤®à¤ĵ à¤ıà¤¸à¤ª
ist ry
Ã¯ à¤°
Ġl ong
oc uments
qu ot
Ġk n
igh b
RC A
ain t
IN E
if orn
Ġto ol
Ġà¤®à¤Ĺ à¤¹à¤°
Ġà¤īà¤Ń à¤¯à¤²
à¥ĩà¥ĩ à¥ĩ
Ġcon tact
Ø§ Ø¨
ash ington
PS SC
Ġcom mon
ĠIC AO
con stant
ack ed
ĠCom ple
à¤ıà¤¨à¤Ĩà¤° à¤ıà¤®
Ġà¤¶à¤« à¤ķà¤¤
ram bler
pur i
la im
à® ®
Ġà¥§à¥¯à¥ª à¥§
umb ers
Ġà¤İ à¤¨
co ating
Ġbe en
fer mi
DD CA
à¥§à¥¯à¥® à¥¯
Ġro le
Ġph ase
ĠGovern or
ĠCo up
aut am
Ġcomp any
ĠBihar i
ĠTrans fer
Ġem ploy
ĠIm age
ĠReg ion
new delhi
Ġà¤ķà¤¨à¤ķ à¤ª
Ġstat ue
inc iple
ĠJob seeker
ĠSw achh
pon ents
Ġcell ency
All oy
Ġet c
alu ation
à¤¨à¤µà¤² à¤ĸ
Nav ratri
kn own
Ġknow ledge
Ġdies el
Rail way
ĠMir za
PressRelease Page
- ,
A us
C AR
D iv
F it
F BI
K F
K am
L V
O DI
O TP
Q U
R AM
S er
T i
V alue
V arun
V IVO
W atch
b el
c an
p ass
t re
t et
t reme
t otal
u o
w ell
w ealth
x x
Å Ī
à¤¾ âĢĺâĢĺ
à¤¨ à¤ļà¤¨
à¤¨ à¤ķà¤°à¤£
à¤¯ à¤ĵ
à¤¸ à¥ŀ
à¤® à¤¦à¤µ
Ġà¤® à¤ĩ
à¤µ à¤ľà¤²
à¤µ à¤¥à¤¨
à¥ĩà¤Ĥ âĢĵ
à¤Ĺ à¤Ĺà¤°
Ġà¤¨ à¤²à¤¸
Ġà¤µ à¤®
à¤ı à¤ıà¤®à¤ľ
à¤ļ à¤ªà¤°
à¤Ī à¤¬à¤¨
à¤ĸ à¤¡à¤¸
à¤£ à¤ľà¤¨
Ġà¤¯ à¤µ
à¥Ģà¤Ĥ âĢĻâĢĻ
Ġà¤ıà¤ķ à¤Ł
à¤ªà¤¨ à¤°
Ġ( %)
à¤ķà¤° à¤¸à¤ķ
à¤ł à¤¡
à¤ĵ à¤µà¤²
à¤ħ à¤¹à¤¸
à¤°à¤£ à¤®à¤¯
à¤Ĩà¤Ī à¤¨
Ġà¤Ĩà¤¯ à¤¨à¤®
ĠâĢĺ âĢ¦
Ġà¤ĩà¤¨ à¤ļ
Ġà¤Ī à¤ıà¤ķ
Ġà¤Ī à¤²à¤®
20 50
à¤ķà¤°à¤£ à¤ķà¤°
Ġà¤ªà¤¦ à¤¦à¤²
ĠâĢľ (
Ġ19 000
à¤ıà¤² à¤ıà¤ķ
Ġ8 48
Ġ8 77
Ġà¤¸à¤¤ à¤¯
Ġà¤ıà¤¨ à¤Ĩà¤Īà¤Ĩà¤Īà¤Ł
Ġà¤ıà¤¨ à¤Īà¤¬
Ġ9 33
Ġ9 42
à¤²à¤µ à¤¯
Ġà¤ľà¤Ĺ à¤ªà¤¤
à¤ħà¤¨ à¤ª
à¤ħà¤¨ à¤¶à¤¨
Ġ18 15
à¤ıà¤ļ à¤ıà¤®à¤Ł
à¤ıà¤ļ à¤ıà¤¸à¤Ĩà¤Īà¤Ĩà¤Īà¤¡
ĠP H
ĠP en
Ġà¤¤à¤² à¤ªà¤Ł
Ġ17 80
Ġà¤ıà¤« à¤ĵà¤¸
ĠM M
ĠM ann
Ġ21 000
ĠT ext
ĠG M
ĠG O
re qu
ĠE F
à¤Ĩà¤Īà¤Ĩà¤° à¤ıà¤¸à¤¡
un ic
ent ion
ĠO TT
Ġà¤ªà¤¨ à¤¸à¤ª
ay am
ĠW WF
Ġv oltage
à¤ĭ à¤®
\"" """
Ġb illion
à¤ıà¤®à¤Ī à¤Ĩà¤Īà¤ıà¤¸
à¤Ĩà¤Īà¤ıà¤® à¤Ĩà¤Ī
à¥« à¥Ń
à¥ª à¥¬
ag o
à¥© à¥¬
Ġ400 00
IC U
Ġth er
ac ial
à¦ Ĥ
à¦ Ł
qu iry
ĠSt ation
Ġà¥® à¥©
à¤Ĩà¤°à¤ı à¤Ĩà¤°
Ġà¤¨à¥Ľà¤° à¤ħ
ant e
ang er
Ġà¤Ŀà¤²à¤ķ à¤¨
ĠPr ince
Ġcon duct
à¤Ĩà¤Īà¤ıà¤« à¤ıà¤«à¤ıà¤®
ell ow
EE A
port al
ĠJio Fiber
iz ing
ĠMe eting
à¥Ģ... ...
ail able
Ġà¤Ĩà¤Ĭ à¤Ł
ĠPol itical
ĠIP v
Ġpl at
Ġà¥§à¥¯à¥© à¥¨
ĠTh alaiv
Ġsh ell
cl inical
ks wag
min ority
Ãī Ãī
Sc ript
Pad ma
Ġim port
ĠNH AI
1100 11
Ġâĺ»âĺ»â ĺ»âĺ»â
ĠCha uth
ĠMag az
Ġpay ment
ategor ies
uid elines
ryst al
ryst all
oz one
flu or
ĠDire ctor
rr fan
ĠDist rict
hot ra
Ġtar get
ĠFast est
à¥įà¤¿à¥Ģ à¥ĥ
DIC RC
Nirm ala
iforn ia
4 500
B BC
D SSSB
F M
F inal
K V
M s
M CC
P N
P art
R ishi
S elf
c us
c newdelhi
d ollar
f ossil
g uru
h uman
i ic
k o
m ospi
n ational
p ond
s erv
u D
w id
} .
Ã Ī
Ù ¹
Ġ id
Ġ urban
à¤¾ @
à¤¨ à¥Ľ
à¤¸ à¤¦à¤°à¤²
à¤® à¤¤à¤°
Ġà¤® à¤ĺ
Ġà¤ª à¤¨à¤ķ
Ġà¤ª à¤Ĭà¤²
à¥ģ ...
à¤µ à¤īà¤łà¤¨
Ġà¤¨ à¤¬à¤°
Ġà¤¬ à¤Ĺà¤°
à¥ĭà¤Ĥ ."
Ġà¤µ à¥Ľ
à¤ı à¤¥à¤°
à¤ı à¤ıà¤¸à¤ıà¤«
à¤ı à¤ıà¤¸à¤ıà¤²
Ġà¤Ĩ à¤±
à¤Ī à¤Ĩà¤°à¤Ĩà¤Ī
à¤Ī à¤ħà¤²à¤°
à¤¥ à¤ªà¤°à¤ķ
à¤Ń à¤Łà¤¨
à¤« à¤¸à¤¹
Ġà¤ĸ à¥Ľ
à¥įâĢį à¤¿
à¤°à¤ķ à¤¶
à¤ħ à¤Ĺà¤ª
à¤ıà¤¸ à¤ıà¤ı
à¤ıà¤¸ à¤ĵà¤¸
à¤¼à¥Ģ à¤ĥ
à¤¸à¤® à¤¦
Ġà¤ľà¤¬ à¤¦à¤¸
à¤Ĺà¤¤ à¤®
Ġà¥ ¥
à¤ŀ à¤£
Ġ4 999
Ġà¤īà¤¦ à¤¯à¤µ
à¤Ķà¤° à¤µà¤¹
Ġà¤ħà¤¸ à¤µ
à¤¼à¤¿ .)
Ġà¤Ī à¤ıà¤ıà¤¸
Ġà¤Ĩà¤Ĺ à¤¸
à¤¬à¤² à¤¡
à¤µà¤¤ à¤¶
Ġà¤ħà¤ª à¤Ł
Ġà¤ł à¤ķà¤°
à¤ıà¤ķ à¤µà¤°
Ġ8 47
Ġ8 81
Ġ9 64
Ġà¤¢ à¤ķà¤¤
Ġà¤¦à¤² à¤ªà¤¤à¤°
Ġ15 13
Ġ11 25
Ġà¤ıà¤² à¤®
Ġ18 37
ĠS ep
ĠS HO
ĠS achin
ĠS waraj
ĠP un
ĠC rash
ĠA J
ĠA IC
à¤°à¤®à¤£ à¤¶
Ġà¤µà¤¨ à¤ªà¤¶
ĠM en
ĠM ost
ĠM erit
ĠB as
le tion
ĠT ar
ĠT re
ĠT otal
18 50
18 96
18 92
11 000
ĠD CP
ĠH and
ĠF Z
Ġc d
Ġc ancer
ĠE mp
à¤¿- -
ĠK ah
à¤īà¤ª à¤®à¤¹
Ġà¤ľà¤¡ à¤©
iv a
ĠW al
ĠW hy
ĠU APA
ad ra
id ae
Ġt ab
Ġ90 1
Ġ90 3
em ens
Ġh ospital
Ġof fer
Ġg reen
Ġg eneration
Ġi P
Ġà¤ªà¤¥ à¤¨à¤®à¤¥
à¤Ĩà¤°à¤ıà¤¸ à¤µ
av is
Ġ68 9
Ġà¥¬ à¥¨
à¤ıà¤¸à¤ıà¤² à¤Ĩà¤Ī
com mission
à¤Ĩà¤Īà¤Ĩà¤Ī à¤ľ
ĠY es
Ġ78 3
à¥Ģ! )
Ġr pm
Ġà¥® à¥®
ud a
IN V
Ġre lease
ass ign
Ġ-- >
Ġà¤ıà¤®à¤ĵ à¤ĵà¤¸
St eve
pr ice
à¤ıà¤²à¤ı à¤²à¤¬
ĠCom mun
à¤Īà¤ıà¤² à¤Ĩà¤Īà¤Ł
ug a
ip une
ĠØ £
EC D
à¤ıà¤ıà¤« à¤ıà¤®à¤ıà¤¸
pro duct
Al ive
PP P
ahar iya
NA B
Ġme an
à¤³ à¤µ
à¤²à¤Ĺà¤ĩà¤¨ Comment
Ġsh ow
Ġun iversity
ĠSe a
à´ ¿
ĠSec ond
Man abadi
Ġà¤ıà¤¨à¤Ĩà¤° à¤ıà¤Ĩà¤Ī
à¥§à¥¯à¥Ń à¥¦
ĠÏ Ħ
aut y
par ent
ĠBook ings
Ġà¤Ĩà¤°à¤ıà¤¨ à¤Ĩà¤°à¤ıà¤²
Ġair port
ĠDo ing
Ġfl ow
ĠMag n
ĠØ¨ ÙĨ
ĠAG M
ĠEnvironment al
Ġsu icide
Ġiss ues
ĠPDA F
ympt oms
×ķ ×
lips e
Ġjee adv
kswag en
, âĢľ
/ (
B an
B ay
D ia
E k
K a
L M
N IT
N HS
N itish
O s
T D
c b
e ur
f ree
f uel
j an
m bps
p x
r s
Â £
Î ·
Ú ¾
Ġ und
à¤¾ à¥Īà¤Ĥ
Ġà¤ķ à¤¨à¤¨
à¤¸ à¤¨à¤¤
Ġà¤® à¤ļà¤¤
à¥ĩà¤Ĥ """
Ġà¤ľ à¤ıà¤Ĺ
Ġà¤ħ à¤²à¤¯à¤¸
Ġà¤¦ à¤ĭà¤°
à¤ı à¤¤à¤°
à¤ı à¤¸à¤°
à¤ı à¤ıà¤¸à¤¯
à¤¶ à¤¯à¤°
à¤¶ à¤¯à¤µ
à¤§ à¤µà¤ľ
à¤ļ à¤¯à¤ª
à¤Ī à¤ªà¤²
à¥Īà¤Ĥ ''
Ġà¤ı à¤ıà¤ª
Ġà¤ĩ à¤ķà¤¸
Ġà¤ĩ à¤¤à¤µ
à¤Ń à¤µà¤ķ
Ġà¤« à¤°à¤¸
Ġà¤ĩà¤¸ à¤®à¤²à¤ı
Ġà¤¸à¤® à¤ļ
à¤°à¤ķ à¤ķ
à¤¿à¤Ĥ âĢį
à¤¾, ,
à¤ī à¤Ľ
Ġà¤Ł à¤¶à¤¨
Ġà¤¡ à¤¹
à¤ħ à¤ľà¤²
à¤¶à¤¨ à¤¹
à¤Ŀ à¤Ńà¤°
Ġà¤¤à¤ķ à¤¹
à¤²à¤¨ à¤Ĺà¤°
Ġà¤Ĺà¤Ī à¤ķ
à¤®à¤¨ à¤¹
à¤·à¤£ à¤Ń
à¤®à¤¤ à¤¨à¤Ĺà¤°
à¤ıà¤® à¤ıà¤ļà¤ĵ
Ġà¤ĵ à¥Ŀ
à¤Ķà¤° à¤¦
à¤Ķà¤° à¤ĩà¤¸à¤ķ
Ġà¤Ĩà¤Ī à¤ıà¤²à¤ı
à¥Ģ. /
Ġà¤Ī à¤Ĺ
Ġà¤Ī à¤ĸ
à¤¸à¤Ń à¤°
à¤¬à¤² à¤ķ
Ġà¤ľà¤¨ à¤¶à¤¤
Ġà¤ħà¤ª à¤ľ
Ġà¤¶à¤° à¤«
Ġà¤ıà¤¸ à¤Ĩà¤°à¤ıà¤¸
à¤ıà¤¨ à¤Ĩà¤°à¤ı
à¤ıà¤¨ à¤ĵà¤¬
Ġ7 404
à¤ıà¤² à¤ıà¤®à¤µ
à¥ĭ, ...
Ġ8 13
Ġ8 84
à¤Ĳ à¤®à¤ľ
Ġà¤®à¤¤ à¤¸
Ġ9 19
Ġ9 12
Ġ9 85
Ġ9 68
Ġ9 86
Ġà¤¨à¤µ à¤ķ
Ġà¤°à¤ķ à¤¬à¤°
Ġ15 30
à¤ľà¤® à¤¸
à¤¼à¥ĭ '
à¤¼à¥ĭ âĢĻ
ĠS F
ĠS ks
Ġ16 99
ĠC APF
à¤¦à¤ķ à¤¶
ĠR M
ĠR ak
ĠR ural
Ġà¤ıà¤« à¤ıà¤¸à¤Ĩà¤Ī
Ġà¥Ľ à¤«à¤°
ĠM TS
ĠB io
ĠB ulls
Ġà¤¸à¤ľ à¤µ
ĠN ad
ĠN agar
ion ic
it ra
Ġà¤¸à¤¨ à¤¬à¤°
Ġà¤ıà¤¡ à¤¹
à¤ķà¤® à¤ªà¤²
ĠT ok
ĠT UV
18 97
Ġs al
Ġs ol
Ġs up
Ġs ilicon
ĠD aughter
ĠH indu
ra el
Ġc ovid
th al
14 00
is er
à¤¦à¤¦ à¤¤
et i
ch ler
ĠL V
ĠL JP
à¤²à¤Ń à¤¤à¤®
ĠO P
ĠW W
Ġv iew
id ual
Ġm us
Ġm oney
à¤¯à¤¬ à¤ĺà¤°
Ġb r
Ġà¤Ĩà¤ķà¤²à¤¨ à¤ķà¤°
Ġh istory
Ġg ets
ap ore
li er
ID C
à¥¬ à¥§
Ġth umb
Ġà¥¬ à¥Ń
ac ier
Ġ69 3
à¤ļà¤® à¤ķà¤¤
Ġk ohli
Ġà¥§à¥¦ à¥«
Ġà¥§à¥¦ à¥©
ii à¤ķ
à¤ıà¤¨à¤ıà¤ļ à¤Ĩà¤Īà¤¡
ou rav
aw an
Ġà¤ªà¤Łà¤ķ à¤¨
oor din
à¤®à¤°à¤¤ à¤¬
ĠOff icer
à¥ĩ"" ."
à¤ħà¤Łà¤² à¤ľ
ĠSh ukla
Ġat om
AC E
An and
ĠPol itics
SP A
rit i
ĠRec ord
Ġch opra
ER A
Ġà¤²à¤ªà¤ķ à¤ķà¤°
à¥¨à¥¦ à¥§à¥¦
cent re
à¤²à¤Ĺà¤ĩà¤¨ Name
Ġ011 4
à¥§à¥¯à¥¯à¥ ¬
MW C
uz aff
Ġ1400 1
Ġse ason
ĠÏ ģ
tr l
ott ky
rec ip
ĠPer formance
ĠBi opic
How dy
Ġprocess ing
à¤ľà¤ķà¤ª à¤¦
Ġeng ineering
Ġir rigation
ĠStand ard
Ġcount ries
edu ce
hand icraft
ori zon
ĠEnd game
Ġcommit ment
ĠPra kash
Pul wama
ĠPir ates
role um
Ġbps sc
ĠDim ensity
B al
F DA
G ul
G anesh
J NUSU
K ey
L inux
M ag
M AI
R B
R afale
T an
c s
i mi
i ph
r ine
s ig
t ool
y ro
z er
Å ĭ
Ë ľ
Ð ¿
Ú Ĩ
Ġ orld
à¤° à¤Łà¤¨
Ġà¤ķ à¤²à¤¯
à¤¨ à¤²à¤¬à¤¦
à¤¤ à¤¬à¤¨
à¤¤ à¤¨à¤¤à¤®
à¥ĭ à¥į
à¤ķ à¤Ĩà¤°
à¤¯ à¤¯à¤®
à¤¯ à¤ĺ
à¤² à¤°à¤µ
Ġà¤¸ à¤Ļ
à¤¹ à¤¬à¤°
Ġà¤ª à¤¯à¤°
à¤µ à¥ĺ
à¤¦ à¤Ł
à¤ª à¤²à¤¸
à¤ľ à¤¸à¤²
Ġà¤¬ à¤¬à¤¨
Ġà¤¬ à¤Ĺà¤µ
Ġà¤ħ à¤°à¤¤
Ġà¤µ à¤µ
Ġà¤µ à¤Ŀ
à¤¬ à¤ĭ
à¤¬ à¤¦à¤°à¤ª
à¤ļ à¤¨à¤ķ
Ġà¤Ĺ à¤ľà¤µ
Ġà¤Ĩ à¤ĩà¤®
à¤Ī à¤Ĩà¤Īà¤Ł
Ġà¤ı à¤ıà¤®à¤¡
à¤Ń à¤²à¤¤
Ġà¤ļ à¤ĸà¤¤
à¤« à¤Łà¤µ
âĢį à¥ĩ
Ġà¤¸à¤® à¤ªà¤°
à¥ī âĢį
à¤ħ à¤¦à¤®
à¤Łà¤° à¤µà¤²
à¤ªà¤¤ à¤µ
Ġà¤Ĩà¤° à¤Ĳ
à¤²à¤¤ à¤¨
à¤ıà¤¸ à¤Ĩà¤°à¤ıà¤«
Ġà¤¸à¤¬ à¤ħà¤°
à¤·à¤£ à¤¯
Ġà¤¬à¤¢ à¤ĭ
à¤¯à¤¨ à¤ĳà¤¯à¤²
à¤¾. %
à¤µà¤¹ à¤µ
Ġà¤ĵ à¤°à¤ķ
à¤ĩà¤¨ à¤¬à¤°
Ġà¤ħà¤® à¤¨à¤®à¤£
Ġ' à¥¤
à¤Ĩà¤° à¤Ĩà¤Īà¤¡
Ġà¤Ĩà¤Ī à¤Īà¤ª
Ġà¤Ĩà¤Ī à¤ıà¤¨à¤ıà¤®
Ġ"" {
Ġà¤īà¤® à¤¯
Ġà¤ıà¤¸ à¤Ĩà¤°à¤Ĩà¤Ī
à¥ĩà¤Ĥ, âĢĵ
Ġ7 31
Ġ7 38
Ġ7 85
Ġ10 35
Ġ8 86
Ġ8 76
Ġ8 63
à¤¨à¤µ à¤ª
à¤¨à¤µ à¤°à¤¤
à¤ıà¤« à¤Ĩà¤Īà¤Ł
à¤ıà¤« à¤ıà¤Ĩà¤Ī
Ġà¤ıà¤¨ à¤ĵ
Ġà¤ıà¤¨ à¤ıà¤ıà¤²
Ġ9 95
in y
in ental
à¥ĩ) :
à¤Ńà¤µ à¤Ń
Ġà¤®à¤¸ à¤°à¤¤
at ra
Ġà¤ıà¤² à¤ıà¤¨
Ġ18 39
Ġ18 43
ĠS ardar
[...]
