{"<s>":0,"<pad>":1,"</s>":2,"<unk>":3,"<mask>":4,"!":5,"\"":6,"#":7,"$":8,"%":9,"&":10,"'":11,"(":12,")":13,"*":14,"+":15,",":16,"-":17,".":18,"/":19,"0":20,"1":21,"2":22,"3":23,"4":24,"5":25,"6":26,"7":27,"8":28,"9":29,":":30,";":31,"<":32,"=":33,">":34,"?":35,"@":36,"A":37,"B":38,"C":39,"D":40,"E":41,"F":42,"G":43,"H":44,"I":45,"J":46,"K":47,"L":48,"M":49,"N":50,"O":51,"P":52,"Q":53,"R":54,"S":55,"T":56,"U":57,"V":58,"W":59,"X":60,"Y":61,"Z":62,"[":63,"\\":64,"]":65,"^":66,"_":67,"`":68,"a":69,"b":70,"c":71,"d":72,"e":73,"f":74,"g":75,"h":76,"i":77,"j":78,"k":79,"l":80,"m":81,"n":82,"o":83,"p":84,"q":85,"r":86,"s":87,"t":88,"u":89,"v":90,"w":91,"x":92,"y":93,"z":94,"{":95,"|":96,"}":97,"~":98,"¡":99,"¢":100,"£":101,"¤":102,"¥":103,"¦":104,"§":105,"¨":106,"©":107,"ª":108,"«":109,"¬":110,"®":111,"¯":112,"°":113,"±":114,"²":115,"³":116,"´":117,"µ":118,"¶":119,"·":120,"¸":121,"¹":122,"º":123,"»":124,"¼":125,"½":126,"¾":127,"¿":128,"À":129,"Á":130,"Â":131,"Ã":132,"Ä":133,"Å":134,"Æ":135,"Ç":136,"È":137,"É":138,"Ê":139,"Ë":140,"Ì":141,"Í":142,"Î":143,"Ï":144,"Ð":145,"Ñ":146,"Ò":147,"Ó":148,"Ô":149,"Õ":150,"Ö":151,"×":152,"Ø":153,"Ù":154,"Ú":155,"Û":156,"Ü":157,"Ý":158,"Þ":159,"ß":160,"à":161,"á":162,"â":163,"ã":164,"ä":165,"å":166,"æ":167,"ç":168,"è":169,"é":170,"ê":171,"ë":172,"ì":173,"í":174,"î":175,"ï":176,"ð":177,"ñ":178,"ò":179,"ó":180,"ô":181,"õ":182,"ö":183,"÷":184,"ø":185,"ù":186,"ú":187,"û":188,"ü":189,"ý":190,"þ":191,"ÿ":192,"Ā":193,"ā":194,"Ă":195,"ă":196,"Ą":197,"ą":198,"Ć":199,"ć":200,"Ĉ":201,"ĉ":202,"Ċ":203,"ċ":204,"Č":205,"č":206,"Ď":207,"ď":208,"Đ":209,"đ":210,"Ē":211,"ē":212,"Ĕ":213,"ĕ":214,"Ė":215,"ė":216,"Ę":217,"ę":218,"Ě":219,"ě":220,"Ĝ":221,"ĝ":222,"Ğ":223,"ğ":224,"Ġ":225,"ġ":226,"Ģ":227,"ģ":228,"Ĥ":229,"ĥ":230,"Ħ":231,"ħ":232,"Ĩ":233,"ĩ":234,"Ī":235,"ī":236,"Ĭ":237,"ĭ":238,"Į":239,"į":240,"İ":241,"ı":242,"Ĳ":243,"ĳ":244,"Ĵ":245,"ĵ":246,"Ķ":247,"ķ":248,"ĸ":249,"Ĺ":250,"ĺ":251,"Ļ":252,"ļ":253,"Ľ":254,"ľ":255,"Ŀ":256,"ŀ":257,"Ł":258,"ł":259,"Ń":260,"à¤":261,"à¥":262,"Ġà¤":263,"à¤¾":264,"à¥ĩ":265,"à¤°":266,"à¥į":267,"Ġà¤ķ":268,"à¤¿":269,"à¥Ģ":270,"à¤Ĥ":271,"à¤¨":272,"à¤¤":273,"à¥ĭ":274,"à¤ķ":275,"à¤¯":276,"à¤¸":277,"à¤²":278,"Ġà¤¸":279,"à¤®":280,"à¤¹":281,"Ġà¤¹":282,"Ġà¤®":283,"Ġà¤ª":284,"à¥Ī":285,"à¥ģ":286,"à¤µ":287,"à¤¦":288,"à¤ª":289,"à¥ĩà¤Ĥ":290,"à¤Ĺ":291,"Ġà¤¨":292,"à¥¤":293,"à¤Ł":294,"à¤ľ":295,"Ġà¤¬":296,"Ġà¤ľ":297,"à¥ĭà¤Ĥ":298,"Ġà¤ħ":299,"Ġà¤¦":300,"Ġà¤µ":301,"à¤ı":302,"à¤¶":303,"à¥Ĥ":304,"Ġà¤°":305,"Ġà¤²":306,"à¤¬":307,"à¤¡":308,"Ķà¤°":309,"à¤§":310,"à¤ļ":311,"Ġà¤Ķà¤°":312,"Ġà¤ķà¤°":313,"à¤·":314,"Ġà¤¤":315,"Ġà¤ī":316,"Ġà¤Ĺ":317,"Ġà¤Ĩ":318,"Ġà¤Ń":319,"à¤¼":320,"à¤Ī":321,"Ġà¤ªà¤°":322,"à¤¥":323,"à¥Īà¤Ĥ":324,"Ġà¤ı":325,"Ġà¤ĩ":326,"à¥Īà¥¤":327,"à¤Ń":328,"âĢ":329,"à¤ĸ":330,"Ġà¤¶":331,"à¤£":332,"Ġà¤¯":333,"Ġà¤ļ":334,"à¤¾à¤Ĥ":335,"à¤«":336,"à¤ĩ":337,"à¤°à¤¤":338,"Ġà¤¥":339,"à¥Į":340,"à¥Ģà¤Ĥ":341,"Ġà¤ĸ":342,"Ġà¤ıà¤ķ":343,"Ġà¤«":344,"Ġà¤°à¤¹":345,"Ġà¤ĩà¤¸":346,"Ġà¤ķà¤¹":347,"âĢį":348,"à¤¾à¥¤":349,"à¤ªà¤¨":350,"à¥įâĢį":351,"Ġ(":352,"à¤ķà¤°":353,"Ġà¤¨à¤¹":354,"à¤Ĩ":355,"Ġà¤īà¤¨":356,"Ġà¤¸à¤®":357,"Ġà¤ķà¤°à¤¨":358,"à¤°à¤ķ":359,"à¥ī":360,"à¤¿à¤Ĥ":361,"à¤ĩà¤¸":362,"à¤¾,":363,"à¤ī":364,"à¤Ľ":365,"Ġà¤Ĺà¤¯":366,"Ġà¤Ł":367,"Ġ1":368,"à¥Īà¤Ĥà¥¤":369,"Ġà¤¯à¤¹":370,"Ġà¤ħà¤ªà¤¨":371,"Ġ2":372,"Ġà¤¡":373,"Ġà¤ħà¤¨":374,"à¥ĥ":375,"Ġà¤īà¤¸":376,"à¤ł":377,"à¤¤à¤°":378,"à¤¯à¤ķ":379,"Ġà¤¹à¤®":380,"Ġà¤ħà¤§":381,"à¤ĵ":382,"Ġà¤ªà¤¹":383,"à¤µà¤°":384,"à¤ľà¤¨":385,"à¤ħ":386,"Ġà¤¸à¤ķ":387,"à¥Ģà¥¤":388,"ĠâĢ":389,"Ġà¤¬à¤¨":390,"Ġà¤ķà¤°à¤¤":391,"Ġà¤®à¤¹":392,"Ġà¤ĺ":393,"à¥ĩà¥¤":394,"à¤¼à¤¾":395,"à¤°à¤®":396,"à¤°à¤¦":397,"à¤īà¤¨":398,"à¤¢":399,"à¥Ī.":400,"à¤¸à¤°":401,"à¤Łà¤°":402,"à¤¶à¤¨":403,"Ġà¤īà¤¨à¤ķ":404,"Ġà¤µà¤¹":405,"à¥Ī,":406,"\"\"":407,"Ġà¥¤":408,"à¤¯à¤®":409,"Ġà¤²à¤Ĺ":410,"à¤¹à¤°":411,"Ġà¤īà¤ª":412,"Ġà¤¸à¤ķà¤¤":413,"à¤®à¤²":414,"Ġ20":415,"Ġà¤§":416,"à¤Ŀ":417,"à¤¯à¤°":418,"à¤ģ":419,"Ġà¤¤à¤ķ":420,"à¤°à¤£":421,"à¤ªà¤°":422,"à¥Ģ,":423,"à¤Ĺà¤°":424,"Ġà¤Ľ":425,"Ġà¤ªà¤¹à¤²":426,"Ġà¤¸à¤°à¤ķ":427,"à¤²à¤¨":428,"Ġà¤Ĺà¤Ī":429,"à¤¯à¤¹":430,"à¤ªà¤¤":431,"Ġà¤¤à¤°":432,"Ġà¤µà¤°":433,"à¤²à¤¯":434,"à¤¹à¤®":435,"à¤°à¤¸":436,"Ġà¤Ĩà¤ª":437,"à¤¨à¤®":438,"Ġà¤Ĩà¤°":439,"à¤²à¤¤":440,"00":441,"à¤¬à¤°":442,"à¤ıà¤¸":443,"Ġà¤Ĳ":444,"Ġà¤ħà¤²":445,"à¤Łà¤¨":446,"à¥ģà¤Ĥ":447,"à¤Ĩà¤Ī":448,"Ġà¤īà¤¸à¤ķ":449,"Ġà¤Ĩà¤¯":450,"Ġà¤īà¤¤":451,"à¤¼à¥Ģ":452,"Ġà¤ķà¤®":453,"à¤ĺ":454,"Ġà¤¸à¤¹":455,"Ġà¤Ĺà¤ı":456,"ĠâĢĺ":457,"à¤¹à¤¤":458,"Ġà¤ħà¤Ń":459,"à¤°à¤µ":460,"Ġà¤¬à¤¹":461,"Ġà¤¸à¤¬":462,"à¤¨à¤ķ":463,"à¤®à¤¨":464,"à¤·à¤£":465,"Ġ3":466,"à¤¸à¤®":467,"Ġà¤°à¤ĸ":468,"à¤µà¤¨":469,"Ġà¤ľà¤¬":470,"Ġà¤¦à¤°":471,"à¤®à¤¤":472,"à¤ľà¤°":473,"Ġà¤¬à¤¢":474,"à¤¯à¤¨":475,"à¤¯à¤¤":476,"à¤¾.":477,"Ġà¤¤à¤¥":478,"à¤ıà¤Ĺ":479,"Ġà¤¬à¤¤":480,"Ġà¤Ĳà¤¸":481,"à¤ļà¤¨":482,"à¥ĩ,":483,"Ġà¤ıà¤µ":484,"à¤Ĺà¤¤":485,"à¤µà¤¹":486,"à¤¨à¤¤":487,"Ġà¤ĳ":488,"à¤µà¤¸":489,"à¤ıà¤®":490,"à¤¸à¤²":491,"Ġà¤¸à¤Ń":492,"Ġà¤ªà¤¤":493,"Ġà¤ĵ":494,"Ġ201":495,"à¤°à¤§":496,"à¤¸à¤ķ":497,"Ġà¥":498,"âĢĻ":499,"à¤¼à¥ĩ":500,"Ġà¤ĩà¤¸à¤ķ":501,"à¤ĩà¤¸à¤ķ":502,"à¥Ĥà¤Ĥ":503,"à¤¸à¤¨":504,"à¤ĩà¤¨":505,"à¤ªà¤¯":506,"à¤§à¤¨":507,"à¤¦à¤°":508,"Ġà¤¤à¤°à¤¹":509,"à¤¤à¤¨":510,"à¥ľ":511,"à¤¾à¤ģ":512,"Ġà¤ħà¤®":513,"à¥Īà¤Ĥ.":514,"à¥Īà¤Ĥ,":515,"Ġà¤ħà¤µ":516,"Ġ5":517,"Ġà¤¸à¤®à¤¯":518,"Ġà¤¹à¤°":519,"à¤ŀ":520,"Ġà¤ĩà¤¨":521,"Ġà¤¬à¤¡":522,"à¤ķà¤²":523,"Ġà¤¬à¤ļ":524,"Ġ4":525,"Ġ'":526,"Ġà¤īà¤¦":527,"à¤¦à¤¨":528,"Ġà¤ħà¤°":529,"à¤¯à¤²":530,"à¤Ķà¤°":531,"Ġ-":532,"Ġà¤Ĩà¤§":533,"à¤ľà¤ª":534,"Ġà¤Ĩà¤¤":535,"Ġà¤¸à¤°":536,"à¤¸à¤¦":537,"à¤®à¤°":538,"Ġà¤Ĩà¤µ":539,"à¤Ĩà¤°":540,"Ġà¤Ĩà¤Ī":541,"Ġà¤ħà¤¸":542,"Ġà¤ķà¤Ī":543,"Ġà¤ľà¤°":544,"Ġà¤¬à¤²":545,"à¥Ģ.":546,"Ġà¤ļà¤²":547,"à¤¼à¤¿":548,"à¤Ĺà¤²":549,"Ġà¤Ī":550,"à¤¶à¤ķ":551,"à¤ķà¤¤":552,"Ġà¤Ĩà¤Ĺ":553,"à¤°à¤Ń":554,"à¤ªà¤ķ":555,"à¤¸à¤Ń":556,"Ġà¤ķà¤ª":557,"à¤¬à¤²":558,"20":559,"Ġà¤Ĩà¤¦":560,"Ġà¤Ĩà¤ľ":561,"Ġ\"\"":562,"à¤°à¤¶":563,"à¤ķà¤°à¤£":564,"à¤²à¤¬":565,"à¤µà¤¤":566,"Âł":567,"Ġà¤¸à¤¬à¤¸":568,"Ġà¤ľà¤¨":569,"à¤°à¤¯":570,"à¥Ģ)":571,"Ġà¤®à¤¨":572,"à¤¦à¤¸":573,"Ġ6":574,"Ġà¤ħà¤ª":575,"Ġà¤Ńà¤°":576,"à¤®à¤ķ":577,"à¤¹à¤¨":578,"Ġà¤ľà¤²":579,"à¤°à¤ªà¤¤":580,"Ġà¤¶à¤°":581,"à¤ľà¤¬":582,"Ġà¤ł":583,"Ġà¤ħà¤ļ":584,"à¤ıà¤ķ":585,"à¤µà¤²":586,"Ġà¤ªà¤¡":587,"à¥ĩ.":588,"à¤¶à¤¤":589,"Ġà¤īà¤®":590,"Ġà¤Ĩà¤ªà¤ķ":591,"Ġà¤¸à¤ļ":592,"Ġà¤Ŀ":593,"Ġà¤ķà¤²":594,"à¤°à¤¹":595,"Ġà¤ľà¤®":596,"à¤Łà¤²":597,"Ġà¤Ĩà¤¨":598,"Ġà¤ħà¤ķ":599,"Ġà¤¬à¤¦":600,"Ġà¤ıà¤¸":601,"à¥ĩà¤Ĥ,":602,"Ġà¤ªà¤¦":603,"à¤¤à¤ķ":604,"à¤Łà¤ķ":605,"à¤ıà¤¨":606,"Ġà¤ħà¤¬":607,"Ġ7":608,"à¤Ľà¤²":609,"ĠâĢľ":610,"Ġà¤¸à¤®à¤Ŀ":611,"Ġ19":612,"à¤ıà¤²":613,"Ġà¤ĵà¤°":614,"Ġà¤¨à¤°":615,"Ġ10":616,"Ġà¤®à¤¦":617,"à¤¡à¤²":618,"Ġà¤ĩà¤²":619,"Ġà¤ħà¤¤":620,"à¤¯à¤¦":621,"Ġà¤ĺà¤°":622,"à¤¨à¤°":623,"âĢĺ":624,"à¥ĭ,":625,"à¤ľà¤²":626,"à¤°à¤¦à¤°":627,"Ġ8":628,"à¤Ĳ":629,"à¤¨à¤µ":630,"à¤¨à¤¨":631,"à¤¦à¤µ":632,"Ġà¤ĳà¤«":633,"Ġà¤Ĭ":634,"Ġà¤¬à¤°":635,"à¤²à¤ķ":636,"à¤¤à¤®":637,"à¤ĥ":638,"Ġà¤ĸà¤°":639,"à¤¾-":640,"à¤ĩà¤Ł":641,"Ġà¤ľà¤¹":642,"Ġà¤īà¤ł":643,"à¤łà¤ķ":644,"à¥ĭà¤Ĥ,":645,"à¤ıà¤«":646,"Ġà¤¸à¤¦à¤¸":647,"Ġà¤¸à¤¤":648,"à¤¨à¤²":649,"à¤ĩà¤²":650,"à¤¦à¤®":651,"à¤°à¤«":652,"à¤¡à¤°":653,"Ġà¤īà¤ļ":654,"à¤¿,":655,"à¤ĸà¤¨":656,"Ġ:":657,"à¥Ľ":658,"à¥ĩà¤Ĥà¥¤":659,"à¤¯à¤µà¤¸":660,"à¤¹à¤²":661,"Ġà¤¤à¤¹à¤¤":662,"à¤¶à¤²":663,"Ġà¤ıà¤¨":664,"ĠâĢĿ":665,"à¤ķà¤¸":666,"Ġà¤®à¤¹à¤¤":667,"\"\"\"":668,"à¤°à¤¨":669,"à¤ķà¤¡":670,"à¤°à¤²":671,"Ġà¤®à¤¦à¤¦":672,"Ġà¤ĺà¤Łà¤¨":673,"à¤²à¤°":674,"Ġà¤ľà¤¬à¤ķ":675,"Ġà¤īà¤ªà¤²à¤¬":676,"Ġà¤²à¤¡":677,"19":678,"Ġà¤®à¤¤":679,"à¤ķà¤¨":680,"à¤Łà¤®":681,"),":682,"Ġ9":683,"Ġà¤ľà¤µ":684,"à¤łà¤¨":685,"à¥Ģ-":686,"à¤°à¤¬":687,"Ġà¤Ĩà¤ı":688,"Ġà¤īà¤ªà¤¯":689,"à¤¬à¤Ī":690,"Ġà¤¨à¤µ":691,"Ġ12":692,"à¤īà¤¨à¤ķ":693,"à¤¥à¤¨":694,"Ġà¤¸à¤®à¤°":695,"Ġà¤¬à¤¦à¤²":696,"à¤ľà¤¯":697,"000":698,"Ġà¤¶à¤¹à¤°":699,"à¤µà¤ķ":700,"à¤µà¤ª":701,"à¤¾)":702,"Ġà¤ªà¤°à¤®":703,"à¤ļà¤°":704,"Ġà¤¢":705,"à¤ľà¤¹":706,"Ġà¤ıà¤®":707,"in":708,"Ġà¤¸à¤²":709,"à¥Ī?":710,"Ġà¤¸à¤«":711,"à¤®à¤¦":712,"Ġà¤¹à¤®à¤²":713,"à¤¼à¥ģ":714,"à¤ªà¤¸":715,"Ġà¤ħà¤²à¤Ĺ":716,"Ġà¤Ĩà¤µà¤¶":717,"à¤¸à¤ª":718,"à¤¯à¤ª":719,"Ġà¤«à¤°":720,"Ġà¤ħà¤µà¤¸à¤°":721,"Ġà¤¤à¤¬":722,"Ġà¤°à¤¹à¤¨":723,"à¤·à¤ķ":724,"à¤īà¤¸":725,"à¤¤à¤µ":726,"Ġà¤¬à¤ľ":727,"Ġà¤¦à¤²":728,"Ġà¤Ĺà¤°":729,"à¤ĩà¤¸à¤¸":730,"à¤²à¤µ":731,"Ġà¤ħà¤¦":732,"Ġà¤ªà¤¶":733,"à¤ķà¤Ł":734,"Ġà¤¨à¤Ī":735,"à¥ĩ)":736,"Ġà¤°à¤ķ":737,"Ġà¤¸à¤¹à¤¯":738,"Ġà¤ħà¤Ĺ":739,"Ġà¤°à¤ĸà¤¨":740,"Ġà¤µà¤ķ":741,"Ġà¤°à¤¹à¤¤":742,"Ġà¤ľà¤Ĺ":743,"à¤ľà¤¸":744,"Ġà¤ķà¤¹à¤¤":745,"Ġà¤Ĩà¤¶":746,"on":747,"Ġ15":748,"Ġà¤ħà¤Ĺà¤°":749,"Ġà¤¨à¤ľà¤°":750,"Ġà¤¨à¤ı":751,"à¤Ĩà¤¤":752,"Ġà¤¹à¤®à¤¨":753,"à¤¸à¤¤":754,"à¤·à¤¯":755,"Ġà¤®à¤§":756,"Ġ.":757,"Ġà¤ļà¤°":758,"ĠâĢĺâĢĺ":759,"Ġà¤ķà¤¹à¤¨":760,"Ġà¤¸à¤µ":761,"à¤Ĭ":762,"à¤¬à¤¸":763,"à¤ĩà¤¸à¤®":764,"à¥Ĥà¤ģ":765,"Ġà¤Ĩà¤®":766,"à¤®à¤¹":767,"à¤Ńà¤Ĺ":768,"à¤Ńà¤µ":769,"Ġà¤ķà¤Ń":770,"Ġ200":771,"Ġà¤ªà¤ķ":772,"an":773,"Ġà¤®à¤°":774,"Ġà¤Ĩà¤¸":775,"Ġà¤ĩà¤¸à¤®":776,"à¤¨à¤¦":777,"Ġà¤¬à¤¸":778,"Ġà¤ªà¤¢":779,"à¤Ĳà¤¸":780,"Ġà¤¤à¤°à¤«":781,"Ġà¤ħà¤«":782,"Ġà¤Ķ":783,"à¤°à¤ª":784,"Ġà¤¬à¤¯":785,"à¤Ĺà¤łà¤¨":786,"Ġà¤²à¤ķ":787,"Ġà¤ķà¤°à¤ķ":788,"à¥Ģà¤Ĥà¥¤":789,"à¤Ĺà¤¨":790,"Ġà¤°à¤¨":791,"à¤ķà¤µ":792,"à¤¹à¤¤à¤°":793,"à¥Ŀ":794,"Ġà¤¶à¤ķ":795,"Ġ11":796,"Ġà¤ĩà¤¸à¤¸":797,"Ġà¤®à¤¸":798,"Ġà¤īà¤²":799,"à¤ĸà¤¤":800,"Ġà¤¨à¤¯":801,"Ġà¤ķà¤¶":802,"Ġà¤µà¤ľà¤¹":803,"à¤¥à¤®":804,"à¤¸à¤¸":805,"er":806,"à¤·à¤¤":807,"Ġà¤§à¤°":808,"à¤ħà¤²":809,"Ġà¤īà¤¸à¤¨":810,"Ġà¤¹à¤ľ":811,"à¤¨à¤¸à¤Ń":812,"à¤ªà¤ı":813,"à¤¼à¥į":814,"à¥Ĥà¤Ĥà¥¤":815,"Ġà¤Ĺà¤¤":816,"Ġà¤¹à¤¤":817,"Ġà¤¦à¤ķ":818,"à¤Ĺà¤¢":819,"ar":820,"à¥Ģà¤Ĥ,":821,"Ġà¤ľà¤Ĺà¤¹":822,"Ġà¤¹à¤µ":823,"à¤¥à¤µ":824,"à¤¬à¤¦":825,"à¤ľà¤®":826,"à¤ĸà¤°":827,"al":828,"..":829,"à¤²à¤ķà¤°":830,"Ġà¤²à¤Ĺà¤Ńà¤Ĺ":831,"Ġà¤¸à¤®à¤¸":832,"à¤¯à¤µ":833,"Ġà¤Ĩà¤ķ":834,"à¤ħà¤ªà¤¨":835,"à¤ĩà¤ķ":836,"Ġà¤®à¤ľà¤¬":837,"Ġà¥Ļ":838,"Ġà¤°à¤¸":839,"à¤ħà¤¨":840,"Ġ14":841,"Ġà¤ĩà¤¨à¤ķ":842,"à¤®à¤ļ":843,"Ġ13":844,"Ġà¤¯à¤¦":845,"à¥ĩ-":846,"Ġà¤ıà¤ľ":847,"à¤µà¤°à¤£":848,"at":849,"Ġà¤²à¤Ĺà¤¤":850,"à¤·à¤®à¤¤":851,"à¤£à¤¨":852,"à¤µà¤µ":853,"à¥ĭà¥¤":854,"Ġà¤¸à¤ª":855,"Ġà¤ħà¤¹à¤®":856,"Ġà¤°à¤ĸà¤¤":857,"à¤¼à¥ĭ":858,"à¤īà¤¸à¤ķ":859,"à¤ļà¤²":860,"Ġà¤ľà¤¨à¤¤":861,"Ġà¤ħà¤Ĺà¤²":862,"à¤§à¤°":863,"Ġà¤ıà¤²":864,"Ġà¤µà¤¸":865,"Ġ18":866,"à¤¨à¤¸":867,"Ġà¤ķà¤¦à¤®":868,"à¥¦":869,"Ġà¤ĩà¤¸à¤²":870,"à¤ķà¤¸à¤Ń":871,"Ġ25":872,"à¤¥à¤²":873,"à¤ıà¤ļ":874,"à¤¨à¤Ī":875,"ĠS":876,"à¤¯à¤¸":877,"Ġà¤¤à¤¸":878,"Ġà¤ħà¤ªà¤°":879,"à¤¹à¤ķ":880,"Ġà¤ħà¤µà¤§":881,"à¤Ńà¤°":882,"à¤®à¤¸":883,"à¤Ĺà¤®":884,"Ġà¤ªà¤¹à¤ļ":885,"es":886,"Ġà¤¹à¤¸":887,"Ġà¤ķà¤¬":888,"à¤ĩà¤¸à¤²":889,"à¤°à¤ľ":890,"à¤ľà¤¦":891,"Ġ2020":892,"à¤¬à¤¨":893,"Ġà¤ļà¤²à¤¤":894,"à¤¼à¥ĭà¤Ĥ":895,"Ġ2019":896,"à¤¶à¤¨à¤²":897,"Ġ16":898,"Ġà¤§à¤¨":899,"Ġà¤°à¤µ":900,"à¤Łà¤«":901,"à¤¬à¤¹":902,"à¤ľà¤Ĺ":903,"à¤¯à¤ķà¤¤":904,"à¤ªà¤·":905,"Ġà¥§":906,"ĠP":907,"à¤¾?":908,"Ġà¤ıà¤¯à¤°":909,"à¤¬à¤¤":910,"à¤ĺà¤Łà¤¨":911,"201":912,"à¤¦à¤Ĺ":913,"Ġà¤Ńà¤µ":914,"Ġà¤Īà¤®":915,"Ġà¤¤à¤²":916,"à¤ħà¤®":917,"à¤¸à¤°à¤ķ":918,"à¤¤à¤ļ":919,"Ġ30":920,"Ġà¤ħà¤ľ":921,"à¤·à¤¦":922,"à¥Įà¤Ĥ":923,"Ġà¤¦à¤¸":924,"ĠC":925,"à¤§à¤¤":926,"à¤µà¤ľ":927,"à¤²à¤¹":928,"ĠA":929,"à¤£à¤¯":930,"à¤ªà¤£":931,"à¤Ĩà¤ª":932,"or":933,"Ġ50":934,"Ġà¤¤à¤®":935,"Ġà¤¤à¤¤":936,"à¤Ľà¤¤":937,"à¤¦à¤ķ":938,"à¤¡à¤®":939,"ĠâĢĶ":940,"à¤ĩà¤¡":941,"à¤µà¤ľà¤¨":942,"Ġà¤ķà¤¨":943,"en":944,"Ġà¤Ĩà¤²":945,"Ġà¤īà¤¨à¤¸":946,"à¥ĺ":947,"Ġà¤Ĭà¤°":948,"Ġà¤ĩà¤¤":949,"Ġà¤¸à¤¡":950,"Ġ24":951,"à¤¸à¤µ":952,"Ġà¤¶à¤¬":953,"Ġà¤ĩà¤ķ":954,"à¤¿âĢį":955,"à¤°à¤ļ":956,"à¤¹à¤¦":957,"à¤¼à¥ĩà¤Ĥ":958,"à¤ķà¤ª":959,"Ġà¤¹à¤Ł":960,"ĠR":961,"à¤µà¤§":962,"Ġà¤īà¤ªà¤¸":963,"à¤ĺà¤°":964,"à¤ħà¤§":965,"à¤²à¤¸":966,"à¤·à¤®":967,"à¤°à¤®à¤£":968,"99":969,"à¥ī.":970,"à¥Īà¤Ĥ?":971,"Ġ0":972,"à¥Ĥ-":973,"à¤ħà¤Ń":974,"Ġ2018":975,"Ġ17":976,"à¤ħà¤Ĺà¤°":977,"Ġà¤īà¤¸à¤¸":978,"Ġà¤¨à¤Ĺà¤°":979,"à¤ħà¤¬":980,"Ġà¤®à¤²":981,"Ġà¤ªà¤Ł":982,"à¤ķà¤¶":983,"à¤ªà¤²":984,"à¤ĩà¤¯":985,"à¤Ĺà¤¦":986,"Ġà¤ĩà¤¤à¤¨":987,"à¤°à¤ĸ":988,"Ġà¤µà¤¨":989,"à¤«à¤°":990,"ĠI":991,"à¤¦à¤¬":992,"Ġà¤ĸà¤¬à¤°":993,"ic":994,"à¤¾:":995,"Ġ2017":996,"Ġà¤Ĺà¤ł":997,"à¤¹à¤¸":998,"à¥ģà¤ģ":999,"à¤µà¤¯":1000,"à¤²à¤®":1001,"à¤µà¤ļ":1002,"Ġà¤ĭ":1003,"à¤īà¤¤":1004,"à¤¹à¤°à¤£":1005,"à¤ľà¤ķ":1006,"à¤¯à¤°à¤¸":1007,"Ġà¤¶à¤µ":1008,"Ġà¤Ĺà¤²à¤¤":1009,"à¤ļà¤ķ":1010,"Ġà¤ıà¤«":1011,"Ġ100":1012,"Ġà¤ľà¤¤":1013,"Ġà¤ħà¤¶":1014,"âĢĿ":1015,"Ġà¤ļà¤°à¤£":1016,"Ġà¥Ľ":1017,"Ġà¤ªà¤¸":1018,"à¤µà¤¶":1019,"ĠM":1020,"à¤ĳ":1021,"Ġà¤ķà¤°à¤µ":1022,"à¤¸à¤¬":1023,"Ġà¤ĸà¤¡":1024,"Ġ,":1025,"ĠB":1026,"à¤ħà¤ª":1027,"à¤§à¤µ":1028,"Ġà¤Ĭà¤ªà¤°":1029,"Ġà¤¬à¥ľ":1030,"à¤¤à¤°à¤°":1031,"à¤¸à¤ļ":1032,"Ġà¤¤à¤ķà¤¨":1033,"à¤Ĥà¥¤":1034,"Ġà¤ħà¤°à¤¬":1035,"Ġà¤ĸà¤¤à¤°":1036,"à¤¦à¤²":1037,"à¤¡à¤¨":1038,"Ġà¤ķà¤¡":1039,"Ġà¥§à¥":1040,"Ġà¤¬à¥Ŀ":1041,"Ġà¤īà¤¡":1042,"Ġà¤ķà¤Ł":1043,"à¤¯à¤¯à¤¨":1044,"50":1045,"Ġà¤¸à¤ľ":1046,"à¤Ĩà¤ªà¤ķ":1047,"Ġà¤¤à¤¯":1048,"à¤®à¤Ĺ":1049,"Ġà¤®à¤¤à¤¦":1050,"à¤ªà¤®":1051,"Ġà¤ıà¤¶":1052,"Ġà¤¹à¤²":1053,"Ġà¤īà¤¨à¤®":1054,"à¤¯à¤ķà¤°":1055,"ĠN":1056,"à¤ľà¤µ":1057,"ion":1058,"Ġà¤¬à¤¨à¤¨":1059,"à¤µà¤Ł":1060,"Ġ21":1061,"Ġà¤ħà¤®à¤°":1062,"Ġà¤Ĩà¤ĸ":1063,"it":1064,"âĢĻâĢĻ":1065,"à¥ŀ":1066,"Ġà¤¨à¤ķ":1067,"Ġà¤ħà¤ĸ":1068,"à¤ĸà¤²":1069,"à¤ªà¤¹à¤²":1070,"à¤°à¤¹à¤£":1071,"Ġà¤®à¤ľ":1072,"Ġà¤¦à¤¬":1073,"Ġà¤¨à¤¦":1074,"à¤ĩà¤¨à¤®":1075,"à¥Īà¥¤\"":1076,"Ġà¤¸à¤¦":1077,"à¤¹à¤®à¤¤":1078,"à¤Ĩà¤ľ":1079,"Ġà¤Ľà¤¹":1080,"à¤ıà¤¸à¤Ł":1081,"Ġà¤¸à¤¨":1082,"à¤¤à¤°à¤£":1083,"Ġà¤¬à¤§":1084,"st":1085,"à¤¹à¤®à¤¨":1086,"à¤ªà¤Ł":1087,"à¤²à¤Ĺ":1088,"Ġà¤ıà¤ļ":1089,"Ġà¤ĳà¤¸":1090,"10":1091,"à¥ĩà¤Ĥ.":1092,"à¤°à¤Ĺ":1093,"Ġ22":1094,"di":1095,"à¤µà¤¹à¤¨":1096,"Ġà¤¡à¤°":1097,"à¤ªà¤¡":1098,"à¤Łà¤°à¤¨":1099,"200":1100,"Ġà¤¸à¤«à¤²à¤¤":1101,"21":1102,"à¥ĭ)":1103,"Ġà¤Ĺà¤£":1104,"Ġà¤ķà¤¥":1105,"Ġà¤ªà¤µ":1106,"Ġà¤ľà¤¨à¤µà¤°":1107,"à¤¯à¤¡":1108,"à¤ĩà¤¬à¤²":1109,"à¤ĩà¤¨à¤²":1110,"Ġà¤Ĩà¤¦à¤®":1111,"à¤®à¤¯":1112,"GB":1113,"à¤ĩà¤µ":1114,"Ġà¤ĸà¤¤":1115,"à¤¡à¤¬":1116,"à¤Ĩà¤Īà¤¸":1117,"à¤®à¤µ":1118,"à¤Ĺà¤µ":1119,"à¥Ģ:":1120,"Ġà¤®à¤ķ":1121,"Ġà¤ĺà¤Ł":1122,"Ġà¤°à¤£":1123,"à¤·à¤°":1124,"à¤°à¤µà¤ķ":1125,"à¤¨à¤¯":1126,"Ġà¤¸à¤«à¤²":1127,"à¤«à¤²":1128,"Ġà¤ķà¤ł":1129,"à¤¸à¤²à¤®":1130,"à¤¤à¤ľ":1131,"à¤¶à¤°":1132,"Ġà¤īà¤ªà¤ļ":1133,"Ġà¤¸à¤¬à¤ķ":1134,"à¤¤à¤¤":1135,"Ġà¤®à¤Ī":1136,"à¤Ńà¤ķ":1137,"à¤ħà¤°":1138,"à¤ĩà¤®":1139,"à¤īà¤¸à¤¨":1140,"Ġ2016":1141,"Ġà¤¸à¤¹à¤®à¤¤":1142,"Ġ40":1143,"Ġà¤¨à¤®":1144,"Ġà¤Ńà¤µà¤¨":1145,"le":1146,"Ġà¤īà¤¸à¤®":1147,"à¤Ĥ,":1148,"30":1149,"12":1150,"Ġà¤ªà¤ķà¤¡":1151,"Ġà¤ħà¤Ĺà¤¸":1152,"à¤ĩà¤ľ":1153,"Ġà¤ľà¤¯":1154,"à¤Ĺà¤¡":1155,"Ġà¤ªà¤°à¤µà¤°":1156,"Ġà¤ıà¤¡":1157,"Ġà¤ħà¤¥à¤µ":1158,"Ġà¤łà¤¹à¤°":1159,"Ġà¤Ńà¤²":1160,"à¥Ī:":1161,"âĢľ":1162,"à¤ķà¤Ī":1163,"à¤¨à¤Ĺà¤°":1164,"à¤ķà¤®":1165,"Ġà¤Ĩà¤ķà¤°":1166,"ĠT":1167,"Ġ28":1168,"à¤¯à¤°à¤²":1169,"ro":1170,"à¤¤à¤¬":1171,"Ġà¤ħà¤¸à¤®":1172,"à¥ĩà¤Ĥ)":1173,"à¤ľà¤¤":1174,"Ġà¥ĺ":1175,"am":1176,"Ġà¤®à¤¶":1177,"à¤°à¤Ĺà¤¤":1178,"Ġà¤ªà¤²":1179,"Ġà¤¬à¤ľà¤Ł":1180,"Ġà¤ļà¤¯à¤¨":1181,"Ġà¤ľà¤¸":1182,"Ġà¤¬à¤¹à¤¨":1183,"à¤ħà¤²à¤Ĺ":1184,"à¤ļà¤¯":1185,"ĠâĢĻ":1186,"Ġà¤Ĺà¤łà¤¬":1187,"Ġ/":1188,"Ġà¤Ĺà¤¹à¤°":1189,"Ġà¤¤à¤¨":1190,"Ġà¤Ĩà¤ł":1191,"Ġ23":1192,"à¤§à¤ķ":1193,"Ġà¤ªà¤°à¤µà¤°à¤¦":1194,"ed":1195,"à¥ĭ-":1196,"\\\\":1197,"Ġà¤ľà¤¨à¤°à¤²":1198,"Ġà¤ĩà¤®":1199,"Ġà¤®à¤¹à¤¸":1200,"Ġ31":1201,"à¤īà¤¦":1202,"à¤¸à¤ķà¤°":1203,"à¤Īà¤ķ":1204,"Ġ26":1205,"à¥ĩ?":1206,"à¤ĺà¤¨":1207,"70":1208,"ĠâĢĵ":1209,"à¤¥à¤°":1210,"à¤ªà¤¦":1211,"à¤¥à¤ķ":1212,"Ġà¤®à¤¤à¤²à¤¬":1213,"à¤¶à¤µ":1214,"Ġà¤«à¤°à¤µà¤°":1215,"Ġà¤°à¤¬":1216,"à¤°à¤¥à¤®":1217,"Ġà¥¨":1218,"Ġà¤ħà¤¹à¤®à¤¦":1219,"Ġà¤¨à¤ľ":1220,"Ġà¤ĩà¤ļ":1221,"à¤Łà¤µà¤°":1222,"18":1223,"à¤īà¤Ł":1224,"à¥ĥà¤Ĥ":1225,"Ġà¤Łà¤¨":1226,"à¤¦à¤¯":1227,"à¤¯à¤Łà¤¨":1228,"Ġà¤ĭà¤£":1229,"Ġà¤ķà¤ķ":1230,"Ġà¤ĳà¤¨à¤²":1231,"Ġà¤¸à¤²à¤®":1232,"Ġà¤Ĩà¤Īà¤ª":1233,"Ġà¤ĩà¤ľ":1234,"Ġà¤īà¤°":1235,"Ġà¤®à¤£":1236,"11":1237,"Ġà¤¸à¤®à¤ķ":1238,"Ġà¤īà¤ªà¤ķà¤°à¤£":1239,"à¥Ĥ,":1240,"Ġs":1241,"Ġà¤Ĩà¤ªà¤¸":1242,"à¤ľà¤§":1243,"Ġà¤ıà¤ª":1244,"Ġà¤ªà¤¦à¤ķ":1245,"à¤ªà¤¶":1246,"Ġ27":1247,"à¤¨à¤¤à¤®":1248,"à¤¡à¤¸":1249,"ĠG":1250,"Ġà¤¶à¤ĸ":1251,"om":1252,"Ġà¤Ľà¤¤":1253,"à¤¯à¤µà¤¹":1254,"Ġà¤¹à¤ķ":1255,"à¤¤à¤²":1256,"à¤ªà¤Łà¤¨":1257,"à¤Ĺà¤ľ":1258,"Ġà¤¹à¤¥":1259,"à¤ıà¤¸à¤ª":1260,"à¤¼,":1261,"Ġà¤Ĩà¤¬":1262,"à¤·à¤ľ":1263,"Ġà¤¦à¤µ":1264,"ĠD":1265,"à¤°à¤ļà¤¨":1266,"à¤¬à¤¡":1267,"Ġà¤īà¤ªà¤°":1268,"15":1269,"à¤°à¤·":1270,"Ġà¤ħà¤¡":1271,"à¤Ĩà¤Īà¤Ł":1272,"Ġ2014":1273,"à¤£à¤µà¤¤":1274,"Ġ2015":1275,"à¤¨à¤ª":1276,"re":1277,"Ġà¤Īà¤°":1278,"Ġà¤ħà¤¸à¤°":1279,"à¤²à¤¦":1280,"à¥Ģà¤Ĥ.":1281,"Ġà¤Ĺà¤łà¤¨":1282,"17":1283,"à¥Ļ":1284,"Ġà¤īà¤ªà¤Ń":1285,"à¤ļà¤¤":1286,"Ġà¤ıà¤ķà¤¤":1287,"à¤ķà¤¹":1288,"ĠH":1289,"Ġà¤Ĩà¤Īà¤¸":1290,"Ġà¤Ĩà¤ıà¤Ĺ":1291,"à¤¨à¤¹":1292,"Ġà¤ĵà¤²":1293,"Ġà¤ļà¤²à¤¨":1294,"Ġà¤¶à¤¹":1295,"Ġà¤ļà¤ķ":1296,"Ġà¤ªà¥ľ":1297,"à¤ħà¤¤":1298,"à¤Łà¤¬":1299,"Ġà¤¨à¤¤":1300,"Ġ29":1301,"à¤®à¤Ĺà¤°":1302,"Ġà¤ĵà¤µà¤°":1303,"à¤ķà¤¦à¤®":1304,"à¤¨à¤¬":1305,"à¤®à¤ª":1306,"à¥ĭ.":1307,"Ġà¤¤à¤Ł":1308,"à¤ľà¤¨à¤ķ":1309,"à¤ªà¤¥":1310,"à¤¨à¤ķà¤°":1311,"à¤°à¤µà¤°":1312,"Ġà¤¸à¤ĸ":1313,"25":1314,"âĢ¦":1315,"à¤®à¤§":1316,"16":1317,"ct":1318,"ĠF":1319,"Ġin":1320,"ra":1321,"ing":1322,"Ġà¤®à¤Ĺà¤°":1323,"Ġà¤ķà¤®à¤ľ":1324,"el":1325,"Ġ60":1326,"Ġc":1327,"Ġ35":1328,"à¤Łà¤µ":1329,"Ġ32":1330,"Ġà¤ħà¤¯":1331,"Ġà¤°à¤¦":1332,"Ġà¤ĩà¤°":1333,"à¤ıà¤¸à¤ıà¤¸":1334,"à¤¾à¥¤\"":1335,"Ġà¤Ĺà¤µ":1336,"à¤¤à¤ª":1337,"Ġà¤°à¤ľ":1338,"Ġà¤°à¤£à¤¨":1339,"à¤¾âĢĻ":1340,"à¤¡à¤ķ":1341,"22":1342,"Ġ199":1343,"à¤¡à¤ķà¤°":1344,"à¤®à¤£":1345,"Ġà¤Ĩà¤¹":1346,"th":1347,"à¤¯à¤¸à¤Ń":1348,"ĠE":1349,"à¤¡à¤µ":1350,"à¤Ĩà¤Īà¤Ĩà¤°":1351,"Ġà¤¹à¤«":1352,"à¤ļà¤¤à¤®":1353,"à¤ľà¤¬à¤ķ":1354,"à¤µà¤¯à¤¨":1355,"à¤ıà¤®à¤¸":1356,"us":1357,"à¤¿-":1358,"à¤Łà¤¤":1359,"Ġà¤Ķà¤¦":1360,"à¤¸à¤Ĺà¤¢":1361,"à¤²à¤ļ":1362,"Ġà¤īà¤¤à¤°":1363,"Ġà¤Īà¤¸":1364,"à¤¾'":1365,"ol":1366,"¯à¥":1367,"Ġà¤Ńà¤Ł":1368,"Ġà¤¶à¤¤":1369,"à¥ħ":1370,"Ġà¤ķà¤ļ":1371,"...":1372,"à¥Ģ?":1373,"un":1374,"Ġà¤¯à¤ķ":1375,"Ġà¤«à¤¸à¤²":1376,"as":1377,"ent":1378,"à¤ĩà¤ı":1379,"Ġà¤Ĩà¤¦à¤°":1380,"14":1381,"à¤ĩà¤¨à¤ķ":1382,"Ġà¤ķà¤µ":1383,"Ġà¤Ńà¤Ĺà¤µ":1384,"à¤ĸà¤ķà¤°":1385,"is":1386,"Ġà¤ħà¤µà¤¸":1387,"à¤¯à¤°à¤®":1388,"Ġà¤¦à¤®":1389,"ot":1390,"à¤¦à¤¦":1391,"à¤ıà¤¶à¤¨":1392,"à¤łà¤Ń":1393,"Ġà¤Ĺà¤²":1394,"à¤Ĩà¤°à¤¸":1395,"ĠK":1396,"à¤Ĭà¤¦":1397,"à¤īà¤ª":1398,"Ġà¤¦à¤¶à¤ķ":1399,"à¤Īà¤¸":1400,"Ġ''":1401,"à¤ĸà¤ķ":1402,"Ġ70":1403,"âĢĮ":1404,"Ġà¤ĩà¤¬":1405,"et":1406,"à¤°à¤°":1407,"ch":1408,"à¤ıà¤Ł":1409,"Ġà¤§à¤°à¤¤":1410,"à¤¨à¤Ł":1411,"ĠL":1412,"Ġà¤Ńà¤¯":1413,"Ġà¤®à¤ļ":1414,"Ġ80":1415,"à¥Ĥà¤Ĥ.":1416,"Ġ|":1417,"à¤¬à¤ļ":1418,"à¥Ī)":1419,"à¥§":1420,"à¤ıà¤¡":1421,"à¤¶à¤®":1422,"Ġà¤Ĳà¤¤":1423,"à¤°à¤¸à¤¨":1424,"à¤¾à¤Ĥ,":1425,"80":1426,"Ġà¤ħà¤°à¤µ":1427,"Ġà¤¸à¤¦à¤¨":1428,"Ġà¤¸à¤®à¤Ŀà¤¤":1429,"à¤¯à¤¶":1430,"à¤Ĩà¤Īà¤ª":1431,"Ġà¤«à¤²":1432,"Ġà¤ĳà¤ªà¤°":1433,"à¤¦à¤¤":1434,"Ġà¤¶à¤ªà¤¥":1435,"Ġà¤ķà¤¸":1436,"Ġà¤ļà¤¢":1437,"à¤¿)":1438,"à¤ķà¤¤à¤®":1439,"à¤Ĩà¤¯":1440,"Ġà¤Īà¤¶":1441,"à¤¼à¥Į":1442,"Ġà¤ĵà¤¡":1443,"à¥Ĥà¤Ĥ,":1444,"à¤ıà¤¸à¤Ī":1445,"Ġà¤µà¤¨à¤¡":1446,"à¥Ģ'":1447,"Ġà¤ħà¤«à¤Ĺ":1448,"Ġà¤¸à¤¸":1449,"à¤ĩà¤ª":1450,"Ġà¤²à¤Ĺà¤¨":1451,"à¤ıà¤¸à¤¸":1452,"Ġà¤ıà¤¨à¤¸":1453,"40":1454,"à¥ľà¤ķ":1455,"ul":1456,"à¤²à¤Ń":1457,"Ġ2013":1458,"à¤Ĺà¤²à¤µ":1459,"à¤ħà¤ķ":1460,"MP":1461,"Ġà¤Ĩà¤¸à¤ª":1462,"Ġà¤ĩà¤®à¤°":1463,"à¤¼à¥Ī":1464,"60":1465,"à¤ıà¤«à¤¸":1466,"ĠO":1467,"il":1468,"à¥ģ,":1469,"à¥ļ":1470,"Ġà¤®à¤¨à¤®":1471,"Ġà¤ªà¤¨":1472,"ay":1473,"Ġà¤ıà¤¡à¤®":1474,"Ġà¤°à¤ļà¤¨":1475,"Ġà¤¸à¤®à¤Ŀà¤¨":1476,"à¤ªà¤ļ":1477,"Ġà¤¦à¤¯":1478,"13":1479,"Ġà¤¬à¤¦à¤²à¤¨":1480,"Ġà¤ľà¤¡":1481,"Ġ500":1482,"Ġà¤Ĳà¤²":1483,"ov":1484,"Ġp":1485,"iv":1486,"à¥¦à¥¦":1487,"Ġ2012":1488,"Ġà¤¹à¤¡":1489,"Ġà¤Ĩà¤īà¤Ł":1490,"Ġà¤Ĩà¤°à¤ķ":1491,"xa":1492,"à¥ĢâĢĻ":1493,"ir":1494,"à¥įâĢĮ":1495,"à¤°à¤ķà¤°":1496,"Ġà¤ľà¤¨à¤¸":1497,"Ġà¤ħà¤ľà¤¯":1498,"Ġà¤®à¤ľà¤¦":1499,"ĠIn":1500,"44":1501,"Ġà¤Ĩà¤Ń":1502,"ur":1503,"à¤¹à¤¨à¤¤":1504,"à¤Ĩà¤Ĺ":1505,"à¤Ĥ.":1506,"à¤ıà¤ľ":1507,"ation":1508,"Ġ[":1509,"à¤ªà¤°à¤®":1510,"Ġà¤¸à¤®à¤¨":1511,"Ġ2011":1512,"Ġ64":1513,"Ġà¤Ķà¤¸à¤¤":1514,"ĠV":1515,"ĠW":1516,"ĠU":1517,"Ġà¤µà¤ļà¤¨":1518,"Ġv":1519,"à¤¶à¤¹à¤°":1520,"Ġà¤¨à¤¸":1521,"ad":1522,"Ġ48":1523,"Ġà¤ĳà¤Ł":1524,"à¤ıà¤¨à¤¸":1525,"Ġ45":1526,"à¤¯à¤¯":1527,"Ġà¤īà¤ľ":1528,"Ġà¤ĵà¤ªà¤¨":1529,"à¤Ĩà¤°à¤ª":1530,"à¤°à¤ķà¤Ł":1531,"Ġà¤¦à¤¤":1532,"Ġà¤°à¤®":1533,"à¤īà¤®":1534,"à¤¿à¤¼":1535,"Ġà¤ľà¤²à¤µ":1536,"Ġà¤ķà¤®à¤°":1537,"à¤ĭ":1538,"Ġà¤Ĩà¤Īà¤Ł":1539,"Ġ198":1540,"à¤Ĩà¤¨":1541,"à¤¯à¤£":1542,"à¤¯à¤ľ":1543,"Ġà¤¸à¤ªà¤¨":1544,"à¤ķà¤Ń":1545,"Ġà¤¬à¤¨à¤°":1546,"à¤ıà¤®à¤ıà¤¸":1547,"Ġà¤§à¤®à¤ķ":1548,"Ġà¤Ŀà¤Łà¤ķ":1549,"Ġà¤Ĩà¤ªà¤¦":1550,"à¤®à¤¹à¤¤":1551,"and":1552,"à¤¸à¤¹":1553,"à¤Ĩà¤§":1554,"24":1555,"à¤ıà¤ª":1556,"âĢĵ":1557,"dia":1558,"id":1559,"Ġà¤ľà¤ľ":1560,"Ġà¤Ĩà¤¸à¤®":1561,"à¤¼à¤¾à¥¤":1562,"à¤ħà¤¦":1563,"ww":1564,"Ġ36":1565,"ig":1566,"à¥ĭà¤Ĥ/":1567,"à¤ĸà¤Ń":1568,"Ġà¤ĩà¤¨à¤®":1569,"\\\"\"":1570,"Ġt":1571,"Ġ37":1572,"à¤ħà¤¸":1573,"Ġà¤Ĩà¤¯à¤¤":1574,"Ġà¤ľà¤¨à¤ľ":1575,"Ġ33":1576,"à¤¬à¤°à¤®":1577,"Ġ90":1578,"à¤°à¤£à¤¬":1579,"Ġà¤ľà¤®à¤ķà¤°":1580,"à¤Īà¤ĵ":1581,"à¥Īà¤Ĥ:":1582,"à¤µà¤¡":1583,"Ġà¤īà¤ªà¤¬":1584,"à¤¶à¤¸":1585,"à¤¯à¤§":1586,"Ġà¤Ĳà¤ª":1587,"Ġm":1588,"Ġà¤ªà¤°à¤¨":1589,"Ġà¤¶à¤¨":1590,"à¤ļà¤µ":1591,"23":1592,"âĢįà¤¿":1593,"à¥Ī-":1594,"à¤¶à¤¨à¤ķ":1595,"à¤īà¤¨à¤²":1596,"à¥Īà¤Ĥà¥¤\"":1597,"Ġà¤¸à¤¶à¤ķ":1598,"à¤µà¤¦":1599,"Ġ\"\"\"\"":1600,"Ġà¤ªà¥Ŀ":1601,"à¤¤à¤ķà¤°":1602,"à¤ħà¤¸à¤²":1603,"Ġ2010":1604,"Ġà¤ıà¤ļà¤¡":1605,"à¤ķà¤¥":1606,"Ġà¤Łà¤°":1607,"à¤¼à¤¿à¤Ĥ":1608,"à¤ĸà¤¨à¤Ĭ":1609,"Ġà¤ħà¤Ł":1610,"Ġà¤ķà¤µà¤°":1611,"à¤°à¤ķà¤¤":1612,"Ġà¤ħà¤¸à¤²":1613,"''":1614,"Ġ75":1615,"à¥ĭà¤Ĥ)":1616,"Ġà¤īà¤ªà¤¨":1617,"à¤ĩà¤«":1618,"à¤ıà¤¨à¤ıà¤¸":1619,"Ġà¤ıà¤¨à¤¡":1620,"à¤Ĩà¤®":1621,"Ġ)":1622,"à¤°à¤®à¤¶":1623,"à¤ıà¤Ĩà¤Ī":1624,"à¤¼à¤¾,":1625,"à¥Ĥ)":1626,"à¤¶à¤¯":1627,"à¤īà¤ļ":1628,"à¤īà¤²":1629,"Ġà¤¹à¤¦":1630,"75":1631,"999":1632,"Ġà¤®à¤¸à¤²":1633,"Ġà¤Łà¤ķ":1634,"Ġà¤²à¤ĺ":1635,"ia":1636,"à¤ķà¤¤à¤°":1637,"Ġà¤¶à¤¤à¤ķ":1638,"à¤īà¤ªà¤°":1639,"à¤¯à¤Łà¤ķ":1640,"Ġà¤Ĩà¤ªà¤¨":1641,"Ġà¤§à¤µà¤¨":1642,"à¤¼à¥Ĥ":1643,"à¤ķà¤²à¤¨":1644,"Ġà¤Ĺà¤µà¤°":1645,"Ġà¤ĸà¤¨":1646,"Ġà¤ħà¤µà¤¶":1647,"à¤²à¤ļà¤¸":1648,"à¤¯à¤²à¤Ł":1649,"à¤Īà¤¡":1650,"Ġà¤ķà¤®à¤²":1651,"à¤°à¤¦à¤¸":1652,"à¤¨à¤µà¤°":1653,"Ġà¤Ĩà¤ªà¤°":1654,"à¤Ĩà¤ĸ":1655,"Ġà¤ķà¤ªà¤¡":1656,"à¤Ĺà¤¶":1657,"Ġ34":1658,"à¤¯à¤¬":1659,"Ġà¥ŀ":1660,"à¤Łà¤ĩ":1661,"Ġà¤ıà¤ķà¤®":1662,"Ġ2021":1663,"Ġà¤¨à¤ķà¤¦":1664,"Ġo":1665,"Ġà¤¬à¤ĸ":1666,"Ġ2009":1667,"Ġ?":1668,"à¤Ĺà¤ł":1669,"Ġà¤®à¤®à¤¤":1670,"à¤²à¤¡":1671,"à¤®à¤®":1672,"à¤Ķ":1673,"Ġà¤¯à¤¥":1674,"à¥Ģ),":1675,"Ġà¥©":1676,"à¤Ńà¤µà¤¤":1677,"35":1678,"ce":1679,"Ġà¤īà¤¤à¤¨":1680,"Ġà¤ıà¤Ĺ":1681,"me":1682,"Ġà¤¬à¤¨à¤¤":1683,"à¤Ĩà¤Īà¤ı":1684,"à¤Ĺà¤£":1685,"Ġ370":1686,"Ġà¤ľà¤Ĺà¤¤":1687,"ĠJ":1688,"Ġn":1689,"Ġà¤¬à¤®":1690,"Ġà¤ļà¤®":1691,"à¤°à¤¤à¤²à¤¬":1692,"à¤¸à¤¬à¤¸":1693,"Ġà¤°à¤£à¤µ":1694,"Ġ150":1695,"à¤ħà¤ļ":1696,"à¤ĩà¤®à¤°":1697,"Ġf":1698,"Ġà¤¬à¤¹à¤¸":1699,"à¥Ģ/":1700,"os":1701,"Ġà¤ĳà¤°":1702,"Ġà¤Ĩà¤ļ":1703,"90":1704,"à¥Ĩ":1705,"à¤Ĺà¤¦à¤°":1706,"Ġà¤ıà¤°":1707,"Ġà¤Ĩà¤«":1708,"65":1709,"Ġà¤¬à¤Ĺ":1710,"Ġ197":1711,"à¤®à¤¶":1712,"à¤ĩà¤¬à¤°":1713,"à¤ļà¤ķà¤°":1714,"pp":1715,"Ġà¤ªà¤Łà¤¨":1716,"Ġà¤ªà¤¹à¤¨":1717,"Ġà¤ĵà¤¬":1718,"Ġà¤¬à¤ķ":1719,"à¤¸à¤®à¤¯":1720,"à¤£à¤µ":1721,"à¤¶à¤Ńà¤°":1722,"à¤Ĩà¤Īà¤ıà¤¸":1723,"à¤Ĺà¤ª":1724,"à¤ĸà¤¦":1725,"à¤ĩà¤µà¤°":1726,"500":1727,"Ġb":1728,"à¤ıà¤®à¤Ī":1729,"Ġà¤°à¤ķà¤®":1730,"Ġà¤¬à¤°à¤¸":1731,"à¤¨à¤ľà¤°":1732,"Ġà¤ıà¤«à¤Ĩà¤Īà¤Ĩà¤°":1733,"à¤Łà¤ħà¤ª":1734,"26":1735,"à¤¦à¤°à¤Ĺ":1736,"à¥¨":1737,"à¤²à¤ľ":1738,"à¤¾à¤ģ,":1739,")à¥¤":1740,"Ġà¤Ĺà¤¡à¤ķà¤°":1741,"à¤¯à¤¨à¤¶":1742,"à¤ħà¤Ĺà¤²":1743,"Ġà¤¸à¤°à¤¦":1744,"à¤¸à¤«":1745,"Ġà¤®à¤°à¤¨":1746,"à¤ĩà¤¬":1747,"Ġà¤ķà¤²à¤°":1748,"à¤ĩà¤ľà¤°":1749,"à¤¹à¤¬":1750,"28":1751,"Ġ#":1752,"Ġ2008":1753,"Ġà¤¬à¤ļà¤¨":1754,"Ġà¥Ľà¤°":1755,"à¤£à¤®":1756,"Ġà¥§à¥¯à¥":1757,"Ġ300":1758,"ĠPro":1759,"Ġà¤Ńà¤¡":1760,"Ġà¤°à¤«":1761,"à¤īà¤¥":1762,"à¤¸à¤¡":1763,"45":1764,"à¤ĳà¤¸":1765,"Ġà¤ĩà¤¶":1766,"Ġà¤¤à¤¹à¤¸":1767,"27":1768,"Ġà¤Ķà¤°à¤¤":1769,"Ġ195":1770,"à¥Īà¥¤\"\"\"":1771,"à¤Ŀà¤¸":1772,"à¤Łà¤ķà¤°":1773,"à¥Ī!":1774,"2017":1775,"à¤łà¤²":1776,"ult":1777,"à¤ªà¤¹à¤°":1778,"à¤Ĺà¤Łà¤¨":1779,"Ġà¤ķà¤°à¤£":1780,"à¤²à¤Ŀ":1781,"Ġà¤²à¤¦":1782,"à¤Ĩà¤µ":1783,"à¤¦à¤¨à¤¶":1784,"à¤¿.":1785,"em":1786,"Ġà¤¦à¤¶":1787,"à¤²à¤ª":1788,"47":1789,"ĠX":1790,"Ġà¤ıà¤¯à¤°à¤ª":1791,"Ġ38":1792,"à¤ªà¤°à¤¸":1793,"à¤¶à¤¬":1794,"Ġà¤ĩà¤ķà¤Ł":1795,"Ġà¤²à¤®":1796,"Ġà¤ļà¤¨":1797,"Ġd":1798,"Ġà¤¸à¤°à¤²":1799,"à¤¦à¤¶":1800,"ut":1801,"à¤Ĩà¤Īà¤ıà¤®":1802,"à¤Īà¤²":1803,"Ġà¤Ńà¤°à¤¨":1804,"à¤¶à¤ķà¤¶":1805,"Ġvs":1806,"Ġà¤¨à¤¬":1807,"29":1808,"à¤ħà¤«":1809,"à¤¨à¤ı":1810,"Ġà¤§à¤®":1811,"Ġ196":1812,"Ġà¤Ĩà¤ªà¤¤":1813,"Ġ44":1814,"Ġà¤īà¤Ĺ":1815,"Ġà¤ĳà¤«à¤°":1816,"Ġà¤ħà¤Łà¤²":1817,"Ġà¤ķà¤¤":1818,"Ġà¤ħà¤ªà¤®":1819,"BI":1820,"Ġà¤Ĩà¤ķà¤²à¤¨":1821,"Ġ49":1822,"Ġà¤¬à¤°à¤ķà¤°":1823,"à¥«":1824,"à¤¹à¤µ":1825,"ab":1826,"à¤°à¤¥":1827,"Ġà¤¬à¤ļà¤¤":1828,"à¤£à¤¸":1829,"à¥Ĥà¤ģà¥¤":1830,"à¤ıà¤ı":1831,"Ġà¤¤à¤Ń":1832,"à¤Ńà¤°à¤¤":1833,"Ġà¤²à¤ĸà¤¨à¤Ĭ":1834,"mi":1835,"Ġ65":1836,"à¤µà¤¸à¤¨":1837,"In":1838,"Ġà¤°à¤£à¤¬":1839,"à¤·à¤§":1840,"eal":1841,"à¥į\\\\":1842,"Ġ43":1843,"Ġà¤ĳà¤ķ":1844,"à¤¯à¤¤à¤¨":1845,"à¤Ĺà¤ķà¤°":1846,"à¤Łà¤¸":1847,"Ġà¤¶à¤°à¤£":1848,"à¤ıà¤¸à¤¬":1849,"Ġà¤ıà¤ķà¤²":1850,"Ġà¤ıà¤Ł":1851,"--":1852,"Ġ&":1853,"à¤ıà¤¨à¤¯":1854,"Ġà¤¦à¤°à¤µ":1855,"à¤ıà¤¸à¤¡":1856,"Ġ128":1857,"à¤Łà¤°à¤µ":1858,"Ġà¥ļ":1859,"ew":1860,"Ġ55":1861,"Ġh":1862,"od":1863,"Ġà¤ħà¥Ľ":1864,"à¤¾!":1865,"à¥ĭà¤Ĥà¥¤":1866,"Ġà¤¬à¤°à¤¤":1867,"Ġà¤īà¤ªà¤ķ":1868,"ri":1869,"Ġà¤¶à¤®":1870,"Ġa":1871,"Ġà¤¨à¤ľà¤¦":1872,"à¤£à¤¤":1873,"Ġà¤ľà¤¯à¤ª":1874,"Ġà¤ľà¤Ł":1875,"à¤ĩà¤¶":1876,"Ġà¤¸à¤®à¤Ĺ":1877,"à¤ĸà¤£":1878,"à¤µà¤°à¤ķ":1879,"Ġà¤Ľà¤ł":1880,"à¤«à¤¨":1881,"à¤¶à¤¦":1882,"Ġà¤Ķà¤ªà¤ļ":1883,"Ġà¤ĸà¤Ł":1884,"Ġ39":1885,"à¤Ľà¤¡":1886,"Ġà¤ĩà¤¸à¤°":1887,"Ġà¤Ńà¤°à¤ª":1888,"Ġà¥Ľà¤®":1889,"Ġ\\\"\"":1890,"Ġà¤¡à¤¬":1891,"à¤ĵà¤¸":1892,"Ġà¤ıà¤®à¤ıà¤¸":1893,"Ġà¤ıà¤¸à¤ª":1894,"à¤µà¤®":1895,"Ġà¤Ĩà¤Īà¤ı":1896,"ter":1897,"48":1898,"à¤Ľà¤¨":1899,"à¤Ĩà¤°à¤¡":1900,"Ġà¤²à¥ľ":1901,"à¤ªà¤°à¤¨":1902,"Ġà¤ªà¤¬":1903,"à¤ıà¤¨à¤ľ":1904,"Ġà¤¦à¤¹":1905,"31":1906,"ala":1907,"Ġà¤ħà¤¹":1908,"har":1909,"Ġà¤ªà¤°à¤¸":1910,"à¥ª":1911,"Ġà¤ĳà¤¡":1912,"Ġà¤Ĺà¤£à¤°":1913,"up":1914,"Ġà¤®à¤ķà¤¸à¤¦":1915,"Ġà¤®à¤¹à¤ľ":1916,"Ġ42":1917,"à¤®à¤ľ":1918,"Ġà¤ĳà¤ª":1919,"à¥ĭ?":1920,"\"\"\"\"":1921,"Ġà¤ħà¤®à¤²":1922,"esult":1923,"à¥¤\"":1924,"à¤īà¤§à¤°":1925,"à¤·à¤µà¤°":1926,"Ġà¤¸à¤¤à¤°":1927,"Ġà¤Ńà¤ķ":1928,"Ġà¤Łà¤ķà¤°":1929,"Ġà¤¨à¤·":1930,"one":1931,"à¥Īà¤Ĥ-":1932,"Ġ46":1933,"edmi":1934,"Ġà¤¸à¤Ł":1935,"à¤ĩà¤¤à¤¨":1936,"ag":1937,"à¤µà¤Ń":1938,"Ġà¤¶à¤°à¤¦":1939,"à¥ĭà¤Ĥ-":1940,"Ġof":1941,"à¤§à¤¡":1942,"Ġà¤ªà¤°à¤µ":1943,"um":1944,"Ġà¤¸à¤¹à¤ķ":1945,"II":1946,"Ġà¤ĸà¤¤à¤°à¤¨":1947,"Ġà¤ĺà¤¨":1948,"à¤ħà¤ľ":1949,"PL":1950,"Ġà¤¬à¤Ł":1951,"à¤¸à¤Ł":1952,"Ġà¤®à¤¶à¤¹":1953,"Ġg":1954,"ap":1955,"à¤ıà¤¬":1956,"Ġà¤ıà¤ķà¤ľ":1957,"Ġà¤ĭà¤·":1958,"à¤·à¤ķà¤°":1959,"est":1960,"à¤©":1961,"37":1962,"li":1963,"Ġ+":1964,"Ġà¤Ĩà¤¯à¤ķà¤°":1965,"art":1966,"à¤Ĩà¤¸":1967,"Ġà¤Ĩà¤¨à¤¨":1968,"Ġà¤¸à¤¶à¤¸":1969,"Ġà¤Ńà¤¤":1970,"Ġà¤¬à¤¸à¤ª":1971,"32":1972,"Ġà¤¥à¤°":1973,"09":1974,"à¤¥à¤Ĺ":1975,"38":1976,"à¤Ĺà¤¸":1977,"à¥Īà¤Ĥ)":1978,"à¤Łà¤°à¤¸":1979,"Ġ47":1980,"55":1981,"Ġà¤īà¤ķ":1982,"Ġà¤Ľà¤µ":1983,"à¤ķà¤¬":1984,"à¤ıà¤¸à¤Ĩà¤Ī":1985,"à¤ĵà¤Ĺ":1986,"à¤ıà¤¯à¤°":1987,"à¤ĸà¤¬à¤°":1988,"Ġà¤«à¤°à¤®":1989,"Ġà¤īà¤¨à¤ªà¤°":1990,"SE":1991,"Ġà¤Ķà¤·à¤§":1992,"Ġà¤«à¤¡":1993,"Ġà¤®à¤Ľà¤²":1994,"à¥Ľà¤°":1995,"Ġà¤ľà¤¬à¤°à¤¦à¤¸":1996,"Ġà¤¸à¤«à¤°":1997,"Ġà¤°à¤¹à¤®":1998,"Ġà¤ıà¤¡à¤µ":1999,"ate":2000,"à¥Ī|":2001,"Ġà¤¨à¤«":2002,"à¤ªà¤£à¤¨":2003,"39":2004,"Ġà¤°à¤¤":2005,"Ġà¤Ĺà¤¢":2006,"36":2007,"à¥©":2008,"à¤Ĩà¤µà¤ľ":2009,"à¤¤à¤§":2010,"Ġà¤īà¤ªà¤§":2011,"Ġà¤Ĺà¤¨":2012,"han":2013,"à¤¬à¤ľ":2014,"à¤¼à¥Ģ,":2015,"à¤Īà¤ª":2016,"Ġà¤ĺà¤¡":2017,"Ġà¤ħà¤µà¤Ĺà¤¤":2018,"à¤ĵà¤²":2019,"à¤ħà¤®à¤°":2020,"Ġi":2021,"og":2022,"à¤¦à¤ª":2023,"Ġà¤¤à¤ķà¤²":2024,"08":2025,"Ġà¤ıà¤¹à¤¸":2026,"Ġ2007":2027,"à¤Īà¤¯":2028,"ak":2029,"à¤¹à¤Ł":2030,"Ġà¤ıà¤¬":2031,"Ġà¤¸à¤¤à¤¤":2032,"05":2033,"à¥ĭ!":2034,"Ġà¤Ŀà¤Ĺà¤¡":2035,"à¥ĩ:":2036,"à¥ģ-":2037,"âĢĭ":2038,"Ġà¤¡à¤°à¤¤":2039,"Ġà¥ª":2040,"Ġà¤Ĩà¤®à¤¤":2041,"à¤Īà¤Ł":2042,"à¤¯à¤®à¤¨":2043,"à¥Ī.\"":2044,"Ġà¤ªà¤µà¤¨":2045,"à¤¹à¤ª":2046,"Ġ400":2047,"ment":2048,"49":2049,"Ġà¤ľà¤¹à¤¨":2050,"à¤ıà¤µ":2051,"Ġà¤īà¤ªà¤ľ":2052,"à¤Ĩà¤Īà¤¡":2053,"Ġà¤Ĺà¤¡":2054,"ec":2055,"Ġà¤¨à¤µà¤®":2056,"ard":2057,"à¤ıà¤¨à¤¡":2058,"Ġà¤¨à¤¶":2059,"Ġà¤ĺà¤Łà¤ķ":2060,"à¥ģ.":2061,"Ġà¤ħà¤ªà¤¡":2062,"Ġà¤ĺà¤Łà¤ķà¤°":2063,"Ġà¤īà¤Ńà¤°":2064,"à¤¦à¤°à¤ħà¤¸à¤²":2065,"85":2066,"à¤ªà¤°à¤µ":2067,"2014":2068,"ction":2069,"Ġà¤µà¤ľà¤¨":2070,"à¤Ĩà¤°à¤ıà¤«":2071,"Ġ2000":2072,"Ġà¤¸à¤¤à¤¹":2073,"95":2074,"à¤ħà¤¸à¤®":2075,"à¤Ĩà¤īà¤Ł":2076,"Ġà¤°à¤ļ":2077,"à¤Łà¤°à¤¨à¤²":2078,"ers":2079,"Ġà¤ĵà¤®":2080,"Ġà¤¨à¤¡":2081,"à¤ķà¥ľ":2082,"à¤¤à¤¸à¤°":2083,"Ġ56":2084,"à¤Ĺà¤£à¤¨":2085,"2018":2086,"hi":2087,"ID":2088,"Ġ54":2089,"à¤¾à¥ħ":2090,"à¤¤à¤¥":2091,"JP":2092,"à¤ıà¤¶":2093,"Ġà¤°à¤ľà¤¤":2094,"à¤¼-":2095,"à¤¯à¤Ń":2096,"à¤°à¤ľà¤¨":2097,"Ġw":2098,"à¤Īà¤ıà¤¸":2099,"Ġà¤¸à¤Ĭà¤¦":2100,"à¥Ĥ.":2101,"Ġ51":2102,"2016":2103,"à¤¦à¤°à¤¤":2104,"Ġà¤¹à¤¨":2105,"Ġà¤ļà¤ª":2106,"à¤¯à¤¥":2107,"Ġà¤Ľà¤ķ":2108,"à¤¬à¤ķ":2109,"Ġà¤¯à¥ĺ":2110,"Ġà¤Ĩà¤°à¤¬":2111,"ice":2112,"à¤¦à¤Ń":2113,"ne":2114,"Ġà¤ķà¤¦":2115,"à¤¹à¤®à¤²":2116,"ity":2117,"à¤Ĩà¤°à¤¬":2118,"Ġà¤Ĩà¤ľà¤®":2119,"Ġà¤ıà¤¯à¤°à¤²":2120,"Ġà¤Ĩà¤°à¤ıà¤¸à¤ıà¤¸":2121,"Ġà¤īà¤®à¤°":2122,"à¤ķà¤ķ":2123,"Ġà¤ľà¤ĸ":2124,"à¤ıà¤¸à¤ıà¤«":2125,"ĠâĢ¦":2126,"à¤Īà¤¦":2127,"Ġ52":2128,"IC":2129,"à¤ĩà¤°":2130,"ealme":2131,"à¥®":2132,"www":2133,"à¥¬":2134,"à¤¨à¤¡":2135,"Ġà¤ħà¤¸à¤«à¤²":2136,"à¤¾/":2137,"à¤¸à¤®à¤Ŀ":2138,"à¤Ĺà¤ķ":2139,"Ġà¤ĳà¤²":2140,"33":2141,"à¥ľà¤¨":2142,"Ġà¤¦à¤«":2143,"à¤ªà¤¬":2144,"à¤Ĩà¤ĩà¤ı":2145,"46":2146,"Ġà¤Ĳà¤ķ":2147,"à¤¡à¤ª":2148,"à¤ıà¤®à¤ĵ":2149,"Ġà¤ĩà¤µ":2150,"Ġà¤Ĩà¤Īà¤¡":2151,"Ġà¤īà¤ªà¤Ĺ":2152,"à¥Ģà¥¤\"":2153,"%),":2154,"Ġà¤ļà¤¤":2155,"Ġà¤¹à¤®à¤¸":2156,"à¤§à¤ķà¤°":2157,"Ġà¤Ĺà¤£à¤¨":2158,"Ġà¤īà¤ªà¤®":2159,"à¤ĩà¤ķà¤²":2160,"à¤¯à¤Ł":2161,"Ġà¤īà¤§":2162,"à¤Ĩà¤°à¤Ĩà¤Ī":2163,"à¥Ģà¤Ĥ)":2164,"Ġà¤Ĺà¤¹à¤²":2165,"2015":2166,"âĢĺâĢĺ":2167,"Ġà¤ıà¤¸à¤¸":2168,"à¤Łà¤ª":2169,"Ġà¤µà¤«":2170,"à¤Īà¤°":2171,"Ġà¤ıà¤¸à¤¡":2172,"Ġà¥«":2173,"Ġ41":2174,"Ġà¤ħà¤ĸà¤¬":2175,"07":2176,"à¤ªà¤µ":2177,"à¤¸à¤°à¤£":2178,"ha":2179,"à¥Ĥà¤ģ,":2180,"à¤¿à¥¤":2181,"Ġà¤ĩà¤¸à¤¨":2182,"Ġà¤²à¤¹à¤°":2183,"à¤ķà¤ħà¤ª":2184,"à¤§à¤ª":2185,"à¤Īà¤µ":2186,"ĠResult":2187,"Ġà¤¶à¤¶":2188,"à¤¨à¤ļ":2189,"à¤ľà¤«":2190,"à¤ĩà¤¨à¤°":2191,"à¤¶à¤¨à¤°":2192,"à¥Ń":2193,"à¤¾),":2194,"Ġà¤ĸà¤¨à¤¨":2195,"à¤¤à¤¸":2196,"Ġ120":2197,"à¤¥à¤¤":2198,"Ġà¤ħà¤«à¤¸à¤°":2199,"à¥ĩà¥¤\"":2200,"Ġà¤ĩà¤ľà¤°":2201,"67":2202,"64":2203,"à¤¨à¤µà¤¤":2204,"à¤Ĩà¤ĩ":2205,"à¤ıà¤¸à¤ı":2206,"à¤ıà¤ļà¤¡":2207,"à¤¨à¤Ĺ":2208,"à¤ªà¤¹":2209,"à¤µà¤Ĺà¤¨":2210,"Ġà¤¬à¤¦à¤®":2211,"à¤īà¤¨à¤®":2212,"à¤¿:":2213,"Ġà¤¹à¤¸à¤¨":2214,"34":2215,"Ġà¤¬à¤¨à¤ķà¤°":2216,"à¥ĩà¤Ĥ?":2217,"Ġà¤ĩà¤Łà¤²":2218,"Ġà¤¨à¤µà¤ľ":2219,"à¥ĩà¤Ĥ:":2220,"à¤¾à¤ĥ":2221,"ist":2222,"Ġ250":2223,"Ġà¤ªà¤¥":2224,"Ġà¤Ńà¤ľà¤¨":2225,"Ġ58":2226,"op":2227,"ow":2228,"ma":2229,"SC":2230,"Ġà¤µà¤ľ":2231,"Ġà¤ĸà¥ľ":2232,"100":2233,"à¤ľà¤¶":2234,"Ġà¤ħà¤²à¤°":2235,"à¤ıà¤®à¤Ł":2236,"à¤¨à¤¶":2237,"à¤Ĩà¤²":2238,"à¤ıà¤¨à¤ı":2239,"à¤ĸà¤¡":2240,"Ġ1000":2241,"77":2242,"ess":2243,"à¤ĩà¤Ĺà¤°":2244,"à¤®à¤°à¤£":2245,"à¤Łà¤°à¤ª":2246,"Ġà¤§à¤°à¤¨":2247,"xy":2248,"Ġà¤¯à¤¶":2249,"Ġà¤¨à¤¹à¤°":2250,"Ġà¤Ĺà¤¹à¤¨":2251,"ĠIndia":2252,"Ġ2022":2253,"à¤¼à¥ĩà¥¤":2254,"à¤¹à¤ľ":2255,"à¤Ĩà¤°à¤ıà¤¸":2256,"à¤ķà¤ľ":2257,"Ġ66":2258,"à¤ķà¤²à¤¤":2259,"01":2260,"Ġà¤Ĩà¤¡à¤µ":2261,"à¤ĺà¤µ":2262,"06":2263,"à¤¬à¤¹à¤°":2264,"Ġà¤¬à¤¦à¤²à¤¤":2265,"à¤£à¤ķ":2266,"à¤¯à¤°à¤¤":2267,"Ġà¤Ŀà¤¡":2268,"à¤¹à¤°à¤¬":2269,"Ġà¤ªà¤°à¤¹":2270,"Ġà¤¸à¥ľà¤ķ":2271,"à¤¯à¤ľà¤²":2272,"à¤ľà¤¨à¤¯":2273,"Ġà¤ıà¤¨à¤Ĩà¤°à¤¸":2274,"à¥ģà¤ĥ":2275,"à¤ĳà¤«":2276,"à¤ķà¤°à¤¨":2277,"Ġ67":2278,"Ġà¤«à¤¡à¤£à¤µ":2279,"Ġ2006":2280,"à¤ħà¤¯":2281,"Ġà¤Ĩà¤Īà¤Ĩà¤Īà¤Ł":2282,"Ġà¤®à¤¤à¤Ń":2283,"à¤²à¤«":2284,"2020":2285,"Ġà¤ªà¤ł":2286,"88":2287,"à¤ŀà¤ª":2288,"Ġ72":2289,"Ġ...":2290,"av":2291,"Ġà¤ıà¤ķà¤¡":2292,"à¤Ĩà¤¦":2293,"à¤Ĩà¤Īà¤ıà¤²":2294,"à¤¤à¤°à¤¦":2295,"ĠâĢĭ":2296,"à¤¶à¤¹":2297,"Ah":2298,"à¤¼à¥ī":2299,"à¤ĸà¤µ":2300,"Ġà¤ħà¤µà¤°":2301,"Ġ59":2302,"à¥°":2303,"Ġ57":2304,"ep":2305,"à¤²à¤Ĺà¤Ńà¤Ĺ":2306,"Ġ68":2307,"à¤¾\"\"":2308,"à¤ıà¤¨à¤ıà¤²":2309,"lus":2310,"Ġà¤īà¤ªà¤¦":2311,"à¤Ńà¤²":2312,"âĢĶ":2313,"Ġà¤ķà¤ļà¤°":2314,"à¤¼à¤Ĥ":2315,"à¤ĵà¤ª":2316,"Ġà¤ªà¤²à¤Ł":2317,"Ġà¤§à¤¨à¤°":2318,"à¤ħà¤µ":2319,"Ġà¤ĩà¤¨à¤¸":2320,"à¤¯à¤Ĺ":2321,"à¤ĵà¤¡":2322,"Ġà¤ıà¤¸à¤¬":2323,"Ġth":2324,"Ġà¤ªà¤ļ":2325,"à¤¹à¤Ĺ":2326,"Ġ2005":2327,"io":2328,"à¤īà¤¡":2329,"Ġà¤®à¤¦à¤¦à¤Ĺ":2330,"à¤¤à¤Ĺ":2331,"Ġà¥¬":2332,"Ġà¤ĳà¤¨":2333,"Ġà¤īà¤²à¤Ł":2334,"à¤¿à¤ĥ":2335,"Ġà¤ħà¤ªà¤¹à¤°à¤£":2336,"alaxy":2337,"à¤µà¤µà¤°":2338,"IPL":2339,"à¤Łà¤¡":2340,"98":2341,"68":2342,"Ġà¤¹à¤°à¤Ĺ":2343,"Ġ74":2344,"à¤ħà¤ĸ":2345,"ac":2346,"à¤¨à¤ľ":2347,"à¤°à¤Ķ":2348,"Ġà¤²à¤²":2349,"Ġà¤¸à¤ķà¤²":2350,"à¥į-":2351,"à¥ĺà¤°":2352,"Ġ85":2353,"Ġà¤ħà¤¨à¤¨":2354,"à¤¹à¤°à¤²":2355,"Ġà¤²à¤µ":2356,"à¤ĺà¤ķ":2357,"Ġà¤ıà¤¥à¤²":2358,"Ġ53":2359,"à¤ŀà¤¤":2360,"Ġà¤¯à¤°":2361,"à¤ıà¤¸à¤ıà¤²":2362,"à¤¥à¤¶":2363,"ote":2364,"à¤°à¤Ķà¤¨":2365,"à¤¼à¥ĩà¤Ĥ:":2366,"à¤¾à¥ĩ":2367,"2019":2368,"04":2369,"ST":2370,"hone":2371,"97":2372,"âĸ":2373,"Ġ125":2374,"à¤ıà¤¨à¤ª":2375,"Ġà¤°à¤ĺ":2376,"Ġà¤Ńà¤Ĺ":2377,"Ġà¤Ĩà¤¦à¤¤":2378,"Ġà¤ħà¤«à¤µ":2379,"à¤¬à¤¹à¤°à¤¹":2380,"à¤Ĺà¤ªà¤¤":2381,"à¤ļà¤¯à¤¨":2382,"Ġà¤ıà¤¨à¤ª":2383,"à¤Ĺà¥Ŀ":2384,"à¤ıà¤¨à¤¬":2385,"com":2386,"à¤¤à¤°à¤¸":2387,"Ġà¤Ĺà¤£à¤®":2388,"Ġà¤²à¥ľà¤ķ":2389,"à¤Īà¤®":2390,"à¥ĩâĢĻ":2391,"à¤łà¤¤":2392,"à¤°à¤ķà¤°à¤£":2393,"à¤¸à¤®à¤¸":2394,"Ġà¤ıà¤®à¤ıà¤¸à¤ıà¤®à¤Ī":2395,"à¤ļà¤°à¤£":2396,"Ã¯":2397,"ok":2398,"à¤Ĩà¤Īà¤Ĩà¤Ī":2399,"Ġà¤¬à¤ļà¤ªà¤¨":2400,"Ġà¤Ĳà¤¶":2401,"à¤µà¤ļà¤¨":2402,"Ġ99":2403,"Ġà¤Īà¤¡":2404,"Ġà¤ħà¤ķà¤¬à¤°":2405,"à¤Ĩà¤ķ":2406,"Ġà¤ħà¤µà¤ķ":2407,"à¤ķà¤µà¤°":2408,"Ġà¤¸à¤®à¤ķà¤ķ":2409,"à¤ıà¤®à¤ı":2410,"ÂłÂł":2411,"à¥Ł":2412,"à¤®à¤ªà¤°":2413,"ive":2414,"Ġà¤īà¤łà¤¤":2415,"à¥ĩ'":2416,"à¤Ĩà¤°à¤Ł":2417,"Ġe":2418,"Ġà¤Ńà¤°à¤¤":2419,"à¤Ĺà¤®à¤¨":2420,"ĠY":2421,"à¤¼à¥ĩ,":2422,"à¤īà¤¨à¤¸":2423,"à¤¸à¤¶":2424,"Ġl":2425,"à¤ĩà¤¡à¤°":2426,"Ġà¤ĳà¤¯à¤²":2427,"à¤«à¤²à¤¤":2428,"Ġà¤ļà¤Ł":2429,"ĠPM":2430,"à¤Łà¤²à¤°":2431,"à¤ıà¤®à¤ıà¤²":2432,"Ġà¤Ĺà¤£à¤¤":2433,"69":2434,"Ġà¤¨à¤Ĺ":2435,"Ġà¤ļà¤°à¤®":2436,"Ġà¤īà¤Ńà¤°à¤¤":2437,"à¥Īà¤ĥ":2438,"Ġà¤¸à¤ļà¤®":2439,"à¤¸à¤ľ":2440,"à¤¬à¤¯":2441,"Ġà¤¸à¤Īà¤¦":2442,"à¤¬à¤°à¤¨":2443,"Ġ69":2444,"42":2445,"Ġà¤®à¤¹à¤²":2446,"Ġà¤¬à¥Ŀà¤¤":2447,"Ġà¤Īà¤µ":2448,"à¤¯à¤µà¤°":2449,"Ġà¤Ĩà¤°à¤®":2450,"oc":2451,").":2452,"à¤®à¤°à¤¨":2453,"tt":2454,"Ġà¤¤à¤ķà¤°":2455,"indi":2456,"à¤Łà¤¨à¤°":2457,"à¤ªà¤¢":2458,"Ġ78":2459,"Ġà¤ĩà¤¬à¤°":2460,"Ġà¤Ńà¤Łà¤ķ":2461,"à¤ĩà¤¤":2462,"à¤ļà¤®":2463,"Ġ95":2464,"62":2465,"à¤ĩà¤¸à¤¨":2466,"à¤¨à¤¸à¤¨":2467,"à¤ıà¤®à¤¡":2468,"Ġà¤ļà¤®à¤ķ":2469,"à¤ıà¤ļà¤ĵ":2470,"Ġà¤īà¤ķà¤¸":2471,"ĠGalaxy":2472,"à¦":2473,"à¤°à¤Ĺà¤°":2474,"à¤¤à¤¹":2475,"ĠNote":2476,"à¤Ńà¤ľà¤¨":2477,"à¤£à¤ªà¤¤":2478,"Ġà¤ıà¤¯à¤°à¤Ł":2479,"ank":2480,"Ġ63":2481,"Ġà¤Ĩà¤Ĺà¤°":2482,"à¥¯":2483,"à¤ĩà¤«à¤²":2484,"à¥Ģ!":2485,"Ġà¤īà¤Ľ":2486,"57":2487,"Ġà¤ĸà¤ľ":2488,"à¤ļà¤¸":2489,"Ġà¤¸à¤¹à¤ľ":2490,"Ġ62":2491,"à¤ħà¤¹à¤®":2492,"43":2493,"ams":2494,"Ġà¤¨à¤°à¤¸":2495,"Ġà¤ĸà¤²":2496,"Ġà¤ħà¤¥":2497,"03":2498,"qu":2499,"mAh":2500,"ĠNew":2501,"gov":2502,"ĠRedmi":2503,"400":2504,"Ġà¤°à¤ĸà¤ķà¤°":2505,"à¤ıà¤®à¤Ĩà¤°":2506,"Ġà¤Ľà¤ª":2507,"Ġ2004":2508,"à¤¼à¥Ģà¥¤":2509,"Ġà¤ĭà¤¤":2510,"à¤Ĩà¤¶":2511,"Ġà¤ĺà¤¬à¤°":2512,"à¤¼)":2513,"Ġà¤ķà¤¹à¤²":2514,"à¤Īà¤ľ":2515,"à¤ħà¤«à¤Ĺ":2516,"CC":2517,"à¥Ģà¤Ĥ?":2518,"à¤ĵà¤µ":2519,"ET":2520,"Ġà¤ªà¤°à¤«":2521,"Ġ77":2522,"ung":2523,"ĠZ":2524,"ĠBJP":2525,"Ġà¤¹à¤°à¤ķà¤¤":2526,"Ġà¤®à¤¹à¤¬":2527,"à¤°à¤ĸà¤ª":2528,"Ġand":2529,"Ġà¤ĩà¤«":2530,"Ġ73":2531,"58":2532,"Ġà¤¸à¤¹à¤¨":2533,"Ġ71":2534,"Ġà¤Ĩà¤°à¤Ł":2535,"he":2536,"oss":2537,"à¤Īà¤¨":2538,"à¤ľà¤Ń":2539,"à¤ıà¤®à¤ª":2540,"Ġ01":2541,"02":2542,"Ġx":2543,"Ġ!":2544,"66":2545,"Ġà¤ķà¥ľ":2546,"VID":2547,"Ġà¤ĸà¤ªà¤¤":2548,"à¤¸à¤«à¤°":2549,"Ġà¤¤à¤²à¤µ":2550,"à¤¦à¤ķà¤¤":2551,"à¤ľà¤¨à¤¤":2552,"à¤ıà¤«à¤Ĩà¤Ī":2553,"à¤ıà¤®à¤ľ":2554,"à¤ıà¤ļà¤ª":2555,"Ġà¤¨à¤®à¤ķ":2556,"à¤¸à¤ªà¤°":2557,"Ġà¤¸à¤°à¤¸":2558,"ort":2559,"Ġà¤®à¤Ľ":2560,"Ġà¤ħà¤¨à¤²":2561,"à¥¯à¥":2562,"78":2563,"Ġà¤°à¤¹à¤¸":2564,"Ġà¤¬à¤ªà¤¤":2565,"Ġà¤·":2566,"Ġà¤¨à¤²":2567,"Ġ\"\"\"":2568,"ast":2569,"Ġà¤ľà¤¶":2570,"Ġà¤ıà¤ķà¤¦à¤®":2571,"Ġà¤²à¤¤":2572,"à¤Ĭà¤£":2573,"Ġà¤¬à¤°à¤¤à¤¨":2574,"Ġà¤ĸà¤¦":2575,"41":2576,"à¤®à¤¬":2577,"Ġà¤¿":2578,"Ġà¤Ĩà¤¶à¤¯":2579,"à¤±":2580,"Ġà¤¬à¤¨à¤µ":2581,"à¤ıà¤®à¤ķ":2582,"Ġ(_":2583,"à¤Ĺà¤łà¤¬":2584,"Ġà¤¤à¤°à¤ķ":2585,"Ġà¤¨à¤«à¤°à¤¤":2586,"Ġà¤ªà¤Łà¤°":2587,"à¥ĩ!":2588,"ure":2589,"à¥ļà¤®":2590,"96":2591,"ff":2592,"im":2593,"Ġà¤®à¤²à¤¯":2594,"Ġà¤¡à¤¬à¤²":2595,"Ġk":2596,"à¤ĩà¤¸à¤°":2597,"à¥Ī\"":2598,"Ġ256":2599,"Ġà¤Ĺà¤ľ":2600,"ps":2601,"Ġà¤¹à¤°à¤¦":2602,"à¤ļà¤¢":2603,"à¤¸à¤µà¤°":2604,"à¤¬à¤¢":2605,"à¤°à¤¤à¤®":2606,"Ġà¤ľà¤¸à¤ª":2607,"ĠSt":2608,"ub":2609,"Ġà¤²à¤¶":2610,"à¤Ŀà¤ķà¤°":2611,"ob":2612,"Ġà¤ıà¤¸à¤Ł":2613,"%)":2614,"Ġà¤ľà¤Ĺà¤¦":2615,"igh":2616,"Ġr":2617,"à¤Ĺà¤µà¤¤":2618,"à¥Ģà¤ĥ":2619,"à¤īà¤¸à¤®":2620,"Ġà¤°à¤ľà¤¨":2621,"Ġà¤ĵà¤ª":2622,"à¤¬à¤°à¤¦":2623,"Ġà¤ħà¤ªà¤²":2624,"à¤ħà¤¡":2625,"à¤ıà¤¸à¤¯":2626,"à¤Ńà¤¦":2627,".\"":2628,"Ġà¤®à¤°à¤®":2629,"à¤°à¤£à¤µ":2630,"Ġà¥¨à¥¦":2631,"à¤²à¤ªà¤¤":2632,"Ġà¤ľà¤¯à¤¶":2633,"à¤ıà¤¨à¤Ĩà¤Ī":2634,"à¤Īà¤Ī":2635,"Ġà¤¥à¤ķ":2636,"Ġà¤ħà¤ªà¤µ":2637,"Ġà¤¯à¤®":2638,"Ġà¤ħà¤µà¤²":2639,"Ġà¤¹à¤°à¤¸":2640,"Ġà¤ĵà¤µ":2641,"à¤¨à¤«":2642,"Ġà¤°à¤¶":2643,"igg":2644,"à¤Ńà¤¯":2645,"ĠHindi":2646,"à¤Ĩà¤ªà¤¨":2647,"Ġà¤²à¤ķà¤¡":2648,"Ġà¤§à¤ķ":2649,"ĠBo":2650,"ine":2651,"Ġà¤µà¤²":2652,"Ġà¤ħà¤¸à¤®à¤°":2653,"Ġà¤Ĩà¤®à¤¦à¤¨":2654,"Ġà¤Ĩà¤ĵ":2655,"Ġà¤ħà¤ķà¤¸à¤°":2656,"Ġà¤Ĩà¤ļà¤°à¤£":2657,"à¤¾.\"":2658,"à¤¨à¤¯à¤¨":2659,"):":2660,"Ġà¤ªà¤¤à¤°à¤¸":2661,"Ġà¤Ńà¤Ĺà¤¤":2662,"Ġà¤¬à¤¹à¤°":2663,"Ġà¤ķà¤°à¤¦":2664,"Ġà¥®":2665,"91":2666,"à¥ĩà¥¤\"\"\"":2667,"Ġà¥Ń":2668,"Ġà¤«à¤¤":2669,"à¤µà¤²à¤ªà¤®":2670,"RC":2671,"à¥Ģ\"\"":2672,"Ġà¤¤à¤¹à¤°":2673,"à¤īà¤°":2674,"Ġà¤ıà¤¨à¤°":2675,"à¥ĭ:":2676,"AA":2677,"Ġà¤ķà¤¤à¤°":2678,"ĠBoss":2679,"Ġ600":2680,"à¤īà¤¡à¤°":2681,"à¤ħà¤¹à¤®à¤¦":2682,"à¤ĵà¤ıà¤¸":2683,"Ġà¤®à¤¹à¤®":2684,"à¤¸à¤ıà¤ª":2685,"Ġà¤²à¤Łà¤ķ":2686,"Ġà¤ªà¤°à¤¦":2687,"à¥ĭà¤Ĥ?":2688,"à¤¬à¤¸à¤ª":2689,"72":2690,"Ġà¤īà¤ªà¤¹":2691,"Ġ2002":2692,"Ġà¤¦à¤®à¤¦":2693,"Ġà¤ļà¤¹à¤²":2694,"Ġà¤°à¤ĸà¤°à¤ĸ":2695,"à¥ĩà¤Ĥ-":2696,"Ġà¤¸à¤°à¤ķà¤¶":2697,"Ġà¥§à¥«":2698,"Ġà¤ıà¤¸à¤ıà¤®à¤ıà¤¸":2699,"Ġà¤Ĩà¤Īà¤ıà¤ıà¤¸":2700,"à¤¦à¤¹":2701,"Ġâ":2702,"Ġà¤¨à¤ķà¤²":2703,"Ġà¤ªà¥ľà¤¤":2704,"à¤Ĩà¤Īà¤¬":2705,"ev":2706,"à¤Ĺà¤¯":2707,"Ġà¤ħà¤ªà¤¶":2708,"Ġ76":2709,"Ġà¤Ĩà¤ĩà¤¸":2710,"amsung":2711,"à¤ķà¤ļ":2712,"à¤®à¤ķà¤¤":2713,"Ġà¤Īà¤ª":2714,"Ġwww":2715,"à¤¹à¤¤à¤ķ":2716,"ain":2717,"Ġà¤Ķà¤²":2718,"AT":2719,"Ġà¤ľà¤Ĺà¤¨":2720,"Ġà¤¹à¤ķà¤¦":2721,"à¤·à¤ª":2722,"MS":2723,"à¤Ĩà¤°à¤ı":2724,"à¤¬à¤®":2725,"ud":2726,"à¤ıà¤«à¤ª":2727,"51":2728,"à¤¾à¥¤\"\"\"":2729,"ld":2730,"Ġ130":2731,"Ġà¤ķà¤¹à¤ķà¤°":2732,"Ġà¤īà¤¸à¤ªà¤°":2733,"Ġà¤ķà¤¥à¤¨":2734,"//":2735,"Ġà¤¬à¤Łà¤¨":2736,"Ġà¤¸à¤¦à¤°":2737,"à¤¥à¤¯":2738,"Ġà¤¦à¤®à¤ķà¤²":2739,"à¤Ĺà¤Ī":2740,"end":2741,"Ġà¤¦à¤°à¤®":2742,"Ġà¤ªà¤¹à¤¨à¤¨":2743,"Ġà¤ıà¤®à¤ı":2744,"Ġ81":2745,"IN":2746,"87":2747,"Ġà¤Ĩà¤ĩà¤ı":2748,"Ġà¤ıà¤«à¤¡":2749,"à¤ĸà¤²à¤¨":2750,"à¤ķà¤£":2751,"Ġthe":2752,"Ġà¤ħà¤ªà¤ķ":2753,"Ġà¤°à¤®à¤¨":2754,"à¤ĵà¤®":2755,"à¤«à¤¬":2756,"Ġà¤µà¤°à¤¨":2757,"if":2758,"89":2759,"Ġà¥§à¥¦":2760,"à¤°à¤ļà¤²":2761,"Ġà¤ıà¤¨à¤Ł":2762,"Ġà¤ķà¤®à¤²à¤¨":2763,"à¤ģ,":2764,"BSE":2765,"Ġ61":2766,"56":2767,"à¤Ĳà¤ª":2768,"à¤ħà¤ªà¤°":2769,"à¤¬à¤°à¤¦à¤¸":2770,"Ġà¤¸à¤°à¤ª":2771,"Ġà¤ªà¤ķà¥ľ":2772,"à¤¸à¤¬à¤ķ":2773,"Ġà¤ħà¤ľà¤¹à¤°":2774,"Ġà¤ħà¤µà¤®":2775,"Ġto":2776,"à¤Īà¤¶":2777,"Ġà¤¸à¤¹à¤Ń":2778,"à¤Ĩà¤Īà¤ľ":2779,"à¤®à¤Ī":2780,"à¤§à¤®":2781,"à¤¡à¤¯à¤¨":2782,"omi":2783,"hat":2784,"à¤Ĺà¥ľ":2785,"à¤ıà¤¸à¤Ĩà¤Īà¤Ĩà¤°":2786,"à¤ıà¤Ī":2787,"Phone":2788,"Ġà¤Ĩà¤Īà¤ıà¤¸":2789,"à¤ħà¤¶":2790,"52":2791,"à¤Łà¤°à¤«":2792,"Ġà¤®à¥Ľ":2793,"Ġà¤¨à¤°à¤®":2794,"Ġà¤°à¤£à¤¦":2795,"ric":2796,"Ġà¤¨à¥Ľà¤°":2797,"à¤¼à¥ĩà¤Ĥ-":2798,"Ġà¤ĩà¤°à¤«":2799,"à¥įà¤¾":2800,"300":2801,"://":2802,"Ġà¤¹à¥ĺ":2803,"Ġà¤īà¥ľ":2804,"OVID":2805,"ant":2806,"se":2807,"à¤¸à¤®à¤°":2808,"à¤Ļ":2809,"Ġà¤Ĩà¤łà¤µ":2810,"Ġà¤ħà¤¹à¤²":2811,"all":2812,"92":2813,"à¤¶à¤Ńà¤ķ":2814,"Ġà¤ıà¤²à¤Īà¤¡":2815,"86":2816,"93":2817,"Ġre":2818,"à¤¸à¤¨à¤²":2819,"Ġà¤Ĩà¤Ĺà¤®à¤¨":2820,"Ġà¤ıà¤®à¤¸":2821,"Ġ84":2822,"Ġ2001":2823,"71":2824,"aj":2825,"Ġ800":2826,"lection":2827,"à¤¹à¤¡":2828,"Ġà¤ħà¤¨à¤¦":2829,"à¤ľà¤¨à¤µà¤°":2830,"Ġ144":2831,"ect":2832,"Ġà¤Ĩà¤¡":2833,"83":2834,"Ġà¤®à¤¯":2835,"Ġà¤ıà¤¸à¤¯":2836,"73":2837,"94":2838,"ath":2839,"à¤¶à¤¤à¤ķ":2840,"orld":2841,"du":2842,"Ġà¤ħà¤«à¤°":2843,"à¤¡à¤¤":2844,"à¤£à¤ª":2845,"Bigg":2846,"Ġà¤®à¤Ĺ":2847,"76":2848,"Ġ91":2849,"à¤¶à¤®à¤¨":2850,"IS":2851,"Ġà¤Ĩà¤ĩà¤¡":2852,"Ġ2003":2853,"84":2854,"2013":2855,"ase":2856,"Ġà¤¬à¤¦à¤¨":2857,"53":2858,"Ġà¤ªà¤¥à¤°":2859,"à¤®à¤Ł":2860,"Ġà¤ıà¤ķà¤¦":2861,"Ġà¤īà¤¤à¤°à¤¨":2862,"Ġà¤īà¤Ń":2863,"à¤ĵà¤¬":2864,"Realme":2865,"ang":2866,"à¤¶à¤²à¤¤":2867,"à¤ĳà¤ķ":2868,"India":2869,"PM":2870,"à¤¸à¤²à¤°":2871,"Ġà¤ıà¤®à¤¬":2872,"iaomi":2873,"à¤°à¤¶à¤¸":2874,"',":2875,"Ġ@":2876,"à¤¤à¤°à¤«":2877,"Ġà¤ķà¤Łà¤°":2878,"à¤Īà¤ħà¤¡":2879,"à¤°à¤¹à¤µ":2880,"Ġà¤ªà¤°à¤¤":2881,"à¤¬à¤¹à¤¨":2882,"à¤°à¤¬à¤²":2883,"à¤¹à¤«":2884,"Ġà¤Ŀà¤²à¤ķ":2885,"ik":2886,"Ġà¤ıà¤¨à¤ķ":2887,"Redmi":2888,"ance":2889,"Plus":2890,"à¤°à¤¯à¤¤":2891,"à¤ĩà¤Łà¤°":2892,"ĠPr":2893,"à¤ıà¤«à¤ĵ":2894,"Ġà¤ľà¤¨à¤¹":2895,"à¤¥à¤¡":2896,"à¤ħà¤Ĺ":2897,"à¤Ĺà¤°à¤ª":2898,"AM":2899,"à¤·à¤°à¤¤":2900,"nePlus":2901,"à¤Łà¤°à¤Ł":2902,"Ġà¤ħà¤Łà¤ķà¤²":2903,"à¤¦à¤°à¤²":2904,"ass":2905,"à¤ĩà¤¨à¤¸":2906,"à¤·à¤Ĺ":2907,"Ġà¤ĵà¤¸":2908,"à¤µà¤Ĺ":2909,"ĠNews":2910,"Ġà¤¦à¤°à¤¬":2911,"Ġ83":2912,"ame":2913,"Ġà¤Ĺà¤®":2914,"Ġà¤¸à¤Ĺ":2915,"Ġà¤Ĩà¤ī":2916,"Ġà¤ķà¤£":2917,"Ġà¤Ľà¤²":2918,"ore":2919,"Ġnic":2920,"Ġà¤ħà¤¸à¤¦":2921,"à¤§à¤¶à¤¤à¤ķ":2922,"Ġà¤ıà¤²à¤ª":2923,"à¥ľà¤ķà¤°":2924,"à¤®à¤ľà¤¦":2925,"Ġà¤¬à¤ķà¤°":2926,"ies":2927,"à¤¶à¤ª":2928,"Ġ105":2929,"Ġà¤ħà¤µà¤¤":2930,"ii":2931,"Ġà¥§à¥¨":2932,"61":2933,"à¤ĵà¤ı":2934,"à¤ıà¤¸à¤ľ":2935,"74":2936,"à¥§à¥¯à¥":2937,"ide":2938,"Ġà¤ľà¤¨à¤¸à¤Ń":2939,"à¤ıà¤¸à¤ıà¤®":2940,"63":2941,"ans":2942,"à¤ľà¤°à¤¤":2943,"Ġà¤°à¤¹à¤®à¤¤":2944,"Ġà¤ĩà¤¨à¤ª":2945,"Ġà¤µà¤¹à¤¨":2946,"2012":2947,"Ġà¤ªà¤¹à¤²à¤µ":2948,"à¤¬à¤§":2949,"81":2950,"Ġà¤Ĺà¤°à¤®":2951,"Ġà¤ıà¤®à¤Ł":2952,"Ġà¤ıà¤¨à¤ľ":2953,"ĠAn":2954,"Ġ--":2955,"Ġà¤¸à¤ľà¤¦":2956,"à¤ľà¤ķà¤°":2957,"à¤¾,âĢĺâĢĺ":2958,"Ġà¤īà¤²à¤Ŀ":2959,"à¤¼à¤¾.":2960,"54":2961,"Ġà¤ıà¤¨à¤ıà¤ļ":2962,"ĠCh":2963,"ial":2964,"à¤¸à¤¤à¤¨":2965,"à¤¾à¤Ĥ-":2966,"Ġà¤«à¤°à¤¹":2967,"âĢĻ,":2968,"Ġà¤Īà¤¦":2969,"Ġà¤ļà¤ĸ":2970,"à¤īà¤¸à¤¸":2971,"à¤Ńà¤Ĺà¤µ":2972,"Ġà¤¨à¤µà¤¨":2973,"Ġà¤¹à¤Łà¤¨":2974,"à¤«à¤¤":2975,"à¤ıà¤«à¤Ł":2976,"Ġà¤¤à¤°à¤²":2977,"à¤¨à¤ľà¤¨à¤ķ":2978,"Ġ82":2979,"Ġà¤Ĩà¤Īà¤ıà¤ıà¤¨à¤ıà¤¸":2980,"Ġà¤Ĩà¤ĩ":2981,"sc":2982,"à¤«à¤¡":2983,"à¤¾|":2984,"à¤ļà¤¤à¤°":2985,"Ġà¤¤à¤ĸ":2986,"à¥Īà¤Ĥ!":2987,"Ġà¤Ĩà¤°à¤ľ":2988,"à¤®à¤Ń":2989,"82":2990,"ĠEx":2991,"Ġà¤ľà¤¹à¤°":2992,"à¤¤à¤°à¤ª":2993,"à¤īà¤ľ":2994,"à¤¬à¤Ł":2995,"à¤°à¥Ľ":2996,"Ġà¤ĩà¤¤à¤°":2997,"ĠMi":2998,"à¤ıà¤°":2999,"à¤¤à¤Ń":3000,"ED":3001,"ru":3002,"à¤²à¤ĸà¤¨à¤Ĭ":3003,"ĠÂ":3004,"Ġà¤Ĩà¥Ļ":3005,"Ġà¥¨à¥¦à¥¦":3006,"Ġst":3007,"Ġà¤¦à¤ĸà¤²":3008,"Ġà¤Ĩà¤Īà¤ľ":3009,"à¤ĳà¤¨à¤²":3010,"Ġà¤ļà¤²à¤ķà¤°":3011,"Ġ110":3012,"Ġ96":3013,"à¥Ĥà¤ģ.":3014,"ost":3015,"59":3016,"à¤°à¤¬à¤¨":3017,"ĠâĢĭâĢĭ":3018,"Ġà¤®à¤¦à¤¨":3019,"Ġà¤¬à¤²à¤µ":3020,"Ġà¤ĩà¤¸à¤ªà¤°":3021,"à¤¬à¥ľ":3022,"Ġà¤ķà¤²à¤ķà¤¤":3023,"à¤ľà¤¯à¤ª":3024,"à¤¬à¤¦à¤²":3025,"Ġà¤ªà¤¸à¤¨":3026,"IM":3027,"Ġà¤¹à¤¬":3028,"Ġ5000":3029,"ary":3030,"à¤ľà¤¯à¤¨":3031,"ĠRealme":3032,"Ġà¤ĺà¤®":3033,">>":3034,"à¤¡à¤°à¤¸à¤¨":3035,"à¤°à¤ł":3036,"à¤¤à¤¦":3037,"à¤°à¤¦à¤¤":3038,"à¤ħà¤Ĺà¤¸":3039,"ivo":3040,"Ġ92":3041,"Ġà¤°à¤¹à¤ķà¤°":3042,"à¤īà¤ªà¤¯":3043,"Ġà¤ħà¤¬à¤¤à¤ķ":3044,"Ġà¤²à¤ļ":3045,"79":3046,"à¥ĭ'":3047,"Ġà¤¤à¤¹":3048,"à¤Ĩà¤Īà¤Ĩà¤Īà¤Ł":3049,"ue":3050,"à¤¬à¤ľà¤Ł":3051,"à¤¤à¤¶":3052,"Ġ350":3053,"à¤ıà¤Łà¤°":3054,"à¤Īà¤ı":3055,"Ġà¥§à¥§":3056,"à¤Ńà¤ª":3057,"à¤Ĩà¤°à¤ıà¤¸à¤ıà¤¸":3058,"Ġà¤£":3059,"Ġà¤ķà¤·":3060,"Ġà¤Ĩà¤®à¤¨":3061,"Ġà¤¬à¤¦à¤²à¤ķà¤°":3062,"Ġà¤Ĩà¤Īà¤«":3063,"Ġà¤ħà¤ªà¤ķà¤®":3064,"Ġà¤Ĺà¤¦":3065,"à¤¼à¥Ģ)":3066,"à¤ıà¤®à¤Ĩà¤Ī":3067,"à¥ģ:":3068,"à¤°à¤¹à¤®":3069,"Ġà¤ļà¤®à¤¤":3070,"ĠRs":3071,"Ġà¤·à¤¡":3072,"Ġà¥§à¥®":3073,"Ġà¤ħà¤¯à¤¸":3074,"Ġà¤ıà¤®à¤ª":3075,"Ġ700":3076,"Ġà¤µà¤¯à¤¸":3077,"Ġà¤¬à¤¬":3078,"Ġà¤ĸà¤£":3079,"à¤ľà¤°à¤²":3080,"à¤ªà¤°à¤ķ":3081,"Ġà¤¸à¤¹à¤µ":3082,"Ġà¤§à¤¡":3083,"à¤ªà¥ľ":3084,"our":3085,"à¤ĸà¤¬":3086,"à¤¯à¤²à¤²":3087,"à¤ķà¤«":3088,"à¤ķà¤¦":3089,"à¤¸à¤°à¤¤":3090,"Ġà¤¦à¤£":3091,"Ġ88":3092,"à¤ķà¤ķà¤°":3093,"à¤²à¤¬à¤°":3094,"à¤§à¤¸":3095,"Ġà¤¸à¤®à¤Ŀà¤¦":3096,"à¤¤à¤¨à¤®":3097,"Ġà¤¨à¤ķà¤µ":3098,"Ġ97":3099,"Ġ$":3100,"Ġ86":3101,"à¤ľà¤°à¤¨":3102,"Ġà¤ıà¤®à¤ĵ":3103,"Ġà¤¬à¤µ":3104,"Ġ1999":3105,"2011":3106,"Ġà¤ıà¤¸à¤Ĩà¤Īà¤Ł":3107,"Ġà¤ıà¤®à¤¡":3108,"Ġ98":3109,"à¥Īà¤Ĥ.\"":3110,"à¤¯à¤Ĺà¤¢":3111,"à¤ħà¤®à¤¤":3112,"oun":3113,"à¤ıà¤¸à¤ıà¤¨à¤ıà¤²":3114,"Ġà¤Ĩà¤¯à¤°à¤²":3115,"Ġà¤ıà¤£":3116,"ex":3117,"à¤¶à¤ĸà¤¬à¤°":3118,"à¤ĩà¤ļ":3119,"SS":3120,"Ġà¤ıà¤Ĩà¤Ī":3121,"à¤¸à¤Ĳà¤ª":3122,"ph":3123,"Ġà¥¯":3124,"Ġà¤ħà¤Ńà¤¯":3125,"Ġfor":3126,"à¤¼à¥ĩ-":3127,"Ġà¤ħà¤®à¤¨":3128,"Ġà¤°à¤£à¤ľ":3129,"à¥ĩà¥ĩ":3130,"à¤ķà¤®à¤¤":3131,"Ġon":3132,"à¤¡à¤«":3133,"\"\",":3134,"ical":3135,"Ġà¤ľà¤¯à¤°":3136,"à¤µà¤¦à¤°":3137,"Ġhtt":3138,"Ġ>":3139,"ĠQ":3140,"à¤§à¤°à¤¨":3141,"Ġà¤¬à¥Ŀà¤ķà¤°":3142,"Ġ79":3143,"Ġà¤¦à¤®à¤¨":3144,"Ġà¤Ķà¤¸à¤¤à¤¨":3145,"à¤®à¤ĺ":3146,"Ġà¤ıà¤¯à¤°à¤µ":3147,"Ġà¤ħà¤«à¤¸":3148,"à¤¾à¤¾":3149,"Ġ94":3150,"Ġà¤ıà¤«à¤¸":3151,"à¥¦à¥¦à¥¦":3152,"Ġ89":3153,"Ġà¤¹à¤°à¤®":3154,"Ġà¤¤à¤²à¤¬":3155,"à¤ĵà¤µà¤°":3156,"à¤ıà¤Ĩà¤°":3157,"mit":3158,"990":3159,"Ġà¤īà¤¦à¤¯":3160,"Ġà¤¸à¤®à¤¤":3161,"Ġ87":3162,"à¥ĭâĢĻ":3163,"Ġà¤¦à¤¸à¤µ":3164,"Ġà¤Ńà¤¦":3165,"iss":3166,"Ġà¤°à¤¤à¤¨":3167,"ai":3168,"à¥ĩ/":3169,"à¤ıà¤¨à¤ıà¤ļ":3170,"à¥Ĥà¤Ĥà¥¤\"":3171,"ou":3172,"à¤¾,âĢĺ":3173,"à¤«à¤°à¤ª":3174,"Ġcon":3175,"à¥ĭà¤Ĥ.":3176,"AP":3177,"à¤Īà¤ıà¤®":3178,"Ġà¤µà¤¶":3179,"à¤²à¤ĸ":3180,"ly":3181,"Ġà¤¸à¥Ľ":3182,"Ġà¤¹à¤°à¤Ńà¤ľà¤¨":3183,"à¤ĳà¤ªà¤°":3184,"Ġà¤īà¤¬":3185,"à¤®à¤¤à¤¦":3186,"à¤¯à¤°à¤¬":3187,"à¤°à¤¨à¤Ĺà¤°":3188,"ĠiPhone":3189,"à¤ļà¤¡":3190,"ĠII":3191,"Ġà¤«à¤²à¤¸":3192,"Ġ_":3193,"à¤²à¤Ł":3194,"à¤īà¤ªà¤Ń":3195,"à¤ľà¤¨à¤°à¤²":3196,"Ġà¤ħà¤¹à¤¸":3197,"Ġà¤Ĩà¤°à¤¸":3198,"Ġà¥§à¥ª":3199,"Ġà¤ıà¤¨à¤Ĩà¤Īà¤ı":3200,"Ġà¤ıà¤ĸ":3201,"600":3202,"à¤°à¤Ńà¤¦":3203,"à¤ĩà¤Łà¤²":3204,"Ġà¤ļà¤¶":3205,"ind":3206,"à¤¸à¤¬à¤°":3207,"à¤¡à¤Ī":3208,"à¤µà¤¸à¤®":3209,"Ġà¤Ĩà¤¯à¤°":3210,"Ġà¤ıà¤¹à¤¤":3211,"Ġà¤¤à¤°à¥ŀ":3212,"à¤«à¤°à¤µà¤°":3213,"à¤ĥ,":3214,"à¤¡à¤©":3215,"ĠEn":3216,"Ġ=":3217,"Ġà¤¹à¤Łà¤ķà¤°":3218,"Ġà¤¤à¤¸à¤µ":3219,"Ġgov":3220,"à¤®à¤®à¤¤":3221,"à¤ķà¤¯":3222,"Ġà¤«à¤Ł":3223,"à¤°à¤ľà¤¨à¤¨":3224,"à¤Ĩà¤°à¤ıà¤²":3225,"à¤¢à¤¨":3226,"à¥Ģ(":3227,"Ġà¤ķà¤¹à¤°":3228,"à¤¾)à¥¤":3229,"Ġ()":3230,"ite":3231,"âĸ¡":3232,"Ġà¤¤à¤¡":3233,"Samsung":3234,"Ġà¤Ĩà¤°à¤ª":3235,"à¤¾...":3236,"Ġà¥§à¥©":3237,"Ġà¤ħà¤¸à¤¹":3238,"Ġ180":3239,"Ġ108":3240,"à¤Ńà¤¨":3241,"ill":3242,"aw":3243,"Ġà¤īà¤łà¤¨":3244,"Ġà¤¢à¤ķ":3245,"ech":3246,"Ġ{":3247,"AN":3248,"ax":3249,"Ġà¤Ĩà¤Ł":3250,"UP":3251,"à¥Ĭ":3252,"à¤¥à¤ª":3253,"à¤·à¤¸":3254,"à¤ļà¤²à¤¨":3255,"Ġ93":3256,"à¥ĩ...":3257,"à¤¤à¤¯":3258,"à¤īà¤ķ":3259,"à¤ıà¤¨à¤Ł":3260,"à¤Ĺà¤ľà¤¨":3261,"Ġà¤¹à¤²à¤«à¤¨":3262,"Ġà¤ªà¤Łà¤ķ":3263,"pd":3264,"Ġà¤¦à¤°à¤ħà¤¸à¤²":3265,"OS":3266,"old":3267,"à¤ıà¤¸à¤Ĩà¤°":3268,"à¤¼à¥Ģ:":3269,"Ġà¤¨à¤Ĺà¤°à¤ª":3270,"Ġà¥ĺà¤°":3271,"Ġ'%":3272,"Ġà¤¸à¤¨à¤¸à¤¨":3273,"Ġà¤¸à¤¨à¤°":3274,"Ġà¤ľà¤¬à¤°à¤¨":3275,"Ġà¤ıà¤®à¤ıà¤ıà¤ļ":3276,"Ġà¤ľà¤¦à¤¯":3277,"à¤ľà¤²à¤µ":3278,"Ġà¤¬à¤¹à¤¤":3279,"800":3280,"Ġà¤¹à¤®à¤ķ":3281,"Ġà¤¬à¤Łà¤²à¤°":3282,"à¤¯à¤°à¤§":3283,"Ġà¤łà¤ª":3284,"Ġà¤¥à¤®":3285,"Ġà¤ħà¤¨à¤®":3286,"Ġ1961":3287,"à¤łà¤ķà¤°":3288,"à¤ķà¤Ĩà¤īà¤Ł":3289,"à¤¨à¤¹à¤°":3290,"Ġà¤µà¤Ĺ":3291,"ingh":3292,"Ġà¤®à¤¥":3293,"à¥¤\"\"\"":3294,"à¤ĸà¤Ł":3295,"à¤¤à¤ķà¤¨":3296,"Ġà¤ļà¤¡":3297,"à¤Łà¤°à¤®":3298,"à¤ıà¤¬à¤²":3299,"Ġà¤ľà¤¦":3300,"à¤°à¤Ĩà¤¨":3301,"Ø§":3302,"à¤¿à¤¾":3303,"Ġà¤Ķà¤±":3304,"IR":3305,"à¤Īà¤ļ":3306,"Ġà¤¨à¤¨":3307,"ge":3308,"à¤ĵà¤ķ":3309,"Ġ160":3310,"Ġà¥¤\"\"\"":3311,"à¤Ĺà¤®à¤¤":3312,"à¤®à¤²à¤µ":3313,"à¤¼à¥Ģ-":3314,"Ġà¥ĺà¤¯":3315,"900":3316,"à¤ħà¤°à¤¬":3317,"ĠCBI":3318,"Ġà¤°à¤ĸà¤µ":3319,"Ġà¤ĵà¤Ł":3320,"IA":3321,"à¤¤à¤°à¤¤":3322,"Ġà¥§à¥¬":3323,"Ġà¤ľà¤²à¤®":3324,"à¤ıà¤²à¤ª":3325,"sp":3326,"Ġà¤ľà¤¨à¤Ĺà¤£à¤¨":3327,"Ġà¤µà¤¨à¤¸":3328,"à¥Ī.\"\"\"":3329,"ates":3330,"à¤Ĩà¤ł":3331,"Ġà¤Ĩà¤Īà¤¬":3332,"ĠRe":3333,"Ġà¤Ĩà¤¹à¤¤":3334,"Ġà¤ķà¤ľ":3335,"Ġà¤ħà¤£":3336,"Ġà¤°à¤¥":3337,"à¤¯à¤ķà¤²":3338,"à¤ıà¤ļà¤¸":3339,"Ġ%":3340,"....":3341,"à¤°à¤¹à¤°":3342,"Ġà¤®à¤¨à¤¸":3343,"ĠDay":3344,"à¤ıà¤²à¤¸":3345,"Ġà¤ħà¤¸à¤¹à¤®à¤¤":3346,"ational":3347,"ace":3348,"Ġdi":3349,"ya":3350,"à¤Ĩà¤Īà¤ıà¤«":3351,"Ġà¤®à¤²à¤¬":3352,"Ġà¤ıà¤®à¤ıà¤¸à¤ª":3353,"à¥Ģ+":3354,"à¤µà¤¨à¤¸":3355,"Ġà¤¨à¤®à¤¨":3356,"à¤ĺà¤²":3357,"ĠAd":3358,"ber":3359,"à¥īà¤Ĥ":3360,"à¤ĺà¤®":3361,"à¤ľà¤ªà¤¤":3362,"Ġà¤ħà¤Ĺà¤µ":3363,"Ġà¤«à¤Łà¤ķ":3364,"à¥ľà¤¤":3365,"à¥ĭà¥¤\"\"\"":3366,"Ġà¥§à¥¯à¥¯à¥":3367,"à¤ĳà¤²":3368,"App":3369,"St":3370,"à¤µà¤°à¤ķà¤°":3371,"ell":3372,"ĠCup":3373,"ach":3374,"lip":3375,"à¤ªà¤°à¤¹":3376,"à¤Ĺà¤¬":3377,"Ġà¤¬à¤¹à¤ķ":3378,"ĠCOVID":3379,"Ġà¤Ĩà¤Īà¤ıà¤¨à¤ıà¤¸":3380,"à¥Īà¤Ĥ|":3381,"Ġà¤ĩà¤ķà¤¬":3382,"à¤ħà¤ľà¤¯":3383,"Ġ115":3384,"ĠHD":3385,"oh":3386,"Ġà¤ħà¤µà¤ľ":3387,"BS":3388,"Ġà¤¦à¤°à¤ķ":3389,"à¤Ľà¤¹":3390,"à¥ĺà¤¯":3391,"à¥ĭà¤ĤâĢĻ":3392,"à¤°à¤Ĺà¤¢":3393,"ash":3394,"oron":3395,"pr":3396,"à¤¸à¤¯":3397,"Ġà¤ªà¤¦à¤Ń":3398,"à¤°à¤¸à¤°":3399,"à¤¯à¤®à¤¸à¤¨":3400,"Ġà¤¬à¥Ŀà¤¨":3401,"PS":3402,"Ġà¤¹à¤²à¤ķ":3403,"à¤¤à¤°à¤ķ":3404,"à¤ŁÃ¯":3405,"Ġ\\\"\"\"\"\"":3406,"à¤¸à¤Ĺ":3407,"Ġà¤ıà¤®à¤ĵà¤¯":3408,"ah":3409,"ual":3410,"Ġà¥§à¥Ń":3411,"ust":3412,"à¤¿âĢĻ":3413,"à¤µà¤£":3414,"ome":3415,"irus":3416,"Ġà¤ľà¤²à¤¨":3417,"Ġ104":3418,"Ġà¤ıà¤¯":3419,"Ġà¤®à¤°à¤¤":3420,"à¥Ľà¤Ĺ":3421,"à¤¬à¤Ĺ":3422,"Ġ1996":3423,"Ġà¤ıà¤®à¤ľ":3424,"à¤¾(":3425,"à¤¾âĢĿ":3426,"à¤ıà¤«à¤¡":3427,"Ġà¤®à¤Ŀ":3428,"Ġà¤¤à¤«":3429,"Ġà¤ħà¤¨à¤¸":3430,"à¥ĩà¤Ĥ...":3431,"ĠPrice":3432,"Ġà¤ľà¤¯à¤²à¤²":3433,"Ġj":3434,"zon":3435,"à¤Ĺà¤Ł":3436,"à¤Ĩà¤Īà¤µ":3437,"à¤·à¤ľà¤¨à¤ķ":3438,"Ġà¤ĩà¤¯":3439,"Ġ140":3440,"à¤Ĩà¤¬":3441,"ĠKhan":3442,"ket":3443,"Ġà¤¦à¤¶à¤®à¤²à¤µ":3444,"Ġà¤¦à¤¹à¤¶à¤¤":3445,"à¤¸à¤Ĺà¥Ŀ":3446,"Ġà¤ķà¤°à¤®":3447,"Ġà¤ĩà¤Ł":3448,"Ġà¤ķà¤¯":3449,"à¤¾à¥¤à¥¤":3450,"à¤®à¤«":3451,"à¤¹à¤²à¤¤":3452,"Ġà¤¬à¤¦à¤ķ":3453,"Ġà¤ĩà¤¨à¤ķà¤®":3454,"à¤¯à¤¬à¤°":3455,"Ġà¥Ļà¤¬à¤°":3456,"à¤¯à¤²à¤®":3457,"Ġà¤®à¤®":3458,"pt":3459,"à¤¨à¤µà¤ľ":3460,"AI":3461,"PF":3462,"Ġà¤ĳà¤²à¤°":3463,"Ġà¤¬à¤¦à¤¤à¤°":3464,"à¥Ī...":3465,"Ġà¤īà¤ªà¤µ":3466,"oog":3467,"à¥į,":3468,"à¤°à¤µà¤£":3469,"Ġà¤ıà¤¸à¤ı":3470,"Ġà¤¦à¤°à¤Ĺ":3471,"à¤¯à¤¤à¤ķà¤°":3472,"Ġ1998":3473,"kart":3474,"à¤°à¤¡":3475,"Ġà¤µà¤¡":3476,"Ġà¤®à¤¤à¤Ĺà¤£à¤¨":3477,"oogle":3478,"à¤¤à¤°à¤¹":3479,"Ġà¤¸à¤¬à¤®":3480,"orm":3481,"lipkart":3482,"à¤¦à¤ķà¤°":3483,"Ġà¤Īà¤ķ":3484,"Ġ1990":3485,"Ġà¤®à¤¹à¤°":3486,"à¤¯à¤¬à¤²":3487,"à¤ķà¤®à¤²":3488,"Ġà¤ĺà¤°à¤µ":3489,"à¤Ĭà¤°":3490,"Ġà¤ľà¤¨à¤ķ":3491,"oto":3492,"à¤¯à¤ķà¤°à¤£":3493,"à¤ıà¤¸à¤ķ":3494,"Ġà¤īà¤ªà¤¨à¤Ĺà¤°":3495,"Ġà¤¤à¤¬à¤ķ":3496,"ef":3497,"Ġà¤¡à¤ķ":3498,"olog":3499,"ĠBoard":3500,"oor":3501,"à¤²à¤ı":3502,"ĠIS":3503,"EE":3504,"Ġà¤ķà¤ªà¤²":3505,"Ġà¥Ļà¤°":3506,"Ġac":3507,"Ġà¤Ĩà¤ķà¤¸":3508,"à¥Ĥà¤ģ?":3509,"Ġà¤Ĩà¤¸à¤¨":3510,"Ġà¤ĵà¤ķ":3511,"à¤¡à¤¸à¤¨":3512,"Ġà¤Ĺà¤¶":3513,"Ġà¤ħà¤ľà¤®":3514,"à¥Ī'":3515,"à¤ĵà¤Ł":3516,"Ġà¤ļà¥Ŀ":3517,"à¥ĩà¥į":3518,"Ġà¤īà¤·":3519,"à¤ıà¤¨à¤Ĩà¤Īà¤ı":3520,"pl":3521,"à¤¾à¥ĩà¤Ĥ":3522,"Ġà¤ıà¤®à¤ıà¤®":3523,"à¥Īà¥¤\"\"":3524,"à¤ģà¥¤":3525,"à¤¯à¤«":3526,"Ġà¤¸à¤°à¤ªà¤°à¤¸":3527,"ĠPl":3528,"ight":3529,"Ġ450":3530,"Ġà¤ľà¤¸à¤µ":3531,"Ġcom":3532,"ppo":3533,"Ġà¤ªà¤ĸà¤µ":3534,"Ġà¤¶à¤¸":3535,"à¤Ķà¤¦":3536,"ile":3537,"Ġà¤ıà¤¨à¤¬":3538,"Ġà¤ħà¤¨à¤ľ":3539,"à¤®à¤¨à¤Ĺà¤°":3540,"à¤¸à¤ķà¤¤":3541,"Ġà¤¡à¤°à¤¨":3542,"Ġà¤Ĩà¤ľà¤ķà¤²":3543,"Ġà¤¨à¤ľà¤°à¤ħ":3544,"ens":3545,"à¤¼à¤¾-":3546,"à¤ıà¤²à¤ı":3547,"avirus":3548,"à¤ľà¤Ĺà¤¹":3549,"à¤ļà¤µà¤°":3550,"Ġpro":3551,"Ġà¤²à¤¹":3552,"CCI":3553,"US":3554,"Ġà¤ªà¤°à¤¸à¤¤":3555,"à¤°à¤®à¤¨":3556,"Ġà¤Ķà¤ľ":3557,"Ġà¤ªà¤Łà¤ķà¤¥":3558,"à¤ħà¥Ľ":3559,"Ġà¤ħà¤§à¤°":3560,"à¤Łà¤¯":3561,"à¤®à¤µà¤°":3562,"Ġà¤®à¤ł":3563,"Ġà¤¬à¤¶à¤°":3564,"FC":3565,"à¤¸à¤¦à¤¸":3566,"à¤ĳà¤°":3567,"ss":3568,"à¥īà¤ģ":3569,"à¤¡à¤Ł":3570,"Ġà¤ªà¤¤à¤²":3571,"Ġà¤ļà¤¯à¤¨à¤ķà¤°":3572,"Ġ2030":3573,"à¥ĪâĢĻ":3574,"à¤ľà¤¨à¤²":3575,"à¤Ĭà¤²":3576,"Ġà¤¸à¤ķà¤¨":3577,"mazon":3578,"à¤Ĭà¤ªà¤°":3579,"à¤¾âĢ¦":3580,"ĠSingh":3581,"700":3582,"Ġà¤łà¤Ĺ":3583,"à¤ķà¤°à¤¶":3584,"TE":3585,"à¤Ĩà¤¯à¤ķà¤°":3586,"à¤¶à¤¨à¤¶":3587,"Ġà¤¨à¤µà¤°":3588,"Ġà¤Łà¤²":3589,"à¤µà¤²à¤ªà¤°":3590,"Ġà¤ıà¤¸à¤ıà¤¸à¤ª":3591,"à¤ıà¤®à¤¯":3592,"Ġ(\"\"":3593,"Ġà¤¸à¤¹à¤¸":3594,"Ġà¤ľà¤²à¤¸":3595,"Ġà¤Ĩà¤ĩà¤ª":3596,"à¤ĩà¤ªà¤²":3597,"port":3598,"Ġ02":3599,"à¤Ĺà¤µà¤°":3600,"à¤ľà¤Ńà¤µà¤¨":3601,"à¤Ĩà¤°à¤ĵ":3602,"ĠIPL":3603,"à¤¾\"":3604,"ence":3605,"Ġà¤ļà¤Łà¤ķ":3606,"à¤ķà¤°à¤¤":3607,"odi":3608,"Ġà¤¯à¤¤":3609,"Ġà¤Ĩà¤²à¤®":3610,"Â»":3611,"Ġà¤ľà¤«à¤°":3612,"à¤®à¤¨à¤®":3613,"à¤¹à¤¶":3614,"à¤¸à¤Ĭà¤¦":3615,"DA":3616,"are":3617,"à¤Łà¤¸à¤¨":3618,"à¤¨à¤ĸ":3619,"âĢ¦]":3620,"CP":3621,"à¥Ľà¤²":3622,"Ġor":3623,"Ġ1992":3624,"à¤ıà¤¸à¤ĵ":3625,"Ġà¤ķà¤¦à¤°":3626,"Ġà¤²à¤¯":3627,"Ġà¤Īà¤¯à¤°":3628,"Ġ124":3629,"Ġà¤ļà¤Łà¤°":3630,"à¤Ĩà¤°à¤ľ":3631,"ĠUpd":3632,"à¥Ģà¤Ĥ-":3633,"Ġ[âĢ¦]":3634,"dà¤¯":3635,"à¤ıà¤¨à¤Ĩà¤°à¤¸":3636,"à¥ģ)":3637,"Ġ3000":3638,"per":3639,"Ġà¤¸à¤¦à¤®":3640,"Ġy":3641,"Ġà¤Łà¤®":3642,"à¤ıà¤²à¤¡":3643,"Ġà¤ĩà¤ķà¤²":3644,"à¤łà¤®":3645,"à¤ªà¤ķà¤¡":3646,"----":3647,"ÃĹ":3648,"à¤²à¤¶":3649,"Ġà¤ªà¤°à¤ĸ":3650,"Ġà¤Ĩà¤Īà¤ıà¤¸à¤Ĩà¤Ī":3651,"Ġà¤ļà¤µ":3652,"oronavirus":3653,"ĠIC":3654,"ft":3655,"à¤ĵà¤°":3656,"Ġ08":3657,"con":3658,"Ġà¤¹à¤®à¤®":3659,"à¤¿/":3660,"Ġà¤ªà¤¨à¤¡":3661,"Ġà¤ļà¤®à¤¡":3662,"à¤ķà¤¤à¤µà¤°":3663,"BJP":3664,"à¥ĩ),":3665,"Ġà¤Ĭà¤¨":3666,"ĠSC":3667,"bo":3668,"\"\")":3669,"à¤¦à¤°à¤ľ":3670,"Ġà¤«à¤¹à¤°":3671,")-":3672,"Ġà¤¬à¤ĺ":3673,"oday":3674,"à¤¯à¤ļ":3675,"Ġ1980":3676,"Ġà¤ªà¤²à¤Łà¤µ":3677,"à¥Ĥà¤Ĥ?":3678,"Ġà¤®à¤µ":3679,"à¥į\\":3680,"Name":3681,"Ġà¥§à¥¯":3682,"à¤¿'":3683,"ta":3684,"Ġ1500":3685,"à¤¯à¤ľà¤¨à¤ķ":3686,"à¤Ĺà¤²à¤¤":3687,"Ġà¤Ĩà¥Ľ":3688,"TC":3689,"Ġà¤¸à¤ľà¤Ĺ":3690,"à¤¶à¤ķà¤°":3691,"Ġà¤ħà¤²à¤µ":3692,"ĠExam":3693,"à¤ķà¤Ĺ":3694,"Ġà¤ľà¤¨à¤®":3695,"und":3696,"eath":3697,"à¤Ĺà¤¡à¤®":3698,"ĠBank":3699,"Ġ1993":3700,"EO":3701,"Ġ1984":3702,"ry":3703,"à¤łà¤°":3704,"à¤¯à¤µà¤ķ":3705,"Ġà¤ıà¤¹à¤¦":3706,"ack":3707,"à¤®à¤°à¤¤":3708,"Ġ(-":3709,"à¤ıà¤¸à¤µ":3710,"Ġà¤ĭà¤·à¤Ń":3711,"Ġà¤Ĩà¤ĺ":3712,"à¤łà¤Ĺ":3713,"à¤ĳà¤Ł":3714,"à¤Ĥ-":3715,"ĠUn":3716,"Ġà¤īà¤ĸ":3717,"à¤ĺà¤Ł":3718,"Ġà¤¬à¤ľà¤°":3719,"à¤¹à¤£":3720,"à¤¡à¤Ĺ":3721,"à¤§à¤°à¤£":3722,"à¤Īà¤¬":3723,"Ġà¤Ĺà¤łà¤ľ":3724,"Ġ1991":3725,"Ġà¤Īà¤Ł":3726,"à¥Ľà¤¤":3727,"ble":3728,"Ġ1971":3729,"à¤¨à¤·":3730,"à¤ıà¤ıà¤²":3731,"2009":3732,"/-":3733,"ĠJio":3734,"à¤ıà¤®à¤¬":3735,"ee":3736,"ĠâĢİ":3737,"Ġà¤ªà¤¤à¤¨":3738,"à¤¾à¤ģ)":3739,"age":3740,"à¤¸à¤°à¤¸":3741,"ission":3742,"Ġà¤īà¤¬à¤°":3743,"ihar":3744,"Ġ..":3745,"2010":3746,"Ġ06":3747,"à¤²à¤ĺ":3748,"ĠAl":3749,"à¤¦à¤¶à¤¹à¤°":3750,"à¤ªà¤ķà¤°":3751,"Ġà¤ıà¤¯à¤°à¤ķ":3752,"à¤²à¤¹à¤¨":3753,"Ġà¤Ĭà¤¤à¤ķ":3754,"à¤¡à¤°à¤²":3755,"sh":3756,"à¤¸à¤ĸ":3757,"à¤«à¤ķ":3758,"Ġà¤ľà¤¨à¤°":3759,"ĠApp":3760,"Ind":3761,"à¤¬à¤¦à¤¬":3762,"à¤¿à¥į":3763,"à¤µà¤ķà¤°":3764,"NU":3765,"à¤Ĩà¤°à¤ķ":3766,"ĠOnePlus":3767,"à¤ĭà¤£":3768,"iz":3769,"à¥ļà¤°à¥Ľ":3770,"à¤ıà¤¨à¤ıà¤ķ":3771,"Xiaomi":3772,"ĠMe":3773,"à¤«à¤°à¤¨à¤Ĺà¤°":3774,"Ġ170":3775,"Ġà¤ħà¤µà¤¤à¤°":3776,"Ġ05":3777,"Ġà¤ıà¤ķà¤¸":3778,"ĠCM":3779,"à¤ķà¤°à¤ĺ":3780,"à¤ıà¤®à¤ıà¤¸à¤ıà¤®à¤Ī":3781,"Ġ:-":3782,"Ġà¤ľà¤¨à¤¨":3783,"ear":3784,"Ġà¤¸à¤®à¤¯à¤¬à¤¦":3785,"Ġà¤ıà¤ļà¤¸":3786,"uk":3787,"Ġ09":3788,"à¤Ĩà¥Ļ":3789,"ĠOff":3790,"Ġà¤ĵà¤ıà¤¨à¤ľ":3791,"elhi":3792,"à¤ıà¤®à¤ıà¤®":3793,"Ġ1950":3794,"ition":3795,"Ġ1997":3796,"Ġ1956":3797,"ĠCom":3798,"Ġà¤ķà¤¤à¤Ī":3799,"Ġà¤¤à¤Łà¤°à¤ķ":3800,"à¤Ĥ)":3801,"à¤Ĺà¤°à¤£":3802,"Ġà¤¬à¤°à¤¬":3803,"Ġ03":3804,"à¤ĩà¤§à¤°":3805,"à¤ıà¤²à¤ıà¤«":3806,"Ġ*":3807,"MC":3808,"à¤µà¤°à¤¨":3809,"Ġ1995":3810,"à¤ķà¤²à¤ķà¤°":3811,"rag":3812,"Ġà¤ıà¤ıà¤¨à¤Ĩà¤Ī":3813,"à¤µà¤ķà¤ª":3814,"dian":3815,"man":3816,"Ġà¤Ĩà¤¯à¤°à¤¨":3817,"Ġà¤ľà¤¬à¤°":3818,"Ġ900":3819,"ale":3820,"Ġà¤ļà¤°à¤®à¤ª":3821,"2008":3822,"à¤ĭà¤·":3823,"Ġ302":3824,"Ġà¥¦":3825,"à¤ĩà¤Ĺ":3826,"Ġà¤¥à¤²":3827,"Ġà¤ħà¤®à¤°à¤¨":3828,"nic":3829,"à¤Ĩà¤®à¤¤":3830,"ict":3831,"AR":3832,"à¤ľà¤®à¤¹à¤²":3833,"Ġà¤µà¤ļà¤¨à¤¬à¤¦":3834,"ish":3835,"499":3836,"dà¤Ł":3837,"Ġà¤¶à¤²":3838,"india":3839,"Ġà¤ĵà¤ªà¤¨à¤°":3840,"à¤¸à¤ĺ":3841,"à¤¶à¤ľ":3842,"Ġà¤ıà¤ķà¤¤à¤°à¤«":3843,"Ġ04":3844,"Ġà¤ĩà¤®à¤°à¤ľ":3845,"Ġà¤¦à¤¬à¤¦à¤¬":3846,"à¤ľà¤¨à¤¸":3847,"Ġ112":3848,"à¤ıà¤ıà¤¸":3849,"gr":3850,"Ġà¤¸à¤¬à¤°":3851,"Ġà¤¤à¤ª":3852,"Ġà¤¤à¤®à¤¨":3853,"IP":3854,"Ġ107":3855,"Ġ119":3856,"à¤µà¤¤à¤¨":3857,"Ġ4000":3858,"ĠAr":3859,"Ġà¤ĩà¤¸à¤¹":3860,"IV":3861,"à¥ĩ\"\"":3862,"Ġ126":3863,"à¤Ĺà¤«":3864,"Ġà¤ħà¤¨à¤ķ":3865,"erv":3866,"Ġà¥ĺà¤¸à¤®":3867,"RO":3868,"Ġà¤ĵà¤µà¤°à¤¸":3869,"Ġà¤¨à¤ľà¤°à¤¬":3870,"à¤Ĺà¤°à¤®":3871,"Ġà¤ıà¤¨à¤ıà¤®":3872,"à¥Īà¥¤âĢĿ":3873,"Ġà¤¦à¤¹à¤²":3874,"à¤°à¤ĸà¤£":3875,"Ġà¤²à¤°":3876,"ics":3877,"Ġà¤¢à¤²":3878,"ata":3879,"ater":3880,"Ġà¤¬à¤Ĺà¤²":3881,"à¤Īà¤ıà¤²":3882,"Ġà¤īà¤ªà¤®à¤¹":3883,"à¤°à¤Ł":3884,"à¥ĩ\"":3885,"ord":3886,"Ġà¤ªà¤²à¤Łà¤¨":3887,"Ġà¥¨à¥ª":3888,"ign":3889,"à¤°à¤¨à¤ª":3890,"Ġ114":3891,"à¤²à¤¯à¤¨":3892,"Ġà¤īà¤¦à¤¯à¤ª":3893,"Ġ1947":3894,"Ġà¤¬à¤²à¤¬":3895,"Ġà¤ıà¤¯à¤°à¤¬":3896,"Ch":3897,"à¤Ĺà¤¨à¤µ":3898,"Ġ175":3899,"à¤ķà¤°à¤®":3900,"pe":3901,"à¥ĩà¤¾":3902,"Ġà¤ĩà¤¥":3903,"Ġà¤ľà¤²à¤ª":3904,"aria":3905,"à¤Ĩà¤Īà¤ıà¤¸à¤ıà¤«":3906,"\"\"\"\\\"\"":3907,"Ãĵ":3908,"Ġà¤ĩà¤Ĺ":3909,"Ġ102":3910,"Ġà¤µà¤§":3911,"esh":3912,"Ġà¤«à¤ľ":3913,"Ġ512":3914,"Ġà¤ļà¤¹":3915,"Ġà¤łà¤¹à¤°à¤¨":3916,"hats":3917,"ron":3918,"Ġà¤ªà¤Ľ":3919,"à¤ªà¤ªà¤¤":3920,"Ġà¤ħà¤¸à¤«à¤²à¤¤":3921,"Ġà¤¦à¤°à¤ĸ":3922,"à¤¾à¤Ĥ)":3923,"ĠFIR":3924,"ix":3925,"à¤Ľà¤°":3926,"à¤ķà¤ĺà¤°":3927,"Ġà¤ħà¤Łà¤ķ":3928,"à¤ıà¤²à¤¬":3929,"à¥įà¤¼":3930,"Ġà¥¤)":3931,"Ġà¤ıà¤¸à¤ľ":3932,"Ġà¤ĩà¤§à¤°":3933,"Ġà¤¬à¤²à¤°":3934,"Ġà¤ĩà¤¨à¤µ":3935,"à¥Ģ...":3936,"Ġ750":3937,"ood":3938,"Ġ109":3939,"apoor":3940,"DI":3941,"à¥ĩà¥ĩà¤Ĥ":3942,"Ġà¤¤à¤ľ":3943,"à¤°à¤«à¤²":3944,"à¤ķà¤Łà¤¤à¤®":3945,"gl":3946,"Ġ07":3947,"à¤¹à¤ľà¤¹":3948,"à¥ĩâĢ¦":3949,"à¤¬à¤µ":3950,"à¤¯à¤ķà¤µ":3951,"Ġà¤Ĩà¤īà¤Łà¤ª":3952,"Ġà¤²à¤ĸ":3953,"à¤Ĺà¤¤à¤¨":3954,"ĠToday":3955,"à¤ķà¤ł":3956,"Ġà¤¨à¤µà¤¦":3957,"BC":3958,"à¤µà¤²à¤ª":3959,"à¤§à¤²":3960,"à¥įà¥ĭ":3961,"Ġà¤ħà¤ªà¤Ĺ":3962,"Ġà¤¦à¤«à¤¨":3963,"Ġà¤ĵà¤²à¤®":3964,"Ġà¤Ĩà¤Īà¤ıà¤«":3965,"ĠCon":3966,"à¤ĸà¤¨à¤¨":3967,"Ġ376":3968,"Ġà¤ıà¤²à¤ľ":3969,"à¥Ģ.\"":3970,"ana":3971,"à¤®à¤¸à¤¨":3972,"Ġà¤ıà¤®à¤ķ":3973,"atch":3974,"Ġ230":3975,"Ġà¤Ĳà¤¨":3976,"à¥ĩà¤¼":3977,"ĠCol":3978,"à¤ıà¤®à¤ĵà¤¯":3979,"Ġà¤ļà¤ļ":3980,"à¥Īà¤Ĥà¥¤\"\"\"":3981,"Ġà¤īà¤łà¤ķà¤°":3982,"Ġà¤¸à¤¹à¤ķà¤°":3983,"Ġà¤Ĩà¤īà¤Łà¤²":3984,"à¤Īà¤«":3985,"Ġ550":3986,"Ġà¤¢à¤¹":3987,"CBSE":3988,"à¤¡à¤¹":3989,"à¤Ĩà¤ªà¤°":3990,"Ġà¤Ńà¤¸":3991,"à¤ħà¤°à¤µ":3992,"à¤ıà¤ļà¤ıà¤¸":3993,"à¤¹à¤¯":3994,"Ġà¤ļà¤°à¤µ":3995,"ug":3996,"Ġà¤¶à¤¹à¤¦":3997,"Ġà¤ĩà¤·":3998,"à¤ıà¤²à¤Ł":3999,"à¤ıà¤¨à¤Ĩà¤°":4000,"Ġà¤¸à¤®à¤²":4001,"à¤°à¤¸à¤µ":4002,"à¥ĩ.\"":4003,"Ġà¤®à¤¦à¤°à¤¸":4004,"ICC":4005,"oo":4006,"ele":4007,"à¤¸à¤°à¤¦":4008,"Ġà¤ĵà¤®à¤ª":4009,"Ġà¤®à¤¨à¤¨":4010,"Ġà¥¨à¥§":4011,"ĠWorld":4012,"echn":4013,"Ġ1986":4014,"à¤¾,'":4015,"Ġ106":4016,"à¤ľà¤¯à¤µà¤°":4017,"Ġ101":4018,"à¤Ĥà¥ĩ":4019,"à¤Ĩà¤ı":4020,"ĠUS":4021,"Ġà¤®à¤¹à¤«":4022,"Ġà¤Ŀà¤Ĺà¥ľ":4023,"Ġà¤¬à¤ł":4024,"Ġà¤ľà¤¬à¤²à¤ª":4025,"Ġ103":4026,"Ġà¤¯à¤¶à¤µ":4027,"Ġà¤ķà¤¬à¤¡":4028,"able":4029,"à¤·à¤¯à¤ķ":4030,"à¤ľà¤ªà¤ķ":4031,"à¤«à¤°à¤®":4032,"ĠTV":4033,"à¤°à¤ķà¤²":4034,"IT":4035,"à¤¸à¤¦à¤¨":4036,"à¤¨à¤ªà¤°":4037,"Ġà¤¸à¤®à¤¯à¤¸":4038,"à¤Ĩà¤µà¤¶":4039,"2000":4040,"oy":4041,"à¤ªà¤°à¤¤":4042,"à¤ıà¤¨à¤ıà¤¨":4043,"MO":4044,"ener":4045,"Ġà¥¨à¥¨":4046,"Ġ1989":4047,"rans":4048,"à¤¼à¤¾)":4049,"Ġà¤ĺà¤¨à¤¤":4050,"Vivo":4051,"ĠAnd":4052,"à¤ĩà¤ªà¤°":4053,"à¤¡à¤°à¤°":4054,"ie":4055,"Ġ650":4056,"à¤¨à¤¦à¤¯":4057,"Ġ1994":4058,"AD":4059,"nap":4060,"à¥ĪâĢ¦":4061,"Ġà¤īà¤§à¤°":4062,"CB":4063,"ÙĦ":4064,"Ġà¤²à¤ľ":4065,"Ġ118":4066,"Ġà¤ıà¤¨à¤µ":4067,"ology":4068,"ĠResults":4069,"à¤ľà¤¨à¤ľ":4070,"\"\"\"\"\"\"\"":4071,"à¥Īà¤Ĥà¤ĥ":4072,"à¥Ĥà¥¤":4073,"ĠFlipkart":4074,"HT":4075,"Ġà¤¹à¤¨à¤¨":4076,"Ġà¤ĺà¤Łà¤¤":4077,"Ġà¤¹à¤¥à¤ķà¤°à¤ĺ":4078,"Ġ122":4079,"ond":4080,"Ġ117":4081,"à¤ıà¤¸à¤Ĩà¤Īà¤Ł":4082,"okia":4083,"à¤¯à¤Łà¤°":4084,"à¤Ĺà¤«à¤²":4085,"Ġà¤µà¤°à¤¦":4086,"Ġà¤īà¤ªà¤²à¤ķ":4087,"Ġà¤ħà¤ĺ":4088,"Ġà¤¯à¤ľ":4089,"ip":4090,"à¤Ľà¤µ":4091,"Ġà¤¬à¤¹à¤²":4092,"Ġà¤¸à¤®à¤Ŀà¤ķà¤°":4093,"Ġà¤ħà¤¥à¤ķ":4094,"à¤ħà¤Łà¤²":4095,"à¤°à¤Ĺà¤Ł":4096,"]]":4097,"à¥Ģà¤Ĥ:":4098,"ail":4099,"à¤Ĩà¤¦à¤®":4100,"Ġà¤ķà¤Ĺ":4101,"Ġà¤ĳà¤¬":4102,"Ġà¤®à¤¨à¤ª":4103,"Ġà¤¬à¤ľà¤ķà¤°":4104,"ĠSc":4105,"à¤°à¤¬à¤¦à¤²":4106,"ragon":4107,"à¤²à¤²":4108,"Ġà¤«à¤¸":4109,"à¤¨à¤¬à¤°":4110,"Ġ2025":4111,"ĠCard":4112,"Ġà¤²à¥ľà¤¨":4113,"à¤¤à¤«":4114,"Ġà¤ĸà¤®":4115,"à¥Ļà¤¬à¤°":4116,"à¤Īà¤ıà¤¸à¤Ĩà¤°":4117,"à¥Ģà¤Ĥ!":4118,"à¤¯à¤®à¤¯":4119,"ÂłÂłÂłÂł":4120,"Ġà¤īà¤¤à¤°à¤¤":4121,"ĠXiaomi":4122,"AS":4123,"))":4124,"napd":4125,"Ġà¤ĩà¤£":4126,"Ġ135":4127,"IND":4128,"cy":4129,"à¤ıà¤®à¤ıà¤«":4130,"ations":4131,"SBI":4132,"eb":4133,"Ġà¤®à¤¨à¤°":4134,"line":4135,"Ġ145":4136,"ors":4137,"mart":4138,"Ġà¤¸à¤°à¤«à¤°":4139,"ĠElection":4140,"Ġà¤īà¤ªà¤ª":4141,"ovid":4142,"Ġhttp":4143,"à¥ĩ|":4144,"à¤µà¤°à¤®":4145,"Ġ1988":4146,"à¤¯à¤¤à¤¯":4147,"à¤¸à¤¨à¤ķ":4148,"Ġà¤ĩà¤ĸ":4149,"à¤Ŀà¤ķ":4150,"Ġà¤Ĺà¤Īà¤¹":4151,"ith":4152,"Ġà¥¨à¥«":4153,"OC":4154,"à¤·à¤µ":4155,"tra":4156,"OnePlus":4157,"napdragon":4158,"ĠKapoor":4159,"Ġà¤ħà¤¶à¤°à¤«":4160,"à¥ŀà¤¤":4161,"128":4162,".)":4163,"à¤ľà¤µà¤²":4164,"à¤¥à¤Ĺà¤¨":4165,"Ġà¤ıà¤¸à¤ķ":4166,"à¤Ĩà¤°à¤Ĩà¤°":4167,"Ġà¤Ĩà¤ĩà¤Ł":4168,"2007":4169,"Ġà¤ĸà¤Łà¤ĸà¤Ł":4170,"Ġà¤¬à¤¢à¤©":4171,"Ġà¤¬à¤¦à¤°":4172,"à¤Ĺà¤²à¤ª":4173,"Ġà¤ķà¤²à¤®":4174,"à¤§à¤µà¤¨":4175,"Ġà¤ħà¤µà¤¯à¤µ":4176,"à¤¾âĢį":4177,"à¤µà¤¨à¤¶":4178,"Ġà¤¤à¤°à¤ľ":4179,"Ġà¤ªà¤Ľà¤¤":4180,":-":4181,"Ġà¤®à¤¶à¤ķ":4182,"ĠSh":4183,"Ġà¤¸à¤°à¤Ĺà¤¨":4184,"à¥įà¤¿":4185,"Ġà¤ĸà¤Ĺ":4186,"Ġà¤ıà¤¸à¤ıà¤ļà¤ĵ":4187,"ĠSnapdragon":4188,"Ġà¤¤à¤µ":4189,"ĠâĢĺâĢĻ":4190,"ĠTest":4191,"Ġup":4192,"Ġà¤ªà¤¹à¤¨à¤¤":4193,"à¤Ĩà¤¨à¤¨":4194,"Ġà¤Ĩà¤Īà¤Ĩà¤°à¤¸":4195,"app":4196,"ib":4197,"à¤Łà¤Ĺ":4198,"ĠAmazon":4199,"Coronavirus":4200,"à¤Ĩà¤¯à¤¨":4201,"Ġà¤ıà¤ļà¤Ĩà¤Īà¤µ":4202,"à¥ĤâĢĻ":4203,"Ġà¤ıà¤µà¤°":4204,"Ġà¤ĳà¤¨à¤°":4205,"Ġà¤Ńà¤°à¤ķà¤°":4206,"Ġ121":4207,"ern":4208,"à¤ıà¤¸à¤ıà¤²à¤µ":4209,"Ġà¥¨à¥¦à¥§":4210,"à¤®à¤¸à¤®à¤°":4211,"tern":4212,"lass":4213,"Ġà¤®à¤Ł":4214,"à¤łà¤µ":4215,"à¤®à¤¥":4216,"Ġà¤Ĩà¤°à¤¤":4217,"Ġà¤ıà¤¯à¤°à¤«":4218,"ĠBS":4219,"à¤ıà¤¡à¤®":4220,"ideo":4221,"à¤¾âĢĻâĢĻ":4222,"ĠUP":4223,"fo":4224,"à¤Łà¤°à¤²":4225,"à¤īà¤ªà¤§":4226,"Ġà¤ħà¤²à¤¬à¤¤":4227,"Ġà¤ħà¤ļà¤²":4228,"so":4229,"Ġà¤Īà¤ľ":4230,"ĠAir":4231,"ivers":4232,"à¥ĭà¤Ĥ!":4233,"à¤¾,\"\"":4234,"Ġà¤ħà¤¨à¥ĺà¤°":4235,"à¥ĩà¤Ĥ!":4236,"Ġà¤®à¤°à¤ľ":4237,"Ġà¤ıà¤¹à¤ķ":4238,"Ġà¤ľà¤¯à¤¸":4239,"act":4240,"eng":4241,"à¤Łà¤¨à¤®":4242,"ead":4243,"Ġà¤®à¤¸à¤²à¤¨":4244,"cc":4245,"Ġà¤ħà¤¨à¤§":4246,"à¤¶à¤ĸ":4247,"à¤ĩà¤¡à¤²":4248,"Ġà¤¸à¤¤à¤ª":4249,"CR":4250,"à¥ĭà¤Ĥà¤Ĥ":4251,"ey":4252,"iew":4253,"à¥ĢâĢ¦":4254,"Ġà¤ĳà¤«à¤²":4255,"ĠPlus":4256,"à¤ĭà¤¤":4257,"à¤¯à¤®à¤¶":4258,"à¤ľà¤¹à¤¨":4259,"MI":4260,"à¥Ģ|":4261,"à¥Ĥ'":4262,"Ġ116":4263,"ĠThe":4264,"HO":4265,"à¤ıà¤®à¤¡à¤¬":4266,"Ġ1987":4267,"Ġà¤īà¤¬à¤°à¤¨":4268,"Ġà¤Ľà¤¡":4269,"alue":4270,"yst":4271,"Ġà¥§à¥¯à¥®":4272,"à¤ıà¤«à¤ı":4273,"Ġ1985":4274,"à¤²à¤°à¤¶":4275,"Ġà¤ļà¤°à¤£à¤¬à¤¦":4276,"Ġà¤®à¤Ĺà¤§":4277,"à¥ĭà¤Ĥ'":4278,"à¥Ī\"\"":4279,"ork":4280,"ĠModi":4281,"Ġà¤²à¤Ĺà¤µ":4282,"Ġà¤¦à¤²à¤¹à¤¨":4283,"Ġà¤¶à¤¹à¤¨":4284,"Ġ\"\"%":4285,"ĠVivo":4286,"à¤ıà¤ļà¤¯":4287,"Ġà¤ªà¤¹à¤°":4288,"Ġà¥ŀà¤°":4289,"way":4290,"à¤µà¤ľà¤¹":4291,"à¤ľà¤ķà¤¤":4292,"Ġà¤¹à¤²à¤ļà¤²":4293,"à¤ķà¤¹à¤¤":4294,"à¤ħà¤Ł":4295,"à¤Ŀà¤®":4296,"rad":4297,"Ġat":4298,"Ġ1970":4299,"à¤ľà¤¯à¤µ":4300,"à¤¬à¤ĸ":4301,"Ġà¤ıà¤ļà¤ª":4302,"2004":4303,"ĠOne":4304,"Ġà¤¤à¤°à¤¸":4305,"Ġà¤ħà¤²à¤ķ":4306,"à¤¥à¤²à¤Ĺ":4307,"à¥ĩà¥¤\"\"":4308,"Ġ153":4309,"Ġà¤ıà¤ıà¤¸à¤Ĩà¤Ī":4310,"Ġ420":4311,"Ġ111":4312,"ĠÎ":4313,"Ġ6000":4314,"Ġà¤ĸà¤°à¤¬":4315,"à¤¶à¤¶":4316,"à¤Ńà¤¤":4317,"rol":4318,"mission":4319,"Ġà¤¸à¤°à¤¤":4320,"Ġà¤«à¤¨":4321,"à¤¯à¤°à¤ªà¤°":4322,"Ġà¤ıà¤¨à¤ıà¤¸à¤ľ":4323,"Ġà¤ľà¤ķ":4324,"Ġ2024":4325,"Ġà¤¸à¤¬à¤¬":4326,"à¤¼à¥ĩ.":4327,"ral":4328,"Ġà¤ıà¤¥":4329,"Ġà¤ħà¤¨à¤Ĺ":4330,"Ġà¤ħà¤°à¤¶à¤¦":4331,"Ġ1973":4332,"mm":4333,"Ġà¤ħà¤Ľ":4334,"AC":4335,"Ġà¤®à¤°à¤ķ":4336,"ĠGoogle":4337,"à¤¦à¤¡":4338,"Ġà¤ľà¤²à¤ķà¤°":4339,"ower":4340,"Ġà¤²à¤ª":4341,"2001":4342,"Com":4343,"à¤¾à¤¼":4344,"Ġà¤īà¤ªà¤ĸ":4345,"Ġ220":4346,"à¤Łà¤ľ":4347,"tel":4348,"aun":4349,"Ġ132":4350,"à¤§à¤°à¤¤":4351,"à¥ĩà¤Ĥà¤ĥ":4352,"Ġà¤®à¤ľà¤²":4353,"put":4354,"ari":4355,"à¤¾]":4356,"erala":4357,"World":4358,"à¥Ģà¥°":4359,"Ġà¤ħà¤Ĺà¤°à¤ļ":4360,"à¤ıà¤«à¤ıà¤¸":4361,"Ġà¤Ķà¤ļ":4362,"Ġex":4363,"ND":4364,"à¤£à¤¤à¤¯":4365,"Ġà¤ľà¤¨à¤ª":4366,"\"(":4367,"à¤Łà¤°à¤¸à¤¨":4368,"à¤°à¤¤à¤²":4369,"à¤¸à¤®à¤¤":4370,"Ġà¤ľà¤¯à¤¦":4371,"Ġ1951":4372,"à¤Ńà¤Ĺà¤¤":4373,"à¥Īà¥¤âĢĻ":4374,"af":4375,"Ġà¥©à¥¦":4376,"Ġà¤¬à¤°à¤¨":4377,"ty":4378,"Ġà¤ĺà¤¸":4379,"à¤īà¤ªà¤ļ":4380,"Ġà¤Ĥ":4381,"à¤Ľà¤ª":4382,"Ġ720":4383,"Hz":4384,"Ġà¤¯à¤®à¤¨":4385,"Ġhttps":4386,"à¤ĸà¤®":4387,"à¥ĺà¤¤":4388,"Ġ288":4389,"Ġà¤¦à¤¶à¤¹à¤°":4390,"à¤¶à¤ªà¤¥":4391,"à¤¨à¤Ńà¤°":4392,"à¥ĩà¤Ĥà¤Ĥ":4393,"Ġà¤ĩà¤¬à¤°à¤¤":4394,"Gold":4395,"lic":4396,"Ġ174":4397,"ICI":4398,"An":4399,"à¤¤à¤°à¤¨":4400,"âĢİ":4401,"Ġà¤ªà¤£":4402,"à¤°à¤¤à¤µ":4403,"à¤ķà¤Łà¤¤":4404,"Ġ,âĢĺâĢĺ":4405,"irst":4406,"ariable":4407,"à¥Īà¥¤à¥¤":4408,"Ġà¥ŀà¤°à¤®":4409,"Ġà¤¬à¤Ľà¤¡":4410,"à¤¬à¤ª":4411,"ĠRaj":4412,"Ġà¤Ĩà¤«à¤¤":4413,"Home":4414,"à¤¸à¥ľà¤ķ":4415,"à¤Ŀà¤¨":4416,"ory":4417,"hatsApp":4418,"Ġà¤Ĺà¤°à¤ľ":4419,"à¤®à¤¡":4420,"à¤¡à¤¡":4421,"Ġà¤Ńà¤£":4422,"Ġà¤ıà¤¯à¤°à¤¸":4423,"Ġà¤Īà¤ıà¤®à¤Ĩà¤Ī":4424,"à¤¤à¤¨à¤¤":4425,"Ġà¤Ĭà¤·":4426,"Ġà¤¸à¤«à¤¦à¤°à¤ľ":4427,"ĠØ":4428,"Ġà¤Ľà¤®":4429,"à¥Ĥ:":4430,"à¤ĥ%":4431,"ĠPh":4432,"Ġà¤ħà¤ł":4433,"Ġà¤ĸà¤¯":4434,"Ġ1948":4435,"Ġà¤ıà¤«à¤Ł":4436,"form":4437,"à¤¤à¤«à¤°":4438,"à¤¾à¤Ĥà¥¤":4439,"ĠGST":4440,"Ġà¤Ĩà¤Īà¤ıà¤¸à¤Ĩà¤Īà¤ıà¤¸":4441,"Ġà¤¸à¤¹à¤¨à¤¶":4442,"à¤¯à¤¸à¤µ":4443,"à¤Ĺà¤Īà¤¹":4444,"à¤ıà¤Ĺà¤ı":4445,"à¤Ĩà¤ľà¤ķà¤²":4446,"2005":4447,"à¥ĢâĢĿ":4448,"à¤®à¤ķà¤°à¤£":4449,"Ġà¤¸à¤°à¤¨":4450,"gy":4451,"à¤ıà¤¸à¤ıà¤¸à¤ª":4452,"eather":4453,"à¤¾à¤Ĥà¥ĩ":4454,"Ġà¤īà¤Ńà¤°à¤¨":4455,"150":4456,"Ġà¤ķà¤«":4457,"Ġà¤¨à¤®à¤¸":4458,"ĠNar":4459,"Ġà¤ªà¤®":4460,"à¤¾à¤¿":4461,"Ġà¤¸à¤ĺà¤¨":4462,"ystem":4463,"Ġà¤ªà¤Łà¤²":4464,"à¤¶à¤°à¤¦":4465,"à¤Īà¤Ĩà¤°à¤Ł":4466,"Ġà¤¡à¤Ł":4467,"Ġà¤ħà¤²à¤µà¤°":4468,"ĠIII":4469,"Ġ1962":4470,"ĠUpdates":4471,"Ġ182":4472,"get":4473,"Ġà¤ıà¤¸à¤ıà¤¸":4474,"Ġis":4475,"à¤Łà¤Ĩà¤īà¤Ł":4476,"Ġ1976":4477,"EET":4478,"Ġà¤¥à¤ª":4479,"à¤Ŀà¤¤":4480,"amp":4481,")(":4482,"RBI":4483,"ĠIM":4484,"à¤¡à¤¯":4485,"à¤®à¤²à¤¤":4486,"2006":4487,"à¤ĩà¤ķà¤°":4488,"Ġà¤Ŀà¤°à¤¨":4489,"ĠAAP":4490,"NG":4491,"Ġ190":4492,"Ġ1972":4493,"Ġra":4494,"Ġà¤ıà¤²à¤ıà¤®à¤Ł":4495,"TV":4496,"à¤Łà¤°à¤ķ":4497,"Ġ(-)":4498,"Ġà¥¨à¥©":4499,"à¤¥à¤¸":4500,"Ġ1960":4501,"à¤¤à¤¦à¤¨":4502,"à¤ıà¤¨à¤ıà¤¸à¤Ī":4503,"à¤°à¤ļà¤²à¤¨":4504,"LA":4505,"à¤ľà¤ľ":4506,"Ġà¤Ĩà¤Ĭ":4507,"à¤°à¤ķà¤®":4508,"ĠOffice":4509,"à¤ĳà¤¨":4510,"EC":4511,"Ġà¤ľà¤®à¤¶":4512,"ĠPol":4513,"CAA":4514,"à¤ľà¤®à¤°":4515,"Ġ113":4516,"à¤ıà¤ļà¤ľ":4517,"Ġà¤¤à¤Łà¤¸":4518,"esults":4519,"à¤ĩà¤¸à¤ªà¤°":4520,"à¤µà¤¨à¤¡":4521,"ĠMax":4522,"ution":4523,"DP":4524,"à¤Ĳà¤¤":4525,"à¤ĳà¤¡":4526,"ĠMar":4527,"à¤Ĩà¤ĩà¤¸":4528,"Ġ304":4529,"Ġà¤ħà¤¦à¤¨":4530,"Ġà¤°à¤¡":4531,"Ġà¤ĵà¤ıà¤¸":4532,"anc":4533,"ĠSp":4534,"à¤¤à¤ĸ":4535,"à¤ıà¤ıà¤«":4536,"Ġà¤Ĺà¤Ĺà¤¨":4537,"Ġà¤ªà¤°à¤Ĺà¤¨":4538,"à¤Ĩà¤Īà¤ıà¤®à¤¡":4539,"Ġà¤ķà¤¸à¤°":4540,"Ġà¤ªà¤ª":4541,"Ġà¥¤...":4542,"Ġà¤Ļ":4543,"à¤¯à¤¨à¤ķ":4544,"à¤µà¤¨à¤ķ":4545,"à¤ıà¤¨à¤Ī":4546,"Ġà¤¬à¤¢à¤¤":4547,"à¥ģà¥į":4548,"COVID":4549,"Ġà¤ķà¤ªà¥ľ":4550,"à¤ıà¤¨à¤ıà¤«":4551,"Ġ123":4552,"ĨĴ":4553,"à¥ĺà¤¸":4554,"Ġà¤¬à¤°à¤¹":4555,"à¤Ĥ?":4556,"à¤«à¤¹à¤®":4557,"'s":4558,"à¤µà¤¯à¤ķ":4559,"Ġ1200":4560,"int":4561,"ĠBox":4562,"à¤¯à¤ľà¤¨":4563,"Ġà¤®à¤ķà¤¬à¤°":4564,"Ġà¤¹à¤°à¤ª":4565,"ism":4566,"comm":4567,"Ġà¤¤à¤¸à¤¬":4568,"Ġà¤ªà¤¥à¤Ń":4569,"aunch":4570,"Ġà¤¶à¤«":4571,"Oppo":4572,"à¤¿à¥ĩ":4573,"Ġ1983":4574,"Ġqu":4575,"à¤łà¤¶":4576,"à¤Ńà¤µà¤¨":4577,"Ġ00":4578,"à¤Ĩà¤ªà¤¸":4579,"à¤Ľà¥ľ":4580,"Ġà¤īà¤®à¤¡":4581,"à¤¾à¥¤\"\"":4582,"Ġà¤ľà¤¨à¤ªà¤¦":4583,"250":4584,"Ġà¤²à¤¸":4585,"Ġà¤ĩà¤¨à¤«":4586,"âĸª":4587,"ock":4588,"Ġà¤°à¤®à¤ľ":4589,"Ġà¤®à¤ķà¤°":4590,"Ġà¤ħà¤ľà¤¨":4591,"ĠSamsung":4592,"à¤ļà¤¬":4593,"à¤¯à¤°à¤¡":4594,"à¤¦à¤¨à¤Ĺà¤°":4595,"SL":4596,"ous":4597,"Ġ147":4598,"Ġà¤®à¤ĸ":4599,"ĠâĨĴ":4600,"Ġà¤Ĩà¤Īà¤ĵà¤ıà¤¸":4601,"à¤Ĩà¤°à¤ıà¤®":4602,"à¤¨à¤µà¤®":4603,"Ġà¥ļà¤°à¥Ľ":4604,"Ùħ":4605,"Ġà¤īà¤²à¤Ŀà¤¨":4606,"ific":4607,"CA":4608,"Ġ360":4609,"à¤²à¤ķà¤¤":4610,"Ġà¥ĺà¤¬":4611,"Ġà¤Ńà¤¯à¤Ń":4612,"à¤µà¤°à¤¤":4613,"à¤ıà¤¦":4614,"Ġà¤¸à¤°à¤²à¤¤":4615,"à¤ĩà¤ĳà¤ķ":4616,"Ġ139":4617,"Ġà¤°à¤£à¤§":4618,"ative":4619,"Ġà¤ľà¤¨à¤®à¤¤":4620,"à¤µà¤¶à¤ķ":4621,"Ġà¤ķà¤ªà¤Ł":4622,"ement":4623,"à¤į":4624,"à¤®à¤ķà¤°":4625,"à¤Ĩà¤Ĺà¤°":4626,"ĠShar":4627,"Step":4628,"Ġà¤¸à¤īà¤¦":4629,"à¤®à¤¬à¤°":4630,"Ġà¤ħà¤µà¤¹":4631,"à¤ıà¤«à¤¬":4632,"otter":4633,"à¤¡à¤¶":4634,"Ġle":4635,"Ġ149":4636,"à¤Ĩà¤¸à¤®":4637,"à¤¯à¤µà¤§":4638,"Ġà¤ıà¤²à¤¨":4639,"à¤¾.\"\"\"":4640,"à¤¬à¤°à¤®à¤¤":4641,"duct":4642,"à¤¹à¤°à¤¤":4643,"Ġà¤ıà¤²à¤¬":4644,"à¤ķà¤°à¤¬à¤°":4645,"à¤²à¤ĺà¤°":4646,"Ġà¤īà¤ªà¤ķà¤°":4647,"Ġà¤ľà¤Ĺà¤ľ":4648,"à¤ľà¤¬à¤²":4649,"Ġà¤°à¤ªà¤Ł":4650,"ĠBCCI":4651,"à¤¤à¤¨à¤ª":4652,"ram":4653,"à¤¸à¤¡à¤°":4654,"à¤µà¤¥":4655,"à¤µà¤°à¤ª":4656,"à¤°à¤°à¤ķ":4657,"à¤ıà¤ıà¤®":4658,"Ġ1978":4659,"à¤Īà¤Ĺ":4660,"à¤ĩà¤¸à¤ľ":4661,"Ġà¤ĵà¤ľ":4662,"à¤ķà¤Łà¤µà¤°":4663,"ĠMP":4664,"ealth":4665,"Ġà¤īà¤¥à¤²":4666,"à¥ĪâĢĿ":4667,"Ġà¤¬à¤°à¤ķà¤¤":4668,"à¤«à¤¨à¤®":4669,"ĠRAM":4670,"à¤¾à¥Ī":4671,"à¤Ĥ/":4672,"à¤¨à¤ªà¤¤":4673,"Ġà¤¨à¤Ĺà¤¦":4674,"à¤¼à¥ĩà¤Ĥà¥¤":4675,"à¤Łà¤®à¤°":4676,"Ġà¤¬à¤ķà¤µ":4677,"ĠOn":4678,"à¤°à¤¦à¤¨":4679,"à¤Ĩà¤Īà¤ĵ":4680,"Ġ136":4681,"à¤ħà¤ķà¤¬à¤°":4682,"net":4683,"Ġà¤Ĩà¤Ĺà¤ľà¤¨":4684,"Ġ138":4685,"à¤¨à¤¸à¤°":4686,"à¤·à¤Ń":4687,"ali":4688,"Ġà¤¸à¤¯":4689,"Ġà¤®à¤¦à¤°":4690,"à¤ªà¤¸à¤®":4691,"à¤·à¤¦à¤°":4692,"Ġ(%":4693,"Ġà¤ħà¤¦à¤°à¤ķ":4694,"inal":4695,"TI":4696,"Ø±":4697,"Ġà¤ħà¤°à¤°":4698,"ek":4699,"Ġà¤ħà¤·":4700,"Ġà¤Ĩà¤¯à¤¨":4701,"Ġ240":4702,"Ġà¤¹à¤°à¤®à¤¨à¤ª":4703,"dà¤¤":4704,"ject":4705,"ool":4706,"à¤īà¤¸à¤«":4707,"roid":4708,"ricket":4709,"à¥ĩà¤ĥ":4710,"à¤ıà¤¸à¤¡à¤¬":4711,"Ġ129":4712,"Ġà¥ĺà¤¦à¤®":4713,"Ġà¤¨à¤°à¤µ":4714,"à¤¥à¤°à¤¬":4715,"à¥Īà¤Ĥ.\"\"\"":4716,"DM":4717,"UI":4718,"Ġà¤ıà¤¡à¤µà¤°":4719,"à¤Ĺà¤£à¤¤":4720,"eg":4721,"Ġà¤ªà¤²à¤ķ":4722,"NL":4723,"Ġà¤ıà¤Ĩà¤Īà¤ıà¤®":4724,"inist":4725,"Ġ142":4726,"Ġà¤ıà¤²à¤¸":4727,"à¤¨à¤ķà¤¦":4728,"Ġ1952":4729,"à¤¤à¤ĸà¤¤":4730,"Ġà¤Ĩà¤°à¤ıà¤¸":4731,"ĠSMS":4732,"à¤µà¤¦à¤²":4733,"Ġà¤Ĩà¤µà¤°à¤£":4734,"Ġà¤Ĩà¤Īà¤Ĩà¤Īà¤ıà¤®":4735,"Ġ[[":4736,"Ġ\\\\":4737,"à¤°à¤²à¤¯":4738,"à¤Ĩà¤¸à¤ª":4739,"à¤Ĥà¤Ĥ":4740,"à¤ķà¤Ŀ":4741,"à¸":4742,"Ġà¤Ńà¥ľà¤ķ":4743,"à¤¾à¤ģ-":4744,"à¤Ĺà¤¹":4745,"à¤¸à¤¹à¤¯":4746,"à¥¤à¥¤":4747,"à¤ĸà¤¸":4748,"Ġ127":4749,"Ġà¤ľà¤¨à¤¶à¤ķ":4750,"ĠMedia":4751,"ding":4752,"à¤ľà¤Ĺà¤¤":4753,"Ġà¤ľà¤ĺà¤¨":4754,"Ġà¤ıà¤ķà¤°":4755,"Ġà¤ĳà¥ŀ":4756,"à¤īà¤ªà¤²à¤¬":4757,"Ġà¤°à¤¬à¤°":4758,"à¤°à¤¹à¤²":4759,"III":4760,"Ġà¤ķà¤°à¤Ĺ":4761,"Ġà¤«à¤Łà¤¨":4762,"Ġ1975":4763,"DU":4764,"Ġà¤ĩà¤¡":4765,"SP":4766,"TA":4767,"Ġà¤ħà¤°à¤¸":4768,"rime":4769,"à¤īà¤ªà¤¨":4770,"à¤Ĩà¤Īà¤ĵà¤¸":4771,"ĠMI":4772,"obile":4773,"Ġà¤¯à¤¸":4774,"à¤£à¤ķà¤Ł":4775,"à¤ĵà¤¨":4776,"à¤ıà¤®à¤Ĩà¤°à¤¸":4777,"ility":4778,"Ġà¤¤à¤¦à¤¬":4779,"ann":4780,"à¤µà¤¬":4781,"Ġà¤¡à¤ļ":4782,"2022":4783,"ĠQual":4784,"ĠCollection":4785,"Ġà¤ħà¤Ńà¤¦":4786,"à¤ļà¤ª":4787,"ĠRBI":4788,"Ġà¤Ĺà¤²à¤¤à¤«à¤¹à¤®":4789,"ĠAdmit":4790,"Ġ137":4791,"à¤¼à¥Ģ.":4792,"à¤ıà¤²à¤Ĩà¤°":4793,"pur":4794,"à¤ıà¤¸à¤Ĩà¤Īà¤¸":4795,"à¤®à¤¨à¤µ":4796,"2002":4797,"te":4798,"à¤ªà¤¸à¤¨":4799,"à¤ľà¤¡":4800,"à¤²à¤Ĺà¤¤":4801,"Ġà¤¦à¤²à¤¬":4802,"à¥Ģà¥¤\"\"\"":4803,"Ġ151":4804,"Ġà¤¤à¤¸à¤¦":4805,"à¤®à¤¸à¤²à¤¨":4806,"Ġà¤§à¤¨à¤¶":4807,"ĠFor":4808,"Ġà¤Ńà¤°à¤®":4809,"ottery":4810,"ĺ»":4811,"à¤¹à¥ĺ":4812,"onor":4813,"eli":4814,"à¤¸à¤¦à¤°":4815,"Ġà¤īà¤ªà¤¬à¤¨":4816,"ĠSon":4817,"RS":4818,"Ġà¤Ńà¤Ĺà¤¦":4819,"Ġà¤Ĩà¤Īà¤Ĩà¤Ī":4820,"ver":4821,"Ġ2500":4822,"Ġ1955":4823,"à¤¶à¤Ĺ":4824,"à¤ħà¤ĸà¤¬":4825,"\"\"\"(":4826,"Ġà¤¹à¤°à¤ľ":4827,"NB":4828,"Ġà¤¤à¤Łà¤µà¤°":4829,"ani":4830,"ĠIP":4831,"Ġà¤Ĩà¤ĩà¤Łà¤®":4832,"à¤°à¤®à¤¸":4833,"à¤¯à¤¸à¤®":4834,"à¤¾,âĢĻ":4835,"Ġà¤ıà¤«à¤ª":4836,"à¤«à¤¸à¤²":4837,"à¥į.":4838,"Ġà¤¨à¥Ľ":4839,"NS":4840,"pro":4841,"Ġà¤Ĺà¥Ŀ":4842,"à¤Ĩà¤ĵ":4843,"LED":4844,"à¤¸à¤®à¤¨":4845,"à¥ĩà¤ĤâĢ¦":4846,"à¤¬à¤°à¤¤":4847,"Ġà¤¤à¤¦à¤¨":4848,"à¤£à¤Ĺ":4849,"Ġ1981":4850,"TS":4851,"Ġà¤ıà¤¸à¤ıà¤¸à¤¸":4852,"Ġà¤ªà¤¹à¤¨à¤ķà¤°":4853,"The":4854,"à¤µà¤Ńà¤°":4855,"Ġà¤¨à¤Łà¤°":4856,"à¥Ĩà¤Ĥ":4857,"Ġ1977":4858,"à¤¬à¤¦à¤®":4859,"à¤¤à¤°à¤®":4860,"Ġà¤Ĩà¤Īà¤ıà¤¨à¤ıà¤ķ":4861,"org":4862,"à¤¼à¥ĩà¤Ĥà¤ĥ":4863,"à¤Ĩà¤¹":4864,"à¤®à¤¶à¤¹":4865,"à¥Ĥà¤ģà¥¤\"\"\"":4866,"HD":4867,"à¤°à¤ĺ":4868,"à¤ķà¤®à¤°":4869,"Ġà¤«à¤µ":4870,"à¤Ŀà¤ªà¤°":4871,"à¤Ĺà¤¡à¤ķà¤°":4872,"à¤ıà¤¯à¤°à¤Ł":4873,"Ġde":4874,"ount":4875,"ĠGB":4876,"à¤ľà¤¤à¤¨":4877,"Ġà¤¬à¤¶":4878,"à¥Ī?\"\"":4879,"à¤®à¤¤à¤²à¤¬":4880,"à§":4881,"à¤¶à¤¨à¤Ń":4882,"Ġà¤ĵà¤Ŀ":4883,"à¤ıà¤«à¤ıà¤²":4884,"Ġ143":4885,"CS":4886,"à¤ķà¤§":4887,"Ġà¥ĺà¤¤":4888,"à¤ĩà¤°à¤«":4889,"à¤Ĩà¤ĩà¤¯":4890,"à¤¬à¤Łà¤¨":4891,"Ġà¤īà¤Ľà¤²":4892,"Ġà¤¶à¤®à¤¶":4893,"Ġ1080":4894,"ĠNW":4895,"Ġà¤¬à¤¸à¤¨":4896,"à¤ĩà¤Łà¤¨":4897,"ital":4898,"echnology":4899,"à¥ħà¤¾":4900,"à¤īà¤®à¤°":4901,"à¤ªà¤ł":4902,"Ġà¤¹à¤®à¤ªà¤°":4903,"Ġà¤ĵà¤¶":4904,"à¤®à¤ķà¤¥":4905,"à¤¹à¤¥":4906,"Ġà¤¡à¤¸":4907,"Ġà¤®à¥Ľà¤¬":4908,"Me":4909,"ï»":4910,"Ġ354":4911,"DR":4912,"à¤ķà¤Łà¤°":4913,"à¤¨à¤°à¤²":4914,"à¤¯à¤µà¤¶":4915,"à¥¨à¥¦à¥¦":4916,"bps":4917,"à¤Ľà¤ł":4918,"ree":4919,"ika":4920,"Ġad":4921,"à¤®à¤ĸ":4922,"Ġà¤¸à¤¬à¤¨":4923,"Ġà¤ĵà¤µà¤²":4924,"Ġà¤ļà¤®à¤ķà¤¤":4925,"Ġà¤ħà¤®à¤°à¤ľ":4926,"raft":4927,"Ġ1982":4928,"Ġ131":4929,"Ġ176":4930,"ĠLottery":4931,"Ġà¤¹à¤°à¤«à¤¨à¤®":4932,"Ġà¤ıà¤²à¤ıà¤¨à¤ľ":4933,"Ġ165":4934,"JNU":4935,"Ġà¤Ĺà¤¹à¤¨à¤¤":4936,"Ġà¤ħà¤¨à¤µà¤°":4937,"ĠNRC":4938,"Ġà¤ħà¤¸à¤¤":4939,"Ġà¤§à¤¨à¤ĸà¤¡":4940,"Ġà¤¤à¤¦":4941,"TP":4942,"à¤®à¤ľà¤¬":4943,"Ġà¤Ŀà¤ľ":4944,"Ġà¤ıà¤¨à¤«":4945,"Ġà¤ıà¤²à¤Ł":4946,"à¤Ĥ:":4947,"Ġà¤ıà¤¨à¤ıà¤¸à¤ıà¤¸":4948,"ush":4949,"Ġà¤ħà¤¬à¤°":4950,"la":4951,"ina":4952,"à¤Ĺà¤£à¤ķ":4953,"ÙĨ":4954,"à¤Ĺà¤ĩà¤¨":4955,"Ġà¤ľà¤°à¤¦":4956,"Ġà¤§à¤¬":4957,"ĠCAA":4958,"Ġà¤ĵà¤¹":4959,"Ġà¤®à¤¨à¤ľ":4960,"istan":4961,"ï»¿":4962,"MR":4963,"light":4964,"arn":4965,"Ġà¤Ĩà¤µà¤°":4966,"à¤²à¤¨à¤ķ":4967,"Ġà¤®à¤¨à¤¦":4968,"Ġà¤ķà¤Łà¤ķ":4969,"Ġà¤¸à¤¹à¤°":4970,"Ġ166":4971,"à¤ªà¤¹à¤ļ":4972,"Ġà¤¨à¤°à¤ķ":4973,"ruct":4974,"Kerala":4975,"à¤®à¤¦à¤°":4976,"eep":4977,"Ġà¤ıà¤¤":4978,"à¤ıà¤¸à¤ıà¤¸à¤¸":4979,"Ġà¥Ļà¤¤":4980,"icro":4981,"rit":4982,"à¥ĩà¥¤à¥¤":4983,"ident":4984,"120":4985,"Ġà¤°à¤¨à¤µ":4986,"à¤ĩà¤°à¤¸":4987,"à¤°à¤¸à¤¤":4988,"ĠRec":4989,"hah":4990,"ĠPlay":4991,"Ġà¤Ĳà¤¡":4992,"Ġà¤ªà¤ĸ":4993,"Ġà¤¤à¤µà¤ľ":4994,"ara":4995,"Ġ855":4996,"uc":4997,"Ġà¤Ĩà¤Īà¤ĵà¤¸":4998,"ĠSBI":4999,"Ġpl":5000,"Ġà¤«à¥Ľà¤²":5001,"Ġà¤ıà¤¨à¤Ĩà¤Īà¤Ł":5002,"Ġà¥§à¥¯à¥Ń":5003,"ated":5004,"à¤īà¤ªà¤¬":5005,"Al":5006,"ire":5007,"mer":5008,"Ġà¤¹à¤ł":5009,"à¤ļà¤²à¤°":5010,"Ġà¤¶à¤¹à¤ľ":5011,"vent":5012,"Ġà¤¸à¤°à¤ľà¤®":5013,"ĠICC":5014,"à¥Ī\"\"\"":5015,"Ġ155":5016,"Ġà¤Ĩà¤¬à¤ķ":5017,"ĠLive":5018,"à¤¬à¤ļà¤ªà¤¨":5019,"à¤Īà¤¹":5020,"2003":5021,"à¤ªà¤ª":5022,"hip":5023,"udget":5024,"iversity":5025,"Ġà¤¦à¤°à¤ľ":5026,"Ġà¤Ķà¤ªà¤¨":5027,"Ġà¤ªà¥ľà¤¨":5028,"ĠODI":5029,"Ġ1957":5030,"à¤ļà¤Ł":5031,"à¤ıà¤¨à¤ıà¤®":5032,"bi":5033,"à¤°à¤ªà¤°":5034,"à¥ĢâĢĻâĢĻ":5035,"à¤ľà¤ĺ":5036,"ĠSale":5037,"ode":5038,"JEE":5039,"à¤Ĩà¤ľà¤®":5040,"As":5041,"à¤¤à¤¨à¤ķ":5042,"à¤®à¤°à¤¸":5043,"Ġà¤®à¤°à¤£":5044,"à¤Ńà¤®":5045,"Ġ1965":5046,"à¥Ī),":5047,"Ġà¤°à¤®à¤£":5048,"Ġà¤ıà¤¨à¤ıà¤¸à¤Ī":5049,"à¥ĩ]":5050,"ext":5051,"à¤ļà¤°à¤²":5052,"à¥ĩà¤Ĥ]":5053,"Ġà¤ľà¤¨à¤¸à¤®":5054,"Ġ134":5055,"ime":5056,"Ġà¤ħà¤µà¤¨":5057,"à¤ļà¤²à¤¤":5058,"Ġ148":5059,"Ar":5060,"Ġà¤ķà¤Ľ":5061,"Bihar":5062,"à¤ıà¤ķà¤¤":5063,"à¥Īà¤Ĥ...":5064,"ĠSch":5065,"rom":5066,"PP":5067,"à¤ĸà¤ª":5068,"à¤ıà¤Ĩà¤Īà¤ıà¤®":5069,"à®":5070,"Ġ270":5071,"à¤ģ.":5072,"à¤ıà¤¨à¤ıà¤¸à¤ıà¤¸":5073,"ions":5074,"bh":5075,"à¤¯à¤·":5076,"à¤®à¤Ĺà¤¢":5077,"à¤¼à¤¾à¤Ĥ":5078,"à¤¸à¤¨à¤°":5079,"à¥ĩà¤Ĥà¥¤\"":5080,"Ġ1974":5081,"à¥ŀà¤¸":5082,"Ġ1949":5083,"anka":5084,"Ġà¤«à¤ľà¤²":5085,"Ġà¤ıà¤µà¤ľ":5086,"Ġà¤ķà¤¸à¤®":5087,"à¤°à¤¥à¤²":5088,"à¤·à¤°à¤£":5089,"à¤Ĩà¤Īà¤ıà¤ıà¤¨à¤ıà¤¸":5090,"à¤¬à¤¬":5091,"à¤®à¤¦à¤¦":5092,"Ġà¤ªà¥Ŀà¤¨":5093,"Ġà¤ľà¤²à¤¤":5094,"à¤ıà¤®à¤ıà¤²à¤ı":5095,"htt":5096,"Ġà¤ľà¥ľ":5097,"à¤ĸà¤°à¤¨":5098,"Ġ320":5099,"ĠBl":5100,"ake":5101,"à¤ıà¤ĵ":5102,"Ġà¤Ńà¤°à¤£":5103,"Ġà¥¨à¥®":5104,"outh":5105,"nd":5106,"Ġà¤¤à¤Ĺà¤¡":5107,"à¤¥à¤°à¤¸":5108,"oC":5109,"Ġà¤ļà¤¬":5110,"à¤Ĳà¤ķ":5111,"à¤¦à¤®à¤ķà¤²":5112,"à¤²à¤Ńà¤Ń":5113,"Ġ1800":5114,"Ġ1979":5115,"Ġà¤ľà¤²à¤Ńà¤°":5116,"Ġà¤¬à¤°à¤ª":5117,"à¤Łà¤¹":5118,"ĠâĤ":5119,"Ġà¤°à¤ķà¤¬":5120,"ĠMan":5121,"âĢįà¥į":5122,"ĠDate":5123,"Apple":5124,"à¤ıà¤ļà¤ı":5125,"ys":5126,"à¥Ľà¥Ļ":5127,"Ġà¤īà¤«":5128,"ĠâĢĻâĢĻ":5129,"edict":5130,"EAD":5131,"Ġà¤ªà¤¦à¤¸":5132,"Ġà¤Ĩà¤ĩà¤²":5133,"à¤Ĩà¤Īà¤ıà¤¨":5134,"à¤µà¤¤à¤®":5135,"à¤¼.":5136,"à¥ī,":5137,"Mi":5138,"uj":5139,"à¥ĩâĢĿ":5140,"Ġpr":5141,"Ġà¤ªà¤¨à¤¬":5142,"ĠMain":5143,"ĠFirst":5144,"Ġà¥§à¥¯à¥ª":5145,"ror":5146,"à¤®à¤ļà¤¨":5147,"à¤Ĺà¤¹à¤°":5148,"à¤¶à¥Ļà¤¬à¤°":5149,"Ġà¤ıà¤®à¤Ĩà¤Ī":5150,"ature":5151,"à¤Ĺà¤ļ":5152,"Ġà¤ªà¤°à¤ľ":5153,"à¤Ĺà¤²à¤ķ":5154,"%,":5155,"Ġà¤®à¤¨à¤µ":5156,"ĠPre":5157,"Ġà¤ĭà¤£à¤¦":5158,"asthan":5159,"az":5160,"à¤ªà¤²à¤Ł":5161,"Ġà¤¨à¤µà¤²":5162,"Ġà¤ħà¤¦à¤²":5163,"à¤Ĳà¤¶":5164,"Ġà¤ľà¤ķà¤¡":5165,"125":5166,"Ġch":5167,"à¥Ī)à¥¤":5168,"Ġà¤Ńà¤Ĺà¤¦à¤¡":5169,"Ġ188":5170,"Ġà¤ķà¤¸à¤°à¤¤":5171,"Ġà¦":5172,"Ġ154":5173,"ĠPay":5174,"ei":5175,"à¤°à¤¬à¤°":5176,"à¤«à¤Ł":5177,"à¤°à¤¸à¤ķ":5178,"Ġ164":5179,"Ġ224":5180,"CBI":5181,"à¥Ģ]":5182,"à¤ªà¤ľ":5183,"à¤µà¤°à¤ļ":5184,"à¤Ĩà¤Īà¤Ĩà¤°à¤¸":5185,"ĠAss":5186,"âĤ":5187,"à¤Ĭà¤¸":5188,"ĠSharma":5189,"à¤Łà¤Ł":5190,"à¤Īà¤ıà¤«":5191,"à¥ĭ...":5192,"Ġà¤ıà¤ķà¥ľ":5193,"à¥Ľà¤¨":5194,"hant":5195,"à¤Łà¤¨à¤°à¤¶":5196,"Ġà¤ıà¤²à¤Ĩà¤Īà¤¸":5197,"Ġà¤ĭà¤ļ":5198,"Ġà¤¬à¤²à¤¦":5199,"Ġ506":5200,"à¤°à¤Ī":5201,"à¤¤à¥Ľ":5202,"à¤¹à¤°à¤Ĺ":5203,"Ġà¥§à¥¯à¥§":5204,"BCCI":5205,"les":5206,"à¤§à¥ľ":5207,"kar":5208,"Ġar":5209,"à¥Ĥ),":5210,"à¤°à¤®à¤ľ":5211,"à¤¼à¥ĩ)":5212,"à¤®à¤¹à¤¬":5213,"rain":5214,"130":5215,"ME":5216,"Ġà¤¬à¤Ĺà¤¦":5217,"à¤²à¤ļà¤²à¤¨":5218,"oll":5219,"ption":5220,"ĠAndroid":5221,"à¤¼:":5222,"Ġà¤ıà¤ħà¤°":5223,"Ġà¤ıà¤ķà¤¨":5224,"à¤°à¤Ľ":5225,"Ġà¤ħà¤°à¤®":5226,"Ġà¤§à¤®à¤¨":5227,"Ġ377":5228,"endra":5229,"Ġà¤ªà¤łà¤¨":5230,"à¤ļà¤°à¤°":5231,"Ġ243":5232,"Pro":5233,"out":5234,"Ġà¤ıà¤Ĩà¤Īà¤¸":5235,"à¤ıà¤®à¤ıà¤¸à¤ª":5236,"evel":5237,"Ġà¤¤à¤ªà¤¸":5238,"à¤°à¤¦à¤¯":5239,"à¤ķà¤²à¤µ":5240,"eno":5241,"à¤¡à¤¸à¤ĩ":5242,"ĠmAh":5243,"Ġ2023":5244,"Ġ225":5245,"à¤ıà¤ıà¤¨":5246,"Ġà¤Ĺà¤²à¤µ":5247,"Ġà¤¹à¤®à¤¦à¤°":5248,"ĠHel":5249,"DS":5250,"à¥Īà¤Ĥ:-":5251,"lect":5252,"umb":5253,"nov":5254,"Ġà¤İ":5255,"à¤°à¤®à¤°":5256,"stit":5257,"Ġ280":5258,"ve":5259,"à¤Ńà¤Ł":5260,"à¤ħà¤¨à¤¨":5261,"ĠLaunch":5262,"ĠICICI":5263,"Ġà¤¹à¥Ľ":5264,"à¤µà¥ľ":5265,"à¤¼à¥Ģà¤Ĥ":5266,"à¥Ģà¤ģ":5267,"à¤¹à¤¤à¤Ĺ":5268,"à¥¤\"\"":5269,"Ġà¤Ĺà¤«":5270,"Ġà¤Ĩà¤°à¤¡":5271,"eliance":5272,"Ġà¤ıà¤«à¤ıà¤®":5273,"GST":5274,"à¥Ģà¤Ĥ'":5275,"Ġà¤ıà¤®à¤ıà¤²à¤¡":5276,"obal":5277,"à¤ıà¤¨à¤µ":5278,"à¥Ī?\"\"\"":5279,"iii":5280,"Ġ161":5281,"ĠCase":5282,"à¤Ĩà¤ªà¤¦":5283,"ĠApple":5284,"à°":5285,"Ġà¤ĩà¤¨à¤¬":5286,"à¤ľà¤¦à¤¯":5287,"SSC":5288,"Ġli":5289,"à¤¾\"\"\"":5290,"Ġà¤ķà¤Łà¤¨":5291,"Ġà¤ķà¤µà¤ļ":5292,"RCTC":5293,"à¤¤à¤Ł":5294,"ency":5295,":%":5296,"ĠHDFC":5297,"à¤ıà¤¨à¤ķ":5298,"gress":5299,"à¤°à¤µà¤¶":5300,"à¤®à¤¨à¤¦":5301,"Ġà¤¸à¤°à¤Ĺ":5302,"à¤Ķà¤·à¤§":5303,"ruit":5304,"à¤¸à¤ªà¤¨":5305,"à¤®à¤¨à¤¸":5306,"esign":5307,"ĠQualcomm":5308,"à¤²à¤¸à¤¨":5309,"ink":5310,"à¥ĭà¥¤\"\"":5311,"Ġà¤ıà¤Ĩà¤Īà¤ıà¤®à¤Ĩà¤Īà¤ıà¤®":5312,"ER":5313,"Ġà¤ıà¤®à¤ıà¤®à¤Ł":5314,"Ġ133":5315,"Ġ307":5316,"Ġà¤¶à¤¤à¤°":5317,"Ġà¤ħà¤¨à¤¶à¤¨":5318,"Ġà¤®à¤²à¤ķ":5319,"Ġà¤ıà¤¨à¤ıà¤ļà¤ıà¤Ĩà¤Ī":5320,"à¤Łà¤¤à¤®":5321,"à¤ĸà¤ªà¤¤":5322,"à¤łÃ¯":5323,"à¤®à¤¬à¤²":5324,"Ġà¤¬à¤°à¤ķ":5325,"à¤¸à¤ļà¤®":5326,"co":5327,"à¤¦à¤ĸà¤²":5328,"Ġà¤°à¤Ĺ":5329,"Ġà¤²à¤ªà¤ķ":5330,"à¤ħà¤µà¤§":5331,"Ġà¤ıà¤²à¤ĵà¤¸":5332,"Ġ1969":5333,"Ġà¤ħà¤ķà¤°à¤®":5334,"à¤ħà¤¹":5335,"Ġà¤īà¤¦à¤ĺ":5336,"2021":5337,"Ġà¤¹à¤ľà¤°à¤¤":5338,"ĠVideo":5339,"Â°":5340,"ong":5341,"New":5342,"à¤¦à¤°à¤µ":5343,"à¤¬à¤°à¤¸":5344,"eries":5345,"Ġà¤¸à¤¡à¤ķ":5346,"à¥¨à¥¦":5347,"Ġ1967":5348,"AL":5349,"der":5350,"à¤ªà¤µà¤¨":5351,"ĠMobile":5352,"CL":5353,"ahar":5354,"Ġà¤ħà¤¨à¤Ł":5355,"Ġà¤Ĩà¤µà¤ķ":5356,"Ġà¤Ĩà¤īà¤Łà¤¸":5357,"IF":5358,"Read":5359,"à¥ĭ\"\"":5360,"à¤ĵà¤¹":5361,".\"\"\"":5362,"à¤°à¤ľà¤®":5363,"Ġà¤ķà¤¸à¤¤":5364,"à¤¿\"\"":5365,"à¤Łà¤¶à¤¬":5366,"Ġà¤ĸà¤°à¤Ĺ":5367,"à¤²à¤¶à¤¨":5368,"à¤ĸà¤ľ":5369,"artic":5370,"Ġà¤ķà¤²à¤¹":5371,"à¤µà¤²à¤¨":5372,"Ġà¤¨à¤ª":5373,"ick":5374,"ĠÂł":5375,"à¤Īà¤Ĩà¤°":5376,"à¤Ĩà¤ĩà¤ª":5377,"Ġà¤Īà¤ıà¤¸à¤Ĩà¤Īà¤¸":5378,"Ġà¤¬à¤¦à¤¸à¤²":5379,"Comment":5380,"Ġà¤ªà¤Ĺà¤¡":5381,"à¤ıà¤®à¤µ":5382,"Ġ162":5383,"Ġà¤µà¤¨à¤ª":5384,"akistan":5385,"à¤ıà¤Ĩà¤°à¤ª":5386,"Ġà¤²à¤ĸà¤µ":5387,"à¤ıà¤ļà¤Ł":5388,"iPhone":5389,"ple":5390,"à¤ĩà¤¦":5391,"à¤¤à¤°à¤ľ":5392,"à¤¤à¤¨à¤¶":5393,"à¥ŀà¤°":5394,"Ġà¥¨à¥¬":5395,"duc":5396,"vi":5397,"à¤ľà¤ªà¤¥":5398,"struct":5399,"reat":5400,"Ġorg":5401,"SR":5402,"à¤°à¤ķà¤ª":5403,"Ġà¤²à¤¹à¤¸":5404,"Ġà¤¤à¤°à¤£":5405,"ĠCR":5406,"Ġà¥§à¥¯à¥¬":5407,"Ġ1963":5408,"âĸ«":5409,"ĠRead":5410,"à¤¼à¥¤":5411,"Ġà¤ªà¤Łà¤µ":5412,"Ġà¤¨à¥Ľà¤¦":5413,"Ġà¤Īà¤¯":5414,"ert":5415,"Ġà¤®à¤°à¤¤à¤¬":5416,"IB":5417,"à¤łà¤¤à¤®":5418,"1962":5419,"à¤¡à¤ħà¤ª":5420,"à¤ıà¤²à¤ľ":5421,"ery":5422,"ĠRev":5423,"à¤ķà¤®à¤ľ":5424,"ays":5425,"ruitment":5426,"Ġà¤²à¤¹à¤ľ":5427,"Ġà¤ıà¤ıà¤¸":5428,"à¤¾à¤Ĥ'":5429,"Ġà¤Łà¤ļ":5430,"à¤®à¤¨à¤°":5431,"anj":5432,"Ġ245":5433,"Ġà¥Ľà¤¬à¤°à¤¦à¤¸":5434,"ĠTo":5435,"ivity":5436,"ian":5437,"à¤¯à¤£à¤¨":5438,"Ġà¤ľà¤¬à¤¤à¤ķ":5439,"Ġ146":5440,"Ġà¥©à¥§":5441,"Jio":5442,"Ġà¤¦à¤Ĺ":5443,"à¤¶à¤Ń":5444,"à¤ĵà¤ªà¤¨":5445,"Ġà¤¸à¤¤à¤¨":5446,"à¤ªà¤ķà¤¤":5447,"Ġà¤¶à¤®à¤¨":5448,"ings":5449,"uper":5450,"Air":5451,"dition":5452,"à¤Łà¤¶":5453,"Ġà¥«à¥¦":5454,"Nokia":5455,"Ġà¤Ĺà¤§":5456,"Ġà¤«à¤ķ":5457,"Ġà¤ªà¤°à¤®à¤ľ":5458,"à¤²à¤®à¤ª":5459,"à¤ıà¤¯à¤°à¤²":5460,"Ġà¤¸à¤®à¤¤à¤²":5461,"Ġà¤Īà¤¬":5462,"ere":5463,"Indian":5464,"Ġà¤ħà¤ľà¤¨à¤¬":5465,"NA":5466,"Ġà¤¬à¤¬à¤²":5467,"à¤ĵà¤ıà¤®":5468,"à¤µà¤¨à¤°":5469,"ĠOppo":5470,"NO":5471,"à¤¤à¤ķà¤²":5472,"à¤łà¤®à¤²":5473,"Ġà¥¯à¥":5474,"ark":5475,"Ġco":5476,"ĠCS":5477,"Ġà¤ıà¤²à¤¬à¤®":5478,"Delhi":5479,"Ġ`":5480,"à¤²à¤Ī":5481,"à¥Īà¤ĤâĢ¦":5482,"Ġà¤ĸà¤²à¤¨":5483,"à¥ī)":5484,"ĠVo":5485,"à¤ªà¤Ĺ":5486,"Ġà¤¤à¤¬à¤²":5487,"Ġà¤Īà¤¨":5488,"Tek":5489,"fin":5490,"à¤®à¤Ľà¤²":5491,"à¥ģà¥ģ":5492,"Ġà¤Īà¤¡à¤¨":5493,"à¤ıà¤«à¤Ĩà¤Īà¤Ĩà¤°":5494,"own":5495,"Ġà¤Ĩà¤Īà¤ıà¤«à¤ıà¤«à¤Ĩà¤Ī":5496,"à¤¡à¤°à¤¶":5497,"à¤¾à¤ĤâĢĻ":5498,"à¥Ģ):":5499,"Ġà¤²à¤¬":5500,"Ġà¤Ĩà¥Ľà¤®":5501,"Ġà¤²à¤²à¤ķ":5502,"ĠIndi":5503,"ĺ»â":5504,"Ġme":5505,"energy":5506,"TM":5507,"à¤¼à¥Ĥà¤Ĥ":5508,"à¤£à¤°":5509,"à¤°à¤µà¤¤":5510,"Ġ1930":5511,"Ġ210":5512,"Ġà¤Ńà¤°à¤¸à¤ķ":5513,"Ġà¤ıà¤ķà¤¬":5514,"à¤¾''":5515,"etrol":5516,"à¥Ĥà¤Ĥ.\"":5517,"Ġà¥ªà¥¦":5518,"à¥ĩ\\\\":5519,"à¤°à¤£à¤¯":5520,"Ġà¤¤à¤°à¤²à¤¤":5521,"à¥ľà¤ª":5522,"à¤§à¤¨à¤¤":5523,"Ġà¤ħà¤Ĺà¤°à¤¤à¤²":5524,"Ġ260":5525,"Ġà¤ªà¤°à¤ķ":5526,"à¥Ī?\"":5527,"Ġ323":5528,"ĠLED":5529,"à¤ĩà¤«à¤¸":5530,"Ø§ÙĦ":5531,"ternational":5532,"ĠCO":5533,"ĠInd":5534,"Ġà¥§à¥¯à¥«":5535,"Ġà¤īà¤§à¤®à¤ª":5536,"AAP":5537,"CO":5538,"à¥Īà¥¤-":5539,"ĠCricket":5540,"âĢĻà¥¤":5541,"ĠMS":5542,"post":5543,"Ġà¤¸à¤¹à¤®":5544,"à¥ģà¥¤":5545,"Ġà¤®à¤°à¤¯à¤®":5546,"ĠRSS":5547,"ĠâĤ¹":5548,"BO":5549,"à¤Ĩà¤¦à¤°":5550,"à¤ĺà¤µà¤¨":5551,"Ġà¤¬à¤¢à¤ķà¤°":5552,"à¤ıà¤ļà¤ıà¤®":5553,"Ġà¥§à¥¯à¥©":5554,"à¦¾":5555,"evelop":5556,"ÙĪ":5557,"à¤ªà¤Ĺà¤¢":5558,"à¤¬à¤ķà¤°":5559,"Ġà¤ħà¤¸à¤¹à¤ľ":5560,"ĠRajput":5561,"Ġà¤¤à¤ªà¤¨":5562,"à¤ªà¤°à¤«":5563,"à¤¦à¤£":5564,"ute":5565,"Ġà¤ıà¤²à¤°":5566,"Ġà¤ĩà¤ķà¤¨":5567,"Ġà¤ªà¤¡à¤¤":5568,"1999":5569,"ushant":5570,"cent":5571,"à¤¯à¤ļà¤ķ":5572,"Ġà¤®à¤¢":5573,"Ġà¤§à¤¨à¤µ":5574,"Ġ1920":5575,"Ġà¤ıà¤¨à¤Ĩà¤Īà¤¸":5576,"à¤ķà¤¹à¤¨":5577,"à¥Īà¥¤'":5578,"ĠDelhi":5579,"750":5580,"à¤¾\"\"\"\"":5581,"ĠTh":5582,"dà¤®":5583,"zo":5584,"à¤ľà¤¯à¤ķ":5585,"ena":5586,"à¤°à¤ħ":5587,"Ġà¤¬à¤²à¤ľ":5588,"à¤ıà¤²à¤ıà¤¸":5589,"Ġà¥¨à¥Ń":5590,"Ġ),":5591,"à¤¯à¤°à¤¹":5592,"Ġà¤ħà¤ªà¤µà¤°":5593,"ĠAs":5594,"à¤ĩà¤¡à¤¨":5595,"Ġà¤ıà¤ıà¤®":5596,"Ġà¤²à¤¡à¤ķ":5597,"à¤ľà¤Ī":5598,"ĠâĢľ[":5599,"Sh":5600,"à¤¾à¥į":5601,"à¥Ĥ(":5602,"à¤¬à¤²à¤¡à¤¨":5603,"Ġ194":5604,"Ġà¥Ľà¤¬":5605,"Ġ1966":5606,"Ġwith":5607,"à¤µà¤Łà¤°":5608,"à¤¬à¤¨à¤°":5609,"Ġà¤ľà¤¨à¤µ":5610,"ĠHelio":5611,"âĢįà¤¿à¤Ĥ":5612,"Ġà¤¦à¤°à¤Ń":5613,"à¤ıà¤®à¤ıà¤µ":5614,"Ġ1914":5615,"Ġ1946":5616,"ĠMediaTek":5617,"âĤ¬":5618,"Ġà¤ĵà¤¨":5619,"à¤¸à¤«à¤²à¤¤":5620,"à¥Īà¤Ĥ'":5621,"Ġà¤ļà¤®à¤ķà¤¦":5622,"Too":5623,"Ġ159":5624,"Ġtrans":5625,"Ġà¤Ĩà¤Īà¤ıà¤®à¤ıà¤«":5626,"Ġ185":5627,"à¤¼à¥ĩà¤Ĥ,":5628,"Ġà¤¸à¤¹à¤ľà¤¤":5629,"Ġ1968":5630,"PR":5631,"à¤Ĩà¤Īà¤ıà¤¨à¤ıà¤¸":5632,"à¤ıà¤¨à¤ıà¤¸à¤¸":5633,"row":5634,"Ġà¤¨à¤°à¤µà¤£":5635,"Ġà¤°à¤Īà¤¸":5636,"ĠSmart":5637,"Ġà¤łà¤¨":5638,"PA":5639,"cess":5640,"Ġà¤Ĩà¤²à¤°":5641,"à¤ķà¤ªà¤¡":5642,"Ġ1940":5643,"à¤¾%":5644,"à¥įà¤Ĥ":5645,"à¤°à¤µà¤ļà¤¨":5646,"à¤Ĭà¤¨":5647,"abad":5648,"my":5649,"à¤³":5650,"à¥ĭà¤Ĥ\"\"":5651,"Ġà¤ķà¤²à¤ª":5652,"eld":5653,"lobal":5654,"à¥Īà¥¤âĢĻâĢĻ":5655,"à¤¾à¥¤âĢĿ":5656,"icon":5657,"à¤²à¤Ĺà¤ĩà¤¨":5658,"Ġà¤«à¤²à¤¨":5659,"Ġà¤¸à¤°à¤¬à¤ľ":5660,"à¥ĭà¥¤\"":5661,"na":5662,"à¤ıà¤¯à¤°à¤ª":5663,"ĠUniversity":5664,"à¤ĤâĢĻ":5665,"à¤«à¤¸":5666,"ĠMinist":5667,"à¥ŀà¤°à¤®":5668,"Ġà¤ıà¤ļà¤ıà¤ıà¤²":5669,"UN":5670,"à¤®à¤°à¤ķ":5671,"Ġà¤¹à¤¯":5672,"à¤·à¤¸à¤¹":5673,"à¤ģ?":5674,"Ġà¤¬à¤ļà¤ķà¤°":5675,"Ġà¤ıà¤¨à¤Ĩà¤°à¤Ĩà¤Ī":5676,"ĠRes":5677,"Google":5678,"ration":5679,"à¤¤à¤¬à¤²":5680,"à¤ıà¤¯":5681,"ream":5682,"à¥§à¥®":5683,"à¤ıà¤Ĩà¤Īà¤ıà¤®à¤Ĩà¤Īà¤ıà¤®":5684,"res":5685,"Ġà¤ķà¤¡à¤ª":5686,"Ġ1954":5687,"SA":5688,"à¤ĵà¤ľ":5689,"Ġà¤ħà¤¸à¤°à¤¦":5690,"ins":5691,"Ġà¤¦à¤¯à¤¨":5692,"Ġ310":5693,"à¤ľà¤¯à¤¶":5694,"ĠMoto":5695,"ĠUpdate":5696,"à¤ķà¤¦à¤²":5697,"à¤¸à¤¹à¤ķ":5698,"Ġà¤ªà¤°à¤²":5699,"Ġà¤ıà¤ıà¤«à¤ª":5700,"Ġà¤ĸà¤¸":5701,"à¤Ĩà¤Īà¤«":5702,"à¤®à¤ł":5703,"Ġà¤¹à¥ľà¤¤":5704,"à¤Ĩà¤°à¤µ":5705,"à¥Īà¤Ĥà¥¤âĢĿ":5706,"Ġsh":5707,"lim":5708,"pen":5709,"uaw":5710,"Ġà¤īà¤ªà¤¸à¤Ń":5711,"Ġà¤¸à¤¡à¥ĺ":5712,"à¤¼à¥ĭà¤Ĥ,":5713,"à¤ĩà¤¨à¤ª":5714,"Ġ226":5715,"uawei":5716,"à¤¹à¤Ĺà¤¢":5717,"à¤Ĺà¤°à¤ķ":5718,"Ġà¤ıà¤¤à¤°":5719,"à¤®à¤Ľ":5720,"à¤Ĩà¤ĩà¤Ł":5721,"Ġ498":5722,"à¥ĩà¤Ĥ),":5723,"à¤·à¤¯à¤µà¤¸":5724,"à¤ªà¤°à¤ľ":5725,"1990":5726,"Moto":5727,"à¤°à¥ŀ":5728,"à¤²à¥ľà¤ķ":5729,"Ġà¤ľà¤®à¤¨":5730,"Ġà¤¸à¤°à¤Ĺà¤°":5731,"inter":5732,"rd":5733,"Ġà¤Łà¤°à¤¬":5734,"Ġà¤¸à¤¹à¤Ĺà¤²":5735,"ĠED":5736,"Ġby":5737,"ustral":5738,"JD":5739,"à¤¸à¤¹à¤¨":5740,"Ġà¤Ĺà¤ľà¤¬":5741,"Ġà¤Ĩà¤ªà¤®":5742,"Ġ163":5743,"Ġsp":5744,"ĠHigh":5745,"à¤¨à¤ļà¤°":5746,"à¤ıà¤ķà¤²":5747,"Ġà¤Ńà¤Łà¤¨":5748,"day":5749,"Ġà¤¤à¤¸à¤²":5750,"Ġà¤Ľà¤¦":5751,"ĠNHT":5752,"emb":5753,"Ġà¤Ńà¤°à¤¤à¤ª":5754,"upp":5755,"ÙĬ":5756,"Ġà¤ħà¤°à¤¬à¤ªà¤¤":5757,"Ġà¤ħà¤ľà¤°":5758,"ĠWhatsApp":5759,"Ġà¤Ńà¤Ĺà¤µà¤¤":5760,"RR":5761,"à¤¹à¤ľà¤¨à¤ķ":5762,"à¤¸à¤ķà¤²":5763,"Ġà¤ıà¤¸à¤ıà¤®à¤Ī":5764,"Ġquot":5765,"à¤ıà¤Ĩà¤Īà¤¸":5766,"à¤īà¤¬":5767,"Ġà¤īà¤ªà¤ķà¤ª":5768,"Ġà¤ªà¤²à¤µà¤²":5769,"ixel":5770,"structure":5771,"à¤¨à¤ĵà¤µà¤°":5772,"à¤Ĩà¤¯à¤°à¤²":5773,"à¤ıà¤«à¤ıà¤«":5774,"à¥Ģà¤Ĥà¥¤\"":5775,"ĠTe":5776,"à¤ķà¤¥à¤¨":5777,"à¥ĩà¤Ĥ'":5778,"à¤ĩà¤®à¤¨":5779,"ense":5780,"ures":5781,"ĠOneindia":5782,"ule":5783,"à¥Ī.âĢĻ":5784,"à¤¯à¤°à¤¨":5785,"ĠIndian":5786,"Ġun":5787,"Ġà¤¦à¤¨":5788,"Ġapp":5789,"à¤Ĩà¤Īà¤ıà¤ļ":5790,"Un":5791,"ĠâĢĿ-":5792,"Ġ1958":5793,"--------":5794,"LTE":5795,"UV":5796,"Ġà¤¦à¤¹à¤¨":5797,"à¤µà¤°à¤«":5798,"Ġà¤ıà¤¸à¤µ":5799,"Ġà¤ħà¤¹à¤®à¤¦à¤¨à¤Ĺà¤°":5800,"ĠPrime":5801,"à¤¾âĢĻ,":5802,"à¤Ĩà¤Īà¤ıà¤®à¤ıà¤«":5803,"ĠRecruitment":5804,"à¤ĺà¤Łà¤ķ":5805,"Ġà¤ªà¤¦à¤ļ":5806,"Ġà¤¤à¤¬à¤¦":5807,"ump":5808,"à¤Łà¤¦":5809,"à¤ıà¤¡à¤µ":5810,"Ġà¤²à¤µà¤²":5811,"Ġà¤īà¤ĸà¤¡":5812,"Ġà¤ĩà¤¦":5813,"à¤ĩà¤¥":5814,"ise":5815,"gland":5816,"NEET":5817,"Ġà¤Ńà¤ľ":5818,"Ġ156":5819,"ĠAf":5820,"à¤¤à¤²à¤¹à¤°":5821,"à¤Ĩà¤Īà¤ıà¤ıà¤¸":5822,"ran":5823,"Ġà¤°à¤¨à¤°":5824,"à¤¬à¤°à¤²":5825,"Ġ141":5826,"ka":5827,"à¤īà¤ł":5828,"à¤¢à¤¤":5829,"ĠREAD":5830,")/":5831,"Ġà¤¸à¤°à¤µ":5832,"à¤²à¤®à¤¨":5833,"Ġà¤¬à¤«à¤°":5834,"à¤·à¤¨":5835,"à¥Ī:-":5836,"ĠLite":5837,"GC":5838,"weather":5839,"à¥ĭà¤ĥ":5840,"Ġà¤¬à¤°à¤¦":5841,"roup":5842,"RI":5843,"à¤Ĩà¤«":5844,"à¤¤à¤°à¤¬":5845,"Ġà¤ıà¤¨à¤ıà¤«":5846,"Raj":5847,"Ġà¤°à¤ªà¤¯":5848,"à¤Ńà¤®à¤¨":5849,"Ġà¤Ĩà¤¨à¤²":5850,"Ġà¤²à¤ı":5851,"Ġà¤¤à¤¹à¤ķ":5852,"à¤¶à¤¨à¤Ĺ":5853,"Ġà¤ıà¤®à¤µ":5854,"ĠNokia":5855,"elect":5856,"hon":5857,"à¤¾âĢĶ":5858,"Ġ177":5859,"à¤ħà¤µà¤¸à¤°":5860,"à¤ıà¤¨à¤ıà¤ļà¤ıà¤Ĩà¤Ī":5861,"ox":5862,"ward":5863,"à¤ĸà¤®à¤§":5864,"à¤¾à¥Ģ":5865,"Ġà¤ķà¤¢":5866,"à¤ķà¤¬à¤¸":5867,"Ġà¤²à¤Ł":5868,"Ġ158":5869,"Ġà¥¨à¥¯":5870,"chit":5871,"earch":5872,"rid":5873,"à¤¤à¤µà¤°":5874,"à¤²à¤¹à¤°":5875,"Ġà¤ķà¤®à¤¤à¤°":5876,"Ġ330":5877,"Ġà¤ľà¤Ĺà¤®":5878,"à¤¾',":5879,"Ġà¤ħà¤¦à¤®":5880,"Ġà¤¬à¤®à¤¬":5881,"xis":5882,"à¤°à¤§à¤¨":5883,"Ġà¤ķà¤²à¤¸":5884,"ĠEMI":5885,"lights":5886,"Ġas":5887,"à¤¦à¤°à¤®":5888,"\"\".":5889,"à¤°à¤®à¤£à¤ķ":5890,"ĠUN":5891,"-#":5892,"à¤¼à¥ĭ,":5893,"book":5894,"MOST":5895,"Ġà¤Ĺà¤ª":5896,"ports":5897,"Ġà¤ıà¤Ĩà¤°":5898,"à¤¶à¤²à¤®":5899,"ĠAg":5900,"Ġ227":5901,"ther":5902,"MeToo":5903,"de":5904,"Ġà¤µà¤¯":5905,"à¤µà¤²à¤¦":5906,"à¤ıà¤«à¤Ĩà¤°à¤¡":5907,"ĠMov":5908,"Ġbe":5909,"Ġà¤¯à¤¶à¤ª":5910,"Sushant":5911,"cl":5912,"à¤Ĥà¤¾":5913,"à¤ľà¤Ńà¤°":5914,"à¥ĥ-":5915,"Ġ340":5916,"ĠAm":5917,"Ġà¤ıà¤«à¤ıà¤®à¤¸":5918,"350":5919,"à¤¸à¤¹à¤®à¤¤":5920,"à¤¾à¤Ĥ.":5921,"à¤ıà¤®à¤ıà¤ıà¤ļ":5922,"dust":5923,"Ġà¤į":5924,"Ġ203":5925,"Ġ167":5926,"à¥Ģ''":5927,"à¤¨à¤®à¤¸":5928,"à¤¡à¤²à¤°":5929,"à¤ıà¤ļà¤Ĩà¤°à¤¡":5930,"imes":5931,"kh":5932,"Ġà¤ķà¤¸à¤¨":5933,"Ġà¤®à¥ļ":5934,"Ġ1600":5935,"ĠAI":5936,"ĠiOS":5937,"ĠIIT":5938,"à¤ķà¤ļà¤°":5939,"à¤¹à¤°à¤Ńà¤ľà¤¨":5940,"AME":5941,"Ġ1908":5942,"à¤¡à¤°à¤Ĺ":5943,"Ġ171":5944,"ĠNZ":5945,"Ġ279":5946,"irth":5947,"à¤§à¤°à¤®":5948,"à¤µà¤¨à¤Ĺà¤°":5949,"Ġà¤¸à¤°à¤¹à¤¦":5950,"à¤ľà¤Ĺà¤¦":5951,"Ġà¥Ľà¤²":5952,"Ġà¤ªà¥Ŀà¤¤":5953,"Ġà¤Ĩà¤ľà¤®à¤Ĺà¤¢":5954,"Ġà¤¹à¤°à¤ķ":5955,"Ġà¤ıà¤Ĩà¤Īà¤Ĩà¤°":5956,"à¤Ĩà¤Īà¤¡à¤¬":5957,"Ġà¤ªà¤ķà¥ľà¤¨":5958,"IVE":5959,"à¤ħà¤¥à¤µ":5960,"Ġà¤ıà¤¨à¤ıà¤¸à¤¯":5961,"110":5962,"Ġà¤ĸà¤¤à¤¨":5963,"VIDEO":5964,"ourt":5965,"à¥ĩà¤ģ":5966,"Ġà¤Īà¤²":5967,"odaf":5968,"odafone":5969,"720":5970,"],":5971,"à¤·à¤§à¤°":5972,"ĠLe":5973,"Fi":5974,"ĠSoC":5975,"Ġà¤Ĩà¤īà¤Łà¤«":5976,"à¤ľà¤¬à¤°":5977,"ĠSe":5978,"Ġà¤Ĺà¤£à¤ªà¤¤":5979,"led":5980,"Ġà¤¿à¤¾":5981,"à¥ĩâĢĻâĢĻ":5982,"à¤¯à¤®à¤ķ":5983,"à¤ĩà¤¸à¤²à¤²à¤ı":5984,"---":5985,"predict":5986,"à¤¨à¤°à¤¸":5987,"à¤¹à¤Ń":5988,"à¤īà¤ľà¤°":5989,"arb":5990,"wit":5991,"à¤¸à¤¶à¤¸":5992,"Ġà¤¸à¤°à¤®":5993,"à¤§à¤¦":5994,"Ġà¤Ĩà¤¦à¤°à¤£":5995,"Ġ1945":5996,"Ġ178":5997,"à´":5998,"Ġà¤ªà¤¨à¤ª":5999,"Ġà¤ľà¥Ľ":6000,"à¤ĸà¤®à¤°":6001,"SO":6002,"à¥īà¤¼":6003,"à¤Ķà¤°à¤¤":6004,"esc":6005,"âĢĶâĢĶ":6006,"Covid":6007,"à¤ªà¥Ŀ":6008,"à¤ıà¤¹":6009,"1984":6010,"Ġ4500":6011,"à¤ķà¤®à¤²à¤¨":6012,"CT":6013,"à¤ķà¤«à¤°":6014,"à¤Łà¤ľà¤°à¤²":6015,"à¤īà¤ªà¤¸":6016,"à¤ķà¤²à¤ķà¤¤":6017,"ĠAN":6018,"Ġvalue":6019,"ube":6020,"Ġà¤·à¤¡à¤¯":6021,"à¤¯à¤¦à¤²":6022,"Ġ157":6023,"ĠReno":6024,"irat":6025,")\"\"":6026,"à¨":6027,"à¤¤à¤ľà¤¨":6028,"Ġà¤¨à¤ľà¤®":6029,"à¤Ĩà¤Īà¤¯":6030,"Ġà¤Ŀà¤ķà¤Ŀ":6031,"à¤Łà¤ķà¤Ł":6032,"Ġ011":6033,"IIMS":6034,"à¤µà¤«":6035,"Ġà¤ªà¤°à¤¶":6036,"Ġà¤«à¤²à¤ķ":6037,"Ġà¤łà¤¹à¤°à¤¤":6038,"Ġà¤ļà¤°à¤ĸ":6039,"à¤¬à¤¤à¤¦":6040,"à¤ıà¤Ĩà¤Īà¤¬":6041,"à¥Ģà¤¼":6042,"Ġà¤¥à¤²à¤¸":6043,"rop":6044,"Ġ1959":6045,"à¤Ĩà¤Īà¤Ĩà¤Īà¤ª":6046,"1996":6047,"Ġà¤Ĩà¤ĩà¤¸à¤²":6048,"\"\"à¥¤\"":6049,"à¤¦à¤°à¤ª":6050,"Ġà¤ıà¤²à¤ıà¤¸":6051,"unction":6052,"ĠWest":6053,"ĠVoLTE":6054,"à¤Ĺà¤²à¤®":6055,"ination":6056,"ĠMLA":6057,"edding":6058,"ĠÂ·":6059,"chitect":6060,"à¤°à¤¹à¤¨":6061,"à¤²à¤ªà¤®":6062,"à¤²à¤¤à¤®":6063,"à¤¯à¤²à¤°":6064,"à¤Łà¤²à¤®":6065,"à¤ľà¤¹à¤¬":6066,"ĠSec":6067,"ĠAct":6068,"ook":6069,"à¤¨à¤Ĺà¤¢":6070,"à¤īà¤£":6071,"Ġà¤ıà¤¨à¤Ī":6072,"à¤¡à¤¬à¤²":6073,"Ġ1939":6074,"olar":6075,"ability":6076,"oad":6077,"Ġà¤¬à¤¡à¤Ĺ":6078,"Ġà¤¤à¤¨à¤ĸ":6079,"riy":6080,"à¤¸à¤«à¤²":6081,"à¤®à¤®à¤¯":6082,"à¥Ľà¤¬":6083,"Ġ172":6084,"Ġà¤ıà¤«à¤¬":6085,"ector":6086,"à¤¬à¤ł":6087,"Ġà¤ıà¤ķà¤®à¤¤":6088,"à¤Ĩà¤ļ":6089,"Ġ186":6090,"Ġ169":6091,"Ġ306":6092,"emper":6093,"KR":6094,"à¤ªà¤¤à¤°à¤¸":6095,"à¤§à¤ļ":6096,"Ġà¤Ĺà¥ľ":6097,"à¤łà¤¯à¤ķ":6098,"ĠMatch":6099,"ublic":6100,"iesel":6101,"ustralia":6102,"Ġà¤ħà¤¤à¤°":6103,"Ġà¤ĩà¤¯à¤°":6104,"Ġà¤Ĳà¤¬":6105,"à¤¹à¤¤à¤®":6106,"ents":6107,"Ġà¥©à¥©":6108,"à¤¤à¤ļà¤°":6109,"à¥ĭ/":6110,"à¥Īà¤ģ":6111,"Ġà¤Ĩà¤ķà¤¡":6112,"Ġ499":6113,"à¥ĩ?\"\"\"":6114,"harat":6115,"PU":6116,"à¤īà¤§":6117,"IIT":6118,"Ġà¤ªà¤¯":6119,"Ġà¤¬à¤¸à¤°":6120,"à¤¬à¤ľà¤°":6121,"à¥Ģà¤ĤâĢĻ":6122,"Ġ399":6123,"Ġà¤Ĩà¤Īà¤Ĩà¤°":6124,"à¥Ģ.)":6125,"Ġ865":6126,"à¤īà¤ªà¤ķà¤°à¤£":6127,"Ġ]":6128,"à¤Ĩà¤ĩà¤¡":6129,"Ġ380":6130,"Ġà¤®à¤¤à¤ªà¤¤":6131,"Ġ168":6132,"à¤Īà¤ĵà¤µà¤°":6133,"Ġà¤Ĳà¤°":6134,"à¤²à¤ķà¤®":6135,"à¤ªà¤ļà¤¯":6136,"Ġà¤µà¤¬":6137,"à¥ĩ.\"\"\"":6138,"Ġ1964":6139,"VP":6140,"ress":6141,"à¤ªà¤²à¤¬":6142,"Ġ202":6143,"1947":6144,"!\"\"\"":6145,"ts":6146,"à¥ĭà¥ĩà¤Ĥ":6147,"à¤ľà¤¯à¤²à¤²":6148,"Ġà¤ħà¤ªà¤¸":6149,"Ġà¤ĳà¤«à¤¸":6150,"à¥Ľà¤®":6151,"Ġ152":6152,"256":6153,"hy":6154,"work":6155,"à¤«à¤°à¤¹":6156,"à¥ľà¤Ĺ":6157,"ons":6158,"à¤§à¤¶":6159,"Ġà¤ļà¤¹à¤°":6160,"Ġà¤²à¤¡à¤©":6161,"arm":6162,"Ġ184":6163,"Ġà¤µà¤¤à¤¨":6164,"à¤°à¤£à¤¤à¤¯":6165,"Ġà¤¬à¤¦à¤ļà¤²à¤¨":6166,"Ġà¤µà¥ĺ":6167,"orth":6168,"Ġ275":6169,"TR":6170,"Ġà¤ħà¤¨à¤°":6171,"à¤²à¤¬à¤¤":6172,"1980":6173,"ĠNCP":6174,"ĠSony":6175,"ĠFirstpost":6176,"DC":6177,"JI":6178,"Ġà¤ĵà¤¢":6179,"Ġà¤ħà¤¸à¤Ĺà¤°":6180,"à¤¤à¤ķà¤µ":6181,"à¤Ĺà¤¨à¤¬":6182,"Ġà¥©à¥¨":6183,"Ġkg":6184,"Ġà¤Ĩà¤ĩà¤¸à¤ķ":6185,"à¤ķà¤ªà¤Ł":6186,"à¥§à¥¯à¥¯à¥":6187,"080":6188,"ior":6189,"à¤ĤâĢį":6190,"Ġ173":6191,"ited":6192,"mp":6193,"à¥ĭâĢ¦":6194,"Ġà¤¸à¤®à¤µà¤°":6195,"Ġà¤¡à¤®":6196,"à¤ĵà¤Ĩà¤°":6197,"ĠAus":6198,"umar":6199,"Ġà¤¾":6200,"ĠPhone":6201,"ĠPlan":6202,"SI":6203,"dà¤²":6204,"Ġà¤ıà¤¨à¤Ĩà¤Ī":6205,"à¤īà¤¸à¤ªà¤°":6206,"Ġà¤ĸà¤²à¤¬à¤²":6207,"ĠAirtel":6208,"land":6209,"Ġà¤¹à¤°à¤µ":6210,"Ġà¤§à¤°à¤®":6211,"à¥Ģ)à¥¤":6212,"Ġà¤ķà¤łà¤ª":6213,"agnet":6214,"à¥ĭà¥ĩ":6215,"Ġà¤ľà¤¯à¤ķ":6216,"Ġà¤¬à¤¢à¤¨":6217,"Ġ999":6218,"Ġà¤ľà¤¯à¤µà¤°":6219,"ĠUSB":6220,"ti":6221,"à¤¡à¤µà¤¤":6222,"à¤¯à¤£à¤¸":6223,"à¤ľà¤¯à¤¨à¤Ĺà¤°":6224,"1000":6225,"230":6226,"à¤ıà¤ıà¤¸à¤Ĩà¤Ī":6227,"aya":6228,"à¤Īà¤ıà¤¸à¤ıà¤²":6229,"à¤¾à¤ĥ%":6230,"'à¥¤":6231,"Ġà¤²à¤ªà¤Ł":6232,"Ġà¤ĸà¤ļ":6233,"à¤¨à¤ķà¤²":6234,"ĠâĢľ%":6235,"info":6236,"Ġ222":6237,"over":6238,"370":6239,"vel":6240,"Ġà¤¨à¤¯à¤¨":6241,"à¤¬à¥Ŀ":6242,"Ġ324":6243,"ĠNarzo":6244,"ĠCRPF":6245,"ĠPower":6246,"Amazon":6247,"Ġà¤ªà¤¸à¤°":6248,"à¤Ĺà¤Ń":6249,"Ġà¤īà¤ªà¤¶à¤®à¤¨":6250,"à¤¹à¤®à¤®":6251,"ull":6252,"à¤¸à¤Łà¤¨":6253,"Ġà¤²à¤ĸà¤¨":6254,"à¤īà¤ļà¤°":6255,"Ġ737":6256,"Ġà¤®à¤¶à¤µ":6257,"Ø¯":6258,"Ġà¤ľà¤¯à¤¨":6259,"Ġà¤Ĩà¤°à¤Ĩà¤Īà¤ıà¤²":6260,"à¤ĺà¤¡":6261,"à¥Ļà¤²":6262,"à¤ĩà¤«à¤Ł":6263,"ashtra":6264,"à¤¡à¤¹à¤°":6265,"ments":6266,"opra":6267,"Ġà¤µà¥ļ":6268,"à¤µà¤°à¤Ĺ":6269,"otor":6270,"andhi":6271,"Ġà¤¹à¤µà¤²à¤¦":6272,"Ġà¤¦à¤²à¤¦à¤²":6273,"Ġ183":6274,"à¤ıà¤¸à¤ıà¤¸à¤ıà¤Ĩà¤Ī":6275,"fer":6276,"à¤ļà¥Ŀ":6277,"Ġ189":6278,"Ġà¥©à¥«":6279,"dà¤¸":6280,"à¤¯à¤¸à¤¨":6281,"Ġ1942":6282,"Ġ272":6283,"adha":6284,"ATE":6285,"à¤¨à¤Ńà¤¦":6286,"Ġà¤®à¤ľà¤¹à¤¬":6287,"à¤¶à¤§":6288,"Ġ204":6289,"1998":6290,"phone":6291,"Ġà¤¸à¤§":6292,"Ġ205":6293,"à¤ªà¤Łà¤²":6294,"Ġ660":6295,"à¤ķà¤¡à¤ª":6296,"Ġà¤ıà¤²à¤¡":6297,"ĠNDA":6298,"à¤ħà¤¤à¤ıà¤µ":6299,"rastructure":6300,"Ġman":6301,"à¤ªà¤Łà¤ķ":6302,"à¤Ŀà¤Ĺà¤¡":6303,"Ġ193":6304,"Ġ303":6305,"à¤¸à¤°à¤²":6306,"Ġà¤ķà¤®à¥Ľ":6307,"à¤°à¤ľà¤¨à¤¹":6308,"Ġà¤¤à¤¹à¤²à¤ķ":6309,"à¤°à¤ĸà¤¨":6310,"Ġà¤Ĩà¤ĩà¤¶":6311,"Ġà¤ĺà¤®à¤£":6312,"Ġà¤Ĳà¤¤à¤°":6313,"Ġ192":6314,"à¤¾?\"\"":6315,"ĠNational":6316,"Ġ802":6317,"Ġres":6318,"ohli":6319,"Budget":6320,"à¤¦à¤ķà¤Ł":6321,"à¤¶à¤Ł":6322,"à¤¸à¤²à¤µ":6323,"Ġà¥§à¥¦à¥¦":6324,"Ġà¤ħà¤ľà¤®à¤²":6325,"Ġsc":6326,"à¥ĭ?\"\"\"":6327,"GP":6328,"Reliance":6329,"iw":6330,"à¤ľà¤Ł":6331,"à¤§à¤®à¤ķ":6332,"Ġà¤Ŀà¥ľà¤ª":6333,"MW":6334,"à¤İ":6335,"Ġ730":6336,"à¤ĳà¤ª":6337,"otos":6338,"à¤ıà¤¨à¤ıà¤¸à¤ľ":6339,"Ġà¤ĸà¤«":6340,"ĠAxis":6341,"ues":6342,"Ġà¤¯à¤ķà¤¤":6343,"à¤Ĺà¤®à¤Ĺ":6344,"ious":6345,"AH":6346,"Petrol":6347,"value":6348,"Ġà¤ªà¤§":6349,"à¤¸à¤®à¤ķ":6350,"ĠCBSE":6351,"ĠAMO":6352,"ĠGov":6353,"Ġà¤²à¤¨":6354,"à¤¾à¥¤âĢĻ":6355,"Ġà¤§à¤¨à¤¬":6356,"ĠClass":6357,"à¥§à¥«":6358,"ĠInter":6359,"à¤¸à¤¹à¤µ":6360,"rib":6361,"IDAI":6362,"à¤¬à¤²à¤¤":6363,"à¤ħà¤«à¤¸":6364,"Ġkgm":6365,"Flipkart":6366,"Ġà¤īà¤¥à¤ª":6367,"à¤Ķà¤¸à¤¤":6368,"()":6369,"à¥ĭ),":6370,"à¤¯à¥Ľ":6371,"à¤¹à¤°à¤®":6372,"à¤¨à¤®à¤¨":6373,"Ġà¤¸à¤¤à¤²":6374,"ero":6375,"à¤Ĺà¤®à¤°à¤®à¤°":6376,"ĠAM":6377,"reen":6378,"RL":6379,"à¤¤à¤¡":6380,"à¥ĭà¤ģ":6381,"Ġà¤¬à¤¸à¤¤":6382,"à¥Į,":6383,"à¤īà¤ªà¤®":6384,"à¥ľà¤Ľ":6385,"Ġà¤ħà¤ķà¤¡":6386,"ĠJNU":6387,"novation":6388,"ĠAMOLED":6389,"Ġan":6390,"Ġà¤¨à¤Ł":6391,"à¤īà¤Ĺ":6392,"Ġ1938":6393,"Ġà¤ıà¤¨à¤ıà¤¸à¤ı":6394,"Ġ269":6395,"Ġà¤Ĩà¤ĩà¤ķà¤¨":6396,"Ġal":6397,"à¤ĸà¤ļ":6398,"Ġà¤«à¤²à¤¤":6399,"amil":6400,"ks":6401,"à¤¹à¤°à¤¦":6402,"à¤¡à¥ļ":6403,"à¤¸à¤®à¤Ĺ":6404,"à¤¹à¤µà¤°":6405,"Ġà¤ĩà¤ľà¤¹":6406,"à¤°à¤£à¤¤":6407,"à¤¾--":6408,"alman":6409,"Ġ251":6410,"uz":6411,"Ġit":6412,"à¤¦à¤ľ":6413,"à¤ıà¤¨à¤Ĩà¤Īà¤¸":6414,"Ġ7000":6415,"Ġà¤ıà¤²à¤ıà¤²à¤¬":6416,"raph":6417,"ose":6418,"aka":6419,"ĠÂłĠÂł":6420,"Ġ1100":6421,"ĠNIA":6422,"Ġ365":6423,"witter":6424,"Ġà¤¸à¤¶à¤°":6425,"à¤ıà¤²à¤Ĩà¤Īà¤¸":6426,"à¤ķà¤Łà¤Ĺ":6427,"Ġinfo":6428,"ĠÂ°":6429,"irthday":6430,"Ġà¤ıà¤ļà¤Ł":6431,"evelopment":6432,"ield":6433,"Ġà¤ħà¤ªà¤¤":6434,"Ġà¤¯à¤°à¤¦à¤¨":6435,"Ġ1919":6436,"Ġ3500":6437,"ĠOf":6438,"aharashtra":6439,"Ġà¤ħà¤¹à¤¦":6440,"à¤ĸà¤¤à¤°":6441,"Ġà¤ľà¤²à¤®à¤Ĺ":6442,"Ġà¤ĩà¤²à¤ľ":6443,"Ġà¤ıà¤®à¤ıà¤²à¤¸":6444,"Ġ179":6445,"rail":6446,"riyanka":6447,"EF":6448,"Ġà¤Ĩà¤£à¤µ":6449,"Ġà¤¬à¤¤à¤²":6450,"urn":6451,"à¤Ĺà¤Ĺ":6452,"ĠâĢ¢":6453,"Ġà¤Ĩà¤ªà¤¬":6454,"Ġ325":6455,"Ġà¤ľà¤²à¤Ĺ":6456,"chitecture":6457,"à¤ĵà¤Ĩà¤Ī":6458,"à¤µà¤¨à¤ª":6459,"Ġà¤¬à¤¦à¤¹":6460,"iness":6461,"IMIM":6462,"ho":6463,"Ð°":6464,"à¤ħà¤²à¤¬à¤¤":6465,"Ġà¤¨à¤µà¤ª":6466,"Ġà¤®à¥Ľà¤¦":6467,"ĠEng":6468,"vir":6469,"à¤ıà¤¥à¤²":6470,"à¤ķà¤°à¤¦":6471,"Ġ710":6472,"ĠMIUI":6473,"Ġà¤ıà¤¸à¤Ĩà¤Ī":6474,"his":6475,"Ġà¤«à¤¤à¤¹":6476,"à¥īà¥°":6477,"amm":6478,"tm":6479,"à¥ĭ\"":6480,"à¤ıà¤«à¤Ĩà¤°":6481,"Ġ235":6482,"Ġà¤Ńà¤ľà¤¨à¤¹":6483,"Ġà¤Ńà¤Łà¤ķà¤¨":6484,"Ġà¤Ĳà¤¡à¤®":6485,"Ġ1935":6486,"à¤ĥ-":6487,"à¤°à¤Ĺà¤®à¤¨":6488,"Ġssc":6489,"à¥Ī,\"\"":6490,"à¤Ŀà¤²":6491,"à¤®à¤¤à¤Ĺà¤£à¤¨":6492,"à¤¤à¤¨à¤§":6493,"ĠPixel":6494,"ices":6495,"iver":6496,"à¥Ģ\"":6497,"à¤ľà¤ĸ":6498,"à¥Ĥ/":6499,"Ġà¤ħà¤¨à¤µà¤°à¤¤":6500,"à¥Ĥà¤Ĥ:":6501,"à¤®à¤°à¤ľ":6502,"à¤ĩà¤¨à¤ķà¤®":6503,"emperature":6504,"Ġ187":6505,"ĠØ§ÙĦ":6506,"Ġà¤ķà¤°à¤ª":6507,"Ġà¤ªà¤°à¤ļà¤®":6508,"à¤°à¤ķà¤¬":6509,"à¤ľà¤¨à¤¹":6510,"Ġà¤ªà¤¡à¤©":6511,"Ġà¤¸à¤ļà¤¦":6512,"à¤ıà¤«à¤¡à¤¬":6513,"ini":6514,"à¤ıà¤ļà¤ıà¤ıà¤²":6515,"Ġà¤°à¤¬à¤¡":6516,"à¤ľà¤¯à¤°":6517,"à¤ķà¤²à¤°":6518,"Ġà¤«à¤²à¤¦":6519,"à¤ıà¤¸à¤ıà¤ļà¤ĵ":6520,"Ġà¤ħà¤²à¤®":6521,"à¥ŀà¤ķ":6522,"CM":6523,"Ġenergy":6524,"à¤¤à¤Ńà¤°":6525,"Ġà¤ħà¤ľà¤¬":6526,"à¤µà¤°à¤²":6527,"à¤°à¤®à¤¬à¤¦":6528,"Ġà¤Ĳà¤ªà¤²":6529,"1993":6530,"ĠServ":6531,"à¤«à¤¡à¤£à¤µ":6532,"ĠÂ»":6533,"Ġà¤ªà¤£à¤ľ":6534,"à¥ĩ(":6535,"à¤Ĥ),":6536,"à¥ĩà¤ĤâĢĻ":6537,"à¤Łà¤°à¤¡":6538,"Ġà¤Ńà¤Łà¤ķà¤¤":6539,"à¤¤à¤ķà¤°à¤¨":6540,"PNB":6541,"ines":6542,"Ġà¤Ĩà¤®à¤ľà¤¨":6543,"rev":6544,"ural":6545,"ton":6546,"à¤®à¤ªà¤¤":6547,"Ġà¤Ńà¤¨à¤ķ":6548,"Ġà¤§à¤µà¤²":6549,"Ġ850":6550,"Ġà¤¸à¤²à¤µ":6551,"à¤¾?\"\"\"":6552,"à¤¼à¥ĩà¤Ĥ]":6553,"à¤¦à¤²à¤ª":6554,"160":6555,"320":6556,"à¤Ĩà¤Īà¤Ĩà¤Īà¤ıà¤®":6557,"Ġà¤¶à¤¹à¤¬":6558,"Ġ375":6559,"BSNL":6560,"à¤¯à¤«à¤²":6561,"\"\".\"":6562,"à¤¹à¤¨à¤µ":6563,"ound":6564,"à¤¯à¤²à¤¯":6565,"Ġà¤ħà¤¸à¤²à¤®":6566,"Ġà¤ªà¤°à¤ª":6567,"à¥Īà¤ĤâĢĻ":6568,"à¤Ńà¤ļ":6569,"à¥ĥ.":6570,"ĠEngland":6571,"UPSC":6572,"umbai":6573,"à¤Ĥà¥Īà¥¤":6574,"Ġà¤¸à¤Ī":6575,"à¤ľà¤¸à¤ª":6576,"à¤Ĩà¤¡à¤µ":6577,"à¤¬à¤²à¤°":6578,"Ġ191":6579,"à¤ıà¤²à¤Ĩà¤Ī":6580,"à¤¦à¤®à¤¯":6581,"Ġed":6582,"à¤°à¤ĸà¤°":6583,"Ġà¤«à¤ĸà¤°":6584,"à¤¦à¤°à¤ĸ":6585,"Ġà¤ħà¤¸à¤¹à¤¨":6586,"âĢĿ,":6587,"ducation":6588,"ĠIndies":6589,"honi":6590,"NRC":6591,"Ġà¤ľà¤ª":6592,"Ġà¤īà¤¬à¤²":6593,"Ġà¤ıà¤ıà¤¨":6594,"Ġà¤¯à¤¨":6595,"à¤¨à¤®à¤ķ":6596,"Ġà¤Ĩà¤Īà¤ĵà¤ı":6597,"ĠCC":6598,"à¤ħà¤ķà¤¸à¤°":6599,"à¥Īà¤ĥ-":6600,"à¤Ĩà¤Īà¤ıà¤«à¤ıà¤«à¤Ĩà¤Ī":6601,"ES":6602,"En":6603,"TB":6604,"craft":6605,"à¤¦à¤ĸ":6606,"à¤®à¤²à¤¯":6607,"Ġ206":6608,"à¤°à¤£à¤¨":6609,"Ġà¤Ĩà¤¯à¤¶":6610,"Ġ8000":6611,"Ġà¤ľà¤Ĺà¤¨à¤®":6612,"Ġà¤²à¤¶à¤ķà¤°":6613,"bsp":6614,"à¤£à¤¦":6615,"Ġ299":6616,"Ġ1400":6617,"Ġà¤Ĺà¥ľà¤¬à¥ľ":6618,".âĢĵ":6619,"IL":6620,"Ġà¤®à¤ª":6621,"à¤ªà¤°à¤²":6622,"à¤ķà¤²à¤®":6623,"Ġà¤¬à¤²à¤ª":6624,"à¤²à¤ķà¤¨":6625,"ĠAli":6626,"Ġà¤¨à¤¸à¤°":6627,"à¤Ŀà¤°":6628,"Ġà¤ıà¤¸à¤ıà¤¸à¤¬":6629,"ĠRep":6630,"olution":6631,"à¤¸à¤²à¤¨":6632,"AB":6633,"à¤Īà¤ıà¤ķ":6634,"Ġà¤¨à¤°à¤Ĺ":6635,"Ġ845":6636,"à¤ħà¤ªà¤¹à¤°à¤£":6637,"ĠList":6638,"Ġag":6639,"SEB":6640,"nect":6641,"ways":6642,"hya":6643,"à¤¹à¤¸à¤¨":6644,"Ġà¤Ŀà¤Ł":6645,"Ġ249":6646,"Ġà¤Ĩà¤īà¤Łà¤°":6647,".,":6648,"yn":6649,"Ġà¤¡à¤²":6650,"à¤ĵà¤ıà¤¨à¤ľ":6651,"Ġà¤Ĩà¤Īà¤µ":6652,"450":6653,"Ġà¤¨à¤¨à¤ķ":6654,"Ġà¤Ĳà¤ľ":6655,"Ġà¤Ĩà¤µà¤§":6656,"error":6657,"ĠFinal":6658,"usiness":6659,"Ġ1953":6660,"Ġà¥¬à¥¦":6661,"ĠMinister":6662,"rat":6663,"Ġà¥¤\"":6664,"à¤ıà¤¨à¤ıà¤®à¤¸":6665,"Ġà¤ľà¤Ĺà¤®à¤Ĺ":6666,"esident":6667,"Ġà¤Ĺà¤µà¤Ī":6668,"WhatsApp":6669,"à¤īà¤ªà¤ķ":6670,"Ġà¤¡à¤Ĺ":6671,"à¤ħà¤µà¤¸":6672,"à¤°à¤®à¤ķ":6673,"arat":6674,"IG":6675,"Ġà¤ľà¤¯à¤¤":6676,"à¤¶à¤°à¤£":6677,"Ġà¤ªà¤°à¤ĸà¤¨":6678,"Ġà¥Ľà¤ķ":6679,"rav":6680,"ision":6681,"Ġper":6682,"ĠAlso":6683,"Man":6684,"Ġà¤ħà¤¨à¤Ń":6685,"Ġà¤ıà¤ļà¤ıà¤¸":6686,"à¤ıà¤²à¤ıà¤®":6687,"Ġà¤īà¤²à¤Łà¤«":6688,"ĠAcc":6689,"use":6690,"ĠChopra":6691,"appy":6692,"sha":6693,"ĠÐ":6694,"à¤¾âĢľ":6695,"à¤ıà¤¤":6696,"Ġà¤Ĩà¤¹à¤°à¤£":6697,"à¤ıà¤²à¤ĵà¤¸":6698,"ities":6699,"ounc":6700,"aterial":6701,"air":6702,"red":6703,"à¤ªà¤ĸ":6704,"Ġà¤Łà¤ļà¤¸":6705,"180":6706,"ĠWI":6707,"!\"":6708,"Ġà¥ģ":6709,"à¤®à¤¬à¤¨":6710,"à¤ĩà¤¸à¤¬":6711,"à¤ıà¤«à¤ıà¤®à¤ıà¤¸":6712,"Ġà¤ıà¤¯à¤°à¤¬à¤¸":6713,"ĠHC":6714,"Ġcase":6715,"ĠKh":6716,"umber":6717,"NCR":6718,"PSC":6719,"ÛĮ":6720,"à¤²à¤¯à¤®":6721,"à¤¡à¤§":6722,"1997":6723,"Ġà¤§à¤°à¤ªà¤ķà¤¡":6724,"ĠRate":6725,"ĠMy":6726,"Ġ295":6727,"acebook":6728,"ĠMovie":6729,"à¤¸à¤Łà¤°":6730,"Ġà¤®à¤Łà¤°":6731,"à¤Łà¤°à¤¤":6732,"à¤°à¤ķà¤Łà¤¨":6733,"à¤¯à¤²à¤¸":6734,"Ġ665":6735,"Ġà¤¬à¤°à¤Ĺ":6736,"1991":6737,"à¤ıà¤ļà¤Ĩà¤°":6738,"ĠPad":6739,"102":6740,"Ġ294":6741,"Ġà¤¤à¤¨à¤µ":6742,"à¤°à¤®à¤¤":6743,"1956":6744,"1992":6745,"online":6746,"ĠKohli":6747,"odel":6748,"BG":6749,"EL":6750,"à¤¨à¤¤à¤°":6751,"à¤¸à¤¬à¤²":6752,"à¤ªà¤®à¤¤":6753,"à¤ĩà¤®à¤²":6754,"à¤īà¤ªà¤¦":6755,"Ġà¤Ĩà¤°à¤ıà¤«":6756,"Ġà¤¢à¤¹à¤¨":6757,"Ġ181":6758,"ler":6759,"Ã©":6760,"à¤·à¤¬":6761,"à¤īà¤¨à¤¶":6762,"ĠIMX":6763,"eepika":6764,"à¥¥":6765,"Ġà¤ľà¤¸à¤¬":6766,"Ġà¤ħà¥ľ":6767,"à¤ļà¤²à¤ķ":6768,"à¤°à¤¤à¤¨":6769,"Ġ[âĢľ":6770,"press":6771,"MB":6772,"à¤¾\\\\":6773,"Ġà¤ĩà¤°à¤¶":6774,"ĠID":6775,"Ġ234":6776,"ĠGandhi":6777,"adi":6778,"mir":6779,"we":6780,"Ġà¤¸à¤¨à¤ķ":6781,"Ġà¤Ŀà¤²à¤ķà¤¤":6782,"Ġ215":6783,"à¥Ļà¤¤":6784,"stitute":6785,"'%":6786,"à¤¼'":6787,"Galaxy":6788,"Ġ208":6789,"Ġà¤ĵà¤¹à¤¦":6790,"à¤¸à¤¤à¤¤":6791,"Ġ228":6792,"riend":6793,"Ġwhat":6794,"Ġà¤²à¤²à¤ı":6795,"hatt":6796,"escri":6797,"Ġà¤ıà¤Łà¤²":6798,"à¤£à¤¯à¤¨":6799,"à¤ıà¤®à¤Ĩà¤°à¤ª":6800,"à¤Ĺà¤²à¤¸":6801,"Ġ218":6802,"Ġse":6803,"ĠDhoni":6804,"Ġà¤¨à¤µà¤²à¤ĸ":6805,"CW":6806,"Ġà¤¯à¤¶à¤°":6807,"à¤Ŀà¤¡":6808,"Ġ480":6809,"Ġà¤¬à¤¦à¤¬":6810,"à¤Ĳà¤¬":6811,"att":6812,"ora":6813,"HP":6814,"à¥ĩ%":6815,"ĠPar":6816,"ĠAustralia":6817,"Ġà¤Ĩà¤ĩà¤¡à¤²":6818,"à¤ľà¤¨à¤¨":6819,"à¤°à¤®à¤ļ":6820,"Ġà¤Ĩà¤Īà¤ıà¤®à¤¡":6821,"ĠSouth":6822,"oco":6823,"ĺ»âĺ»â":6824,"-#-#":6825,"à¤Ĩà¤°à¤Ĩà¤Īà¤ıà¤²":6826,"Ġà¤Ĺà¤ľà¤ªà¤¤":6827,"Ġz":6828,"Ġà¤ħà¤¨à¤¬à¤¨":6829,"à¤¾à¤ģ.":6830,"Ġà¤®à¤¨à¤¶":6831,"unj":6832,"aid":6833,"bs":6834,"Ġà¤¸à¤¤à¤¬":6835,"Ġ1857":6836,"Ġ239":6837,"850":6838,"Ġà¤¬à¥ļ":6839,"ĠCEO":6840,"115":6841,"à¥§à¥¦":6842,"Ġà¤ıà¤Ĩà¤Īà¤ıà¤¡":6843,"à¥ĩâĢį":6844,"ane":6845,"Ġ253":6846,"Ġ244":6847,"Ġpost":6848,"Ġnew":6849,"DD":6850,"à¤¤à¤¬à¤°":6851,"à¤¤à¤²à¤µ":6852,"Ġà¤Ĩà¤ĩà¤ľ":6853,"à¤¹à¤¨à¤Ĺà¤°":6854,"ĠSE":6855,"of":6856,"à¥Į-":6857,"âĢ¦.":6858,"ĠJEE":6859,"adhaar":6860,"Ġà¤ļà¤¯":6861,"Ġà¤ļà¤¤à¤°":6862,"à¤Ĩà¤Ń":6863,"199":6864,"108":6865,"âĢĮà¤¿":6866,"à¤ıà¤¨à¤ıà¤¸à¤¡":6867,"bse":6868,"à¤¿?":6869,"Ġà¤¡à¤Ĺà¤®à¤Ĺ":6870,"Ġà¤ıà¤¨à¤Ĩà¤°":6871,"à¤ıà¤ļà¤Ī":6872,"ĠSA":6873,"ĠCN":6874,"Ġ10000":6875,"Con":6876,"Ġà¤ľà¤ľà¤ª":6877,"à¥ĭà¤Ĥ(":6878,"Ġà¤ıà¤ķà¤ķ":6879,"à¤¦à¤°à¤¬":6880,"Ġà¤ħà¤ªà¤¶à¤¬":6881,"Ġà¤ıà¤¨à¤ıà¤¸":6882,"ĠSSC":6883,"ĠRCB":6884,"ĠWedding":6885,"Ġoff":6886,"ecast":6887,"DO":6888,"ura":6889,"Ġà¤¸à¤¦à¤ķ":6890,"Ġà¤Ĩà¤ĩà¤¨":6891,"Ġà¤ıà¤¥à¤¨":6892,"à¤Ĩà¤Īà¤ıà¤¸à¤¸":6893,"Ġà¤¸à¤¹à¤ª":6894,"Ġ309":6895,"à¤ĳà¤¨à¤°":6896,"ĠTr":6897,"Ġà¥©à¥ª":6898,"à¥§à¥¯à¥®":6899,"ĠCSK":6900,"embly":6901,"design":6902,"à¤®à¤¢":6903,"Ġà¤ķà¤°à¤®à¤¬":6904,"Ġà¤ıà¤Łà¤®":6905,"à¥§à¥¯à¥Ń":6906,")âĢĻ":6907,"ier":6908,"ience":6909,"à¤¼à¥ĭà¥¤":6910,"Ġà¤Īà¤¸à¤µ":6911,"ĠEducation":6912,"ĠÏ":6913,"Ġà¤Łà¤Ł":6914,"Ġ247":6915,"à¤ħà¤¬à¤¤à¤ķ":6916,"Ġà¤ķà¤Łà¤µ":6917,"action":6918,"âĻ":6919,"à¤Ĺà¤¹à¤²":6920,"à¥Īà¤Ĥà¥¤âĢĻ":6921,"Ġ390":6922,"itle":6923,"ĠTimes":6924,"ĠWin":6925,"ms":6926,"val":6927,"Ġro":6928,"Ġà¤ĸà¤¶":6929,"Ġà¤¸à¤®à¤°à¤¸à¤¤":6930,"Ġà¤ħà¤°à¤¹à¤°":6931,"Ġà¤ļà¤²à¤ļ":6932,"à¤Ĺà¤²à¤ªà¤¨":6933,"1970":6934,"1971":6935,"à¥Ĥà¤ģ)":6936,"atest":6937,"Ġraj":6938,"à¤¡à¤¬à¤°":6939,"Ġà¤Ĺà¤¬":6940,"à¤Ĩà¤¯à¤¤":6941,"à¤¹à¤®à¤¸":6942,"Ġà¤ªà¤²à¤Łà¤ķà¤°":6943,"âĢĭâĢĭ":6944,"à¤Ńà¤°à¤£":6945,"Ġà¤Īà¤ıà¤¸à¤Ĩà¤Ī":6946,"Ġà¤łà¤Ł":6947,"ĠLIVE":6948,"ouse":6949,"à¥Īà¤Ĥ?\"":6950,"à¥ĩ?\"":6951,"à¥Ļà¤°":6952,"ows":6953,"High":6954,"WE":6955,"à¤®à¤¹à¤°":6956,"à¤ħà¤¸à¤¦":6957,"Ġ337":6958,"come":6959,"ÂłÂłÂł":6960,"ally":6961,"à¤¾à¥Ĥ":6962,"Ġà¤¥à¤®à¤¨":6963,"à¤¸à¤°à¤¶":6964,"Ġà¤ħà¤ªà¤¹":6965,"ĠSR":6966,"Sp":6967,"VD":6968,"à¥Ģà¥ĩ":6969,"à¤ķà¤°à¤ķ":6970,"à¤¢à¤ķ":6971,"à¤Ĩà¤Īà¤ıà¤¨à¤ıà¤ķ":6972,"omy":6973,"une":6974,"-)":6975,"Ø¨":6976,"à¤¼à¤¼":6977,"à¤Łà¤¤à¤¯":6978,"Ġà¥©à¥Ń":6979,"agnetic":6980,"vest":6981,"1080":6982,"ave":6983,"min":6984,"Ġà¤ıà¤¸à¤ıà¤®":6985,"ĠSuper":6986,"Ġ[(":6987,"à¤®à¤¶à¤µ":6988,"à¤µà¤£à¤ķ":6989,"Ġà¤®à¤¨à¤Ĺà¤¢":6990,"Ġà¤Ĩà¤²à¤¸":6991,"Ġph":6992,"http":6993,"IO":6994,"nbsp":6995,"à¤Ĩà¤Īà¤ıà¤®à¤ıà¤¸":6996,"Ġà¤¹à¤°à¤¬":6997,"à¤¡à¤°à¤µà¤°":6998,"Ġà¤ıà¤¨à¤ıà¤®à¤¡":6999,"à¥ĺà¤¦":7000,"ĠNEET":7001,"ĠComp":7002,"ĠCommission":7003,"radesh":7004,"Ġà¤µà¤¤":7005,"Ġà¤ľà¤°à¤¨":7006,"Ġà¤ıà¤¸à¤ıà¤ļà¤ľ":7007,"ĠXI":7008,"engal":7009,"ĠNarendra":7010,"test":7011,"¯à¥¦":7012,"à¤²à¤µà¤°":7013,"à¤¼/":7014,"Ġà¤ļà¤ķà¤¨":7015,"Ġà¤ĺà¥ľ":7016,"Ġà¤§à¤ľ":7017,"Ġà¤Ĩà¤°à¤ıà¤¨à¤ı":7018,"à¤ıà¤¸à¤ĵà¤ª":7019,"à¤Ĺà¤¤à¤¤":7020,"Ġà¤ħà¤®à¤ľà¤¦":7021,"Ġà¤ıà¤®à¤ıà¤¸à¤¸":7022,"Ġà¥Ļà¤¬à¤°à¤¦":7023,"à¤ıà¤¸à¤Īà¤¬":7024,"à¥įà¤¾à¤¾":7025,"à¤ĸà¥ľ":7026,"à¤īà¤¨à¤ªà¤°":7027,"Ġà¤Ĳà¤¹à¤¤":7028,"Ġ425":7029,"Ġà¤ķà¤²à¤ķ":7030,"Ġà¤ıà¤¸à¤ĵà¤ª":7031,"ars":7032,"à¤¨à¤Ĺà¤°à¤ª":7033,"Ġ265":7034,"Ġà¤īà¤ľà¤¡":7035,"ification":7036,"à¤ķà¤Ĺà¤£":7037,"Ġà¤ĺà¤£":7038,"ati":7039,"ola":7040,"ifty":7041,"IRCTC":7042,"Ġà¤¹à¤®à¤ľ":7043,"à¤ľà¤¨à¤°":7044,"à¤ıà¤¨à¤¡à¤¬":7045,"als":7046,"ĠBirthday":7047,"Ġ217":7048,"Ġà¤ıà¤ļà¤¯":7049,"Ġà¥ļà¤²à¤¤":7050,"Ġà¤Ĩà¤Īà¤ıà¤ıà¤«":7051,"ocial":7052,"alloy":7053,":\\\\":7054,"LC":7055,"Ġà¤Ĩà¤Īà¤ıà¤²":7056,"Ġà¤¬à¤¸à¤µ":7057,"ames":7058,"Ġà¤Ĩà¤Īà¤ıà¤¸à¤ĵ":7059,"Ġà¤ªà¤Ĺ":7060,"Ġà¤Ńà¤Ī":7061,"Ġà¤¦à¤²à¤ľ":7062,"Ġ305":7063,"chan":7064,"à¥Ī--":7065,"Ġbi":7066,"BOSE":7067,"ner":7068,"à¥ĭà¤¼":7069,"Ġà¤ıà¤ıà¤®à¤¯":7070,"Ġà¤Ĩà¤°à¤Ĩà¤°à¤¬":7071,"à¤¤à¤¨à¤¹":7072,"acc":7073,"ype":7074,"à¤ħà¤¹à¤²":7075,"Ġ765":7076,"ĠIs":7077,"rica":7078,"Ġà¤ľà¤¨à¤ķà¤ª":7079,"RSS":7080,"à¤ľà¤Ĺà¤¢":7081,"Ġà¤Ĩà¤ĩà¤ķ":7082,"à¤¤à¤¨à¤Ĺà¤°":7083,"à¤¾à¤ģà¥¤":7084,"Ġ9000":7085,"à¤Īà¤ıà¤¸à¤Ĩà¤°à¤¸":7086,"Airtel":7087,"escription":7088,"299":7089,"udi":7090,"à¤¾,âĢľ":7091,"à¤ħà¤ľà¤®":7092,"Ġ2050":7093,"ĠIN":7094,"omen":7095,"Ġ290":7096,"à¥ĢâĢĻ,":7097,"à¤Ĩà¤Īà¤ıà¤¸à¤ı":7098,"under":7099,"à¤ªà¤Łà¤°":7100,"Ġà¤īà¤Ĺà¤¤":7101,"à¤Īà¤ķà¤°":7102,"Ġà¤¶à¤°à¤¤":7103,"à¥Į.":7104,"ĠSports":7105,"sthis":7106,"ĠLTE":7107,"andra":7108,"arnat":7109,"Ġwhatsthis":7110,"PG":7111,"tr":7112,"Ġà¤ıà¤Ĺà¤°":7113,"Ġà¤ļà¤Łà¤¨":7114,"Ġà¤Ľà¤Ł":7115,"Ġà¤ħà¤«à¤ľà¤²":7116,"its":7117,"Ġà¤ħà¤¡à¤µ":7118,"......":7119,"ÂłÂłÂłÂłÂłÂłÂłÂł":7120,"TO":7121,"Ġà¤ĥ":7122,"à¤¸à¤¤à¤°":7123,"Ġà¤®à¤¶à¤°":7124,"Ġà¤µà¤¨à¤µ":7125,"à¤ıà¤¥":7126,"à¤¾,âĢĿ":7127,"Ġà¤Łà¤¨à¤²":7128,"Ġà¤¶à¤¹à¤°à¤ªà¤¨":7129,"ĠSab":7130,"ĠRR":7131,"Ġà¤¶à¤ªà¤¥à¤ªà¤¤":7132,"ĠGovern":7133,"wood":7134,"à¤ļà¤Ĺ":7135,"à¤«à¤°à¤²":7136,"Ġà¤Ĳà¤®":7137,"à¤ĺà¤¬à¤°":7138,"ĠDC":7139,"Ġà¥ŀà¥Ľà¤²":7140,"Ġà¤¬à¤¹à¤°à¤¹":7141,"Ġà¤ıà¤ıà¤¸à¤ª":7142,"Ġà¤ıà¤°à¤°":7143,"à¤°à¤¤à¤µà¤°":7144,"Ġà¤«à¤¸à¤¹":7145,"Ġà¤¡à¤Łà¤ķà¤°":7146,"1995":7147,"1989":7148,"ones":7149,"ants":7150,"unjab":7151,"à¤µà¤ĺà¤°":7152,"à¤¡à¤°à¤Ł":7153,"ĠNow":7154,"ĠDiesel":7155,"à¥Ģ',":7156,"à¤īà¤²à¤Ł":7157,"WHO":7158,"Ġà¤®à¤°à¤µ":7159,"à¤Ĺà¤§":7160,"Ġ430":7161,"Ġà¤Ĩà¤Īà¤Ĩà¤Īà¤ª":7162,"à¤Łà¤ķà¤ķ":7163,"Ġà¤¨à¤Īà¤®":7164,"elf":7165,"Ġà¤¶à¤ªà¤¥à¤Ĺ":7166,"à¤¾à¥ħ.":7167,"ĠYou":7168,"Honor":7169,"ck":7170,"Ġà¤ľà¤²à¤¯":7171,"Ġà¤Łà¤¹à¤²":7172,"à¤¼à¥Ģ'":7173,"Ġà¤®à¤¨à¤Ń":7174,"Ġà¤¤à¤¯à¤¶":7175,"ĠHealth":7176,"Ġpart":7177,"ĠVID":7178,"Ġà¤Ľà¤łà¤µ":7179,"Ġà¤Ĺà¤ľà¤Ł":7180,"eh":7181,"Ġà¤ıà¤ķà¤¸à¤®":7182,"ĠSeries":7183,"amb":7184,"Ġmore":7185,"ukone":7186,"arnataka":7187,"lu":7188,"variable":7189,"à¤¤à¤¹à¤¤":7190,"Ġà¤ĵà¤¬à¤°":7191,"Ġà¤Ŀà¤ªà¤ķ":7192,"à¤¬à¤¹à¤¸":7193,"ĠOS":7194,"aking":7195,"Ġà¤İà¤¸":7196,"pos":7197,"Ãī":7198,"Ġà¥ĩ":7199,"Ġà¤Ĩà¤ĩà¤¯":7200,"à¥ĩ?\"\"":7201,"à¤¿à¤ĥ%":7202,"Ġà¤¦à¤®à¤ķà¤²à¤ķà¤°":7203,"veer":7204,"à¤¦à¤¶à¤ķ":7205,"à¤ªà¤µà¤°":7206,"Ġà¤¸à¤¹à¤¤":7207,"Ġà¤ĩà¤¨à¤²":7208,"Ġà¤ıà¤¸à¤ıà¤¨":7209,"1994":7210,"âĢĿà¥¤":7211,"Ġsystem":7212,"à¥Ī).":7213,"Ġ371":7214,"ohn":7215,"RA":7216,"mon":7217,"à¤Ĺà¤ľà¤¨à¤ķ":7218,"à¤Ľà¤Ł":7219,"Ġà¤Ĩà¤Īà¤ıà¤¸à¤ıà¤¸":7220,"Ġà¤Ĩà¤Ĺà¤®":7221,"Ġnot":7222,"ĠISIS":7223,"TET":7224,"ied":7225,"à¤¤à¤²à¤¨":7226,"Ġà¤ıà¤ªà¤²":7227,"Ġà¤īà¤ªà¤¸à¤®":7228,"à¤°à¤£à¤ľ":7229,"Ġ311":7230,"PI":7231,"Ġà¤ªà¤¦à¤§":7232,"ĠIV":7233,"mail":7234,"NTA":7235,"à¤¿à¥°":7236,"à¥Ĥà¥į":7237,"à¤Īà¤ķà¤²":7238,"Ġà¤¶à¤¯":7239,"Ġà¤ĵà¤ıà¤¸à¤¡":7240,"Ġà¤®à¤¨à¤ªà¤¸":7241,"Ġà¤¨à¤µà¤Ĺà¤ł":7242,"à¤¾).":7243,"à¤®à¤¦à¤Ĺ":7244,"Ġ1300":7245,"ĠKumar":7246,"Ġfrom":7247,"pdf":7248,")'":7249,"tion":7250,"à¤¯à¤¦à¤°":7251,"Ġà¤°à¤¤à¤²":7252,"Ġà¤ļà¤°à¤¨":7253,"à¥Ģ.\"\"\"":7254,"onal":7255,"ĠCent":7256,"Son":7257,"à¤µà¤¬à¤¤":7258,"Ġà¤Ĩà¤°à¤µ":7259,"à¤¨à¤¦à¤£":7260,"ĠTechnology":7261,"Ġ356":7262,"olice":7263,"ade":7264,"ealand":7265,"electron":7266,"ness":7267,"Ġà¤Ĩà¤¬à¤¦":7268,"Ġà¤ļà¤ķà¤®":7269,"à¥Īà¤Ĥà¥¤à¥¤":7270,"Ġà¤Ĩà¤Īà¤Īà¤¡":7271,"Ġà¤ıà¤¨à¤ıà¤¸à¤¡":7272,"itive":7273,"Variable":7274,"ces":7275,"à¤¸à¤Īà¤¦":7276,"à¤ıà¤ıà¤Ĩà¤Ī":7277,"Ġà¤ĸà¤ª":7278,"Ġà¤ıà¤¨à¤ıà¤®à¤¸":7279,"Ġ257":7280,"ĠCoronavirus":7281,"Ġ298":7282,"ĠElections":7283,"Ġupsc":7284,"Ġu":7285,"Ġà¤¹à¤¶":7286,"à¤¶à¤«":7287,"à¤Ńà¤°à¤ķà¤®":7288,"à¤ķà¤°à¤µ":7289,"à¥Ģà¥¤à¥¤":7290,"Ġ254":7291,"ĠGlobal":7292,"ĠHonor":7293,"Ġinter":7294,"Ġà¤²à¥ľà¤¤":7295,"ages":7296,"à¤Ĩà¤°à¤ıà¤²à¤ıà¤®":7297,"ahul":7298,"Happy":7299,"à¤§à¤ªà¤¤":7300,"à¥Īà¤Ĥ\"":7301,"à¤ħà¤µà¤ķ":7302,"Ġà¤ĺà¤Ī":7303,"à¤²à¤¨à¤¶":7304,"onment":7305,"anveer":7306,"Ġ213":7307,"arbon":7308,"Ġà¤ħà¤ªà¤¤à¤Ł":7309,"490":7310,"Ġà¤®à¥ĺà¤¸":7311,"à¤ıà¤ıà¤¨à¤Ĩà¤Ī":7312,"Ġà¤«à¤Ĺ":7313,"icy":7314,"140":7315,"à¥ĭâĢį":7316,"Ġà¤¨à¤ļ":7317,"Ġà¤°à¤¸à¤¦":7318,"à¥Ģà¤Ĥà¥¤\"\"\"":7319,"era":7320,"ĠOpen":7321,"ograph":7322,"ĠQu":7323,"Ġà¤¤à¤«à¤¸":7324,"XIP":7325,"Ġà¤ħà¤°à¤¹":7326,"Ġ1900":7327,"1950":7328,"artment":7329,"à¥Ĭà¤Ĥ":7330,"Ġà¤Ńà¤°à¤ķà¤®":7331,"à¤¥à¤ķà¤¤":7332,"Ġà¤ĸà¤Łà¤ķ":7333,"Ġà¤¹à¤Łà¤¤":7334,"ama":7335,"ization":7336,"à¤Īà¤ķà¤®":7337,"à¤·à¤£à¤µ":7338,"ĠâĢĿ?":7339,"Ġà¤¡à¤¬à¤µ":7340,"ĠPhotos":7341,"ĠSpec":7342,"VM":7343,"à¥ĩà¤Ĥ\\\\":7344,"Ġà¤ľà¤ķà¤°":7345,"ĠPakistan":7346,"ica":7347,"Ġà¤īà¤¤à¤°à¤ķà¤°":7348,"à¥«à¥¦":7349,"Ġà¤ĺà¤¨à¤¶":7350,"ĠZealand":7351,"à¥Ī\"\"à¥¤\"":7352,"NIA":7353,"NCP":7354,"à¤®à¤ľà¤¨":7355,"à¤µà¤¦à¤¤":7356,"à¤ıà¤¹à¤¤":7357,"à¤Ńà¤§":7358,"Ġ1931":7359,"Ġà¤ıà¤®à¤ıà¤²à¤ı":7360,"ĠCo":7361,"ĠKar":7362,"oci":7363,"à¤Īà¤ľà¤Ĺà¤¤":7364,"ĠVIDEO":7365,"uil":7366,"à¤®à¤ļà¤°":7367,"à¤Ĩà¤¡":7368,"à¤¸à¤°à¤Ĺ":7369,"Ġà¤ľà¤¬à¤¡":7370,"Ġà¤¨à¤µà¤µà¤°":7371,"à¤µà¤°à¤£à¤µ":7372,"ĠRail":7373,"Ġà¤¸à¤¦à¤Ń":7374,"ĠKKR":7375,"Ġà¤°à¤¯":7376,"Ġà¤ĸà¤¬à¤°à¤¦":7377,"à¤Ĩà¤Ł":7378,"à¤¦à¤°à¤¨à¤Ĺà¤°":7379,"à¤µà¤¤à¤ĸ":7380,"Ġà¤ıà¤²à¤ı":7381,"ICMR":7382,"\"'":7383,"FA":7384,"oot":7385,"àª":7386,"à¥Ģ\\\\":7387,"Ġà¤ħà¤¯à¤ª":7388,"Ġà¤Ĺà¤Ĺ":7389,"Ġà¤ĩà¤¨à¤¡":7390,"ĠNet":7391,"à¤ħà¤®à¤°à¤¨":7392,"à¤Ńà¤ľà¤¨à¤¹":7393,"article":7394,"Maharashtra":7395,"eat":7396,"gar":7397,"à¤°à¤Īà¤¸":7398,"à¤¿âĢ¦":7399,"à¤¤à¤®à¤ķ":7400,"https":7401,"à¤¿...":7402,"à¤ľà¤¹à¤°":7403,"à¤¯à¤°à¤µ":7404,"à¤¹à¤¨à¤²":7405,"à¤ıà¤ķà¤®":7406,"Ġà¤ħà¤ķà¤®à¤²":7407,"Ġà¤ıà¤¸à¤Ĩà¤°":7408,"ĠJan":7409,"to":7410,"à¤Ĩà¤Īà¤ĵà¤ı":7411,"Ġà¤ħà¤µà¤¯à¤¸":7412,"à¤ıà¤ļà¤¬":7413,"Ġ509":7414,"à¤°à¤Ĺà¤£":7415,"ĠScore":7416,"wal":7417,"Ġà¤¦à¤¶à¤®":7418,"Ġà¤°à¤Ĺà¤¡":7419,"Ġà¤Ĩà¥ľ":7420,"Ġ219":7421,"à¤ĵà¤ıà¤²":7422,"à¤Łà¤°à¤¬":7423,"Ġ207":7424,"Ġà¤Ľà¤¤à¤°":7425,"à¤¤à¤¨à¤Ń":7426,"1986":7427,"Ġ326":7428,"à¤Ńà¤µà¤¤à¤¯":7429,"ujarat":7430,"vironment":7431,"Ø©":7432,"à¤¤à¤Ĺà¤¤":7433,"à¤¸à¤§":7434,"Ġà¤ħà¤¨à¤ª":7435,"Ġà¤®à¤¹à¤ķà¤®":7436,"à¤¹à¤°à¤¨":7437,"à¤Ŀà¤ľ":7438,"à¤¤à¤®à¤¸":7439,"Ġà¤¢à¤²à¤¨":7440,"Ġà¤ªà¤¦à¤ķà¤§":7441,"Ġdo":7442,"Ġ......":7443,"Ġà¤²à¤µà¤£":7444,"AF":7445,"à¤¤à¤¹à¤°":7446,"à¤·à¤¶":7447,"Ġà¤¤à¤¦à¤°":7448,"à¤°à¤®à¤¯":7449,"Ġ1944":7450,"ĠPradesh":7451,"ĠIPS":7452,"ĠTMC":7453,"uring":7454,"ĠVs":7455,"ĠSchool":7456,"PPO":7457,")...":7458,"Nm":7459,"RE":7460,"áĢ":7461,"à¤ķà¤¨à¤°":7462,"à¥ģ'":7463,"à¤ªà¤ķà¤²":7464,"Ġà¤Ķà¤°à¤¸":7465,"Ġà¤Ĩà¤£":7466,"Ġà¤Ĩà¤Īà¤¨":7467,"HS":7468,"Sc":7469,"results":7470,"uth":7471,"à¤²à¤°à¤¸à¤¨":7472,"à¤¾à¥¤âĢį":7473,"à¤ħà¤µà¤¶":7474,"à¤Łà¤°à¤¶":7475,"Ġ1936":7476,"Ġ1860":7477,"eck":7478,"ĠâĪ":7479,"board":7480,"Ø³":7481,"Ġà¤¶à¤Łà¤²":7482,"à¤°à¤®à¤µ":7483,"Ġà¤Ľà¤¤à¤°à¤ª":7484,"Ġà¤ıà¤µà¤®":7485,"à¤Ĳà¤²":7486,"Ġà¥©à¥¬":7487,"Ġà¤¬à¤°à¤¸à¤¤":7488,",\"\"":7489,"Ġà¤¨à¤Ĺà¤£":7490,"Ġà¤ıà¤¦":7491,"Ġà¤Ŀà¤®":7492,"Ġà¤ķà¤°à¤µà¤Ł":7493,"urr":7494,"Inter":7495,"Ġà¤¬à¤°à¤¤à¤¤":7496,"650":7497,"Ġà¤ķà¤²à¤¬":7498,"Ġà¤ªà¤¹à¤²à¤Ĺ":7499,"Ġ255":7500,"Ġà¤ıà¤«à¤ıà¤Ł":7501,"ĠMB":7502,"GS":7503,"Ġ209":7504,"à¤ĺà¤²à¤¨":7505,"à¤ħà¤ªà¤®":7506,"Ġ273":7507,"ĠPadukone":7508,"-\"":7509,"CD":7510,"ML":7511,"kill":7512,"Ġâĸ¡":7513,"à¤ľà¤¯à¤¦":7514,"à¤§à¤¹":7515,"Ġà¤ļà¤£":7516,"à¤¤à¤®à¤¬":7517,"à¤ıà¤«à¤ıà¤Ł":7518,"Ġà¤¹à¤ľà¤ķ":7519,"Ġà¤ªà¤²à¤Łà¤¤":7520,"Ġà¤®à¤Ĺà¤°à¤®à¤ļ":7521,"mod":7522,"Ġà¤¹à¤¥à¤ķ":7523,"Ġà¤Łà¤ĸà¤¨":7524,"Ġà¤¶à¤°à¤ľ":7525,"âĢĺâĢĻ":7526,"Ġà¤¬à¤°à¤ĸ":7527,"Ġ242":7528,"ĠIND":7529,"ĠDe":7530,"Ġà¤ĩà¤¶à¤°à¤¤":7531,"Ġà¥Ńà¥¦":7532,"à¤ľà¤Ĺà¤¨":7533,"Ġà¤ļà¤°à¤¸":7534,"à¤¼à¤¾?":7535,"à¤¹à¤¨à¤ª":7536,"à¥ĩà¤Ĥ.\"":7537,"Ġbl":7538,"ĠReview":7539,"550":7540,"gn":7541,"Ġà¤¦à¤ĸ":7542,"Ġà¤ıà¤¨à¤ıà¤¸à¤¸":7543,"ĠWatch":7544,"à¤ıà¤¨à¤ıà¤¸à¤ı":7545,"Ġà¥§à¥¯à¥¨":7546,"EX":7547,"dà¤¤à¤°":7548,"Ġà¥į":7549,"à¥ĩâĢľ":7550,"à¤¿),":7551,"à¤²à¤ļà¤°":7552,"à¤®à¤Ŀ":7553,"Ġà¤¬à¤«":7554,"à¤ħà¤¸à¤°":7555,"Ġà¤¸à¤°à¤¯":7556,"Ġà¤ªà¤¦à¤®":7557,"enov":7558,"ĠDis":7559,"ĠAfrica":7560,"à¥ĢâĢį":7561,"à¤ıà¤ıà¤«à¤ª":7562,"à¤£à¤¬":7563,"Ġà¤Łà¤ªà¤ķ":7564,"à¤ĵà¤¯":7565,"Ġà¤Ĩà¤°à¤ı":7566,"à¤¾?\"":7567,"ĠCA":7568,"Ġà¥¨à¥¦à¥¦à¥®":7569,"IMD":7570,"à¤ıà¤¨à¤ıà¤¨l":7571,"ensex":7572,"170":7573,"frastructure":7574,"à¤¡à¤°à¤µ":7575,"Ġà¤Ĩà¤ĵà¤Ĺ":7576,"à¤¥à¤¹":7577,"Ġà¤Īà¤§à¤¨":7578,"à¤°à¤ªà¤Ł":7579,"ĠDeath":7580,"ĠHot":7581,"Ġà¤®à¥ļà¤«":7582,"360":7583,"à¤ķà¤¸à¤¨":7584,"à¤ķà¤¦à¤°":7585,"à¤¾à¤Ĥ?":7586,"à¤ıà¤¸à¤Īà¤¸":7587,"à¤¾):":7588,"Ġà¤ªà¤°à¤®à¤ª":7589,"à¤°à¤ľà¤ķ":7590,"Ġà¤Ĩà¤¦à¤®à¤ª":7591,"à¤²à¤®à¤°":7592,"à¤Łà¤ĸ":7593,"Ġà¤ĩà¤ª":7594,"Ġà¤ħà¤µà¤¤à¤°à¤£":7595,"Ġ675":7596,"Ġà¤ıà¤¨à¤ıà¤ļà¤ª":7597,"Ġà¤¬à¤¦à¤²à¤µ":7598,"Ġ246":7599,"ĠPolice":7600,"050":7601,"à¤ķà¤¶à¤¨":7602,"à¤ıà¤ļà¤Īà¤ıà¤²":7603,"ĠAUS":7604,"ĠBh":7605,"101":7606,"Ġ264":7607,"Ġà¤Ĩà¤īà¤Łà¤¡":7608,"Ġà¤īà¤¨à¤¹":7609,"à¤ľà¤¨à¤¶":7610,"ulture":7611,"soft":7612,"Ġà¤¸à¤µà¤°":7613,"Ġà¤¸à¤°à¤£":7614,"à¥ģâĢĻ":7615,"à¤ªà¤¥à¤°":7616,"à¤ıà¤Łà¤²":7617,"Ġà¤Ŀà¤°":7618,"ĠShah":7619,"''.":7620,"ateg":7621,"Gov":7622,"SMS":7623,"VI":7624,"à¤Ĥà¥ģ":7625,"Ġà¤īà¤ªà¤¶":7626,"Ġà¤ħà¤¤à¤ıà¤µ":7627,"orp":7628,"ĠNifty":7629,"Ġà¤ªà¤ķà¤¡à¤©":7630,"Ġà¤ªà¤²à¤¡":7631,"à¥ĪâĢĻà¥¤":7632,"iwali":7633,"dà¤¥":7634,"à¤ıà¤ıà¤®à¤¯":7635,"Ġà¤Ĺà¤ľà¤°":7636,"à¤¾à¥¤'":7637,"Ġà¤Łà¤¸":7638,"Ġà¤Ĩà¤¯à¤²":7639,"à¥Ĥà¤ģ\"":7640,"olly":7641,"Ġà¥ŀà¤¸":7642,"aut":7643,"Ġec":7644,"Ġà¤®à¤¨à¤ķ":7645,"Ġà¤§à¤¨à¤¤":7646,"à¤Ĩà¤Īà¤ıà¤¸à¤ıà¤¸":7647,"Ġsec":7648,"Ġreg":7649,"ĠANI":7650,"dà¤¹":7651,"Ġà¤¹à¤²à¤µ":7652,"Ġà¤Ĩà¤¢":7653,"Ġà¤Ĩà¤°à¤ıà¤²à¤¡":7654,"Ġà¤¨à¤µà¤¯":7655,"ĠAK":7656,"Ġ248":7657,"à¤¼à¥ĩà¤Ĥ.":7658,"ĠMore":7659,"Ġshar":7660,"ĠKa":7661,"à¤ħà¤¦à¤°à¤ķ":7662,"Ġà¤¦à¤¹à¤ķà¤¤":7663,"AE":7664,"à¤¨à¤Ń":7665,"Ġà¤ħà¤¨à¤«":7666,"à¤ıà¤ļà¤ıà¤²":7667,"ĠCourt":7668,"Ġ229":7669,"ĠDescription":7670,"ksh":7671,"po":7672,"view":7673,"à¤®à¤¸à¤®":7674,"Ġà¤°à¤ļà¤¯":7675,"à¤ĸà¤¬à¤¦":7676,"à¤¤à¤®à¤¯":7677,"ene":7678,"ĠNS":7679,"à¤ªà¤Łà¤¤":7680,"reme":7681,"Ġà¤ļà¤°à¤®à¤°":7682,"Ex":7683,"RF":7684,"à¤®à¤¬à¤¤":7685,"à¤µà¤§à¤°":7686,"à¤¼),":7687,"à¤ĺà¤¶":7688,"Ġ::":7689,"Ġ.\"":7690,"Ġ403":7691,"Ġ282":7692,"à¥ĩà¤Ĥ)à¥¤":7693,"2338":7694,"Ġcont":7695,"HDFC":7696,"FS":7697,"Ùĩ":7698,"Ġà¤Ńà¤¨":7699,"à¤«à¤²à¤¸":7700,"à¥Ģà¤Ĥ\"":7701,"à¤¶à¤¨à¤§":7702,"à¥ľà¤²":7703,"Ġà¤ıà¤®à¤ıà¤²":7704,"Ġcard":7705,"à¥§à¥¨":7706,"Ġ~":7707,"Ġarticle":7708,"à¤Ĺà¤ı":7709,"à¤§à¤¯":7710,"Ġà¤ħà¤¨à¤¹":7711,"Ġà¤īà¤ªà¤Ĺà¤¤":7712,"Ġà¤Ľà¤Ĺà¤¨":7713,"Ġà¤ĩà¤ķà¤ł":7714,"icial":7715,"à¤¶à¤°à¤¥":7716,"duction":7717,"bhp":7718,"Ġen":7719,"à¤²à¤¯à¤ķ":7720,"à¤®à¤¨à¤µà¤®":7721,"Ġ312":7722,"Ġà¤Ĩà¤Īà¤ıà¤¸à¤ı":7723,"Ġ1929":7724,"urity":7725,"Ġbihar":7726,"INX":7727,"ISRO":7728,"Ġcomp":7729,"'.":7730,"à¤ķà¤¦à¤¨":7731,"à¥ĩà¤Ĥ/":7732,"Ġà¤Łà¤¹à¤¨":7733,"Ġ625":7734,"1960":7735,"Ġ15000":7736,"ĠPat":7737,"Ġà¤ļà¤°à¤£à¤ľ":7738,"ĠWi":7739,"à¤ħà¤ľà¤¹à¤°":7740,"Ġprice":7741,"ij":7742,"à¤¯à¤¸à¤°":7743,"Ġà¤Ľà¤ªà¤°":7744,"à¥Ģ.,":7745,"Ġ636":7746,"ĠPost":7747,"Ġà¤¤à¤²à¤Ľà¤Ł":7748,"ĠBihar":7749,"agement":7750,"otorola":7751,"FI":7752,"à¤ıà¤²à¤Īà¤¡":7753,"à¤¤à¤µà¤¯":7754,"Ġà¤¦à¤²à¤µ":7755,"Ġà¤ªà¤ķà¤µ":7756,"ich":7757,"ĠFin":7758,"à¤Ĩà¤Īà¤Ĩà¤°à¤ıà¤¸":7759,"à¤Ĩà¤Īà¤ıà¤ıà¤«":7760,"enovo":7761,"à¤²à¤¨à¤¸":7762,"à¤ªà¤ķà¥ľ":7763,"190":7764,"ĠAB":7765,"iti":7766,"Ġà¤ªà¤¨à¤ªà¤¨":7767,"ĠPresident":7768,"ashmir":7769,"ugh":7770,"Ad":7771,"ke":7772,"ym":7773,"à¤¡à¤°à¤®":7774,"Ġà¤ĩà¤¨à¤°":7775,"Ġà¤ķà¤²à¤¶":7776,"Ġà¤ıà¤¸à¤ıà¤«à¤Ĩà¤Ī":7777,"à¤ļà¤²à¤®":7778,"à¤ıà¤ļà¤ıà¤«à¤ıà¤²":7779,"ĠInternational":7780,"achchan":7781,"399":7782,"Ph":7783,"sw":7784,"à¤¯à¤Ńà¤°":7785,"Ġà¤¹à¤µà¤¨":7786,"à¤®à¤²à¤²":7787,"à¤¯à¤¨à¤°":7788,"Ġ1925":7789,"ating":7790,"Ġ252":7791,"ĠAward":7792,"Ġ223":7793,"Ġsmart":7794,"Ġsays":7795,"ott":7796,"à¤ħà¤«à¤µ":7797,"ICICI":7798,"Ġcondition":7799,"yl":7800,"Ġà¤ķà¤ĩà¤¯":7801,"Ġà¤¹à¥ľà¤ķ":7802,"1987":7803,"Ġ233":7804,"Ġ292":7805,"AK":7806,"Ġà¤¹à¤¸à¤®":7807,"à¤ĸà¤¤à¤°à¤¨":7808,"Ġà¤«à¤¤à¤µ":7809,"Ġà¤Īà¤¡à¤¬":7810,"Ġà¤Ĩà¤Ĺà¤µ":7811,"à¤ķà¤¨à¤Ĺ":7812,"à¥§à¥¬":7813,"Ġtechnology":7814,"Ġnta":7815,"space":7816,"Huawei":7817,"data":7818,"Ġ000":7819,"à¥Īà¥į":7820,"Ġà¤¥à¤²à¤Ĺ":7821,"Ġà¤ªà¤¦à¤¯":7822,"Ġ497":7823,"Ġà¤²à¤Łà¤ķà¤¤":7824,"ouncil":7825,"Im":7826,"National":7827,"OOC":7828,"ient":7829,"pm":7830,"à¥į)":7831,"Ġà¤ħà¤ĸà¤°":7832,"Ġà¤²à¤¥":7833,"à¤µà¤ªà¤²":7834,"ĠBigg":7835,"Ġ353":7836,"ource":7837,"Rajasthan":7838,"ollywood":7839,"CI":7840,"dà¤µ":7841,"à¤²à¤Ńà¤Ĺ":7842,"à¤¦à¤¯à¤¤":7843,"à¤Īà¤µà¤°":7844,"à¤¥à¤¦":7845,"à¤Ĩà¤°à¤¯":7846,"1988":7847,"Ġ1700":7848,"à¤ħà¤Ĺà¤°à¤ļ":7849,"Ġ315":7850,"ular":7851,"Ġà¥§à¥¯à¥§à¥ª":7852,"à¤ļà¤¶":7853,"Ġà¤¯à¤¶à¤¸":7854,"à¥ĩ)à¥¤":7855,"Ġ211":7856,"ĠTrans":7857,"Ġband":7858,"Ġ439":7859,"Ġà¤ħà¤®à¤¨à¤¦":7860,"à¤¾à¥ģ":7861,"Ġà¤®à¤Ĺà¤¨":7862,"Ġà¤ħà¥ŀ":7863,"à¤¸à¤°à¤ª":7864,"Ġ630":7865,"Ġ640":7866,"Ġà¤ľà¤Ĺà¤¦à¤²à¤ª":7867,"enn":7868,"rome":7869,"Ġ271":7870,"ĠGS":7871,"288":7872,"à§į":7873,"Ġà¤ħà¤ľà¤°à¤¬":7874,"Ġem":7875,"à¤¦à¤«":7876,"à¤Ńà¤²à¤ķà¤°":7877,"à¤ĵà¤Ī":7878,"à¥ĩà¥¤âĢĿ":7879,"à¤ģ)":7880,"Ġ406":7881,"à¤ıà¤®à¤ıà¤¸à¤¡":7882,"Ġ342":7883,"Ġà¤ķà¤¤à¤°à¤¨":7884,"Ġà¤¬à¤°à¤¹à¤ķ":7885,"Ġà¤¬à¤°à¤ķà¤¤à¤µ":7886,"340":7887,"799":7888,"Ġà¤¸à¤ĭ":7889,"Ġà¤®à¥Ļà¤²":7890,"à¥ĩà¤Ĥ\"\"":7891,"à¤¡à¤ľ":7892,"Ġà¤¤à¤¬à¤°":7893,"à¥Ī.'":7894,"Ġà¤Ľà¤¨":7895,"Ġ1937":7896,"Ġà¤ħà¤¦à¤Ń":7897,"Ġà¤ıà¤«à¤Īà¤Ī":7898,"104":7899,"123":7900,"Ġà¤ķà¤¦à¤°à¤¦":7901,"illion":7902,"Ġà¤¬à¤°à¤¹à¥ĺ":7903,"Th":7904,"rb":7905,"à¥¢":7906,"à¤¤à¤ĺ":7907,"à¤¤à¤¬à¤¦":7908,"à¥ĭ%":7909,"à¤Īà¤Ĩà¤Ī":7910,"à¤¾à¤Ĥ/":7911,"à¤ħà¤«à¤°":7912,"à¤°à¤®à¤¦":7913,"Ġà¤Ĩà¤°à¤Ĩà¤°":7914,"Ġà¤®à¤¤à¤µ":7915,"à¥Ĥà¤ģ!":7916,"à¤®à¤¹à¤ľ":7917,"à¤Ķà¤ªà¤ļ":7918,"à¤¸à¤®à¤Ŀà¤ķà¤°":7919,"ËĪ":7920,"ĹĨ":7921,"à¤¿âĢĿ":7922,"à¤°à¤®à¤ª":7923,"Ġà¤īà¤ļà¤ķ":7924,"Ġà¤ıà¤¨à¤ıà¤«à¤¸":7925,"1985":7926,"à¤ªà¤²à¤µà¤²":7927,"Ġ214":7928,"129":7929,"ĠLG":7930,"à¥§à¥©":7931,"ttar":7932,"ĠStar":7933,"PFO":7934,"ĠCNY":7935,"à¤¨à¤Ĺà¤¤":7936,"Ġà¤®à¤¡":7937,"à¥Ģà¤Ĥà¤Ĥ":7938,"à¤¶à¤¨à¤¸":7939,"à¤ıà¤¸à¤ıà¤®à¤ıà¤¸":7940,"à¤Ĩà¤°à¤ıà¤¨":7941,"Ġà¤Ĩà¤Īà¤ıà¤¨à¤ı":7942,"Ġ1941":7943,"à¤ħà¤²à¤µà¤°":7944,"ĠIm":7945,"Ġ212":7946,"Ġà¤¬à¤°à¤¤à¤°":7947,"upsc":7948,"uman":7949,"à¥ĪâĢĿà¥¤":7950,"DMK":7951,"121":7952,"PO":7953,"tic":7954,"Ġà¤¶à¤Łà¤²à¤°":7955,"à¤¡à¤°à¤ª":7956,"Ġà¤¢à¤ķà¤¨":7957,"105":7958,"Ġ236":7959,"Ġà¤ĵà¤µà¤°à¤²":7960,"eter":7961,"ilm":7962,"ĠReg":7963,"ĠOnline":7964,"railer":7965,"band":7966,"à¤Ĥ'":7967,"à¤Łà¤ļ":7968,"à¤¯à¤°à¤«":7969,"à¤µà¤¨à¤¦":7970,"à¤¾.âĢĻ":7971,"Ġ1934":7972,"ival":7973,"ological":7974,"++":7975,"à¤Ńà¤¡":7976,"à¤ĸà¤Ĺ":7977,"à¤Ĩà¤²à¤®":7978,"Ġà¤®à¤¨à¤ļ":7979,"à¤ľà¤¯à¤¸":7980,"Ġà¤¤à¤¬à¤¸":7981,"ator":7982,"ĠGo":7983,"Ġ355":7984,"Ġent":7985,"à¤²à¤¬à¤²":7986,"Ġà¤Ĺà¤¦à¤¹":7987,"à¤¸à¤²à¤ķà¤°":7988,"Ġà¤ĵà¤ĸà¤²":7989,"Ġà¤łà¤£":7990,"ĠTax":7991,"Ġ349":7992,"Ġà¥ªà¥«":7993,"à¤²à¤Ńà¤Ĺà¤¢":7994,"à¥Ģ\"\"\"\"":7995,"à¤¦à¤°à¤¦":7996,"à¤¬à¤°à¤ķ":7997,"Ġà¤ļà¤ĸà¤¨":7998,"à¥Ģà¥¤\"\"":7999,"Ġà¤ķà¤°à¤¤à¤¬":8000,"à¤¯à¤°à¤¨à¤®":8001,"à¤¸à¤¨à¤¹":8002,"Ġà¤¤à¤¬à¤¤à¤ķ":8003,"à¤¨à¤¹à¤Ĺ":8004,"à¤Ĩà¤ĩà¤Ĩà¤°":8005,"ĠState":8006,"ange":8007,"Mo":8008,"war":8009,"ĠâĢį":8010,"Ġ505":8011,"ami":8012,"uri":8013,"à¤¨à¥ľ":8014,"à¤¦à¤¹à¤µ":8015,"Ġ747":8016,"Shah":8017,"à¤°à¤¨à¤¤":8018,"Ġà¤¸à¤¨à¤¦":8019,"à¤ªà¤°à¤µà¤°":8020,"Ġ1932":8021,"1972":8022,"Ġà¤ıà¤®à¤Ĩà¤°":8023,"Ġà¤®à¤¶à¤µà¤°":8024,"à¤ıà¤¨à¤ıà¤ļà¤Ĩà¤°à¤¸":8025,"NT":8026,"eel":8027,"Ġà¤¬à¤ª":8028,"Ġà¤ħà¤²à¤¸":8029,"à¤ıà¤«à¤ıà¤®":8030,"ĠPG":8031,"Ġà¤¤à¤®à¤Ĺ":8032,"à¤ªà¤¶à¤ª":8033,"Ġcol":8034,"à¤Ĩà¤Īà¤ıà¤®à¤ı":8035,"à¤Ĩà¤łà¤µ":8036,"ĠSabha":8037,"à¤¬à¤Ĺà¤¦":8038,"Ġà¤¡à¤²à¤¹":8039,"à¤¦à¤°à¤°":8040,"Ġ263":8041,"ased":8042,"ĠBSF":8043,"ĠAssembly":8044,"Priyanka":8045,"ga":8046,"à¯":8047,"Ġà¤¸à¤ķà¤°":8048,"à¥ĪâĢĶ":8049,"à¤Ĺà¥ľà¤¨":8050,"à¤¾à¤Ĥ:":8051,"à¤īà¤°à¤ķ":8052,"Ġà¤¹à¤®à¤µà¤¤à¤¨":8053,"à¤ĺà¤¤":8054,"à¤²à¤ķà¤¡":8055,"ĠSIT":8056,"à¤²à¤¹à¤µ":8057,"ĠIRCTC":8058,"ĠMah":8059,"ĠTime":8060,"emicon":8061,"que":8062,"emiconduct":8063,"NP":8064,"ris":8065,"rand":8066,"à¤¯à¤ªà¤°":8067,"à¥ĩà¤Ĥ\"":8068,"à¤Ńà¤¸":8069,"à¤Ĺà¤²à¤°":8070,"Ġ1943":8071,"Ġ259":8072,"ild":8073,"Ġà¤īà¤Ńà¤°à¤ķà¤°":8074,"Ġresults":8075,"formation":8076,"à¤°à¤Łà¤°":8077,"à¤¸à¤ľà¤¦":8078,"Ġà¤®à¤ķà¤¡":8079,"Ġà¤¨à¤µà¤¸":8080,"Ġà¤ħà¤¶à¤ķ":8081,"à¤§à¤ľà¤¨":8082,"à¤·à¤¯à¤°":8083,"Ġà¤Ĺà¤¬à¤¨":8084,"Ġ(@":8085,"Ġà¤¤à¤ķà¤¬":8086,"Ġà¤ħà¤ľà¤Ĺà¤°":8087,"ĠTR":8088,"Ġ267":8089,"à¥§à¥Ń":8090,"angana":8091,"Ġà¤ħà¤¸à¤¹à¤¯":8092,"nectivity":8093,"GHz":8094,"à¤¿(":8095,"à¤¸à¤ıà¤²":8096,"à¤Ĩà¤ªà¤¤":8097,"Ġà¤ħà¤¸à¤¬":8098,"à¤¦à¤µà¤ª":8099,"à¤ıà¤ļà¤ıà¤®à¤¸":8100,"Ġà¤ıà¤ļà¤ıà¤¸à¤¬":8101,"Ġforecast":8102,"for":8103,"gen":8104,"à¥ĩà¤¿":8105,"à¤¸à¤Ī":8106,"à¤¹à¤¦à¤°":8107,"Ġà¤ªà¤ķà¤¨":8108,"à¤ıà¤¸à¤ıà¤¨":8109,"à¤°à¤¹à¤¸":8110,"109":8111,"Ġ286":8112,"irm":8113,"agram":8114,"à¥ĩà¤Ĥ%":8115,"Ġà¤¬à¤¦à¤¸":8116,"à¤ĩà¤µà¤²":8117,"à¤ĺà¤ļ":8118,"à¤¬à¤²à¤ª":8119,"à¤ıà¤ķà¤¦":8120,"à¤·à¤°à¤ķà¤°":8121,"à¤ıà¤¸à¤ıà¤¸à¤¬":8122,"Ġname":8123,"SCO":8124,"moh":8125,"wo":8126,"Ġà¤®à¤Ĭ":8127,"à¤¬à¤ķà¤®":8128,"à¤¾à¥¤âĢĻâĢĻ":8129,"à¤īà¤·":8130,"à¤Ĥà¥¤\"":8131,"ets":8132,"Ġ341":8133,"à¤ĭà¤·à¤Ń":8134,"ĠResearch":8135,"Pad":8136,"à¤¡à¤ķà¤ª":8137,"Ġà¤Ĩà¤®à¤¦":8138,"à¤¶à¤¤à¤¤":8139,"Ġà¤ªà¤¢à¤¨":8140,"ĠPO":8141,"ĠNET":8142,"abh":8143,"Ġ471":8144,"ĠAll":8145,"Deepika":8146,"Ġà¤¸à¥ŀ":8147,"à¤§à¤¨à¤ķ":8148,"Ġ('":8149,"Ġà¤ħà¤¨à¤ªà¤¢":8150,"à¤ĵà¤ĵ":8151,"Ġà¤Īà¤ıà¤¸à¤ª":8152,"Ġ1922":8153,"ĠIT":8154,"à¤¯à¤£à¤Ĺà¤¢":8155,"indows":8156,"icrosoft":8157,"Ġ[(-)":8158,"à¤¯à¤µà¤¤":8159,"à¤®à¤ı":8160,"à¤Łà¤ļà¤°":8161,"à¥ĭà¤ĤâĢĻâĢĻ":8162,"à¤¼\"\"":8163,"Ġà¤ıà¤®à¤°":8164,"à¤ĩà¤¸à¤ª":8165,"à¤°à¤µà¤ª":8166,"Ġà¤łà¤ķ":8167,"Ġà¤ıà¤¸à¤Īà¤ľ":8168,"Ġ241":8169,"ĠBengal":8170,"103":8171,"Ġ293":8172,"ĠUI":8173,"Ġ336":8174,"ATF":8175,"Prev":8176,"eop":8177,"à¤Ĺà¤²à¤¨":8178,"à¤¼âĢĻ":8179,"à¥Īà¤Ĥ)à¥¤":8180,"Ġà¤«à¤£":8181,"à¤¿à¤Ĥ.":8182,"à¤µà¤°à¤¸":8183,"onas":8184,"Ġà¤ıà¤²à¤ıà¤²à¤ª":8185,"Ġ366":8186,"ape":8187,"Ġresult":8188,"à¤¨à¤°à¤®":8189,"Ġà¤Ĺà¤¹":8190,"omic":8191,"ĠInstitute":8192,"oper":8193,"aste":8194,"ffect":8195,"Ġà¤Ĩà¤Īà¤Ĩà¤Īà¤ıà¤¸à¤¸":8196,"WS":8197,"à¤½":8198,"à¤ķà¤¤à¤¨":8199,"Ġà¤¦à¤¶à¤°à¤¥":8200,"à¤¼âĢįà¤¿":8201,"à¥Īà¤Ĥ),":8202,"Ġà¤ıà¤¡à¤²":8203,"à¤Ŀà¤¬":8204,"Ġ560":8205,"1983":8206,"Ġ2400":8207,"à¤¾:-":8208,"ĠInfin":8209,"à¤¯à¤£à¤ª":8210,"Ġrec":8211,"Ġacc":8212,"Ġlevel":8213,"112":8214,"HSE":8215,"Virat":8216,"à¥Ī..":8217,"à¤¬à¤¦à¤²à¤¤":8218,"ĠPU":8219,"ĠMed":8220,"Ġ363":8221,"488":8222,"Ġdist":8223,"Ġà¤Ĩà¤¸à¤¨à¤¸":8224,"Amit":8225,"à¤®à¤¹à¤²":8226,"Ġà¤°à¤¦à¤°":8227,"à¤ħà¤ł":8228,"à¥Ģ)-":8229,"à¤ıà¤«à¤Ĩà¤Īà¤ª":8230,"ĠPart":8231,"Ġsub":8232,"rec":8233,"ason":8234,"135":8235,"Ġ338":8236,"à¤ıà¤®à¤Īà¤ľ":8237,"ushka":8238,"à¤īà¤¡à¤¸":8239,"Ġà¤ıà¤¸à¤Ī":8240,"Ġ1928":8241,"stagram":8242,"à¥ĩà¤Ĥ).":8243,"Tube":8244,"Weather":8245,"new":8246,"à¤¾âĢĵ":8247,"à¤ķà¤Łà¤ķ":8248,"à¤µà¤¯à¤¸":8249,"Ġà¤¯à¤¹à¤¹":8250,"ĠâĢĮ":8251,"Ġ344":8252,"1979":8253,"Ġ301":8254,"Ġà¥¨à¥¦à¥¦à¥Ń":8255,"ĠAdmission":8256,"cle":8257,"Ġà¤ķà¤¨à¤ķ":8258,"à¥¤âĢĿ":8259,"à¤¬à¤µà¤¤":8260,"Ġà¤Ĩà¤¥":8261,"Ġà¤ĩà¤¬à¤²":8262,"à¤ĺà¤¨à¤¤":8263,"à¤¦à¤¸à¤µ":8264,"Ġ1918":8265,"1977":8266,"ĠABS":8267,"ĠBand":8268,"Ġà¤ĵà¤µà¤°à¤¡":8269,"ĠXS":8270,"ĠHDR":8271,"âĢİ,":8272,"118":8273,"class":8274,"iber":8275,"à¤§à¤¬":8276,"Ġà¤¤à¤Łà¤¬":8277,"Ġà¤ļà¤®à¤¨":8278,"à¥Ľà¤ķ":8279,"à¤®à¤¦à¤²":8280,"atta":8281,"Ġ308":8282,"Ġ504":8283,"ĠOr":8284,"Ġà¥§à¥¯à¥¯à¥¦":8285,"Ġ438":8286,"Previous":8287,"LG":8288,"à¤°à¤ĸà¤¤":8289,"à¤¸à¤ıà¤ķ":8290,"à¤¦à¤¤à¤¨":8291,"à¤µà¤°à¤µ":8292,"à¤¦à¤¨à¤ķà¤°":8293,"Ġà¤ľà¤¨à¤§à¤¨":8294,"Ġ699":8295,"à¤ĩà¤²à¤°":8296,"ĠAIIMS":8297,"Ġà¤®à¤²à¤ª":8298,"Ġ221":8299,"ras":8300,"à¥§à¥ª":8301,"hatsapp":8302,"Highlights":8303,"Ġà¤²à¤¥à¤ªà¤¥":8304,"Am":8305,"MA":8306,"rest":8307,"à¤¨à¤¬à¤²":8308,"Ġà¤Ĺà¤°à¤¦à¤¨":8309,"à¤ħà¤®à¤²":8310,"Ġà¤¸à¤°à¤«":8311,"Ġà¤Ŀà¤ªà¤Ł":8312,"à¤°à¤«à¤¤":8313,"à¤°à¤¬à¤ĸ":8314,"Ġ237":8315,"114":8316,"144":8317,"à¤¸à¤®à¤Ŀà¤¨":8318,"ĠTrump":8319,"par":8320,"Ð¸":8321,"à¥Ģ).":8322,"Ġà¤Ķà¤ļà¤ķ":8323,"Ġ232":8324,"224":8325,"271":8326,"abel":8327,"abaddi":8328,"Co":8329,"met":8330,"now":8331,"à¥ģà¤¼":8332,"à¤¦à¤®à¤¨":8333,"à¤ĩà¤¨à¤µ":8334,"Ġ440":8335,"à¤ıà¤¨à¤Īà¤ª":8336,"Ġ1923":8337,"ĠSP":8338,"Ġà¤ªà¤Łà¤¸à¤¨":8339,"Ġà¤ķà¤Łà¤ĺà¤°":8340,"Ġà¤¦à¤®à¤¨à¤ķ":8341,"Ġout":8342,"Ġà¤ıà¤®à¤ıà¤¸à¤ķ":8343,"Ġworld":8344,"ondary":8345,"Ġà¤ªà¤ľ":8346,"Ġà¤Ĩà¤¯à¤¤à¤¨":8347,"Ġà¤Ĩà¤Īà¤ķ":8348,"Ġà¤ıà¤¸à¤ĵ":8349,"à¤ıà¤¨à¤ıà¤«à¤¸":8350,"à¤īà¤¦à¤¯":8351,"Ġ262":8352,"117":8353,"Ġnet":8354,"ĠXT":8355,"Ġ543":8356,"Ġà¥®à¥¦":8357,"à¤Ĺà¤Īà¤¥":8358,"Ġexam":8359,"?\"":8360,"jun":8361,"à¤ıà¤ıà¤¸à¤ª":8362,"à¥Īà¤Ĥà¥¤âĢĻâĢĻ":8363,"à¤¼à¥ĢâĢĻ":8364,"Ġà¤ĳà¤ķà¤²":8365,"Ġ-\"":8366,"\"\"\"%":8367,"1974":8368,"à¤·à¤¤à¤¯":8369,"Ġ216":8370,"Ġ329":8371,"ĠWHO":8372,"Øª":8373,"à¥įà¥į":8374,"à¤ªà¤¬à¤¦":8375,"à¤¡à¤¦":8376,"Ġà¤ĩà¤ķà¤°":8377,"eral":8378,"ĠTrailer":8379,"Ġ231":8380,"Ġ238":8381,"iles":8382,"yaan":8383,"bability":8384,"à¤ıà¤Ń":8385,"à¥Ĥà¥Ĥ":8386,"Ġà¤«à¤«":8387,"Ġ321":8388,"Ġà¤Ĩà¤Īà¤²":8389,"à¤°à¤Ńà¤ķ":8390,"raj":8391,"586":8392,"lectron":8393,"Ġ258":8394,"ĠRJD":8395,"à¤ĳà¤¯à¤²":8396,"akh":8397,"ĠPhoto":8398,"à¤ľà¤¬à¤²à¤ª":8399,"Video":8400,"à¤ªà¤¦à¤ķ":8401,"à¥ĭà¤Ĥ:":8402,"Ġà¤ħà¤ķà¤²":8403,"à¤¼à¥Ģà¤Ĥà¥¤":8404,"Ġà¤¹à¤®à¤°":8405,"à¥ĩà¥¤âĢĻ":8406,"à¤ıà¤¨à¤ıà¤ļà¤ª":8407,"à¤ıà¤²à¤ıà¤²":8408,"à¤ıà¤«à¤ıà¤¸à¤ıà¤²":8409,"ĠPer":8410,"ĠAL":8411,"Ġà¤ıà¤«à¤ıà¤¸à¤ıà¤²":8412,"ĠVodafone":8413,"Ġstud":8414,"DF":8415,"EG":8416,"TT":8417,"Ġare":8418,"à¥Ģ\"\"\"":8419,"à¤ķà¤ı":8420,"Ġà¤īà¤¦à¤°":8421,"à¤Ńà¤µà¤¹":8422,"Ġà¤ħà¤¨à¤ļ":8423,"à¤¸à¤°à¤¨":8424,"à¤¬à¤°à¤ª":8425,"à¤µà¤²à¤®":8426,"1982":8427,"à¤¥à¤¨à¤Ĺà¤°":8428,"107":8429,"à¥§à¥§":8430,"à¤°à¤ķà¤°à¤¨":8431,"ĠURL":8432,"face":8433,"lad":8434,"oard":8435,"oint":8436,"uf":8437,"à¤Ĥ!":8438,"Ġà¤¬à¤ľà¤¨":8439,"à¤ıà¤Ĩà¤°à¤¸":8440,"à¤¡Ã¯":8441,"Ġà¤ªà¤°à¤ļ":8442,"Ġ1511":8443,"à¤ľà¤Ĺà¤£":8444,"Ġà¤ķà¤Łà¤ĳà¤«":8445,"Ġ332":8446,"ĠAdv":8447,"My":8448,"à¤²à¤ªà¤°":8449,"Ġà¤ľà¤Ĺà¤°":8450,"Ġà¤¦à¥ŀ":8451,"à¤¡à¤ıà¤®":8452,"Ġà¤ĸà¤Ĺà¤¡":8453,"Ġà¤¬à¤²à¤µà¤¨":8454,"Ġà¤ıà¤«à¤ıà¤¸à¤ıà¤¸à¤ıà¤Ĩà¤Ī":8455,"ĠNo":8456,"Ġà¤ıà¤ļà¤Ĩà¤°à¤¡":8457,"Ġcent":8458,"à¤Ĩà¤Īà¤ıà¤«à¤ıà¤¸":8459,"gram":8460,"ĠCCTV":8461,"lay":8462,"à¥Ī]":8463,"à¤ķà¤°à¤Ĺ":8464,"à¤ħà¤µà¤°":8465,"à¤¹à¤®à¤ķ":8466,"Ġà¤¸à¤°à¤¹":8467,"Ġà¤¸à¤¤à¤µ":8468,"Ġà¤ıà¤®à¤ıà¤«":8469,"enef":8470,"ĠHuawei":8471,"Ġ348":8472,"ĠXL":8473,"ĠXR":8474,"hief":8475,"Ġà¥¯à¥¦":8476,"CET":8477,"be":8478,"à¤¬à¤¶":8479,"à¤¡à¤ļ":8480,"Ġà¤ıà¤ķà¤ªà¤ķ":8481,"à¥Īà¤Ĥà¥¤'":8482,"Ġà¤®à¤¹à¤ķ":8483,"Ġ1927":8484,"à¤¦à¤µà¤Ī":8485,"Ġà¤¹à¤Łà¤µ":8486,"Ġ287":8487,"vers":8488,"à¤§à¤Ĺà¤¯":8489,"à¤ķà¤²à¤ķ":8490,"Ġà¤ªà¤¦à¤µ":8491,"Ġ1924":8492,"Ġà¤ĸà¤°à¤¡":8493,"ĠCovid":8494,"ĠMet":8495,"Ġà¤ıà¤®à¤¨":8496,"Ġà¤ħà¤µà¤ļ":8497,"ĠCouncil":8498,"Ġ285":8499,"Ġà¤ªà¤°à¤ĸà¤ļ":8500,"mAH":8501,"sl":8502,"Ġam":8503,"Ġab":8504,"Ġà¤¤à¥ľà¤ķ":8505,"Ġà¤ıà¤ıà¤«à¤¸":8506,"à¤«à¤µ":8507,"à¤¢à¤¸":8508,"à¤ĩà¤Łà¤¹":8509,"à¤°à¤¨à¤¹":8510,"ĠBachchan":8511,"à¤Ĩà¤Īà¤ıà¤¸à¤ıà¤²":8512,"à¤°à¤¥à¤®à¤¦":8513,"ership":8514,"Ġà¥¨à¥¦à¥¦à¥¬":8515,"ohit":8516,"SLC":8517,"ky":8518,"à¤ķà¤¬à¤¡":8519,"à¤¸à¤¶à¤ķ":8520,"à¤Ĺà¤µà¤¶":8521,"à¤Łà¤°à¤¹":8522,"ĠRam":8523,"ĠIB":8524,"ĠBang":8525,"106":8526,"Ġ266":8527,"Ġchan":8528,"eta":8529,"à¤ıà¤¨à¤ıà¤ļà¤ıà¤®":8530,"ĠBSNL":8531,"380":8532,"à¤Ĺà¤¨à¤°":8533,"à¤¶à¤ļ":8534,"Ġà¤¤à¤«à¤°":8535,"ering":8536,"Ġà¤ıà¤«à¤Ĩà¤Īà¤Ĩà¤Ī":8537,"Ġà¤ķà¤łà¤ĺà¤°":8538,"Ġ401":8539,"ĠGT":8540,"145":8541,"Ġ468":8542,"Ġà¥¨à¥¦à¥¦à¥¦":8543,"au":8544,"fw":8545,"à¤¿%":8546,"à¤ħà¤¥":8547,"à¤°à¤£à¤ķà¤°":8548,"Ġà¤ıà¤®à¤Ĩà¤°à¤ª":8549,"ĠSS":8550,"Ġà¤¶à¤¹à¤¡":8551,"Ġpre":8552,"Ġà¤ħà¤ªà¤¹à¤°à¤£à¤ķà¤°":8553,"240":8554,"uel":8555,"à¥ĩ\"\"\"":8556,"à¤¨à¤µà¤¨":8557,"Ġà¤ķà¤°à¤°à¤¹":8558,"001":8559,"à¤ıà¤²à¤Ī":8560,"erm":8561,"Ġ1872":8562,"à¤²à¤¹à¤¸":8563,"ĠBe":8564,"ases":8565,"ove":8566,"ĠUl":8567,"Ġtechn":8568,"aryana":8569,"ASA":8570,"temperature":8571,"Ð¾":8572,"Ġass":8573,"à¤²à¤Ńà¤°":8574,"à¤°à¤¤à¤Ł":8575,"Ġà¤¸à¤®à¤¦":8576,"à¥Īà¤Ĥ.âĢĻ":8577,"Ġ470":8578,"Ġ1921":8579,"Ġ2100":8580,"Ġsch":8581,"Ġà¤ıà¤¨à¤ıà¤«à¤ıà¤¸à¤ı":8582,"AIMIM":8583,"ØŃ":8584,"à¤¾âĢĺ":8585,"Ġà¤ªà¤¨à¤µ":8586,"à¤ıà¤ħà¤°":8587,"Ġà¤Ĩà¤«à¤°":8588,"à¤Ĩà¤ķà¤²à¤¨":8589,"à¤ħà¤¦à¤¨":8590,"à¤¨à¤¤à¤¦":8591,"1978":8592,"ĠSan":8593,"ĠKabaddi":8594,"à¤¯à¤£à¤¤":8595,"Ġà¤°à¤®à¤¨à¤¦":8596,"rict":8597,",,":8598,"599":8599,"OG":8600,"à¥ĢâĢĵ":8601,"à¤¹à¤²à¤¨":8602,"à¤°à¤¤à¤ħ":8603,"Ġà¤¸à¤®à¤®":8604,"à¤īà¤«":8605,"à¤ĵà¤ıà¤²à¤Ł":8606,"Ġà¤ķà¤®à¤¸":8607,"Ġà¤ħà¤¬à¤¶":8608,"Ġà¤ıà¤¨à¤¡à¤¬":8609,"111":8610,"ĠÂ£":8611,"andrayaan":8612,"garh":8613,"mohfw":8614,"BN":8615,"à¤¨à¤¥":8616,"à¤¸à¤ĭ":8617,"à¤µà¤¤à¤°":8618,"à¤«à¤²à¤ķ":8619,"à¤¹à¤®à¤¦":8620,"à¤¯à¤¤à¤®":8621,"1948":8622,"1969":8623,"Ġà¤ľà¤Ĺà¤¬":8624,"Ġà¤ľà¤¯à¤ľà¤¯à¤ķ":8625,"Ġ368":8626,"agar":8627,"Ġà¤¨à¤«à¤¸":8628,"ansatta":8629,"IBPS":8630,"Pakistan":8631,"UIDAI":8632,"ĠÃ":8633,"à¤®à¤ľà¤¸":8634,"à¤ļà¤¹à¤²":8635,"à¤µà¤°à¤¶":8636,"Ġà¤ĵà¤¸à¤µ":8637,"Ġà¤Ĩà¤Īà¤ıà¤®":8638,"Ġà¤ıà¤¨à¤ĵà¤¸":8639,"à¤¸à¤¤à¤¹":8640,"Ġà¤Ķà¤ķ":8641,"ĠMo":8642,"à¤ıà¤¸à¤Īà¤Ĩà¤°":8643,"à¤¾\"\",":8644,"à¥Ī'.":8645,")]":8646,"220":8647,"Pay":8648,"UGC":8649,"à¤°à¤¶à¤ķ":8650,"à¤¡à¤¸à¤®":8651,"à¤ļà¤¹":8652,"Ġà¤Ĺà¤ªà¤¶à¤ª":8653,"à¤µà¤°à¤¬":8654,"à¤¦à¤°à¤¬à¤²":8655,"Ġ410":8656,"Ġà¤ľà¤¨à¤Ń":8657,"Ġà¥ĺà¤¦à¤°":8658,"175":8659,"à¤¾âĢĻà¥¤":8660,"à¤Ĩà¤Īà¤Ĩà¤°à¤ıà¤«":8661,"ĠKey":8662,"cept":8663,"à¤Ĩà¤īà¤Łà¤ª":8664,"indra":8665,"Mbps":8666,"ĠÙħ":8667,"Ġà¤ħà¤¸à¤¨":8668,"à¥Ĥ\"\"":8669,"à¤«à¤Ĺ":8670,"Ġà¤§à¥ľ":8671,"Ġà¤ħà¤ªà¤¦à¤¸":8672,"1973":8673,"1981":8674,"arth":8675,"lease":8676,"127":8677,"Ġcap":8678,"ety":8679,"Ġ379":8680,"ĠISRO":8681,":,":8682,"Ġà¤ķà¤µà¤ķ":8683,"à¥ĭà¤ĤâĢĿ":8684,"Ġà¤«à¥ľ":8685,"Ġtest":8686,"à¥Ī!\"\"\"":8687,"ife":8688,")|":8689,"load":8690,"Ġà¤ªà¤¦à¤¨":8691,"Ġà¤ľà¤¯à¤µ":8692,"à¥Īà¤Ĥà¤Ĥà¥¤":8693,"Ġà¤ıà¤ıà¤Ĩà¤Ī":8694,"à¤ķà¤°à¤°":8695,"à¤®à¤²à¤¬":8696,"à¤·à¤£à¤ķ":8697,"Ġà¤Ĩà¤Īà¤¯":8698,"Ġà¤ıà¤¨à¤ıà¤¬":8699,"Ġà¤ħà¤Ĺà¤°à¤¬à¤¤":8700,"arri":8701,"ĠBan":8702,"ĠNAME":8703,"Ġà¤¨à¤ľà¤«":8704,"à¤īà¤ªà¤Ĺ":8705,"Ġà¥§à¥¯à¥¯à¥¬":8706,"box":8707,"lication":8708,"ĠTeam":8709,"HU":8710,"John":8711,"Vodafone":8712,"à¤¯à¤¹à¤¸":8713,"à¥Ĥà¤Ĥ!":8714,"à¥Ģ.),":8715,"Ġ888":8716,"arg":8717,"ĠPunjab":8718,"Ġà¤ıà¤«à¤Ĩà¤Īà¤ª":8719,"ĠName":8720,"Ġstat":8721,"ukh":8722,"uilding":8723,"Ġà¤¸à¤¶":8724,"à¤§à¤ķà¤¤":8725,"à¤·à¤ķà¤¤":8726,"Ġà¤ļà¤®à¤Ĺ":8727,"à¤ħà¤¦à¤¬":8728,"Ġà¤Ĩà¤°à¤Ī":8729,"Ġ950":8730,"ared":8731,"Ġà¤¤à¤²à¤¹à¤Ł":8732,"à¤ªà¤£à¤ľ":8733,"Ġcl":8734,"Ġ467":8735,"à¦²":8736,"Ġ\\":8737,"à¤Ĺà¤¨à¤²":8738,"Ġà¤°à¤¥à¤¯":8739,"à¤ķà¤°à¤ª":8740,"Ġà¤Ĩà¤°à¤Ĩà¤Ī":8741,"Ġà¤Ĩà¤Īà¤ıà¤«à¤¸":8742,"à¤ıà¤²à¤ıà¤¸à¤ıà¤¸":8743,"Ġà¤Ĭà¤¬":8744,"ĠST":8745,"à¥ĺà¤²":8746,"126":8747,"Ġà¤īà¤¤à¤°à¤µ":8748,"ives":8749,"ĠJonas":8750,"ĠJansatta":8751,"phase":8752,"areena":8753,"ĠMarket":8754,"à¥į:":8755,"Ġà¤¸à¤ªà¤°":8756,"à¤¬à¤¦à¤¨":8757,"à¤ĸà¤°à¤£":8758,"à¤¾à¤Ĥà¤Ĥ":8759,"à¤«à¤¦":8760,"Ġà¤«à¤¹":8761,"Ġ1933":8762,"Ġà¤²à¤¡à¥ĺ":8763,"124":8764,"Ġ284":8765,"Ġsector":8766,"Ġ274":8767,"ĠGu":8768,"ret":8769,"carbon":8770,"hel":8771,"à¥ĢâĢĶ":8772,"à¤¸à¤ł":8773,"à¤ªà¤°à¤¦":8774,"à¤¶à¤µà¤°":8775,"Ġà¤²à¤ļà¤°":8776,"Ġà¤ıà¤Ĩà¤Īà¤¬":8777,"à¥Ģà¥¤âĢĿ":8778,"à¤Ĩà¤°à¤Ī":8779,"Ġà¤Ĩà¤Īà¤ıà¤®à¤ı":8780,"Ġà¤ıà¤ļà¤Ĩà¤°":8781,"Ġ276":8782,"ĠVer":8783,"119":8784,"à¤¤à¤²à¤ķ":8785,"à¤Īà¤¡à¤¬":8786,"à¤°à¤¤à¤ķ":8787,"à¥Ĥà¤Ĥ-":8788,"Ġ460":8789,"à¤¹à¤¨à¤¨":8790,"Ġà¤ıà¤¡à¤ľà¤¸":8791,"ament":8792,"ĠWith":8793,"à¥Ĥà¤ģà¥¤\"\"":8794,"RCB":8795,"eva":8796,"ĠÂ²":8797,"Ġà¥¨à¥¦à¥¦à¥«":8798,"ĠSRH":8799,"ren":8800,"za":8801,"à¤²à¤Łà¤¨":8802,"Ġà¤®à¤Łà¤ķ":8803,"à¤ıà¤¯à¤°à¤¸":8804,"Ġà¤ĸà¤¸à¤°":8805,"Ġ352":8806,"ential":8807,"à¤Ĩà¤Īà¤ıà¤¸à¤Ĩà¤Ī":8808,"Ġim":8809,"Ġwork":8810,"Ġà¤¿à¥ĩ":8811,"JK":8812,"OL":8813,"hu":8814,"wa":8815,"à¥ģâĢį":8816,"à¤¦à¤¶à¤®":8817,"à¤¨à¤¤à¤µ":8818,"Ġ520":8819,"139":8820,"irl":8821,"âĸº":8822,"angu":8823,"5000":8824,"fe":8825,"à¤¨à¤Ŀ":8826,"à¤®à¤¹à¤®":8827,"à¤ľà¤°à¤µ":8828,"à¥Ī.âĢĻâĢĻ":8829,"à¤Ĩà¤Īà¤ıà¤¸à¤ª":8830,"Ġà¤ĳà¤ĸ":8831,"Ġà¤Īà¤¶à¤¨":8832,"Ġà¤ľà¤²à¤ľà¤²":8833,"à¤²à¤µà¤®":8834,"ĠIAS":8835,"ici":8836,"Ġ317":8837,"ĠHy":8838,"igital":8839,"Ġà¤¹à¤®à¤¸à¤«à¤°":8840,"à¦¿":8841,"psc":8842,"Ġà¤®à¤°à¤ķà¤ľ":8843,"Ġà¤Ĩà¤¹à¤²":8844,"à¤ĩà¤ľà¤¨":8845,"à¥ĥâĢį":8846,"à¤ħà¤£":8847,"à¤Ĩà¤°à¤Ĩà¤°à¤¬":8848,"205":8849,"ĠAaj":8850,"ional":8851,"ĠDVD":8852,"Ġ296":8853,"ract":8854,"134":8855,"uru":8856,"ĠVOOC":8857,"Ġà¥ļà¥Ľà¤¬":8858,"Ġibps":8859,"Ġà¤®à¥Ľà¤¹à¤¬":8860,"à¥Ī'à¥¤":8861,"rade":8862,"AY":8863,"à¤°à¤Ŀ":8864,"à¤Ĺà¤¹à¤¨":8865,"à¤Ĺà¤Ĺà¤¨":8866,"à¤¡à¤°à¤¤":8867,"Ġà¤ıà¤¬à¤°":8868,"à¤¼à¤¿âĢį":8869,"Ġà¤¬à¤¦à¤¤à¤®":8870,"Ġà¤¶à¤¹à¤°à¤¯":8871,"Ġà¤ħà¤¶à¤«":8872,"Ġ313":8873,"ĠGDP":8874,"à¤ıà¤¸à¤Ĩà¤Īà¤¡":8875,"limate":8876,"__":8877,"ting":8878,"à¤ķà¤ĩ":8879,"à¤§à¤Ĺ":8880,"Ġà¤¹à¤®à¤¦":8881,"Ġà¤Ľà¤²à¤ķ":8882,"Ġà¤Ĩà¤ľà¤¤à¤ķ":8883,"Ġà¤ĵà¤°à¤²":8884,"à¤ĩà¤Łà¤¸":8885,"à¥ĩà¤Ĥà¥¤\"\"\"":8886,"ĠChar":8887,"ĠMT":8888,"ĠBudget":8889,"à¤īà¤¦à¤¯à¤ª":8890,"Ġmm":8891,"Ġelection":8892,"UR":8893,"Ġà¥Ģ":8894,"à¤ıà¤Ĩà¤Īà¤Ł":8895,"Ġà¤ªà¤°à¤Ń":8896,"Ġà¤ľà¤²à¤ķ":8897,"ĠBook":8898,"aterials":8899,"699":8900,"985":8901,"AIIMS":8902,"EP":8903,"à¤¸à¤®à¤²":8904,"à¤¬à¤¦à¤°":8905,"Ġà¤¡à¤Ĺà¤²à¤¸":8906,"à¤¨à¤ķà¤µ":8907,"Ġà¤Īà¤¦à¤Ĺ":8908,"à¤ıà¤¨à¤°":8909,"1976":8910,"ĠBusiness":8911,"ĠNSE":8912,"rect":8913,"uss":8914,"ĠLanka":8915,"Ġà¤īà¤ľà¤°à¤¤":8916,"Ġdu":8917,"à¥©à¥¦":8918,"à¤ıà¤¨à¤Īà¤Ĩà¤°":8919,"Salman":8920,"à¤ķà¤Łà¤¨":8921,"à¥Īà¥Īà¥¤":8922,"à¤Ńà¤ķà¤°":8923,"à¤īà¤Ńà¤°à¤¤":8924,"Ġà¤¸à¤¬à¤²":8925,"Ġà¤ľà¤¬à¤¸":8926,"à¤ıà¤®à¤ıà¤ļà¤ı":8927,"à¤ıà¤¨à¤Ĩà¤Īà¤Ł":8928,"Ġà¤ıà¤¨à¤ı":8929,"Ġà¤ıà¤®à¤ıà¤«à¤ª":8930,"Ġà¤ıà¤«à¤Ĩà¤ĩà¤Ĩà¤°":8931,"Ġ278":8932,"Ġ328":8933,"à¥§à¥¯":8934,"eneral":8935,"dea":8936,"eople":8937,"ïĤ":8938,"à¤ķà¤Łà¤®":8939,"à¤¡à¤ĭ":8940,"Ġà¤¸à¤®à¤ľ":8941,"Ġ319":8942,"à¤µà¤¨à¤¯":8943,"à¤ıà¤²à¤¡à¤¬":8944,"à¤ıà¤²à¤ıà¤Ł":8945,"1961":8946,"à¤ľà¤¹à¤¦":8947,"atic":8948,"ĠAt":8949,"ĠND":8950,"155":8951,"Ġdef":8952,"à¤ıà¤¸à¤ıà¤²à¤¸":8953,"cont":8954,"NAME":8955,"gan":8956,"son":8957,"à¤¾à¥°":8958,"à¤¬à¤ļà¤¤":8959,"à¤¤à¤°à¤µ":8960,"Ġ540":8961,"Ġà¤¸à¤°à¤ľ":8962,"Ġà¤ľà¤¨à¤ªà¤¥":8963,"Ġ318":8964,"ĠHome":8965,"ĠFl":8966,"olid":8967,"ember":8968,"phones":8969,"ammu":8970,"Tak":8971,"ium":8972,"Â·":8973,"à¤·à¤²":8974,"à¤Īà¤Īà¤ıà¤¸à¤ıà¤²":8975,"Ġà¤ıà¤ı":8976,"à¤«à¤®":8977,"à¤µà¤²à¤°":8978,"1965":8979,"Ġà¤¦à¤®à¤ĸà¤®":8980,"ĠOTP":8981,"Ġte":8982,"à¤ıà¤¨à¤ıà¤¸à¤¯":8983,"à¥§à¥¯à¥¬":8984,"Ġà¥¦à¥¦à¥¦":8985,"à¤ıà¤¨à¤Ĩà¤°à¤Ī":8986,"ĠPlaying":8987,"onald":8988,"à¤Īà¤ıà¤«à¤ı":8989,"à¤Ŀà¤Ł":8990,"à¤®à¤°à¤¨à¤ľ":8991,"Ġ777":8992,"1975":8993,"à¤ıà¤ļà¤Ĩà¤Īà¤µ":8994,"133":8995,"ainst":8996,"........":8997,"Ġà¤²à¤ĸà¤ªà¤¤":8998,"ĠBlack":8999,"ĠReport":9000,"orpor":9001,"950":9002,"Karnataka":9003,"sur":9004,"Ġà¤ħà¤°à¤ķ":9005,"à¤łà¤¹à¤°":9006,"à¤°à¤£à¤¦":9007,"Ġà¤ķà¤®à¤¬":9008,"à¤¸à¤²à¤Ł":9009,"ĠAP":9010,"Ġ268":9011,"116":9012,"à¤ªà¤¥à¤ª":9013,"à¤ħà¤«à¤¸à¤°":9014,"ĠHighlights":9015,"Mumbai":9016,"VC":9017,"Ġall":9018,"Ġà¤ķà¤°à¤ľà¤Ī":9019,"Ġà¤īà¤Ĺà¤²":9020,"Ġà¤¶à¤Ĺ":9021,"à¤°à¤¦à¤°à¤¹":9022,"à¤¹à¤°à¤µ":9023,"à¤µà¤¸à¤¤":9024,"Ġà¤Ĩà¤Īà¤Ĩà¤Īà¤Ĩà¤Īà¤Ł":9025,"Ġà¤ıà¤¸à¤Īà¤¸":9026,"anch":9027,"Ġà¥Ļà¥Ľ":9028,"ĠNH":9029,"122":9030,"Ġà¤ħà¤¸à¤®à¤¯":9031,"à¤Ĩà¤®à¤¦à¤¨":9032,"Ġaction":9033,"oyal":9034,"BD":9035,"GATE":9036,"ÃŃ":9037,"à²":9038,"Ġus":9039,"à¥ĪâĢĻâĢĻ":9040,"à¤¦à¤®à¤¤":9041,"à¤Łà¤Ń":9042,"Ġà¤²à¤«":9043,"Ġà¤²à¤µà¤°":9044,"à¤Ĩà¤¦à¤¤":9045,"Ġà¤¡à¤¯":9046,"Ġà¤µà¤°à¤µà¤°":9047,"à¤ıà¤ļà¤Ĩà¤Ī":9048,"ĠPNB":9049,"153":9050,"cta":9051,"238":9052,"Ġ384":9053,"ĠChrome":9054,"acturing":9055,"EM":9056,"GA":9057,"ÑĢ":9058,"Ġà¤ħà¥ŀà¤¸":9059,"à¤¼à¥Ĩ":9060,"Ġcraft":9061,"à¤ıà¤®à¤Īà¤Ĩà¤°":9062,"erson":9063,"max":9064,"Ġà¤ıà¤®à¤ıà¤®à¤ıà¤¸à¤¸":9065,"And":9066,"Ġà¤Ĺà¤Ĺà¤¨à¤¦":9067,"260":9068,"à¤¹à¤¸à¤ª":9069,"à¤¦à¤¨à¤ķ":9070,"à¥ĭà¤ĤâĢ¦":9071,"à¤ļà¤®à¤ķ":9072,"à¤Ĩà¤ķà¤°":9073,"Ġà¤Ĩà¤Īà¤¡à¤¬":9074,"à¤¹à¤¨à¤¦":9075,"1920":9076,"à¤ıà¤ļà¤ıà¤«":9077,"Ġà¤Ĩà¤¹à¤Ł":9078,"ĠENG":9079,"Ġpol":9080,"ĠVI":9081,"osystem":9082,"à¥Ī!\"":9083,"Ġwater":9084,"ladesh":9085,"à¤¯à¤Ĺà¤£":9086,"à¤ľà¤²à¤ª":9087,"à¤Ĳà¤¨":9088,"195":9089,"Ġà¤ħà¤«à¤ľ":9090,"à¤ľà¤®à¤¬à¤°":9091,"orn":9092,"à¤ħà¤ªà¤¡":9093,"ĠTour":9094,"182":9095,"à¤ıà¤¨à¤Ĩà¤Īà¤µ":9096,"Ġà¤īà¤Ľà¤²à¤ķà¤°":9097,"280":9098,"cov":9099,"à¤¾\\\"\"":9100,"à¤²à¤§à¤¨":9101,"à¤ľà¤¸à¤®":9102,"à¤ıà¤µà¤°":9103,"à¤®à¤¨à¤ª":9104,"olt":9105,"ulation":9106,"Ġmodel":9107,"Ġà¤īà¤§à¤®":9108,"ĠYS":9109,"à¦°":9110,"Ġà¤ıà¤¨à¤Ĩà¤Īà¤ĵà¤ıà¤¸":9111,"PRO":9112,"RD":9113,"dom":9114,"ling":9115,"à¤¬à¤ªà¤¤":9116,"Ġà¤¥à¤ªà¤¥à¤ª":9117,"à¤īà¤¨à¤¹":9118,"à¤ıà¤¸à¤Ĩà¤°à¤Ł":9119,"Ġà¤ĳà¤ĩà¤²":9120,"Ġà¤¹à¤°à¤¨":9121,"Ġ712":9122,"Ġ1926":9123,"à¤ħà¤¨à¤ľ":9124,"Ġà¤ħà¤ĸà¤£":9125,"172":9126,"uly":9127,"Ġbank":9128,"Ġà¥ªà¥ª":9129,"à¤¾\"\"à¥¤\"":9130,"Ġà¥§à¥¯à¥¯à¥Ń":9131,"ysis":9132,"Mar":9133,"covid":9134,"à¤¿à¥ĭà¤Ĥ":9135,"à¤ķà¤ĩà¤¨":9136,"à¥Īà¤Ĥ\"\"\"":9137,"Ġà¤¸à¤¹à¤¦":9138,"Ġà¤ħà¤ļà¤°à¤ľ":9139,"Ġà¤ıà¤®à¤Ī":9140,"ilicon":9141,"ĠInstagram":9142,"Ġ372":9143,"ummit":9144,"istic":9145,"ize":9146,"ĠAccount":9147,"020":9148,"330":9149,"Cl":9150,"Lok":9151,"field":9152,"uary":9153,"à¤Ĺà¤®à¤°":9154,"Ġà¤ıà¤ħ":9155,"Ġ435":9156,"Ġ490":9157,"Ġà¤Ĩà¤Īà¤Īà¤¸":9158,"à¤²à¤ķà¤Ł":9159,"à¤ļà¤°à¤ĸ":9160,"inc":9161,"ĠCl":9162,"ĠATM":9163,"ĠDev":9164,"Ġ357":9165,"ĠWeb":9166,"uti":9167,"heet":9168,"Ø§ÙĨ":9169,"fl":9170,"Ġà¤ıà¤ıà¤®à¤¸":9171,"à¤ĩà¤µà¤¸":9172,"à¤Ľà¤¦":9173,"Ġà¤Łà¤µ":9174,"Ġà¤ıà¤¸à¤Ĩà¤Īà¤ª":9175,"ĠAadhaar":9176,"138":9177,"243":9178,"à¤¨à¤µà¤°à¤¹":9179,"apil":9180,"Ġà¥§à¥¯à¥¯à¥«":9181,"Ġà¤ļà¥Ŀà¤ķà¤°":9182,"ĠCongress":9183,"Ġbih":9184,"dà¤ķ":9185,"à¤¾à¥ĭ":9186,"Ġà¤īà¤ľà¤¬":9187,"à¤Łà¤ķà¤®":9188,"Ġà¤²à¤ķà¥ľ":9189,"à¤ıà¤ļà¤ķ":9190,"hik":9191,"bir":9192,"Ġunder":9193,"à¤¹à¥ľ":9194,"à¤ľà¥ļ":9195,"Ġà¤µà¤²à¤¸":9196,"Ġà¤ķà¤°à¤ķà¤°":9197,"Ġà¤ĵà¤£à¤®":9198,"à¤¼à¥ĩ:":9199,"à¤°à¤¹à¤ķà¤°":9200,"Ġà¤®à¤¦à¤¯à¤¨":9201,"à¤ĩà¤Łà¤µ":9202,"à¤ıà¤ļà¤¡à¤¬":9203,"Ġà¤¶à¤µà¤Ĺ":9204,"Ġ281":9205,"Ġ351":9206,"à¥įâĢĮ,":9207,"ada":9208,"Ġ333":9209,"Ġhy":9210,"à¤¾!\"":9211,"riends":9212,"MD":9213,"à¤®à¤¦à¤¨":9214,"à¤ªà¤¬à¤²":9215,"à¤Ĺà¤Ŀ":9216,"Ġà¤ľà¤ķà¤°à¤¬à¤°":9217,"à¤Īà¤ĺà¤°":9218,"Ġà¤¶à¤°à¤®à¤¨":9219,"à¤¸à¤ķà¤¨":9220,"Ġà¤ªà¤°à¤®à¤µ":9221,"Ġà¤ħà¤µà¤¸à¤°à¤µ":9222,"Ġà¤®à¤¸à¤ĸà¤°":9223,"à¤ľà¤®à¤¶":9224,"Ġà¤¹à¤¸à¤°à¤¤":9225,"ĠCJI":9226,"ĠHar":9227,"Ġchar":9228,"Ġà¤Ńà¤Ĺà¤µà¤¦":9229,"Ġ398":9230,"Ġà¥§à¥¯à¥¯à¥®":9231,"ĠISI":9232,"anced":9233,"ĠUltra":9234,"NC":9235,"core":9236,"à¤²à¤°à¤®":9237,"Ġà¤¬à¤°à¤µ":9238,"Ġà¤°à¤Ł":9239,"Ġà¤°à¤ļà¤¤":9240,"Ġà¤Ķà¤°à¤¯à¤¹":9241,"à¥Īà¤Ĥà¤Ĥ":9242,"à¤¸à¤°à¤«à¤°":9243,"Ġà¤§à¤¨à¤¨":9244,"à¤¼à¥Ģ?":9245,"à¤°à¤¶à¤°":9246,"Ġ1870":9247,"ĠPo":9248,"ĠRank":9249,"leg":9250,"ariab":9251,"reaming":9252,"MG":9253,"à¤ļà¤¦":9254,"à¥Ī.âĢĿ":9255,"Ġà¤Ĩà¤°à¤ıà¤¨":9256,"Ġà¤ĵà¤¤":9257,"à¤¤à¤®à¤ĩà¤¨":9258,"ĠCH":9259,"roph":9260,"round":9261,"ĠFacebook":9262,"ĠKashmir":9263,"Ġà¤ıà¤¨à¤ıà¤ļà¤ıà¤®":9264,"ĠBSP":9265,"ĠAajTak":9266,"SB":9267,"à¤¯à¤°à¤ķ":9268,"à¤¡à¤¨à¤°":9269,"à¤ıà¤®à¤ıà¤¸à¤ıà¤¸":9270,"Ġ---":9271,"à¤·à¤¯à¤Ĺà¤¤":9272,"à¤®à¤Ĺà¥Ŀ":9273,"à¤ĭà¤°":9274,"Ġne":9275,"ĠSecondary":9276,"ĠYouTube":9277,"Interior":9278,".-":9279,"Pr":9280,"ault":9281,"ÙĤ":9282,"à¥ĩà¥°":9283,"Ġà¤¬à¤°à¤®":9284,"à¤¼à¤¼à¥ģ":9285,"à¥īà¥¤":9286,"à¤ľà¤¨à¤Ĺà¤°":9287,"Ġà¤Ĺà¤ıà¤¹":9288,"à¤¾..":9289,"Ġ530":9290,"Ġà¤ĩà¤¨à¤¦":9291,"Ġà¤¸à¤°à¤ļ":9292,"Ġà¤Ĭà¤§":9293,"Ġà¤¬à¤°à¤¨à¤¬":9294,"Ġsqu":9295,"ĠGold":9296,"Ġà¥©à¥®":9297,"264":9298,"Ġà¤Ĩà¤ĩà¤ıà¤¸":9299,"à¤ľà¤¯à¤¨à¤Ĺà¤°à¤®":9300,"oxide":9301,"[[":9302,"Äģ":9303,"Ġone":9304,"à¤ķà¤·":9305,"Ġà¤¤à¤¶":9306,"Ġà¤īà¤¦à¤¹":9307,"à¤ľà¤¬à¤¤à¤ķ":9308,"Ġ835":9309,"ĠNe":9310,"Ġ289":9311,"ross":9312,"Ġ316":9313,"ask":9314,"Ġà¥©à¥¯":9315,"Ġ542":9316,"Ġconnectivity":9317,"vestment":9318,"?\"\"":9319,"Ġà¤ľà¤¸à¤²":9320,"Ġà¤ĩà¤¸à¤¬":9321,"Ġà¤Ĩà¤°à¤ıà¤²":9322,"à¤¤à¤ķà¤¥":9323,"à¤ıà¤¨à¤Ĩà¤Īà¤ª":9324,"Ġà¤¬à¤ľà¤¤":9325,"à¥Ŀà¤¤":9326,"Ġà¤ıà¤«à¤Ĩà¤Īà¤ıà¤ļ":9327,"ĠBharat":9328,"ĠBMW":9329,"ĠNorth":9330,"Ġ2200":9331,"148":9332,"Ġwill":9333,"ĠâĻ":9334,"ĠAnsw":9335,"IFA":9336,"011":9337,"sm":9338,"Í¾":9339,"Ġà¤¼":9340,"à¤¤à¤¹à¤¸":9341,"Ġà¤ķà¤°à¤²":9342,"à¤ªà¤¨à¤¦":9343,"Ġà¤Łà¤ķà¤¸":9344,"à¤¹à¤°à¤ħà¤²":9345,"à¤ĩà¤¨à¤«":9346,"Ġà¤ıà¤®à¤ıà¤¸à¤¡":9347,"Ġà¤ıà¤«à¤ıà¤¸":9348,"Ġà¤ıà¤ļà¤¬":9349,"ĠDec":9350,"132":9351,"Ġvariable":9352,"Ġ335":9353,"Ġà¤¶à¤°à¤£à¤¸":9354,"Ġlaunch":9355,"ampions":9356,"à¤ķà¤ķà¤¨":9357,"à¥ĭà¤Ĥ...":9358,"Ġ((":9359,"Ġà¤¸à¤®à¤µ":9360,"Ġà¤¤à¤ķà¤¦":9361,"Ġà¤ĵà¤®à¤¨":9362,"à¤ıà¤¨à¤Ĩà¤°à¤ıà¤²à¤ıà¤®":9363,"à¤°à¤ªà¤¦":9364,"ĠGames":9365,"ĠEl":9366,"Ġ334":9367,"upreme":9368,"epartment":9369,"eek":9370,"ĠScience":9371,"Ġatt":9372,"stitution":9373,"accine":9374,"Hy":9375,"OPPO":9376,"hp":9377,"à¥ģ),":9378,"à¤µà¤¹à¤°":9379,"à¥ĩà¤Ĥ|":9380,"à¤ıà¤¡à¤¬":9381,"Ġà¤ĩà¥ĺà¤°":9382,"Ġà¤ĩà¥ŀà¤¤":9383,"à¤£à¤ªà¤¶":9384,"Ġà¤īà¤ªà¤²":9385,"à¤²à¤¨à¤Ĺà¤¤":9386,"à¤¦à¤°à¤¬à¤¨":9387,"Ġà¤Ĩà¤Īà¤ıà¤¸à¤ıà¤²":9388,"à¤ıà¤ķà¤¦à¤®":9389,"Ġ1890":9390,"à¤°à¤ľà¤¤":9391,"Ġ501":9392,"Ġindia":9393,"228":9394,"uld":9395,"Ġthis":9396,"à¤ĩà¤ªà¤°à¤Ł":9397,"ifications":9398,"Ġà¤ķà¤²à¤¨":9399,"à¤®à¤¯à¤ķ":9400,"Ġà¤¨à¥ŀà¤¸":9401,"Ġà¤«à¤Ĺà¤µ":9402,"à¥Īà¤Ĥà¥¤\"\"":9403,"à¤Ĩà¤Īà¤ıà¤«à¤¸":9404,"Ġà¤Ŀà¤£":9405,"à¤ªà¤²à¤Łà¤¨":9406,"ĠNov":9407,"ĠDevelopment":9408,"227":9409,"Ġà¤ªà¤¨à¤ªà¤¤":9410,"iger":9411,"Ġarchitecture":9412,"à¤¹à¤°à¤®à¤¨à¤ª":9413,"WF":9414,"à¥Ģ%":9415,"à¤¬à¤ļà¤¨":9416,"Ġà¤Ĺà¤ľà¤²":9417,"Ġà¤ıà¤¶à¤²":9418,"Ġà¤ĵà¤Ľ":9419,"Ġà¤ħà¤®à¤°à¤¤":9420,"Ġà¤¸à¤°à¤µà¤°":9421,"Ġà¤Īà¤Īà¤ıà¤¸à¤ıà¤²":9422,"alysis":9423,"Ġ1897":9424,"ĠCar":9425,"ĠCET":9426,"ĠBig":9427,"Ġ283":9428,"161":9429,"ĠKXIP":9430,"urs":9431,"osph":9432,"Ġ437":9433,"Ġair":9434,"à¤Īà¤ıà¤¸à¤Ĩà¤Īà¤¸":9435,"Ġ662":9436,"ender":9437,"ĠISO":9438,"urrent":9439,"Ġecon":9440,"NHT":9441,"by":9442,"Ġover":9443,"Ġà¤īà¤Ĺà¤¨":9444,"à¤ĸà¤°à¤¸":9445,"Ġà¤ķà¤®à¤¬à¤ĸ":9446,"Ġ585":9447,"Ġà¤īà¤®à¤¸":9448,"Ġ1917":9449,"Ġà¤¸à¤«à¤¦à¤°":9450,"Ġà¤¶à¤µà¤¦":9451,"unn":9452,"Ġ343":9453,"Ġact":9454,"ocal":9455,"ĠDays":9456,"ĠCont":9457,"alloys":9458,"à¤¤à¤²à¤¬":9459,"à¤ķà¤ĸ":9460,"Ġà¤¨à¥ŀ":9461,"à¥Īà¤ĤâĢĶ":9462,"Ġà¤¨à¤¹à¤¸":9463,"Ġà¤Ľà¤°":9464,"Ġ417":9465,"à¤ıà¤¨à¤ıà¤¨à¤¯":9466,"erc":9467,"ley":9468,"ĠGPS":9469,"146":9470,"iral":9471,"ague":9472,"à¤¤à¤°à¤«à¤²à¤ķ":9473,"CSK":9474,"centration":9475,"310":9476,"GL":9477,"mo":9478,"magnetic":9479,"Ð»":9480,"Ġà¤¹à¤ı":9481,"Ġà¤®à¤°à¤¦":9482,"à¥Ĥà¤Ĥ'":9483,"Ġ\"\"'":9484,"à¤ıà¤¨à¤Ĩà¤°à¤Ĩà¤Ī":9485,"Ġ799":9486,"ĠSL":9487,"ĠCam":9488,"165":9489,"etail":9490,"Ġfunction":9491,"à¤¨à¤«à¤°à¤¤":9492,"à¥§à¥¯à¥ª":9493,"Ġà¤Ĩà¤Īà¤ıà¤«à¤ıà¤¸":9494,"mber":9495,"uction":9496,"ĠĠ":9497,"à¤µà¤µà¤¤":9498,"à¤ľà¤ľà¤ª":9499,"à¤ıà¤Ĩà¤Īà¤Ĩà¤°":9500,"à¤¾,)":9501,"Ġà¤®à¤¹à¥Ľ":9502,"à¤ıà¤¨à¤Īà¤¸":9503,"à¤¨à¤µà¤µ":9504,"à¤ıà¤«à¤ľ":9505,"à¤¯à¤ªà¤¦":9506,"ĠSO":9507,"enu":9508,"ĠBi":9509,"Ġà¤ķà¤Łà¤ķà¤°":9510,"à¤¾'à¥¤":9511,"ĠOLED":9512,"ĠInc":9513,"ĠUIDAI":9514,"à¤Ńà¤²à¤ı":9515,"DG":9516,"à¤°à¤¶à¤¨":9517,"à¤°à¤¡à¤®":9518,"Ġà¤Ĩà¤ĩà¤°":9519,"Ġà¤¡à¤²à¤µ":9520,"Ġà¤Ľà¤²à¤¨":9521,"Ġ599":9522,"Ġ427":9523,"à¤Ĺà¤²à¤¸à¤°":9524,"1951":9525,"à¤¨à¤¦à¤¹":9526,"217":9527,"ĠTwitter":9528,"245":9529,"270":9530,"225":9531,"aff":9532,"hite":9533,"pol":9534,"Ġà¤ķà¤¸à¤¬":9535,"à¤¿à¥Ģ":9536,"Ġà¤«à¤°à¤ķ":9537,"à¤īà¤¤à¤°":9538,"à¤ıà¤¸à¤ıà¤ļà¤ľ":9539,"Ġà¤Ĳà¤µ":9540,"Ġ465":9541,"ĠReliance":9542,"Ġà¤¦à¤¬à¤ķà¤°":9543,")à¥¤\"":9544,"à¥ĭ!\"\"\"":9545,"ICS":9546,"à¤Ĩà¤°à¤ıà¤ıà¤®à¤ıà¤¸":9547,"ĠPoll":9548,"ĠAnswer":9549,"site":9550,"ÉĻ":9551,"Ñģ":9552,"à¤¨à¤¹à¤¸":9553,"Ġà¤ªà¤²à¤¨":9554,"Ġà¤ıà¤Ĺà¤®":9555,"Ġà¤¡à¤°à¤¬à¤¨":9556,"Ġà¤Ĩà¤Īà¤ıà¤¸à¤¬":9557,"à¤°à¤¹à¤ķ":9558,"Ġà¤Ĭà¤ļ":9559,"1963":9560,"arge":9561,"à¤¸à¤¬à¤®":9562,"itation":9563,"state":9564,"168":9565,"Ġcricket":9566,"Ġà¥ªà¥¨":9567,"BSEB":9568,"PMC":9569,"Ġà¥§à¥¯à¥¦":9570,"!\"\"":9571,"Ùģ":9572,"à¥ĭâĢľ":9573,"Ġà¤ªà¤¸à¤²":9574,"à¤ĸà¤Łà¤ķ":9575,"à¤ªà¤¨à¤Ĺà¤°":9576,"à¤īà¤Łà¤°":9577,"Ġà¤Łà¤¹à¤²à¤¨":9578,"à¤¹à¤°à¤¸":9579,"à¤ĩà¤²à¤¸":9580,"Ġà¤ªà¤¢à¤©":9581,"à¥ĺà¤¬":9582,"à¤°à¤Ĺà¥Ŀ":9583,"Ġ2340":9584,"ĠGroup":9585,"ĠDo":9586,"Ġval":9587,"ody":9588,"à¤¾!\"\"\"":9589,"777":9590,"à¥Ī\"\".\"":9591,"-(":9592,"Ġà¤ªà¤Ĺà¤¬":9593,"à¤ıà¤¹à¤ķ":9594,"à¤¡à¤µà¤°":9595,"à¤·à¤ĭ":9596,"à¤Īà¤Ĩà¤°à¤¸":9597,"Ġ(),":9598,"à¤¤à¤°à¤µà¤°":9599,"à¤ħà¤ļà¤²":9600,"à¤Łà¤°à¤¯":9601,"à¤ĩà¤¨à¤¬":9602,"ĠPTI":9603,"ority":9604,"rab":9605,"Ġà¥§à¥¯à¥¯à¥§":9606,"ĠPolicy":9607,"ĠAwards":9608,"')":9609,"Go":9610,"Qu":9611,"dy":9612,"ria":9613,"ssc":9614,"Ð½":9615,"Ħ¢":9616,"à¥ĭ]":9617,"à¤īà¥ľ":9618,"à¤¤à¤°à¤ªà¤¶":9619,"à¤Ĩà¤Īà¤ķ":9620,"à¤ĺà¤°à¤µ":9621,"à¤µà¤¨à¤µ":9622,"à¤¯à¤²à¤ķ":9623,"à¤Ĩà¤°à¤ıà¤¸à¤Ī":9624,"Ġ790":9625,"Ġà¤ıà¤®à¤«":9626,"Ġ1882":9627,"252":9628,"asp":9629,"149":9630,"131":9631,"Ġà¥ªà¥®":9632,"Ġà¤ıà¤Łà¤²à¤¸":9633,"ĠâĪĴ":9634,"NDA":9635,"bit":9636,"à¥įà¥Ģ":9637,"à¤ķà¤ķà¤¥":9638,"Ġà¤¸à¤ĺà¤¨à¤¤":9639,"à¤¡à¤ıà¤¸":9640,"à¤¡à¥ĺà¤°":9641,"Ġà¤¶à¤²à¤Ń":9642,"Ġà¤«à¥Ľ":9643,"Ġà¤īà¤¨à¤µ":9644,"Ġà¤ĳà¤¨à¤¸":9645,"ĠMa":9646,"1100":9647,"ĠHSC":9648,"ĠLok":9649,"Ġ364":9650,"Ġmar":9651,"Ġà¥ļà¤¨":9652,"Ġà¤ĸà¤²à¤²":9653,"oj":9654,"off":9655,"à¤°à¤Ĺà¤®":9656,"à¤µà¤Ī":9657,"à¤ªà¤ħà¤ª":9658,"à¤ļà¥ľ":9659,"âĢ¢":9660,"Ġà¤¶à¤¯à¤¨":9661,"Ġà¤ħà¤¨à¤µ":9662,"à¤ħà¤§à¤°":9663,"Ġà¤Ĩà¤°à¤ĵ":9664,"à¤¼à¥Ģ),":9665,"Ġà¤ĵà¤·à¤§":9666,"à¥ľà¤«":9667,"Ġà¤ħà¤ķà¤¸":9668,"à¤ıà¤¨à¤ıà¤¬":9669,"à¤ıà¤«à¤ıà¤¸à¤ıà¤¸à¤ıà¤Ĩà¤Ī":9670,"185":9671,"187":9672,"Ġsbi":9673,"1600":9674,"ĠLatest":9675,"239":9676,"ĠYear":9677,"ension":9678,"Ġà¤Ĩà¤Īà¤ıà¤«à¤ıà¤¸à¤¸":9679,"NOU":9680,"ĠPUBG":9681,"Ġà¤°à¤¦à¤°à¤«":9682,"Gujarat":9683,"OO":9684,"cal":9685,"Ġà¤¸à¥ŀà¤°":9686,"à¤ªà¤¤à¤°":9687,"Ġà¤ľà¤¸à¤®":9688,"à¤ıà¤ıà¤®à¤¸":9689,"à¤ĩà¤Łà¤²à¤°":9690,"à¤¦à¤¨à¤¹":9691,"Ġà¤Ĩà¤Īà¤Ĩà¤°à¤ıà¤¸":9692,"à¤¬à¤²à¤¸":9693,"à¤ıà¤«à¤ıà¤ķ":9694,"atter":9695,"ĠPie":9696,"Ġ297":9697,"ĠUttar":9698,"ava":9699,"Ġà¥¨à¥¦à¥¦à¥¯":9700,"Ġà¤ľà¤¨à¤ķà¤²":9701,"Ġà¤Ĩà¤Īà¤ıà¤¸à¤ıà¤¸à¤ıà¤«":9702,"NET":9703,"Next":9704,"Te":9705,"iy":9706,"sb":9707,"Ġà¤µà¤¦":9708,"Ġà¤ļà¤ªà¤Ł":9709,"à¤¤à¤°à¤²":9710,"à¤ħà¤²à¤ķ":9711,"Ġà¤īà¤ªà¤¦à¤°":9712,"à¤¨à¤®à¤¯":9713,"à¤¬à¤°à¤¹":9714,"Ġ580":9715,"Ġà¤ħà¤ļà¤®":9716,"à¤¬à¤¸à¤µ":9717,"ergy":9718,"à¤ĩà¤¡à¤¸":9719,"ĠDM":9720,"Ġfl":9721,"osp":9722,"estival":9723,"INK":9724,"à¥§à¥¯à¥©":9725,"IADMK":9726,"ĠJanuary":9727,"480":9728,"NW":9729,"Poco":9730,"Tag":9731,"Ã¢":9732,"Ðµ":9733,"àµ":9734,"à¤°à¤ľà¤ª":9735,"à¤¤à¤Ī":9736,"Ġà¤¹à¤Ī":9737,"Ġà¤¦à¤¬à¤¨":9738,"à¥Ĥ!":9739,"Ġà¤Ńà¤Ĺà¤¨":9740,"Ġà¤ļà¤ķà¤°":9741,"à¤Ĺà¤°à¤¹":9742,"à¤Ĩà¤Īà¤Ĩà¤Īà¤¸":9743,"indust":9744,"à¤Ĩà¤ªà¤®":9745,"à¥Ģà¤Ĥ.\"":9746,"adav":9747,"à¤ıà¤¨à¤ıà¤²à¤¡":9748,"ancer":9749,"DUCT":9750,"Ġà¤¨à¤ľà¤«à¤Ĺà¤¢":9751,"nos":9752,"top":9753,"Î¼":9754,"à¥ĩà¥ģ":9755,"à¤¨à¤°à¤µ":9756,"à¥ĭ(":9757,"à¤²à¤¦à¤¸":9758,"Ġà¤¬à¥Ļ":9759,"à¤¶à¤¹à¤¦":9760,"1968":9761,"1952":9762,"ĠSu":9763,"ĠMal":9764,"ĠEd":9765,"Ġ331":9766,"Ġdevelopment":9767,"à¤ıà¤¨à¤ıà¤ıà¤®":9768,"Ġkhan":9769,"Ġ*.":9770,"560":9771,"back":9772,"jee":9773,"à±":9774,"à¥ĢâĢľ":9775,"à¤¤à¤¶à¤¤":9776,"Ġà¤Ĺà¤¹à¤®":9777,"Ġà¤ĩà¤®à¤²":9778,"à¥Ģà¥¤âĢĻ":9779,"Ġà¤¤à¤°à¤¨à¤¤":9780,"ĠSri":9781,"ĠRanveer":9782,"ĠBhatt":9783,"142":9784,"à¥Īà¤ĥ%":9785,"Ġâĺ»âĺ»â":9786,"DRF":9787,"TML":9788,"290":9789,"BA":9790,"Bharat":9791,"West":9792,"eme":9793,"no":9794,"wan":9795,"à¤°à¤ľà¤°":9796,"à¤Ĺà¤¹à¤®":9797,"Ġà¤Ĺà¤°à¤¬":9798,"Ġà¤Ĩà¤¬à¤°":9799,"Ġà¤Ĩà¤ĸà¤°":9800,"Ġà¤ıà¤¡à¤¬":9801,"Ġà¤ļà¤°à¤¬":9802,"à¤ĩà¤²à¤¨":9803,"à¤łà¤¯":9804,"à¤®à¤²à¤°":9805,"Ġà¤ıà¤¨à¤Īà¤¸":9806,"Ġà¤ªà¤°à¤®à¤¹":9807,"ĠSal":9808,"à¤ħà¤¬à¤ķ":9809,"star":9810,"reet":9811,"à¥Ļà¤¬":9812,"ĠHTML":9813,"ĠFC":9814,"à¤Ĩà¤Īà¤Ĩà¤°à¤¡":9815,"oli":9816,"Infin":9817,"Ġproject":9818,"Police":9819,"down":9820,"à¤²à¤¢":9821,"Ġà¤ľà¤ļ":9822,"Ġà¤µà¤Ł":9823,"à¤ļà¤°à¤µ":9824,"à¤īà¤¤à¤¨":9825,"Ġà¤Īà¤¸à¤°":9826,"à¤ıà¤¨à¤ıà¤®à¤¡":9827,"183":9828,"ĠKerala":9829,"Ġ3600":9830,"Ġ345":9831,"à¤¨à¤°à¤ķ":9832,"à¥ģà¤¾":9833,"à¤¦à¤ľà¤¨à¤ķ":9834,"Ġà¤°à¤ľà¤µ":9835,"à¤¡à¤°à¤¸":9836,"à¤ªà¤¤à¤²":9837,"à¤ıà¤®à¤Ĩà¤Īà¤¸":9838,"Ġà¤¸à¤®à¤Ŀà¤µ":9839,"à¤ıà¤«à¤ıà¤®à¤¸":9840,"147":9841,"etoo":9842,"urg":9843,"Ġ457":9844,"2400":9845,"à¤Ķà¤¸à¤¤à¤¨":9846,"aper":9847,"ists":9848,"Ġà¥§à¥¯à¥¯à¥¨":9849,"Ġà¤Ŀà¤Ĺà¥ľà¤¤":9850,"ĠAsia":9851,"Ay":9852,"Ass":9853,"br":9854,"ca":9855,"mar":9856,"à¤¯à¤¶à¤µ":9857,"à¥¤'":9858,"Ġà¤Ķà¤°à¤¨":9859,"à¤¾,\"":9860,"Ġ415":9861,"à¤µà¤²à¤ķà¤°":9862,"Ġà¤²à¤ķà¤µ":9863,"ĠBollywood":9864,"à¤ħà¤ªà¤µ":9865,"let":9866,"169":9867,"à¥ħà¤Ĥ":9868,"ĠUK":9869,"oney":9870,"Ġà¤ĳà¤²à¤Ĩà¤īà¤Ł":9871,"Ġà¤ĸà¥ľà¤Ĺ":9872,"ĠConst":9873,",\\\\":9874,"DT":9875,"HF":9876,"YC":9877,"ball":9878,"go":9879,"à¤°à¤½":9880,"à¤¹à¤Łà¤ķà¤°":9881,"à¥¤âĢĻ":9882,"à¤ĵà¤ıà¤®à¤¸":9883,"Ġà¤Ľà¥ľ":9884,"Ġà¤Ĩà¤°à¥Ľ":9885,"Ġ445":9886,"Ġ1915":9887,"Ġà¤¤à¤²à¤¸":9888,"ĠAtt":9889,"icket":9890,"Ġ261":9891,"176":9892,"Ø§Ø":9893,"Ġà¥¨à¥¦à¥§à¥¦":9894,"vention":9895,"uro":9896,"à¤¿âĢĻâĢĻ":9897,"à¤¯à¥ĺ":9898,"Ġà¤¹à¤µà¤¸":9899,"Ġà¤¯à¤ķà¤¸":9900,"à¤Łà¤°à¤Ĺ":9901,"à¤ģà¥¤\"\"\"":9902,"Ġà¤Ľà¤ªà¤¨":9903,"Ġà¤Ĩà¤°à¤ıà¤®":9904,"Ġ1912":9905,"Ġ1905":9906,"à¤¶à¤²à¤ı":9907,"ĠSUV":9908,"ĠAb":9909,"ĠAIMIM":9910,"à¤ħà¤ªà¤¶":9911,"thi":9912,"ĠUPI":9913,"275":9914,"Serv":9915,"à¤¿\\\\":9916,"à¤¹à¤ķà¤°":9917,"à¤§à¤®à¤¨":9918,"à¤Īà¤Ń":9919,"à¤Ľà¤ķ":9920,"à¤ĩà¤¨à¤ħà¤ª":9921,"Ġ1913":9922,"194":9923,"Ġà¤ķà¤¨à¤µà¤°":9924,"lex":9925,"à¤¿.,":9926,"ĠXUV":9927,"ustain":9928,"Ġà¤¹à¤łà¤§à¤°":9929,"Sa":9930,"à¤¸à¤¬à¤¨":9931,"Ġà¤ħà¤¨à¤¬":9932,"à¤§à¤¨à¤°":9933,"à¥Ľà¤°à¤¤":9934,"à¤ķà¤Łà¤ª":9935,"Ġà¤īà¤²à¤«":9936,"ĠSystem":9937,"à¤ħà¤Ńà¤¯":9938,"Ġà¤ĸà¤¡à¤¸":9939,"ĠNR":9940,"edule":9941,"Ġà¤¹à¤¥à¤Ĺ":9942,"136":9943,"ĠWomen":9944,"Ġtime":9945,"233":9946,"à¤Ĩà¤Īà¤ıà¤ıà¤²":9947,"abar":9948,"alaika":9949,"ards":9950,"open":9951,"xynos":9952,"à¤ļà¤¯à¤¨à¤ķà¤°":9953,"IndiaS":9954,"onda":9955,"Ġà¤¸à¤¹à¤°à¤¸":9956,"ĠLaunched":9957,"rowth":9958,"ĠÂłĠÂłĠÂłĠÂł":9959,"ĠGovernment":9960,"EA":9961,"trans":9962,"Ġà¤¸à¤¥":9963,"à¤Ĺà¤Ľ":9964,"à¥Īà¤ĤâĢĿ":9965,"Ġà¤ĩà¤¦à¤°":9966,"Ġà¤ļà¤®à¤ļ":9967,"à¤Ľà¤ķà¤°":9968,"Ġà¤Ĳà¤ļ":9969,"à¤¦à¤¨à¤ªà¤¤":9970,"Ġà¤ħà¤¸à¤«":9971,"à¤²à¤ķà¤¶":9972,"à¤ľà¤¯à¤Ĺà¤¢":9973,"à¥ĭà¥¤à¥¤":9974,"ĠRahul":9975,"ĠMus":9976,"Ġà¤ķà¤¥à¤ķ":9977,"à¤¨à¤¹à¤Ł":9978,"à¤Ĩà¤Īà¤ıà¤¸à¤Ĩà¤Īà¤ıà¤¸":9979,"Ġhealth":9980,"Ġ395":9981,"Ġà¥§à¥¯à¥¯à¥ª":9982,"Chandrayaan":9983,"tegr":9984,"Ġà¤¦à¤²à¤¬à¤¦à¤²":9985,"Infinix":9986,"MM":9987,"Mah":9988,"gmail":9989,"Î±":9990,"à¤²à¤Ĺà¤¢":9991,"à¤¦à¤¶à¤¨":9992,"à¤§à¤µà¤ª":9993,"Ġà¤Ķà¤°à¤īà¤¸à¤ķ":9994,"Ġà¤¤à¤²à¤¨":9995,"Ġà¤ıà¤ķà¤²à¤µ":9996,"Ġà¤ĩà¤¸à¤ª":9997,"Ġà¤¸à¤°à¤¸à¤°":9998,"204":9999,"à¤°à¤ľà¤Ń":10000,"ĠAmer":10001,"Ġ277":10002,"173":10003,"178":10004,"Ġcup":10005,"à¥ªà¥ª":10006,"Ġgroup":10007,"apur":10008,"Ġà¤¥à¤°à¤¥à¤°":10009,"à¥¬à¥¦":10010,"à¤ıà¤¨à¤Ĩà¤Īà¤ĵà¤ıà¤¸":10011,"ĠMix":10012,"ized":10013,"ĠBangladesh":10014,"à¤®à¤«à¤²":10015,"Ġ(.":10016,"à¤°à¤µà¤§":10017,"Ġ820":10018,"à¤°à¤¬à¤ķ":10019,"Ġà¤īà¤²à¥ŀà¤¤":10020,"ĠType":10021,"urv":10022,"ĠWWE":10023,"rial":10024,"ope":10025,"ĠISBN":10026,"Asus":10027,"ĠService":10028,"ĠInfinity":10029,"Lenovo":10030,"Nar":10031,"RT":10032,"Ram":10033,"pet":10034,"à¤£à¤ľ":10035,"à¤ħà¤ªà¤ķ":10036,"Ġ314":10037,"omb":10038,"152":10039,"ĠExynos":10040,"404":10041,"iving":10042,"ĠJDU":10043,"ĠStat":10044,"tain":10045,"âĹĨ":10046,"à¤ľà¤°à¤¦":10047,"Ġà¤ıà¤ıà¤®à¤Ł":10048,"Ġà¤¬à¤¤à¤ĸ":10049,"Ġà¤ıà¤¨à¤ıà¤¨":10050,"Ġà¤ħà¤Ĺà¤§à¤ķ":10051,"à¤ĩà¤ķà¤¬":10052,"Ġà¤ĭà¤Ĺ":10053,"167":10054,"Ġcbse":10055,"à¤¸à¤¹à¤ľ":10056,"International":10057,"istration":10058,"Ġà¤ªà¤¥à¤ª":10059,"à¥Ģ\"\",":10060,"redit":10061,"module":10062,"Ġà¤«à¥ľà¤¨à¤µ":10063,"For":10064,"How":10065,"Kar":10066,"Re":10067,"Tok":10068,"WB":10069,"âĿ":10070,"à¤°à¤Ĺà¤²":10071,"Ġà¤ªà¤ı":10072,"Ġà¤īà¤¹":10073,"Ġà¤Ĺà¤ľà¤¨":10074,"Ġ20000":10075,"à¤ıà¤¸à¤Ĩà¤Īà¤ª":10076,"Ġà¤Ŀà¤ª":10077,"Ġà¤¨à¤µà¤°à¤¤":10078,"Ġà¤®à¤¸à¤ĸ":10079,"aly":10080,"Ġà¤ĭà¤¦":10081,"ĠMay":10082,"à¤ĳà¤«à¤°":10083,"ita":10084,"Ġ405":10085,"Ġseries":10086,"urb":10087,"241":10088,"Ġà¥©à¥¦à¥¦":10089,"à¥§à¥¯à¥§":10090,"BSP":10091,"ĠColor":10092,"ĠÎ¼":10093,"??":10094,"ĠÃĹ":10095,"à¤²à¤Ĩà¤īà¤Ł":10096,"à¤®à¤°à¤®":10097,"Ġà¤µà¤²à¤¯":10098,"à¤ıà¤ıà¤ķ":10099,"à¤ħà¤¨à¤²":10100,"à¤ªà¤°à¤ĸ":10101,"Ġà¤Ĩà¤°à¤Īà¤¸":10102,"Ġà¤ĵà¤¶à¤¨":10103,"ĠâĢĿâĢľ":10104,"1966":10105,"ĠBAR":10106,"à¤¡à¤¨à¤Ĺà¤°":10107,"Ġ2800":10108,"Ġport":10109,"ISF":10110,"ĠChina":10111,"type":10112,"Asia":10113,"Ġtransl":10114,"----------------":10115,"ĠServices":10116,"RJD":10117,"dro":10118,"à¤¸à¤īà¤¦":10119,"à¤²à¤Ĺà¤°":10120,"Ġà¤¬à¤Ľ":10121,"à¤·à¤ļ":10122,"à¤¯à¤ķà¤®":10123,"à¤ıà¤¸à¤ıà¤Ĩà¤Ī":10124,"à¤ľà¤¬à¤°à¤¦à¤¸":10125,"1949":10126,"Ġà¤ıà¤®à¤Ĩà¤°à¤Ĩà¤Ī":10127,"ĠSensex":10128,"esis":10129,"à¤ĺà¤Łà¤¨à¤ķ":10130,"ĠFut":10131,"ĠIndust":10132,"Ġmaking":10133,"Ġà¤ľà¤Ĺà¤¤à¤¸":10134,"ument":10135,"aster":10136,"âĢİ)":10137,"khand":10138,"rophy":10139,"860":10140,"View":10141,"mat":10142,"ze":10143,"à¤µà¤ļà¤²":10144,"à¥ĩà¤Ĥ@":10145,"Ġà¤¬à¤Ļ":10146,"Ġà¤¦à¤¸à¤°":10147,"Ġà¤ªà¤°à¤¬":10148,"à¤Łà¤°à¤ļ":10149,"à¤®à¤²à¤ķ":10150,"Ġà¤¤à¤ķà¤ķ":10151,"à¤ªà¤°à¤ª":10152,"à¤Ĩà¤Īà¤ıà¤¸à¤Ł":10153,"Ġà¤¸à¤¬à¤®à¤°":10154,"Ġà¤¸à¤®à¤¯à¤ª":10155,"Ġà¤Īà¤Ĺà¤²":10156,"Ġà¤ľà¤²à¤ľà¤®":10157,"Ġ911":10158,"Ġà¤ıà¤®à¤Ĩà¤Īà¤ıà¤¸":10159,"215":10160,"151":10161,"2340":10162,"emi":10163,"emain":10164,"Ġ434":10165,"ords":10166,"Ġedu":10167,"?\"\"\"":10168,"EN":10169,"HIV":10170,"vis":10171,"à¤ĸà¤²à¤¤":10172,"à¤£à¤ķà¤°":10173,"Ġà¤ħà¤²à¤¬":10174,"à¤¦à¤°à¤Ń":10175,"Ġà¤ħà¤¸à¤Ń":10176,"à¤ıà¤²à¤ıà¤¨à¤ľ":10177,"Ġ25000":10178,"ĠSalman":10179,"Ġà¤ªà¤Łà¤ĸà¤¨":10180,"Ġ409":10181,"Ġ2600":10182,"181":10183,"113":10184,"ĠEcon":10185,"ula":10186,"232":10187,"Ġbse":10188,"ecosystem":10189,"à¤ıà¤Ĺà¤ıà¤¹":10190,"kshay":10191,"Ġà¤Ĩà¤°à¤Ĩà¤Īà¤ıà¤¨à¤ıà¤²":10192,"510":10193,"oom":10194,"à¥ĩà¤¿à¤¾":10195,"à¤®à¤Ĭ":10196,"Ġà¤Ķà¤°à¤ĩà¤¸":10197,"à¤ĸà¤®à¤¯":10198,"Ġà¤Ĳà¤²à¤¨":10199,"à¤ıà¤ļà¤µ":10200,"à¤ıà¤ļà¤ıà¤«à¤¡à¤¬":10201,"ĠSa":10202,"ĠPoco":10203,"reg":10204,"174":10205,"ĠEVM":10206,"ĠVS":10207,"459":10208,"à¥«à¥¦à¥¦":10209,"Ġà¥ļà¤°":10210,"Ġhigh":10211,"Ġà¥ªà¥©":10212,"à¤Īà¤ıà¤¸à¤ıà¤®":10213,"Ġgovern":10214,"Ġà¤Ĺà¤Ĺà¤¨à¤¯":10215,"eor":10216,"à¥Ģà¥Ĥ":10217,"à¤¤à¤¯à¤¶":10218,"à¤®à¤¸à¤²":10219,"à¤®à¤¶à¤¤":10220,"Ġà¤ħà¤¥à¤°":10221,"Ġà¤ķà¤°à¤¸à¤ķ":10222,"à¤ıà¤¸à¤ıà¤Ł":10223,"à¤µà¤¨à¤Ńà¤°":10224,"Ġà¤ĵà¤°à¤¸":10225,"Ġà¤ĵà¤Īà¤¸":10226,"à¤¨à¤µà¤¦":10227,"à¤¹à¤²à¤«à¤¨":10228,"Ġà¤ıà¤¨à¤Ĩà¤Īà¤ª":10229,"235":10230,"Ġà¤ķà¤®à¤²à¤ľ":10231,"267":10232,"Ġaf":10233,"Ġelectron":10234,"riculture":10235,"ike":10236,"emiconductor":10237,",%":10238,"Bh":10239,"Ġ>>":10240,"Ġà¤ķà¤°à¤£à¤µ":10241,"Ġà¤Ĩà¤¸à¤ķ":10242,"à¥ĩà¥¤âĢĻâĢĻ":10243,"à¤°à¤®à¤¶à¤ķ":10244,"Ġà¤Ĺà¤Īà¤¥":10245,"Ġà¤ĵà¤Ĩà¤Īà¤¸":10246,"Ġ990":10247,"anth":10248,"à¤ªà¤Łà¤¨à¤®":10249,"Ġà¥ĺà¤¦":10250,"à¥ĭ.\"":10251,"Ġdec":10252,"lymp":10253,"Ġdioxide":10254,"à¤īà¤ªà¤ķà¤ª":10255,"RBSE":10256,"UK":10257,"cell":10258,"ÂŃ":10259,"à¤¸à¤ļà¤°":10260,"à¤µà¤¸à¤°":10261,"Ġà¤Ĺà¤Ł":10262,"Ġà¤¶à¤¦":10263,"à¤Ĩà¤°à¤¤":10264,"à¤¸à¤°à¤¬à¤ľ":10265,"Ġà¤¬à¤¹à¤ķà¤°":10266,"Ġà¤ĵà¤¤à¤ª":10267,"Ġà¤¬à¤²à¤ķ":10268,"2030":10269,"Ġà¤łà¤¹":10270,"à¤§à¤°à¤ķà¤°":10271,"esia":10272,"ĠMad":10273,"212":10274,"Ġà¤ķà¤ķà¤¯":10275,"Ġserv":10276,"Ġà¤ĵà¤µà¤°à¤¹":10277,"257":10278,"163":10279,"141":10280,"à¤ıà¤®à¤ıà¤¸à¤Ĩà¤Ī":10281,"Ġncov":10282,"Ġhe":10283,"astic":10284,"Ġprocess":10285,"ĠArora":10286,"Ġà¥§à¥¯à¥®à¥¦":10287,"Ġà¤Ŀà¤Łà¤ªà¤Ł":10288,"UC":10289,"fli":10290,"Ġà¤ķà¤«à¤°":10291,"à¤¼!":10292,"à¤Īà¤¸à¤µ":10293,"Ġà¤ıà¤²à¤ķ":10294,"Ġà¤¸à¤®à¤·":10295,"à¤ģ:":10296,"0001":10297,"Ġà¤«à¤°à¤ľ":10298,"ĠNSA":10299,"211":10300,"à¤ªà¤¦à¤£":10301,"137":10302,"à¤ĭà¤ļ":10303,"Ġtrain":10304,"à¤Ķà¤²":10305,"rim":10306,"ARS":10307,"Ġà¤¬à¤¦à¤°à¤ª":10308,"à¤°à¤½à¤£":10309,"520":10310,"partic":10311,"à¤²à¤¸à¤°":10312,"à¤ªà¤²à¤°":10313,"à¤¥à¤ķà¤µ":10314,"à¤Ĩà¤¸à¤¨":10315,"Ġà¤§à¤¤":10316,"à¤Ĩà¤Īà¤Ĩà¤Īà¤ıà¤¸à¤ıà¤«":10317,"Ġà¤ĳà¤¥":10318,"203":10319,"Ġ1911":10320,"1930":10321,"Ġà¤µà¤¸à¤µà¤¸":10322,"Ġà¤ĩà¤¸à¤²à¤²à¤ı":10323,"ĠSolar":10324,"ĠPAK":10325,"ĠMon":10326,"ĠEC":10327,"ots":10328,"Ġpar":10329,"231":10330,"à¤ıà¤Ĩà¤Īà¤ıà¤«à¤ıà¤«":10331,"Ġà¤®à¤¸à¤²à¤¹à¤¤":10332,"ĠJune":10333,"emon":10334,"ters":10335,"379":10336,"à¤ıà¤¸à¤Ĩà¤Īà¤¬":10337,"PUBG":10338,"440":10339,"899":10340,"AG":10341,"à¥įà¥Ī":10342,"à¤¯à¤¶à¤°":10343,"à¤¹à¤ľà¤ķ":10344,"à¤¦à¤°à¤¸":10345,"à¥ĭà¤Ĥ]":10346,"à¤·à¤°à¤¶":10347,"à¤µà¤¨à¤¤":10348,"à¤¤à¤¨à¤µ":10349,"Ġ960":10350,"Ġ,âĢĺ":10351,"Ġint":10352,"Ġ358":10353,"226":10354,"ivil":10355,"355":10356,"376":10357,"Ġlist":10358,"prediction":10359,"âĻª":10360,"ariables":10361,"210":10362,"NH":10363,"oon":10364,"sub":10365,"Ġà¤¨à¤¨à¤¦":10366,"à¤·à¤°à¤§":10367,"à¤Īà¤µà¤¨":10368,"à¤ĩà¤£":10369,"à¤Łà¤°à¤ıà¤ķ":10370,"Ġà¤ıà¤¨à¤Ĺ":10371,"à¤Ĭà¤«":10372,"Ġà¤®à¤¸à¥Ļà¤°":10373,"ĠPort":10374,"ĠPAN":10375,"Ġà¤¤à¤²à¤ªà¤¡":10376,"ĠBy":10377,"ĠNO":10378,"ĠDD":10379,"ĠDr":10380,"Ġà¤ĵà¤µà¤°à¤Ł":10381,"ĠUAE":10382,"Ġ452":10383,"Ġocta":10384,"\"\"\"\",":10385,"epend":10386,"ĠYSR":10387,"ude":10388,"Ġà¤Ĥà¤¿":10389,"ĠIPC":10390,"ĠMSME":10391,"Union":10392,"ĠABVP":10393,"840":10394,"940":10395,"ci":10396,"ni":10397,"water":10398,"Ġà¤ľà¤¸à¤°":10399,"à¤ıà¤Ķà¤°":10400,"à¤¬à¤°à¤ķà¤¤":10401,"Ġà¤Ĩà¤¸à¤°":10402,"à¤īà¤¬à¤°":10403,"à¤¯à¤®à¤µà¤°":10404,"Ġà¤Ĩà¤ľà¤¸":10405,"à¤°à¤ªà¤¤à¤µ":10406,"Ġà¤ĳà¤«à¤¶":10407,"ĠPics":10408,"154":10409,"159":10410,"248":10411,"234":10412,"ries":10413,"Ġà¥«à¥¦à¥¦":10414,"Ġà¥¬à¥«":10415,"ĠStreaming":10416,"ourn":10417,"Ġbiharboard":10418,"Ne":10419,"RP":10420,"less":10421,"mun":10422,"Ġà¤ķà¤¸à¤¦":10423,"à¤¹à¤ı":10424,"Ġà¤°à¤µà¤¨":10425,"Ġà¤²à¤¬à¤°":10426,"à¤¡à¤®à¤°":10427,"Ġà¤Ķà¤°à¤µ":10428,"à¤¼à¥°":10429,"à¤«à¤Ī":10430,"à¤µà¤°à¤¹":10431,"à¤ªà¤°à¤¬":10432,"à¤²à¤¨à¤ª":10433,"à¤ıà¤¸à¤ıà¤®à¤¸":10434,"à¤ıà¤¸à¤ıà¤®à¤Ī":10435,"Ġ411":10436,"à¤¡à¤²à¤®":10437,"à¤¯à¤ªà¤°à¤ķ":10438,"ĠCha":10439,"ĠTDP":10440,"ĠâĢĻ?":10441,"Ġ359":10442,"âĢĮà¥į":10443,"ury":10444,"Ġ346":10445,"Ġday":10446,"à¤°à¤¥à¤®à¤¤":10447,"Ġà¤«à¤¡à¤¨à¤µ":10448,"à¤¸à¤®à¤Ŀà¤¦":10449,"à¤Ĩà¤Īà¤Ĩà¤Īà¤ıà¤«":10450,"Ġà¤¦à¤ĸà¤²à¤ħ":10451,"Ġrajasthan":10452,"ĠSpecifications":10453,"à¤ķà¤¢":10454,"à¤¸à¥Ľ":10455,"à¤¸à¤ĵà¤µà¤°":10456,"à¥Ī\"\",":10457,"Ġà¤ľà¤«":10458,"à¤Īà¤ıà¤¸à¤ª":10459,"à¥Īà¤Ĥ--":10460,"à¤«à¥ľ":10461,"à¤łà¤¸":10462,"à¤ľà¤¨à¤Ĺà¤£à¤¨":10463,"à¤Łà¤°à¤°":10464,"Ġà¤ĳà¤Ĺà¤¸":10465,"à¤¾à¤ģ?":10466,"à¤Ĩà¤°à¤¡à¤¬":10467,"à¤ıà¤¨à¤ĵ":10468,"à¤Ĭà¤¥":10469,"à¤¬à¤¨à¤Ĺà¤°":10470,"ĠCB":10471,"disha":10472,"216":10473,"Ġ2700":10474,"ĠOlymp":10475,"249":10476,"ample":10477,"ufacturing":10478,"CH":10479,"Ed":10480,"gh":10481,"à¤¿]":10482,"à¤¸à¤¥":10483,"à¥Īà¥Ī":10484,"à¤¦à¤ªà¤¤":10485,"Ġà¤Ķà¤°à¤ķ":10486,"Ġà¤ļà¤ªà¤°":10487,"à¤°à¤¤à¤ª":10488,"âĢĻ.":10489,"Ġ620":10490,"Ġà¤ıà¤¨à¤ıà¤²":10491,"Ġà¤ıà¤®à¤Ĩà¤Īà¤Ł":10492,"Ġà¤ıà¤®à¤Ĩà¤Īà¤ľ":10493,"à¤ľà¤¸à¤µ":10494,"Ġà¤¯à¤¦à¤¦":10495,"Ġ1898":10496,"ĠRed":10497,"ĠNm":10498,"253":10499,"Ġtoday":10500,"oga":10501,"à¤ıà¤¸à¤ıà¤«à¤Ĩà¤Ī":10502,"ĠConstable":10503,"Tata":10504,"nm":10505,"à¤¿à¥ĭ":10506,"à¤¨à¤µà¤¸":10507,"à¤¸à¤ĳà¤«":10508,"Ġà¤¨à¤¤à¤®à¤¸":10509,"à¤Łà¤Ī":10510,"à¤ľà¤ĺà¤°":10511,"à¤¥à¤ľ":10512,"à¤«à¤ıà¤ķ":10513,"à¤ĩà¤«à¤°":10514,"à¤°à¤¤à¤°":10515,"Ġà¤ĸà¤°à¤¸":10516,"à¤¯à¤¹à¤¹":10517,"à¤¬à¤°à¤¶":10518,"à¤®à¤¨à¤ªà¤¸":10519,"Ġà¤ħà¤¬à¤ķ":10520,"ĠMate":10521,"ĠMac":10522,"ĠNG":10523,"164":10524,"à¥Ģ?\"\"":10525,"ĠWe":10526,"adu":10527,"263":10528,"acter":10529,"Ġà¤ªà¤£à¤§":10530,"gression":10531,"à¤¹à¤°à¤¦à¤Ĺ":10532,"PRODUCT":10533,"375":10534,"GI":10535,"Sara":10536,"Ġà¥Ĥ":10537,"Ġà¤¸à¤¨à¤¸":10538,"à¤µà¤ªà¤¨":10539,"à¤Ĺà¤ĸ":10540,"Ġà¤°à¤¸à¤²":10541,"à¤¬à¤¸à¤°":10542,"Ġà¤ħà¤²à¤ª":10543,"192":10544,"1967":10545,"alent":10546,"Ġà¤ıà¤²à¤Ĳ":10547,"ĠCP":10548,"ĠTrophy":10549,"reed":10550,"Ġà¤Ĩà¤¹à¤µ":10551,"Ġà¤ķà¤ļà¤¹à¤°":10552,"ota":10553,"ĠOut":10554,"Ġtemperature":10555,"Ġ3300":10556,"Ġnumber":10557,"269":10558,"rist":10559,"acity":10560,"à¤ħà¤Ĺà¤°à¤¤à¤²":10561,"Ġà¤ıà¤¨à¤ıà¤ļà¤Ĩà¤°à¤¸":10562,"ĠBlue":10563,"Ġà¤²à¤ĸà¤¨à¤ª":10564,"IndiaSeva":10565,"Se":10566,"Ġà¤¬à¤Ľà¥ľ":10567,"à¤ļà¤²à¤ķà¤°":10568,"à¤«à¤ľà¤Ī":10569,"Ġà¤¬à¤¢à¥ĺà¤°":10570,"Ġ\"\"(":10571,"1964":10572,"à¥ĩ--":10573,"Ġà¤Ńà¤µà¤Ń":10574,"à¤¶à¤®à¤¶":10575,"à¤Ĩà¤Ĺà¤ľà¤¨":10576,"Ġ362":10577,"à¤ıà¤¨à¤ıà¤¸à¤ĵ":10578,"à¥Ĥ):":10579,"Ġbut":10580,"Ġ389":10581,"à¤Ĩà¤Īà¤ıà¤®à¤ıà¤¸à¤Ł":10582,"harkhand":10583,"388":10584,"à¤ªà¥ľà¤¤":10585,"Ġà¥§à¥¯à¥¯à¥©":10586,"à¤¾âĢĿà¥¤":10587,"glesia":10588,"ĠÎ²":10589,"WC":10590,"log":10591,"à¤¤à¤ķà¤¤":10592,"à¤ľà¤ķà¤ª":10593,"Ġà¤Ķà¤°à¤ª":10594,"Ġà¤ıà¤¤à¤¬":10595,"Ġà¤ĩà¤¥à¤¨":10596,"Ġà¤īà¤ªà¤¤":10597,"à¤²à¤¨à¤°à¤¤":10598,"Ġà¤Ĳà¤µà¤ľ":10599,"à¤ıà¤¨à¤ĵà¤¸":10600,"Ġà¤ħà¤¬à¤¦":10601,"à¤ıà¤²à¤ıà¤¡":10602,"ĠSub":10603,"ĠCan":10604,"Ġà¤¸à¤«à¤²à¤¤à¤®":10605,"189":10606,"ĠDi":10607,"rel":10608,"Ġ322":10609,"unya":10610,"ĠKe":10611,"ĠOct":10612,"ĠJob":10613,"Ġà¥¨à¥¦à¥¦à¥ª":10614,"ĠÎ±":10615,"à¤µà¤²à¤¨à¤¶":10616,"enefit":10617,".âĢĻ":10618,"OM":10619,"da":10620,"ghan":10621,"à¥Ģà¤¾":10622,"à¤Ĥà¤¿":10623,"à¥ĭ|":10624,"à¥ĭ\\\\":10625,"à¤¹à¤ļà¤°":10626,"Ġà¤®à¤®à¤¨":10627,"à¥Īà¤ģà¥¤":10628,"Ġà¤ħà¤¦à¤°":10629,"Ġà¤Ķà¤°à¤¦":10630,"à¤Īà¤Ĺà¤µ":10631,"Ġ(+":10632,"\"\"),":10633,"Ġ5500":10634,"Ġà¤ıà¤®à¤ıà¤¸à¤Ī":10635,"esari":10636,"Ġà¤ıà¤¯à¤°à¤ıà¤¶":10637,"Ġà¤¶à¤¬à¤¨à¤®":10638,"ites":10639,"ĠGreat":10640,"ĠDef":10641,"ĠLim":10642,"Ġ373":10643,"odhya":10644,"Ġla":10645,"ĠStore":10646,"ĠSmartphone":10647,"predictors":10648,"ography":10649,"EPFO":10650,"eemain":10651,"ted":10652,"à¤Ĥà¥Ī":10653,"à¤®à¤¸à¤°":10654,"Ġà¤¹à¤¸à¤¦":10655,"à¤¦à¤Ĺà¤¢":10656,"Ġà¤Ńà¤°à¤µ":10657,"à¤¥à¤°à¤µ":10658,"à¤ĸà¤¯":10659,"Ġà¤°à¤¹à¤µ":10660,"à¤Ĩà¤ķà¤¸":10661,"à¤¢à¤²":10662,"Ġà¤§à¤¨à¤ķ":10663,"Ġà¤Ĩà¤°à¤ıà¤®à¤ıà¤²":10664,"à¥Ĥà¤Ĥà¥¤âĢĿ":10665,"à¤²à¤ķà¤°à¤¨":10666,"ĠMumbai":10667,"ĠNord":10668,"Ġ394":10669,"hana":10670,"à¥Ńà¥¦":10671,"Ġà¤ļà¤®à¤ķà¤¨":10672,"à¥§à¥¯à¥«":10673,"Ġà¤¤à¤¹à¤ĸ":10674,"uki":10675,"RRB":10676,"ĠAmb":10677,"Ġtechnical":10678,"flix":10679,"390":10680,"cd":10681,"dress":10682,"à¥ĭâĢĿ":10683,"Ġà¤ħà¤¹à¤°":10684,"à¤Ĩà¤¯à¤¶":10685,"à¤°à¤¸à¤®":10686,"à¤¼à¥ĩ?":10687,"à¤§à¤¨à¤Ĺà¤°":10688,"à¤Ĩà¤°à¤Ĩà¤Īà¤ıà¤¸":10689,"208":10690,"à¤²à¤¬à¤¦":10691,"Ġ632":10692,"à¤ıà¤¨à¤Ĩà¤Īà¤¡":10693,"Ġ1910":10694,"Ġ1916":10695,"à¤ĩà¤²à¤Ł":10696,"à¤°à¤ªà¤°à¤ķ":10697,"à¤ĸà¤°à¤¡":10698,"ats":10699,"213":10700,"à¥ĭ).":10701,"rap":10702,"umer":10703,"Ġwh":10704,"ĠYadav":10705,"Ġà¤®à¤¦à¤¨à¤²":10706,"420":10707,"Ø¹":10708,"à¥ĩâĢĺ":10709,"à¤¨à¤¨à¤ķ":10710,"à¤¤à¤ªà¤°":10711,"à¤²à¤ıà¤ļà¤¡":10712,"à¥Ī\\\"\"":10713,"à¥ģ/":10714,"âĢ²":10715,"à¤¶à¤¨à¤Ĺà¤¢":10716,"Ġà¤Ľà¤ªà¤µ":10717,"Ġà¤ĵà¤ĸ":10718,"Ġ419":10719,"Ġà¤ľà¤°à¤¨à¤²":10720,"2025":10721,"Ġ670":10722,"\"\"\"âĢľ":10723,"1957":10724,"à¤ķà¤ªà¤²":10725,"Ġà¤ħà¤¶à¤°":10726,"Ġà¤ıà¤ļà¤ıà¤«à¤¸":10727,"amic":10728,"ĠDiwali":10729,"ely":10730,"ules":10731,"ĠUGC":10732,"471":10733,"ister":10734,"à¤ļà¤®à¤¡":10735,"ĠZen":10736,"Ġtour":10737,"ĠAnn":10738,"Ġà¤ıà¤Ĩà¤Īà¤¯":10739,"ensity":10740,"ĠRailway":10741,"iciency":10742,"630":10743,"vid":10744,"à¥ĩà¤¾à¤Ĥ":10745,"à¤¤à¤¹à¤ķ":10746,"Ġà¤®à¥ĺ":10747,"à¤Ĺà¤Ĩà¤īà¤Ł":10748,"Ġà¤Ķà¤°à¤īà¤¸":10749,"à¤Ĩà¤°à¤®":10750,"Ġà¤ĺà¤ªà¤²":10751,"Ġà¤¤à¤°à¤¬":10752,"Ġ690":10753,"Ġà¤¬à¤¦à¤Ĺ":10754,"Ġà¤¢à¤²à¤¤":10755,"alk":10756,"ĠSummit":10757,"Ġà¤¡à¤°à¤ķà¤°":10758,"ĠTrain":10759,"raw":10760,"Ġcan":10761,"Ġ327":10762,"âĢĮ.":10763,"Ġthat":10764,"ATA":10765,"Ġà¥¨à¥¦à¥¦à¥©":10766,"à¥ĪâĢĻ.":10767,"Ġupd":10768,"outube":10769,"ribution":10770,"amily":10771,"CJI":10772,"DE":10773,"Ġà¤ķà¤ľà¤°":10774,"Ġà¤ķà¥Ľ":10775,"à¤¿''":10776,"à¤¬à¤Ĺà¤²":10777,"à¥Īà¥¤\"\"\"\"\"\"\"":10778,"à¤ĸà¤°à¤¹":10779,"à¤°à¤ķà¤¨":10780,"Ġà¤īà¤ªà¤¸à¤°":10781,"à¤®à¤¨à¤¨":10782,"Ġà¤ĵà¥ľ":10783,"Ġ447":10784,"Ġà¤Ĩà¤Īà¤ıà¤¨":10785,"à¤Ĳà¤ªà¤²":10786,"198":10787,"Ġ12000":10788,"Ġà¤¶à¤¹à¤°à¤µ":10789,"ality":10790,"ĠPand":10791,"ĠRS":10792,"188":10793,"unt":10794,"ĠVi":10795,"285":10796,"Ġ385":10797,"Ġ448":10798,"à¥®à¥¦":10799,"Ġà¥«à¥«":10800,"ĠChampions":10801,"ĠPaytm":10802,"ĠMedical":10803,"HA":10804,"Hindi":10805,"def":10806,"gital":10807,"Ġ<":10808,"à¤¤à¤®à¤¨":10809,"Ġà¤®à¤ľà¤¨":10810,"à¤Ĺà¥Ľ":10811,"à¤ıà¤®à¤¨":10812,"Ġà¤Ĺà¤¦à¤Ĺ":10813,"Ġà¤ıà¤ľà¤¬":10814,"Ġà¤¯à¤²":10815,"à¤ĩà¤Łà¤ķ":10816,"à¤īà¤¦à¤°":10817,"à¤¯à¤®à¤¤":10818,"à¤¯à¤¤à¤ķ":10819,"Ġà¥Ŀ":10820,"Ġ536":10821,"1958":10822,"ĠSupp":10823,"157":10824,"1500":10825,"255":10826,"Ġ449":10827,"555":10828,"comet":10829,").\"":10830,"icromax":10831,"reatment":10832,"Ġà¤¨à¤¯à¤¨à¤¤":10833,"eatures":10834,"BMW":10835,"Motorola":10836,"system":10837,"Ø¬":10838,"à¤¼à¥Ģà¤Ĥ,":10839,"à¤Īà¤ıà¤®à¤ıà¤²":10840,"Ġà¤ªà¤°à¤Ľ":10841,"à¤ĸà¤ĸ":10842,"à¤¯à¤¨à¤¹":10843,"Ġà¤ĳà¤īà¤Ł":10844,"Ġà¤ħà¤¦à¤¬":10845,"à¤·à¤¯à¤£":10846,"ĠSw":10847,"ĠSqu":10848,"ĠIAF":10849,"road":10850,"oms":10851,"oman":10852,"222":10853,"Ġ436":10854,"option":10855,"Ġà¤ļà¤Łà¤Ĺ":10856,"ATO":10857,"ISL":10858,"Ġà¤Ĩà¤īà¤Łà¤ķà¤®":10859,"à¤ıà¤¨à¤ıà¤«à¤ıà¤¸à¤ı":10860,"lims":10861,"IGNOU":10862,"à¤ľà¤¯à¤¦à¤¶à¤®":10863,"Ġchange":10864,"PD":10865,"à¤¾âĢĭ":10866,"à¥ĩà¤ĤâĢľ":10867,"Ġà¤ıà¤ıà¤®à¤ľ":10868,"Ġà¤¯à¤¹à¤¯":10869,"Ġ510":10870,"Ġà¤¬à¤ļà¤ķ":10871,"à¤ªà¤ķà¤¨":10872,"à¥Ľà¤¦":10873,"esk":10874,"ĠNick":10875,"Ġ291":10876,"166":10877,"ĠFHD":10878,"406":10879,"illi":10880,"ĠVirat":10881,"ĠWar":10882,"Ġ367":10883,"ĠJuly":10884,"à¥¨à¥¬":10885,"334":10886,"Ġà¥Ńà¥«":10887,"Ġà¤¨à¤°à¤®à¤ª":10888,"ikTok":10889,"ensite":10890,"Ġyear":10891,"ĠArmy":10892,"ternet":10893,"à¤¹à¤¥à¤ķà¤°à¤ĺ":10894,"ĠKarunya":10895,"Ġnetwork":10896,"025":10897,"FT":10898,"Rahul":10899,"ae":10900,"col":10901,"set":10902,"vin":10903,"Ġà¤¹à¤Ĺ":10904,"Ġà¤¨à¤¥":10905,"à¤¡à¤¨à¤ķ":10906,"à¤īà¤¬à¤²":10907,"à¤ħà¤µà¤¤":10908,"Ġà¤¤à¤°à¤¸à¤¤":10909,"à¤ıà¤®à¤ıà¤¸à¤Ī":10910,"Ġ570":10911,"Ġà¤ħà¤ªà¤ļ":10912,"à¤ıà¤«à¤Ĩà¤Īà¤Ĩà¤Ī":10913,"ĠâĢĿ!":10914,"à¥Ģ--":10915,"à¤ķà¤Łà¤¸":10916,"Ġ1899":10917,"Ġà¤¹à¤¸à¤¬":10918,"ĠCap":10919,"ĠNDRF":10920,"lement":10921,"158":10922,"ĠFund":10923,"elangana":10924,"ĠEdition":10925,"Ġà¤¸à¤¦à¤°à¤²":10926,"anta":10927,"glish":10928,"à¤īà¤ªà¤¨à¤Ĺà¤°":10929,"uck":10930,"Ġcheck":10931,"ĠLeague":10932,"SU":10933,"ware":10934,"Ã³":10935,"Ú©":10936,"à¤²à¤ĸà¤¨":10937,"à¥ĪâĢľ":10938,"Ġà¤¥à¤ķà¤¤":10939,"Ġ(âĢľ":10940,"à¤®à¤ķà¤¶":10941,"Ġà¤łà¤Ĺà¤¨":10942,"Ġ1881":10943,"ĠChief":10944,"Ġ502":10945,"ication":10946,"Ġà¤Ĺà¤łà¤¬à¤¨":10947,"Ġà¤ĵà¤µà¤°à¤¬":10948,"Ġpower":10949,"ĠWindows":10950,"cember":10951,"Ġfirst":10952,"à¤ıà¤®à¤Īà¤Ĩà¤°à¤Ĩà¤Ī":10953,"387":10954,"à¥ĩà¤Ĥ:-":10955,"elling":10956,"ĠICMR":10957,"Ġlead":10958,"uzuki":10959,"à¯į":10960,"din":10961,"oin":10962,"tar":10963,"Î¿":10964,"Ùĥ":10965,"Ġ}":10966,"à¤ķà¤¹à¤®":10967,"à¤¯à¤ļà¤°":10968,"à¤Ĺà¤¦à¤¸":10969,"Ġà¤Ńà¤Ń":10970,"à¤¥à¤°à¤¨":10971,"à¤Ĩà¤Īà¤ıà¤®à¤¸":10972,"à¤ĺà¤¸":10973,"202":10974,"à¤¤à¤ķà¤¬":10975,"à¤¡à¤²à¤µ":10976,"à¥Ľà¤¹":10977,"Ġà¤ıà¤¨à¤ıà¤²à¤¸":10978,"Ġà¤¢à¤°":10979,"à¤°à¤ļà¤°à¤£":10980,"à¤¾:%":10981,"ĠNT":10982,"ĠNot":10983,"ĠFA":10984,"Ġclass":10985,"Ġ369":10986,"357":10987,"à¤®à¤¶à¤°à¤£":10988,"Ġà¤ıà¤¬à¤Ł":10989,"à¤¯à¤Ńà¤Ł":10990,"ney":10991,"à¤¾\"\".\"":10992,"imum":10993,"Ġà¤¹à¤°à¤®à¤¨":10994,"à¥Īà¤Ĥà¤ĥ-":10995,"uja":10996,"JKBOSE":10997,"$$":10998,"3000":10999,"Book":11000,"El":11001,"Sanj":11002,"dha":11003,"fess":11004,"sch":11005,"à¥ĩà¤ĤâĢĿ":11006,"à¤Ĩà¤«à¤¤":11007,"à¤ľà¤¨à¤ķà¤°":11008,"à¤¯à¤®à¤²":11009,"à¤°à¤£à¤µà¤¶":11010,"Ġà¤¤à¤°à¤¨":11011,"à¤¹à¤®à¤ĸ":11012,"à¤Ĩà¤Īà¤ıà¤«à¤Ł":11013,"Ġà¤ĵà¤Ĺ":11014,"Ġà¤Ĩà¤Īà¤Ĩà¤Īà¤ıà¤¸à¤ıà¤«":11015,"Ġà¤ľà¤²à¤¡à¤®à¤°":11016,"à¤°à¤¬à¤²à¤¤":11017,"Ġà¤¨à¤µà¤µ":11018,"302":11019,"ĠFilm":11020,"Ġinc":11021,"Ġà¤Ĩà¤¦à¤°à¤ª":11022,"143":11023,"ĠUAN":11024,"237":11025,"356":11026,"à¥¨à¥«":11027,"Ġhas":11028,"Ġ463":11029,"aks":11030,"ept":11031,"Ġeffect":11032,"à¤Ĩà¤°à¤ıà¤²à¤¡":11033,"Ġà¥§à¥¯à¥®à¥¯":11034,"Ġà¤Ńà¤°à¤£à¤ª":11035,"Ġà¤ļà¤¤à¤°à¤¥":11036,"HE":11037,"Rohit":11038,"TMC":11039,"ba":11040,"pon":11041,"uch":11042,"à¶":11043,"à¥ĢâĢĺ":11044,"à¤¹à¤²à¤ķ":11045,"Ġà¤®à¤¯à¤ª":11046,"à¤ªà¤²à¤ķ":11047,"Ġà¤ħà¤Łà¤µ":11048,"Ġà¤Ķà¤°à¤®":11049,"Ġà¤Ĩà¤ĩà¤µà¤°":11050,"à¤ĩà¤¸à¤µ":11051,"à¤¸à¤°à¤ķà¤°":11052,"à¥Ī,\"":11053,"à¤¹à¤°à¤ª":11054,"Ġà¤īà¤ªà¤µà¤°":11055,"à¤¨à¤ķà¤ª":11056,"à¤¸à¤¨à¤Ĺà¤°":11057,"Ġà¤Ŀà¤Ĺà¥ľà¤¨":11058,"Ġà¤¦à¤²à¤Ĺà¤¤":11059,"ĠBSE":11060,"itor":11061,"à¤²à¤Ńà¤¤":11062,"ilver":11063,"Ġà¤Ńà¤°à¤¤à¤¨":11064,"Ġproduct":11065,"à¤ıà¤¸à¤ĵà¤ľ":11066,"trance":11067,"à¤°à¤¹à¤®à¤¤":11068,"à¥įà¥ĩà¤Ĥ":11069,"Ġà¤®à¤ķà¤¸":11070,"Ġà¤¨à¤¸à¤¬":11071,"Ġà¤¤à¤Ĺ":11072,"à¤¨à¤®à¤¤":11073,"Ġà¤¸à¤¹à¤²":11074,"à¤ıà¤®à¤ıà¤¨":11075,"Ġ429":11076,"à¤ıà¤ķà¤¸":11077,"Ġà¤ªà¤¡à¤¨":11078,"Ġà¤ıà¤¸à¤ıà¤²":11079,"Ġ1906":11080,"à¥ĩà¤Ĥà¥¤\"\"":11081,"any":11082,"alli":11083,"à¤ıà¤ļà¤ıà¤«à¤¸":11084,"ĠSam":11085,"ĠNav":11086,"lear":11087,"à¥ªà¥¦":11088,"istics":11089,"Ġà¤ĵà¤Ŀà¤²":11090,"insic":11091,"Ġà¤ıà¤¨à¤Īà¤ıà¤«à¤Ł":11092,"Ġagainst":11093,"PAN":11094,"Ġà¤¸à¤Ĩà¤¦à¤¤":11095,"Ġà¤®à¤¡à¤Ĺ":11096,"Ġà¤ªà¤Ļ":11097,"à¤ıà¤ıà¤«à¤¸":11098,"Ġà¤ĩà¤°à¤µ":11099,"Ġà¤¡à¤«":11100,"à¤Ĺà¤°à¤ľ":11101,"Ġà¤Ĳà¤Ł":11102,"ĠAC":11103,"à¤°à¤ļà¤£":11104,"ĠRet":11105,"ĠMag":11106,"Ġ2300":11107,"179":11108,"254":11109,"ĠFull":11110,"Ġà¤Ńà¤Łà¤ķà¤²":11111,"Ġ485":11112,"282":11113,"498":11114,"à¤¼à¥ĩà¤Ĥ:-":11115,"Ġrate":11116,"Probability":11117,"Ġnews":11118,"anguage":11119,"ĠCamera":11120,"040":11121,"640":11122,"Diwali":11123,"PC":11124,"eth":11125,"Ðº":11126,"Ġeng":11127,"à¥ĩâĢĶ":11128,"à¤Łà¤ľà¤¨":11129,"Ġà¤¬à¤Łà¤°":11130,"Ġà¤ľà¤ľà¤®":11131,"Ġà¤«à¤¯":11132,"Ġ(*":11133,"à¤ĩà¤¸à¤Ńà¤²à¤ı":11134,"à¤¬à¤²à¤µ":11135,"Ġà¤¨à¤°à¤¬":11136,"à¤°à¤²à¤ı":11137,"anbir":11138,"à¤ĳà¤¬":11139,"lean":11140,"rac":11141,"ĠOF":11142,"Ġ649":11143,"ĠUG":11144,"à¤ĭà¤¦":11145,"Ġmin":11146,"Ġmon":11147,"277":11148,"Ġ392":11149,"384":11150,"à¥Ģà¥°)":11151,"Ġ`%":11152,"news":11153,"747":11154,"Cent":11155,"à¤®à¤¸à¤Ń":11156,"Ġà¤ħà¤©":11157,"à¤¶à¤¹à¤¨":11158,"Ġà¤ļà¤ªà¤¤":11159,"à¤Ĩà¤ĩà¤ľ":11160,"à¤¼à¤¾:":11161,"à¤īà¤¨à¤Ł":11162,"Ġà¤ħà¤²à¤«":11163,"Ġà¤ĩà¤¨à¤¹":11164,"à¤ķà¤²à¤ª":11165,"Ġ',":11166,"Ġà¤Ĩà¤Īà¤ĵ":11167,"Ġà¤®à¤¨à¤¹":11168,"Ġ1901":11169,"Ġà¤ıà¤®à¤ıà¤ļà¤Ĩà¤°à¤¡":11170,"inu":11171,"Ġà¤¤à¤°à¤«à¤¦":11172,"ĠCD":11173,"ĠCorpor":11174,"Ġà¤®à¤ķà¤¬":11175,"ĠGPU":11176,"ĠLINK":11177,"Ġà¤¬à¤®à¤µà¤°":11178,"Ġ.....":11179,"ĠEntrance":11180,"ancial":11181,"ĠSchedule":11182,"lectric":11183,"Ġà¤ľà¤¯à¤¨à¤Ĺà¤°":11184,"221":11185,"Char":11186,"EWS":11187,"KL":11188,"OR":11189,"ven":11190,"ËĲ":11191,"à¤ıà¤£":11192,"Ġà¤¤à¤«à¤¤":11193,"Ġà¤ıà¤Ĩà¤Īà¤Ł":11194,"Ġà¤¶à¤Łà¤°":11195,"Ġà¤¨à¤¹à¤²":11196,"à¤Ĩà¤ī":11197,"Ġ2035":11198,"à¤Ŀà¤Łà¤ķ":11199,"Ġà¤Ľà¤¬":11200,"Ġà¤ĵà¤¯":11201,"Ġà¤ĵà¤ıà¤®à¤¸":11202,"à¥Īà¤Ĥ,\"\"":11203,"Ġ444":11204,"Ġà¤ľà¤¨à¤Ķà¤·à¤§":11205,"Ġà¤ıà¤¸à¤ıà¤¨à¤¸":11206,"à¤Ĳà¤Ĺ":11207,"197":11208,"à¤ľà¤¸à¤¹":11209,"ĠFr":11210,"rah":11211,"447":11212,"ĠVaccine":11213,"ĠUp":11214,"246":11215,"Ġ361":11216,"emple":11217,"Ġdr":11218,"Ġà¤Ĩà¤Īà¤ıà¤Ĩà¤°à¤Ĩà¤Ī":11219,"à¤Ĩà¤Īà¤ıà¤«à¤Ĩà¤°":11220,"ĠØ¨":11221,"ĠDecember":11222,"VA":11223,"ole":11224,"à¤¿âĢľ":11225,"à¤²à¤Ĺà¤¨":11226,"Ġà¤¹à¤¬à¤ķ":11227,"à¤ļà¤ļ":11228,"Ġà¤Ĺà¤Ľ":11229,"à¤ıà¤¸à¤ıà¤ª":11230,"à¤¾à¤ģ!":11231,"Ġà¤ħà¤®à¤°à¤ķ":11232,"Ġà¤Ĩà¤µà¤¦":11233,"Ġà¤ľà¤¨à¤¶":11234,"Ġà¤ĺà¤°à¤¬":11235,"anic":11236,"itiz":11237,"ĠDual":11238,"otal":11239,"urder":11240,"à¤ĭà¤Ĺ":11241,"Ġà¤ħà¤Łà¤ªà¤Ł":11242,"Ġ347":11243,"à¤¸à¤«à¤¦à¤°à¤ľ":11244,"Ġ381":11245,"ĠExams":11246,"undai":11247,")âĢĿ":11248,"660":11249,"Aadhaar":11250,"bose":11251,"paid":11252,"Ġic":11253,"Ġann":11254,"à¤¤à¤µà¤ª":11255,"Ġà¤®à¤²à¤µ":11256,"à¤ıà¥ĺ":11257,"à¤¡à¤ıà¤«à¤ıà¤¸":11258,"à¤ĩà¤ĸ":11259,"à¥Ģà¤Ĥ...":11260,"Ġà¤Łà¤¬":11261,"Ġà¤¡à¤ķà¤µà¤°":11262,"à¤¾.)":11263,"Ġà¤ĩà¤¨à¤ľ":11264,"à¥ĩ.âĢĻ":11265,"Ġà¤ĺà¤°à¤ĺ":11266,"Ġà¤Ĩà¤®à¤¸à¤Ń":11267,"Ġ1893":11268,"ĠSSLC":11269,"Ġà¤ıà¤«à¤ĵà¤¬":11270,"à¥ĭ)à¥¤":11271,"Ġ||":11272,"idd":11273,"652":11274,"Ġà¥ļà¤®":11275,"à¦¨":11276,"aily":11277,"à§ĩ":11278,"Ġitem":11279,"ĠFutures":11280,"1125":11281,"Dr":11282,"Rep":11283,"dict":11284,"ãĥ":11285,"à¤ıà¤²à¤¨":11286,"à¤§à¤ľ":11287,"Ġà¤ĩà¥Ļà¤¤":11288,"Ġà¤¯à¤¹à¤¦":11289,"à¤ħà¤¤à¤°":11290,"à¤Ĩà¤°à¤ĵà¤ª":11291,"Ġ6500":11292,"à¤ħà¤¨à¤¸":11293,"ĠIdea":11294,"303":11295,"Ġà¤ıà¤¡à¤ľ":11296,"1800":11297,"Ġset":11298,"à¥Ļà¤¬à¤°à¤¦":11299,"Ġinnovation":11300,"Ġcell":11301,"Ġpay":11302,"à¥©à¥©":11303,"Ġà¥ªà¥Ń":11304,"342":11305,"Ġà¤ªà¤ķà¥ľà¤ķà¤°":11306,"ervation":11307,"Ġà¤§à¤°à¤®à¤ľà¤¯à¤Ĺà¤¢":11308,"weet":11309,"Res":11310,"pat":11311,"ring":11312,"ua":11313,"Ġà¤ķà¤¸à¤ķà¤°":11314,"à¤¤à¤ĵ":11315,"à¥ĪâĢį":11316,"à¤ıà¤¹à¤¸":11317,"à¥Ĥ?":11318,"Ġà¤¤à¤ľà¤µ":11319,"à¤¼à¥ħ":11320,"Ġà¤¯à¤µà¤¤à¤®":11321,"à¤¿à¤Ĥà¤Ĥ":11322,"à¤°à¤®à¤²":11323,"à¤°à¤®à¤¬à¤²":11324,"Ġà¤µà¤¹à¤®":11325,"Ġà¤Ľà¤ľ":11326,"Ġ3200":11327,"à¤¦à¤°à¤Ĺà¤¢":11328,"Ġà¤Ķà¤¸":11329,"Ġà¤²à¤ķà¤®à¤²":11330,"arch":11331,"ĠPak":11332,"oles":11333,"ĠLCD":11334,"à¤ıà¤Ĩà¤Īà¤ıà¤¸":11335,"Ġnt":11336,"Ġfield":11337,"296":11338,"378":11339,"398":11340,"ĠâĢ¦.":11341,"IAF":11342,"uzz":11343,"ociety":11344,"Ag":11345,"ges":11346,"à¤¯à¤ľà¤°":11347,"à¤Łà¤ĵà¤µà¤°":11348,"Ġà¤ħà¤°à¤£":11349,"Ġà¤µà¤·":11350,"Ġà¤ıà¤ıà¤¨à¤ıà¤®":11351,"à¤ľà¤¨à¤ª":11352,"à¥ĩà¥¤'":11353,"à¤Ĩà¤Īà¤ıà¤®à¤Īà¤Ĩà¤°":11354,"Ġà¤¸à¤¹à¤¬à¤¦":11355,"Ġ475":11356,"196":11357,"ĠSector":11358,"ĠMC":11359,"à¤ķà¤®à¤Ĺà¤¢":11360,"ĠGe":11361,"171":11362,"ĠHouse":11363,"Ġà¤ĵà¤µà¤°à¤ĳà¤²":11364,"els":11365,"à¤īà¤ªà¤¹":11366,"à¤ıà¤¸à¤Īà¤ľ":11367,"247":11368,"Ġ374":11369,"Ġ7500":11370,"268":11371,"liament":11372,"head":11373,"ISIS":11374,"ĠPlans":11375,"Ġà¥¨à¥¦à¥§à¥ª":11376,"Ġà¥§à¥¯à¥«à¥¦":11377,"electrons":11378,"737":11379,"HC":11380,"Min":11381,"Net":11382,"mand":11383,"ÏĤ":11384,"à½":11385,"à¤Ĥ(":11386,"Ġà¤¸à¤¨à¤®":11387,"à¤Ĺà¤²à¤¯":11388,"à¤Ĺà¤ªà¤Ł":11389,"Ġà¤ķà¤°à¤¸à¤ķà¤¤":11390,"Ġà¤¤à¤Ĺà¥ľ":11391,"à¤¾à¥¤-":11392,"à¤¼à¤¾âĢĻ":11393,"à¤¬à¤°à¤µ":11394,"Ġà¤ħà¤²à¤®à¤¸":11395,"Ġà¤ıà¤¸à¤ıà¤®à¤¸":11396,"ĠâĢľâĢĺ":11397,"à¥Ĥà¤Ĥà¥¤à¥¤":11398,"ĠSar":11399,"ĠIF":11400,"ĠNa":11401,"ĠHIV":11402,"Ġpm":11403,"Ġterror":11404,"à¤Ķà¤ľ":11405,"ĠJa":11406,"386":11407,"hai":11408,"ĠStart":11409,"Ġà¤ıà¤Ĩà¤Īà¤ıà¤«à¤ıà¤«":11410,"Ġà¤®à¤Ŀà¤Ĺ":11411,"ucation":11412,"Ġà¥§à¥¯à¥Ńà¥¦":11413,"arming":11414,"Ġà¤ļà¤°à¤¨à¤ľ":11415,"ĠColorOS":11416,"610":11417,"ja":11418,"jp":11419,"à¤ıà¤ªà¤²":11420,"à¤Ĩà¤µà¤°":11421,"à¤łà¤ª":11422,"à¤¸à¤¨à¤¦":11423,"206":11424,"à¤¤à¤®à¤ª":11425,"193":11426,"ĠSheet":11427,"ĠPass":11428,"ĠRTI":11429,"à¥Īà¤Ĥ?\"\"\"":11430,"Ġà¤¸à¤ľà¤Ĺà¤¤":11431,"ĠDepartment":11432,"177":11433,"ĠForm":11434,"the":11435,"ĠEM":11436,"à¤ıà¤¡à¤µà¤°":11437,"à¤²à¤Ŀà¤¨":11438,"à¤ĩà¤¶à¤°à¤¤":11439,"ĠIMD":11440,"DMA":11441,"670":11442,"880":11443,"FIFA":11444,"PE":11445,"âĪ":11446,"à¥ĩ''":11447,"à¤°à¤Ĺà¤¨":11448,"à¤¸à¤¹à¤¸":11449,"à¤Ĺà¤¥":11450,"à¤Ĩà¤Ľ":11451,"Ġà¤¸à¤®à¤ª":11452,"Ġà¤Łà¤²à¤¤":11453,"à¤ľà¤¨à¤¸à¤Ń":11454,"à¤ĺà¤¦":11455,"à¤®à¤¨à¤ľ":11456,"Ġà¤ĵà¤Ĩà¤°à¤ıà¤¸":11457,"Ġ416":11458,"Ġ414":11459,"Ġà¤Ĩà¤Īà¤ıà¤®à¤ª":11460,"à¤°à¤¬à¤¤":11461,"à¤Ĭà¤¤":11462,"ato":11463,"à¤¦à¤¬à¤°à¤®":11464,"à¤ĳà¤«à¤²":11465,"707":11466,"Ġsupp":11467,"ĠKi":11468,"ema":11469,"888":11470,"Ã¯à¤¸":11471,"Ġstart":11472,"à¤ıà¤®à¤ıà¤«à¤¬":11473,"Ġshared":11474,"ĠAdvanced":11475,"industan":11476,"Facebook":11477,"QL":11478,"high":11479,"Ġir":11480,"à¤Ĥà¥Ĥ":11481,"à¤µà¤¬à¤°":11482,"Ġà¤µà¤¡à¤¨à¤Ĺà¤°":11483,"à¤ıà¤Ĩà¤°à¤Ĩà¤Ī":11484,"Ġà¤īà¤Ńà¤¯":11485,"Ġà¤ıà¤¹":11486,"Ġ(&":11487,"à¤°à¤¸à¤²":11488,"à¤ıà¤¸à¤ıà¤ļ":11489,"à¥ľà¤µ":11490,"Ġ525":11491,"Ġà¤ħà¤°à¤¨":11492,"Ġ-:":11493,"à¤Ĩà¤°à¤Ĩà¤Īà¤ª":11494,"à¤¹à¤²à¤¹":11495,"Ġà¤ıà¤¨à¤Ĩà¤Īà¤¡":11496,"1946":11497,"Ġà¤®à¤¤à¤²":11498,"à¤Ĭà¤¤à¤ķ":11499,"aresults":11500,"Ġ1886":11501,"Ġ407":11502,"ĠEm":11503,"isgarh":11504,"à¥ļà¤²":11505,"ĠInt":11506,"ĠWater":11507,"392":11508,"him":11509,"Ġà¥§à¥«à¥¦":11510,"ift":11511,"ouns":11512,"ustice":11513,"OCSO":11514,"CTET":11515,"Bl":11516,"LD":11517,"bar":11518,"rate":11519,"Ġà¤ªà¤Ĺà¤²":11520,"Ġà¤¯à¤¬":11521,"Ġà¤ļà¤°à¤ķ":11522,"à¤ĵà¤ıà¤Ĩà¤Ī":11523,"Ġ2026":11524,"à¤Ĺà¤²à¤¬":11525,"1955":11526,"ĠChan":11527,"aman":11528,"à¤²à¤¦à¤¹":11529,"ĠFiber":11530,"ĠFestival":11531,"Ġcg":11532,"à¥Ģ?\"":11533,"otential":11534,"illed":11535,"281":11536,"Ġlatest":11537,"Ġà¤·à¤·":11538,"anti":11539,"seb":11540,"Ġstates":11541,"Ġform":11542,"ploy":11543,"ĠICJ":11544,"Ġplay":11545,"News":11546,"767":11547,"ycl":11548,"à¥Ģà¥ĩà¤Ĥ":11549,"à¤ľà¤ªà¤°":11550,"Ġà¤Ĩà¤ķà¤²":11551,"Ġà¤ıà¤®à¤°à¤ľ":11552,"à¤Łà¤°à¤¬à¤°":11553,"1940":11554,"Ġà¤ıà¤®à¤ıà¤¨à¤ıà¤¸":11555,"à¥Ŀà¤¨":11556,"ĠSi":11557,"Ġà¥§à¥¦à¥¦à¥¦":11558,"à¤¦à¤²à¤¹à¤¨":11559,"ĠNC":11560,"ĠDigital":11561,"Ġcourt":11562,"isation":11563,"Ġmet":11564,"à¤ıà¤ıà¤ıà¤¸":11565,"333":11566,"imal":11567,"ĠExpress":11568,"Ġà¥§à¥¯à¥¯à¥¯":11569,"ĠShow":11570,"hattisgarh":11571,"ticle":11572,"aspx":11573,"Ġafter":11574,"5271":11575,"680":11576,"YS":11577,"bl":11578,"Â§":11579,"à¤°à¤ľà¤¨à¤ķ":11580,"à¤¤à¤µà¤²":11581,"à¤®à¤®à¤¨":11582,"à¤µà¤ĺ":11583,"à¥¤âĢĻâĢĻ":11584,"Ġà¤¬à¤¤à¤°":11585,"Ġà¤¦à¤¦":11586,"Ġà¤Łà¤¯":11587,"à¤Ĩà¤Īà¤ıà¤¨à¤ı":11588,"ĠâĢĺ%":11589,"Ġà¤Ĩà¤Īà¤¶":11590,"Ġà¤ķà¤ªà¤Łà¤ª":11591,"à¤¾-âĢĺ":11592,"ĠSD":11593,"ĠFDI":11594,"ĠEp":11595,"242":11596,"Ġà¤ħà¤¸à¤²à¤¹":11597,"à¤ıà¤¨à¤ıà¤¸à¤Ĩà¤Īà¤¸":11598,"286":11599,"ĠProtest":11600,"Ġ442":11601,"Ġ494":11602,"abir":11603,"ĠiPad":11604,"ĠUnited":11605,"à¤Łà¤°à¤ķà¤¨":11606,"Ġà¤Ĩà¤Īà¤Ĩà¤°à¤ıà¤¨à¤ıà¤¸à¤ıà¤¸":11607,"Ġdistrict":11608,"riage":11609,"Narendra":11610,"cometax":11611,"030":11612,"TOS":11613,"power":11614,"à¤²à¤µà¤¨":11615,"à¥ģà¤¿":11616,"Ġà¤ķà¤°à¤¸":11617,"à¥Īà¤Ĥ\"\"":11618,"Ġà¤ıà¤ıà¤ļ":11619,"Ġà¤ļà¤¸":11620,"à¤¾à¤Ĥ),":11621,"Ġà¤¡à¤¨":11622,"à¥Ģà¥¤âĢĻâĢĻ":11623,"à¤ģ!":11624,"à¤°à¤£à¤ķ":11625,"Ġà¤¸à¤¬à¤µ":11626,"à¤¾.'":11627,"à¥ĩ,\"\"":11628,"à¤¸à¤²à¤¬":11629,"Ġà¤¸à¤Ńà¤°à¤µ":11630,"Ġà¤ĵà¤ľà¤¸":11631,"Ġ526":11632,"Ġà¤ĩà¤¨à¤ªà¤°":11633,"Ġà¤Īà¤ĵ":11634,"Ġ610":11635,"à¤ıà¤¨à¤Ĩà¤°à¤¡":11636,"Ġ1907":11637,"à¤°à¤¨à¤Ł":11638,"1959":11639,"à¤¾)-":11640,"Ġà¤Ĩà¤¸à¤«":11641,"ĠCity":11642,"Ġà¤ĭà¤ľ":11643,"ĠMicrosoft":11644,"ĠBR":11645,"diate":11646,"ĠInnovation":11647,"Ġ489":11648,"Ġ391":11649,"Ġgas":11650,"397":11651,"istance":11652,"ffer":11653,"imd":11654,"ouch":11655,"pril":11656,"ĠRajasthan":11657,"plement":11658,"Ġà¤°à¤¨à¤°à¤ħà¤ª":11659,"Mart":11660,"Uri":11661,"à¥ĩ\"\"\"\"":11662,"à¥Ģà¥į":11663,"à¤ķà¤¬à¤²":11664,"Ġà¤®à¤ļà¤¨":11665,"à¤ªà¤Ń":11666,"à¤ªà¤ļà¤°":11667,"à¤¬à¤Łà¤²à¤°":11668,"Ġà¤Ĩà¤®à¤²":11669,"à¥ĥà¥į":11670,"à¤¨à¤®à¤£":11671,"Ġà¤ĳà¤°à¤²":11672,"Ġà¤ĵà¤ıà¤«à¤¬":11673,"Ġ422":11674,"Ġà¤ķà¤Īà¤¯":11675,"Ġ680":11676,"Ġà¤ľà¤²à¤ľ":11677,"à¤°à¤¹à¤Ł":11678,"Ġ980":11679,"à¤°à¤¬à¤ļà¤¨":11680,"roach":11681,"Ġsocial":11682,"ĠDNA":11683,"Ġcla":11684,"à¤ıà¤¸à¤ıà¤¸à¤Ĩà¤°":11685,"Ġvideo":11686,"à¤Ĩà¤Īà¤ıà¤¸à¤¡":11687,"à¥ĭ!\"\"":11688,"Ġà¥ªà¥¬":11689,"Ġà¤ħà¤Łà¤ķà¤²à¤¬":11690,"Ġà¤Ĺà¤Ĺà¤¨à¤ļ":11691,"DRDO":11692,"ownload":11693,"ridge":11694,"ĠINX":11695,"1200":11696,"430":11697,"470":11698,"920":11699,"Dis":11700,"Kh":11701,"MT":11702,"Mad":11703,"])":11704,"ji":11705,"opp":11706,"Î½":11707,"à¥ĩâĢĵ":11708,"à¤°à¤°à¤¤":11709,"à¥įà¤¿à¤¾":11710,"à¤ķà¤ķà¤²":11711,"à¤¸à¤¡à¤ķ":11712,"à¤¸à¤ĳà¤°":11713,"à¤ıà¤²à¤¯":11714,"à¤£à¤¯à¤ķ":11715,"à¤ħà¤ĺ":11716,"à¤ıà¤¸à¤Ĩà¤°à¤¸":11717,"Ġ4200":11718,"Ġà¤Ĩà¤¦à¤¤à¤¨":11719,"Ġ1909":11720,"à¤ıà¤²à¤µ":11721,"Ġà¤¹à¤ľà¤®":11722,"Ġ1869":11723,"enc":11724,"enew":11725,"à¤ĳà¤²à¤°":11726,"ĠNirm":11727,"Ġà¤Łà¤¨à¤Ń":11728,"ĠDGP":11729,"236":11730,"Ġ555":11731,"ecial":11732,"ersons":11733,"à¤Ĩà¤ĩà¤ıà¤¸":11734,"hear":11735,"Ġyou":11736,"ijay":11737,"à¤Ĺà¤Ĺà¤¨à¤¯":11738,",...":11739,"337":11740,"JAC":11741,"LE":11742,"WD":11743,"augh":11744,"house":11745,"nership":11746,"rup":11747,"rinsic":11748,"vind":11749,"à¥ĩà¤¼à¤Ĥ":11750,"à¤°à¤¹à¤¤":11751,"Ġà¤¸à¤²à¤¤":11752,"à¤®à¤§à¤°":11753,"Ġà¤Ľà¤ªà¤¤":11754,"Ġà¤ĳà¤¨à¤¬":11755,"Ġ511":11756,"à¤ıà¤²à¤ıà¤®à¤Ł":11757,"Ġà¤®à¤°à¤¹à¤®":11758,"à¤µà¤ľà¤µ":11759,"ĠNA":11760,"156":11761,"reement":11762,"à¤ıà¤¸à¤ıà¤¸à¤¡":11763,"Ġ50000":11764,"ids":11765,"Ġ378":11766,"à¤ıà¤Ĩà¤Īà¤ıà¤¡":11767,"ĠJo":11768,"ositive":11769,"456":11770,"Ġà¤ħà¤Łà¤²à¤ľ":11771,"Ġeu":11772,"Ġonline":11773,"Ġà¤ļà¥Ŀà¤¨":11774,"Android":11775,"Ġà¤Ĭà¤§à¤®à¤ª":11776,"cometaxindia":11777,"930":11778,"980":11779,"960":11780,"CAT":11781,"NR":11782,"NPR":11783,"ged":11784,"ki":11785,"och":11786,"à¥Ī%":11787,"à¤ıà¤ıà¤®à¤ª":11788,"Ġà¤°à¥ŀ":11789,"à¤¬à¤¬à¤°":11790,"Ġà¤¤à¤Łà¤°":11791,"Ġà¤īà¤ķà¤¤":11792,"Ġà¤Ĺà¤®à¤²":11793,"à¤¥à¤¨à¤¤":11794,"à¤Ľà¤Ĺà¤Ľ":11795,"Ġà¤¯à¤¹à¤¸":11796,"Ġà¤¡à¤°à¤ª":11797,"Ġà¤¹à¤®à¤µ":11798,"Ġà¤ĵà¤µà¤¨":11799,"Ġ575":11800,"à¥Ģ)/":11801,"Ġ740":11802,"Ġà¤ıà¤®à¤ıà¤ļ":11803,"atr":11804,"Ġ1850":11805,"ican":11806,"ĠMotorola":11807,"ĠHi":11808,"ĠFATF":11809,"ĠFeatures":11810,"à¤¸à¤¹à¤ķà¤°":11811,"Ġ339":11812,"aps":11813,"372":11814,"Ġà¤¸à¤¹à¤¨à¤¶à¤ķ":11815,"ĠStand":11816,"à¤Ĺà¥ľà¤¤":11817,"All":11818,"Data":11819,"Microsoft":11820,"Rio":11821,"uv":11822,"à¤Ĥ\"\"":11823,"à¥ĭà¤Ĥà¥ĩ":11824,"Ġà¤°à¤Ĭà¤«":11825,"à¤¬à¤¹à¤²":11826,"Ġà¤¤à¥Ľà¤ķ":11827,"à¤ĵà¤ıà¤«à¤¬":11828,"à¥Ģà¥¤'":11829,"ators":11830,"Ġà¤µà¤¸à¤Ī":11831,"ĠAG":11832,"Ġà¥Ľà¤°à¤°":11833,"214":11834,"ĠTa":11835,"186":11836,"Ġso":11837,"ctor":11838,"à¤¾'.":11839,"ivate":11840,"Ġ487":11841,"Ġ386":11842,"rug":11843,"ĠEnvironment":11844,"à¤Ĩà¤Īà¤ıà¤«à¤ıà¤«":11845,"Ġjeemain":11846,"MCX":11847,"à¤ĩà¤ªà¤°à¤²":11848,"Ġà¥¨à¥¦à¥§à¥§":11849,"ventions":11850,"Ġmedia":11851,"ĠNetwork":11852,"ĠParty":11853,"730":11854,"KXIP":11855,"Rele":11856,"Ranveer":11857,"Tech":11858,"cat":11859,"sec":11860,"silicon":11861,"Ã¼":11862,"à¤¨à¤ľà¤¦":11863,"à¤ķà¤®à¤¸":11864,"Ġà¤®à¤¯à¤¸":11865,"à¤ıà¤ıà¤¸à¤Ĩà¤°":11866,"à¤¶à¤¤à¤°":11867,"à¤ļà¤¤à¤¤":11868,"Ġà¤Ńà¥ľ":11869,"Ġà¤ıà¤Īà¤ıà¤¸":11870,"à¤µà¤°à¤Ł":11871,"Ġà¤Ĩà¤°à¤ıà¤¸à¤ª":11872,"à¤ıà¤®à¤ıà¤®à¤Ł":11873,"Ġ412":11874,"Ġ426":11875,"Ġà¤ıà¤¸à¤ıà¤«":11876,"Ġ775":11877,"à¤Ĺà¤¨à¤Ĩà¤°":11878,"ĠPublic":11879,"ĠAh":11880,"Ġ508":11881,"ĠROG":11882,"ĠMO":11883,"ĠNCB":11884,"Ġà¤ħà¤ĸà¤²":11885,"dir":11886,"Ġsingh":11887,"ĠDream":11888,"aser":11889,"Ġtitle":11890,"Ġmi":11891,"Ġà¥ŀà¤¤":11892,"à¥¨à¥¨":11893,"287":11894,"Ġdel":11895,"Ġ491":11896,"364":11897,"ĠStory":11898,"ober":11899,"ified":11900,"NDRF":11901,"Congress":11902,"ategor":11903,"219":11904,"323":11905,"780":11906,"Kareena":11907,"jri":11908,"xt":11909,"ÑĤ":11910,"Ġà¤ķà¤µà¤¯":11911,"à¤¸à¤°à¤®":11912,"à¤µà¤¯à¤®":11913,"à¤µà¤¶à¤¤":11914,"Ġà¤ľà¤łà¤°":11915,"Ġà¤ħà¤ķà¤°":11916,"Ġà¤Ķà¤°à¤Ĳà¤¸":11917,"Ġà¤Ĩà¤¹à¤°":11918,"Ġà¤Łà¤²à¤¨":11919,"à¤ħà¤·":11920,"à¤ħà¤¨à¤®":11921,"à¤ħà¤¨à¤ķ":11922,"à¤Łà¤°Name":11923,"Ġà¤µà¤¹à¤¶":11924,"Ġà¤Ĩà¤°à¤«":11925,"à¤ıà¤ķà¤ľ":11926,"à¥ĩ..":11927,"191":11928,"à¤°à¤ľà¤µ":11929,"Ġà¤ħà¤ľà¤µ":11930,"ĠINS":11931,"184":11932,"251":11933,"ĠEV":11934,"Ġ482":11935,"Ġmatch":11936,"à¤Ķà¤±":11937,"ĠUPSC":11938,"Ġà¤ıà¤¨à¤Īà¤Īà¤Ł":11939,"Ġsmartphones":11940,"Ġeconomy":11941,"ĠOlympics":11942,"Diesel":11943,"Sch":11944,"UM":11945,"WA":11946,"med":11947,"ng":11948,"uid":11949,"Ïģ":11950,"à¤¤à¤¬à¤¸":11951,"à¤ķà¤ªà¤¨":11952,"à¤¸à¤ħà¤ª":11953,"Ġà¤¨à¤µà¤¤":11954,"à¤īà¤¸à¤°":11955,"à¥Ī,âĢľ":11956,"à¤ıà¤®à¤ıà¤ļà¤Ĩà¤°à¤¡":11957,"Ġà¤Ĩà¤Īà¤ĵà¤Ł":11958,"207":11959,"209":11960,"Ġà¤īà¤²à¤®":11961,"eri":11962,"ĠSuzuki":11963,"ĠAIADMK":11964,"ĠNPR":11965,"elp":11966,"iga":11967,"Ġmy":11968,"Ġmicro":11969,"osis":11970,"liance":11971,"Ġà¤¿à¥ĭ":11972,"Ġà¥¨à¥¦à¥§à¥©":11973,"HOTOS":11974,"Ġà¤¹à¤ľà¤°à¤¤à¤Ĺ":11975,"à¤ªà¤°à¤µà¤°à¤¦":11976,"ĠMahindra":11977,"ĠOrgan":11978,"etails":11979,"etooth":11980,")),":11981,"870":11982,"875":11983,"Po":11984,"Par":11985,"pre":11986,"Ã¡":11987,"à¤°à¤Ķà¤°":11988,"à¤¨à¤°à¤¹":11989,"à¤¤à¤¤à¤®":11990,"à¤ķà¤ĵà¤µà¤°":11991,"à¤¯à¤¨à¤®":11992,"Ġà¤®à¤¸à¤°":11993,"à¤ĸà¤°à¤¤":11994,"Ġà¤ªà¤¹à¤²à¤ķà¤¦à¤®":11995,"à¤Ķà¤°à¤¯à¤¹":11996,"Ġ770":11997,"à¤¡à¤°à¤¨":11998,"Ġ1250":11999,"Ġà¤Ķà¤§":12000,"à¤¼à¥ĭà¤Ĥ)":12001,"lege":12002,"304":12003,"ĠGood":12004,"ĠDiv":12005,"ĠHe":12006,"askar":12007,"283":12008,"Ġ382":12009,"293":12010,"Ġ443":12011,"Ġ462":12012,"371":12013,"363":12014,"ĠStates":12015,"ineering":12016,"Ġstate":12017,"Ġà¥¨à¥¦à¥§à¥«":12018,"à¤Ĩà¤ľà¤®à¤Ĺà¤¢":12019,"à¤¬à¥Ŀà¤¤":12020,"ootball":12021,"ĠNSG":12022,"Ġvalues":12023,"ĠAttack":12024,"Ġà¤Ĺà¤¦à¤Ĺà¤¦":12025,"315":12026,"425":12027,"590":12028,"Election":12029,"FATF":12030,"KS":12031,"pad":12032,"à¥Īà¥Īà¤Ĥà¥¤":12033,"à¤µà¤ªà¤ķ":12034,"à¤ħà¤²à¤°":12035,"à¥Ī....":12036,"à¤°à¤µà¤£à¤¤":12037,"Ġ421":12038,"Ġ423":12039,"Ġ\"\",":12040,"Ġà¤Ŀà¤²":12041,"Ġ1075":12042,"à¤¾-'":12043,"à¤²à¤¹à¤Ł":12044,"Ġà¤®à¤¶à¤Ĺ":12045,"ĠDem":12046,"162":12047,"223":12048,"à¤¡à¤ķà¤°à¤¨à¤Ĺà¤°":12049,"à¤īà¤ªà¤ľ":12050,"ĠInfrastructure":12051,"ĠViral":12052,"Ġmed":12053,"276":12054,"istant":12055,"Ġà¥¬à¥¬":12056,"ISS":12057,"IMF":12058,"Ġspace":12059,"-#-#-#-#":12060,"Release":12061,"049":12062,"321":12063,"365":12064,"Har":12065,"Le":12066,"Most":12067,"PET":12068,"mark":12069,"Ġupp":12070,"à¤¿!":12071,"à¤¨à¤Łà¤°":12072,"Ġà¤°à¤ª":12073,"Ġà¤īà¤ĺ":12074,"Ġà¤¶à¤°à¤®":12075,"à¤ĩà¥Ľ":12076,"à¤łà¤¹":12077,"à¤ľà¤¨à¤¸à¤®":12078,"à¤ħà¤ľà¤¨":12079,"à¤¸à¤®à¤µ":12080,"Ġ545":12081,"Ġà¤ħà¤°à¤ľ":12082,"Ġà¤Īà¤·":12083,"Ġà¤ħà¤ķà¥ľ":12084,"à¤¨à¤µà¤¶":12085,"à¤ħà¤¨à¤§":12086,"ĠMake":12087,"iter":12088,"ster":12089,"442":12090,"Ġni":12091,"à¤Ĩà¤Īà¤ıà¤¸à¤ĵ":12092,"ĠProcess":12093,"Ġdata":12094,"557":12095,"akta":12096,"ĠEnergy":12097,"Ġà¥§à¥¯à¥§à¥¯":12098,"Ġà¥§à¥¯à¥¬à¥¦":12099,"Ġà¤¸à¤²à¤¤à¤¨à¤¤":12100,"035":12101,"525":12102,"760":12103,"765":12104,"WWE":12105,"nan":12106,"Ġà®":12107,"à¤¦à¤·":12108,"Ġà¤¨à¤²à¤ķ":12109,"Ġà¤Ĩà¤®à¤°":12110,"à¤Īà¤ľà¤°":12111,"à¤Ĩà¤ĩà¤¨":12112,"à¤®à¤¤à¤Ń":12113,"à¤ļà¤¨à¤ľ":12114,"Ġà¤ªà¤°à¤®à¤¬":12115,"Ġà¤ıà¤®à¤Ĩà¤Īà¤ıà¤®":12116,"à¤Ĭà¤ªà¤¨":12117,"Ġ1894":12118,"Ġ1861":12119,"258":12120,"401":12121,"Ġà¤ªà¤¨à¤Ĺà¤¢":12122,"Ġvol":12123,"Ġmov":12124,"utt":12125,"298":12126,"Ġà¥¨à¥¦à¥¦à¥§":12127,"inder":12128,"ugs":12129,"ondon":12130,"ĠPrelims":12131,"CWG":12132,"ĠRailways":12133,"jriwal":12134,"060":12135,"921":12136,"Haryana":12137,"LIC":12138,"On":12139,"ould":12140,"pa":12141,"Éª":12142,"ĠÅ":12143,"à¥Ģà¤¿":12144,"à¤¸à¤ıà¤®à¤ıà¤²":12145,"à¤²à¤§":12146,"à¤²à¤°à¤¹":12147,"à¤®à¥Ľ":12148,"à¤ľà¤¬à¤°à¤¨":12149,"à¥ĭà¤Ĥ),":12150,"Ġà¤¦à¤¦à¤²":12151,"à¤ļà¤£":12152,"à¤ļà¤Łà¤°":12153,"Ġà¤ĩà¤¤à¤®":12154,"à¥Īà¥¤...":12155,"Ġà¤¯à¤¨à¤®":12156,"à¤Ľà¤°à¤¦":12157,"Ġà¤Łà¤ª":12158,"Ġà¤²à¤Ĺà¤ķà¤°":12159,"à¤®à¤²à¤ı":12160,"à¤Ĺà¤°à¤¨":12161,"Ġà¤īà¤®à¥ľ":12162,"Ġà¤ıà¤¸à¤ĵà¤¸":12163,"à¤¡à¤²à¤Ĺà¤¢":12164,"993":12165,"âĢĿ.":12166,"Ġ402":12167,"Ġsu":12168,"isode":12169,"à¤īà¤ªà¤µ":12170,"Ġpo":12171,"657":12172,"Ġbusiness":12173,"266":12174,"274":12175,"Ġ383":12176,"Ġ495":12177,"642":12178,"Ġrel":12179,"ounter":12180,"ĠSCO":12181,"ĠIMF":12182,"à¥Īà¤ģ|":12183,"à¤īà¤§à¤®à¤ª":12184,"itiative":12185,"Amitabh":12186,"Ayodhya":12187,"âĿĳ":12188,"830":12189,"à¥įà¥ĩ":12190,"à¤¸à¤Ĩà¤°":12191,"à¥ģ\"\"":12192,"à¤ľà¤²à¤¨":12193,"à¤¶à¤°à¤ľ":12194,"Ġà¤Ķà¤°à¤ľ":12195,"Ġà¤Ĺà¤¸":12196,"Ġà¤ıà¤¡à¤¨":12197,"Ġà¤ıà¤¤à¤¦":12198,"à¤£à¤§à¤°":12199,"Ġà¤ļà¤ķà¤¤":12200,"Ġ(âĢĺ":12201,"à¤Ĩà¤¯à¤°":12202,"Ġà¤¡à¤µà¤²à¤ªà¤®":12203,"à¤µà¤°à¤¦":12204,"à¤°à¤µà¤¨":12205,"Ġà¤ĵà¤Ĩà¤°à¤ĵà¤ª":12206,"Ġ424":12207,"Ġà¤Ĩà¤Īà¤ıà¤®à¤Ł":12208,"à¤¨à¤µà¤¯":12209,"à¥Ĥà¤ģ-":12210,"ĠPa":12211,"ĠAuction":12212,"ĠBill":12213,"Ġà¤Ĩà¤łà¤µà¤²":12214,"ĠHS":12215,"ĠEPFO":12216,"isa":12217,"à¥Ĥà¤Ĥ.\"\"\"":12218,"448":12219,"655":12220,"Ġ431":12221,"Ġà¥ªà¥§":12222,"Ġwe":12223,"à¤¸à¤®à¤Ŀà¤¤":12224,"à¤Ĩà¤°à¤ıà¤ıà¤¸":12225,"exUri":12226,"China":12227,"ĠScam":12228,"Anushka":12229,"Ġadmit":12230,"ION":12231,"poth":12232,"Ġattack":12233,"particles":12234,"exUriServ":12235,"325":12236,"625":12237,"710":12238,"à¤²à¥ľ":12239,"Ġà¤®à¤ľà¤®":12240,"à¥Ī/":12241,"à¤µà¤¨à¤®":12242,"à¤µà¤¤à¤°à¤£":12243,"Ġà¤ªà¤¤à¤Ŀà¤¡":12244,"Ġà¤īà¤¦à¤¯à¤Ń":12245,"Ġà¤¬à¤¦à¤¹à¤µ":12246,"à¤ıà¤«à¤ıà¤¸à¤Ĩà¤Ī":12247,"Ġ1880":12248,"ĠRukh":12249,"ĠMSP":12250,"ĠTechn":12251,"1857":12252,"à¥Ģ?\"\"\"":12253,"à¤ĩà¤®à¤°à¤ľ":12254,"emical":12255,"391":12256,"à¥§à¥¯à¥¨":12257,"iple":12258,"CRPF":12259,"Ġà¤Ĩà¤Īà¤Ĩà¤Īà¤ıà¤¸à¤Īà¤Ĩà¤°":12260,"ĠâĻª":12261,".%":12262,"512":12263,"NBC":12264,"QOO":12265,"bab":12266,"side":12267,"Â²":12268,"à¥ĩà¥Ĥ":12269,"Ġà¤ķà¤ªà¤ķ":12270,"à¤¿âĢĭ":12271,"à¤¨à¤ĺ":12272,"à¤¨à¤ľà¤®":12273,"à¤ķà¤¨à¤ķ":12274,"à¤¡à¤ªà¤®":12275,"à¤¼à¥ĥ":12276,"à¤¥à¤¬":12277,"Ġà¤¹à¤®à¤¬":12278,"à¤ªà¤°à¤°":12279,"à¤¨à¤®à¤¥":12280,"Ġ590":12281,"Ġ549":12282,"Ġà¤Ĩà¤Īà¤ıà¤®à¤Ī":12283,"Ġ635":12284,"Ġ899":12285,"Ġà¤ıà¤®à¤ĵà¤ª":12286,"Ġà¤¹à¤¤à¤ª":12287,"ĠSand":12288,"ĠSpe":12289,"ĠSkill":12290,"ĠAS":12291,"à¤¼à¥ĩà¤Ĥ...":12292,"Ġà¤ªà¤Łà¤ªà¤¡":12293,"ĠMission":12294,"GBSE":12295,"ĠTamil":12296,"Ġà¤ĩà¤®à¤°à¤¤":12297,"Ġinfrastructure":12298,"Ġpic":12299,"449":12300,"Ġtwitter":12301,"oda":12302,"395":12303,"362":12304,"Ġà¥ªà¥¦à¥¦":12305,"Ġà¤ĩà¤«à¤ķ":12306,"à¤ĵà¤ıà¤ıà¤¸":12307,"usten":12308,"ĠExamination":12309,"ĠForce":12310,"Ġà¤įà¤«":12311,"ĠCAG":12312,"ennai":12313,"domain":12314,"ĠDMK":12315,"090":12316,"426":12317,"975":12318,"Class":12319,"Ma":12320,"QI":12321,"Su":12322,"cel":12323,"dà¤¡":12324,"eff":12325,"lor":12326,"uan":12327,"à¹":12328,"âĦ¢":12329,"à¤¿à¤¿":12330,"à¤¨à¤¨à¤µ":12331,"à¥Ī''.":12332,"à¤Ĺà¤°à¤¦":12333,"à¤ļà¤ķà¤¤":12334,"à¤¥à¤Īà¤¸":12335,"à¥Ģà¤ĤâĢ¦":12336,"à¤Ĩà¤¯à¤°à¤¨":12337,"à¤°à¤¸à¤°à¤ķ":12338,"Ġà¤Ĩà¤°à¤¡à¤¬":12339,"Ġà¤Ĩà¤°à¤ĵà¤¬":12340,"Ġà¤Ĩà¤°à¤ıà¤ıà¤«":12341,"à¤ıà¤®à¤ıà¤«à¤ª":12342,"Ġ537":12343,"Ġà¤Ĩà¤Īà¤ıà¤¸à¤¸":12344,"Ġà¤ļà¤²à¤µ":12345,"à¤ıà¤²à¤ıà¤¸à¤ı":12346,"à¤¯à¤ªà¤Ĺà¤¤":12347,"à¤ķà¤Łà¤°à¤®à¤£":12348,"Ġà¤ħà¤Ĺà¤°à¤ķà¤°":12349,"ĠPC":12350,"ĠMot":12351,"ĠBuzz":12352,"ĠTRS":12353,"705":12354,"405":12355,"407":12356,"anda":12357,"Ġdem":12358,"à¤Ĩà¤Īà¤ıà¤®à¤Ł":12359,"Ġ432":12360,"Ġher":12361,"à¤ıà¤®à¤ĵà¤ª":12362,"à¤ıà¤¸à¤ıà¤ıà¤®":12363,"derabad":12364,"SRH":12365,"Ġà¤Ŀà¤ªà¤ķà¤¨":12366,"Ġsecurity":12367,"ustainable":12368,"319":12369,"624":12370,"812":12371,"PPF":12372,"ging":12373,"vii":12374,"}}":12375,"à¤°à¤Ĩà¤¤":12376,"à¤¸à¤ľà¤¨":12377,"à¤¡à¤¸à¤°":12378,"Ġà¤¸à¤®à¤Ń":12379,"à¥ĩà¥¤-":12380,"Ġà¤²à¤Ĺà¤¯":12381,"à¤Ĩà¤Īà¤Īà¤Ł":12382,"à¤§à¤¨à¤µ":12383,"à¤Ĩà¤°à¤Īà¤¡":12384,"à¤ķà¤°à¤£à¤ķ":12385,"Ġà¤¬à¤¦à¤¬à¤ĸ":12386,"Ġà¤ıà¤¸à¤ıà¤Ĩà¤Ī":12387,"Ġ1903":12388,"Ġà¤Ĭà¤Ł":12389,"Ġ:âĢĵ":12390,"Ġà¤²à¤¡à¤¨":12391,"à¤Ĭà¤·":12392,"à¥Ĥà¤Ĥà¥¤âĢĻ":12393,"Ġ1896":12394,"ĠSays":12395,"ĠSocial":12396,"502":12397,"itical":12398,"Ġà¤ıà¤ļà¤ıà¤¸à¤¸":12399,"Ġcount":12400,"Ġcbs":12401,"ĠLaw":12402,"403":12403,"Ġpass":12404,"Ġ)à¥¤":12405,"osh":12406,"374":12407,"361":12408,"Ġà¥«à¥ª":12409,"à¤¾\"\")":12410,"à¤Ĩà¤Īà¤Ĩà¤Īà¤¬":12411,"à¥ĩ',":12412,"Ġequ":12413,"582":12414,"Ġà¤¹à¤°à¤¦à¤®":12415,"Ġret":12416,"IME":12417,"ĠEnter":12418,"Ø§Ø±":12419,"à¥ĪâĢ¦.":12420,"à¥ĩâĢĿà¥¤":12421,"ĠSecurity":12422,"98543":12423,"313":12424,"436":12425,"649":12426,"Jammu":12427,"Shar":12428,"cul":12429,"ford":12430,"ground":12431,"ipl":12432,"lab":12433,"Ñĥ":12434,"à¥Ħ":12435,"à¤¾]]":12436,"à¤ªà¤§":12437,"à¤ıà¤¹à¤¦":12438,"à¤ļà¤Ī":12439,"à¤Ĩà¤ĩà¤¸à¤²":12440,"à¤ĩà¤¸à¤¶à¤²à¤ı":12441,"à¤ĵà¤Ĩà¤Īà¤¸":12442,"à¤ľà¤¨à¤Ńà¤°":12443,"à¤ľà¤¨à¤ªà¤¦":12444,"002":12445,"à¤Ĩà¤Īà¤Ī":12446,"à¤µà¤¨à¤Ĺ":12447,"à¤ıà¤®à¤ıà¤ļ":12448,"à¤ıà¤®à¤Ĩà¤Īà¤ıà¤¸":12449,"Ġ515":12450,"Ġ517":12451,"à¥Ģ..":12452,"à¤µà¤²à¤ľ":12453,"Ġà¤ıà¤¸à¤¡à¤¬":12454,"à¤¨à¤°à¤Ī":12455,"Ġà¤¢à¤²à¤µ":12456,"ĠPrav":12457,"ĠAut":12458,"Ġà¤ķà¤¨à¤«":12459,"à¥ĺà¤¦à¤®":12460,"Ġà¤ıà¤«à¤ı":12461,"à¥Ģ:-":12462,"301":12463,"ĠTri":12464,"ĠDeal":12465,"à¤¾âĢĻ.":12466,"otes":12467,"755":12468,"289":12469,"278":12470,"279":12471,"Ġ388":12472,"Ġà¥«à¥¨":12473,"à¤¯à¤Ĺà¥Ŀ":12474,"à¤ıà¤®à¤ıà¤ıà¤¸":12475,"Ġrev":12476,"ĠAnushka":12477,"tact":12478,"à¤ıà¤«à¤ıà¤ĵ":12479,"ĠTRAN":12480,"ĠCorporation":12481,"atrina":12482,"695":12483,"KKR":12484,"Pl":12485,"TDP":12486,"Ã¶":12487,"à·":12488,"à¤¿âĢĵ":12489,"à¤²à¤ĸà¤µ":12490,"à¤µà¤¡à¤°":12491,"Ġà¤ħà¥Ļà¤¬":12492,"Ġà¤µà¤¨à¤°":12493,"à¤¬à¤¶à¤°":12494,"Ġà¤Ĺà¤®à¤¨":12495,"Ġà¤ıà¥Ļà¤¤":12496,"Ġà¤ĸà¤¤à¤®":12497,"Ġà¤¸à¤®à¤°à¤¸":12498,"Ġà¤ħà¤¨à¤ķà¤¹":12499,"à¤µà¤°à¤ļà¤¨":12500,"à¤¢à¤°":12501,"à¤¯à¤°à¤°":12502,"à¤ıà¤®à¤ıà¤¨à¤Ĩà¤°à¤Ī":12503,"à¤§à¤¨à¤¹":12504,"Ġà¤ħà¤µà¤ķà¤²":12505,"Ġ521":12506,"à¤Ĩà¤°à¤Īà¤¸":12507,"Ġà¤Īà¤ıà¤®à¤¯":12508,"à¤¬à¤²à¤¬":12509,"Ġ860":12510,"Ġ1267":12511,"atory":12512,"ese":12513,"ĠRa":12514,"ĠMess":12515,"307":12516,"amir":12517,"Ġà¤¶à¤¹à¤µà¤¤":12518,"Ġcha":12519,"ĠKir":12520,"Ġpoll":12521,"à¤ıà¤®à¤ıà¤¸à¤ı":12522,"à¤ħà¤¸à¤¹à¤®à¤¤":12523,"758":12524,"Ġno":12525,"à¤ıà¤¯à¤°à¤«":12526,"à¥®à¥Ń":12527,"eph":12528,"Ġlog":12529,"evi":12530,"Ġà¤¹à¥ĺà¤¦":12531,"Ġà¤ľà¤¦à¤ıà¤¸":12532,"Ġdis":12533,"USU":12534,"à¤ħà¥Ľà¤¸à¤°à¤¤":12535,"Ġà¤Ĳà¤µà¥Ľ":12536,"ustenite":12537,"iya":12538,"oan":12539,"oud":12540,"Â¡":12541,"Ġà¤ķà¤ĭ":12542,"à¤ķà¤¸à¤®":12543,"à¤¸à¤¹à¤°":12544,"à¥ĪâĢĵ":12545,"à¤ľà¤¤à¤°":12546,"Ġà¤¶à¤¹à¤¤":12547,"à¤ķà¤°à¤²":12548,"à¤ĵà¤ıà¤«":12549,"à¤ħà¤¸à¤¹":12550,"Ġà¤¦à¤°à¤¯":12551,"à¤¸à¤²à¤ı":12552,"à¥Īà¤Ĥ..":12553,"Ġà¤¸à¤ļà¤²":12554,"à¤ľà¤²à¤¸":12555,"Ġ821":12556,"à¤¡à¤°à¤¬":12557,"Ġà¤ıà¤¨à¤¯":12558,"Ġà¤ıà¤¨à¤Īà¤ª":12559,"Ġà¤ıà¤¨à¤ıà¤¸à¤ĵ":12560,"Ġà¤ıà¤®à¤¯":12561,"ont":12562,"à¤Ĭà¤Ł":12563,"à¤°à¤ľà¤®à¤²":12564,"ĠRT":12565,"ĠISC":12566,"ĠNTA":12567,"Ġà¤ħà¤ĸà¤®":12568,"305":12569,"ray":12570,"444":12571,"à¤ħà¤¸à¤«à¤²":12572,"472":12573,"Ġ387":12574,"à¥ĭ?\"":12575,"Ġweb":12576,"ICAI":12577,"Ġà¥«à¥©":12578,"SCII":12579,"Ġlaw":12580,"Ġlabel":12581,"ify":12582,"rices":12583,"Ø§Ùħ":12584,"ryst":12585,"values":12586,"Ġà¤Ľà¤Łà¤ªà¤Ł":12587,"ĠCentre":12588,"23381125":12589,"arrier":12590,"540":12591,"632":12592,"SD":12593,"South":12594,"Web":12595,"Ã¤":12596,"Ġet":12597,"à¤¨à¥Ľà¤°":12598,"à¤¡à¥ŀ":12599,"Ġà¤ķà¤°à¤ľ":12600,"Ġà¤ıà¤ıà¤²":12601,"à¤¨à¤®à¤°":12602,"Ġà¤¸à¤¹à¤ħà¤¸":12603,"Ġà¤ĵà¤¦":12604,"Ġà¤ĵà¤ªà¤°":12605,"Ġà¤ĵà¤Ĩà¤Īà¤ıà¤²":12606,"à¤°à¤Ńà¤ľ":12607,"à¤ıà¤ķà¤¬":12608,"Ġ1904":12609,"Ġà¤¬à¤°à¤Ĺà¤²":12610,"Ġà¤ıà¤¨à¤ıà¤µ":12611,"à¤ķà¤¸à¤°à¤¤":12612,"1908":12613,"à¤¹à¤¤à¤°à¤®":12614,"Ġ1885":12615,"ĠSo":12616,"ĠPriyanka":12617,"à¤ªà¤Łà¤µ":12618,"Ġà¤ıà¤ļà¤¡à¤¬":12619,"ĠGeneral":12620,"229":12621,"olence":12622,"change":12623,"752":12624,"à¥Ĩà¥¤":12625,"273":12626,"295":12627,"367":12628,"essment":12629,"Ġà¥¬à¥¦à¥¦":12630,"à¥Ģà¤Ĥ?\"\"\"":12631,"ough":12632,"ĠApplication":12633,"Alia":12634,"ĠScheme":12635,"à¤ĵà¤ªà¤¨à¤°":12636,"à¤Ĩà¤ĩà¤Łà¤®":12637,"Ġà¤ħà¤¸à¤¹à¤¨à¤¶":12638,"ĠNDTV":12639,"Ġà¤Ĩà¤°à¤ıà¤²à¤ıà¤¸à¤ª":12640,",âĢĵ":12641,"END":12642,"PTI":12643,"VT":12644,"case":12645,"fit":12646,"plus":12647,"sy":12648,"variables":12649,"à©":12650,"á±":12651,"Ġct":12652,"à¤¯à¤¸à¤²":12653,"Ġà¤¹à¥ŀ":12654,"à¤ªà¤¶à¤ķ":12655,"Ġà¤µà¤ĺ":12656,"à¤īà¤µ":12657,"à¤ģ-":12658,"à¤¯à¤¹à¤Ń":12659,"0000":12660,"Ġà¤ĵà¤ı":12661,"Ġ565":12662,"Ġ577":12663,"Ġ1902":12664,"à¤ĩà¤Łà¤®":12665,"à¤®à¤¦à¤°à¤¸":12666,"erman":12667,"998":12668,"à¤ªà¤®à¤¯":12669,"ĠNi":12670,"Ġ408":12671,"309":12672,"ĠTerror":12673,"Ġspe":12674,"à¤¨à¤¹à¤Łà¤¨":12675,"uses":12676,"Ġà¤¦à¤®à¤¦à¤®":12677,"ĠKesari":12678,"iling":12679,"Ġ455":12680,"Ġtwo":12681,"Ġfin":12682,"à¥Ĥà¤ģà¥¤\"":12683,"list":12684,"ogen":12685,"à¥ĩ:-":12686,"à¤Ĩà¤¦à¤°à¤£":12687,"Ġà¤°à¤¤à¤¨à¤²":12688,"BSF":12689,"iction":12690,"order":12691,"NSA":12692,"Ġà¤¸à¤°à¤µà¤¨":12693,"ĠRRB":12694,"ĠMBBS":12695,"reedom":12696,"010":12697,"348":12698,"580":12699,"790":12700,"Akshay":12701,"HIM":12702,"nar":12703,"rig":12704,"à¤²à¤ĸà¤£":12705,"à¤µà¤ªà¤°":12706,"à¤Łà¤£":12707,"Ġà¤²à¤²à¤¨":12708,"à¤ļà¤®à¤¤":12709,"à¤£à¤¹":12710,"à¤ĩà¤°à¤²":12711,"à¤¾,''":12712,"Ġà¤¹à¤®à¤¸à¤°":12713,"à¤ħà¤°à¤®":12714,"à¤ħà¤®à¤¨":12715,"004":12716,"à¤ıà¤¸à¤ıà¤ļà¤¸":12717,"à¤µà¤¨à¤ªà¤°":12718,"à¤Ĺà¤¤à¤¯":12719,"à¤¤à¤¨à¤°":12720,"à¤Ķà¤°à¤ĩà¤¸":12721,"Ġ619":12722,"Ġà¤ħà¤ªà¤¹à¤°":12723,"à¤°à¤¹à¤ª":12724,"995":12725,"ĠBa":12726,"ĠDeepika":12727,"ĠHind":12728,"à¤¨à¤ķà¤°à¤¨":12729,"ĠWhatsapp":12730,"à¤ĭà¤ı":12731,"Ġap":12732,"aph":12733,"à¤Ĩà¤°à¤ıà¤«à¤ª":12734,"951":12735,"887":12736,"Ġà¤īà¤Ľà¤²à¤¤":12737,"endram":12738,"alls":12739,"ellig":12740,"âĻ¦":12741,"Ġà¤ªà¤°à¤Ńà¤£":12742,"surance":12743,"ĠTRANSL":12744,"329":12745,"475":12746,"570":12747,"Donald":12748,"Pan":12749,"TN":12750,"jit":12751,"ll":12752,"Ð²":12753,"à¤ķà¤¸à¤°":12754,"à¥Īà¤ĤâĢĿà¥¤":12755,"Ġà¤ıà¤²à¤µ":12756,"à¤ĩà¤ķà¤¨":12757,"à¤ĵà¤ıà¤¨à¤Īà¤Ĩà¤°":12758,"à¤¢à¤¡":12759,"Ġà¤§à¤µ":12760,"à¤ģà¤¾":12761,"à¤²à¤¤à¤¤":12762,"à¤ķà¤²à¤¹":12763,"Ġ\"\"à¥¤\"":12764,"à¥ĭ,\"\"":12765,"inet":12766,"à¤ķà¤Łà¤°à¤®à¤¨":12767,"à¥ĩ).":12768,"à¤®à¤ļà¤²":12769,"à¤ªà¤£à¤¤":12770,"Ġ503":12771,"Ġ507":12772,"Ġà¤ıà¤«à¤ıà¤ķ":12773,"ĠMob":12774,"ĠDR":12775,"Ġà¤ĵà¤µà¤°à¤«":12776,"ĠFe":12777,"ishi":12778,"751":12779,"656":12780,"452":12781,"Ġdate":12782,"487":12783,"Ġà¤ħà¤¹à¤¸à¤¨":12784,"382":12785,"à¤ıà¤¨à¤ıà¤ıà¤¸":12786,"Ġà¤ķà¥ľà¤µ":12787,"à¤Ĩà¤°à¤ıà¤ıà¤«":12788,"ources":12789,"Ġà¤īà¤¬à¤²à¤¨":12790,"conf":12791,"glass":12792,"ollar":12793,"à¤¦à¤°à¤µà¤¨":12794,"Fiber":12795,"predictor":12796,"23385271":12797,"ATORS":12798,"ĠPravakta":12799,"endramodi":12800,"ĠTRANSLATORS":12801,"070":12802,"620":12803,"725":12804,"aar":12805,"oz":12806,"Ġà¤ľà¤ķà¥ľ":12807,"à¥Ĥà¥°":12808,"Ġà¤°à¤ľà¤¬":12809,"Ġà¤Ķà¤°à¤°":12810,"Ġà¤īà¤ľà¤²":12811,"à¤Ĩà¤¬à¤ķ":12812,"Ġà¤Ĩà¤°à¤ıà¤«à¤ª":12813,"Ġà¤Ĳà¤®à¤ľ":12814,"à¤Ĩà¤Īà¤Īà¤¸":12815,"à¤Ĩà¤Īà¤ıà¤¨à¤¸":12816,"à¤¸à¤¦à¤ķ":12817,"Ġ18000":12818,"Ġà¤Ĩà¤²à¤®à¤Ĺ":12819,"ĠRiver":12820,"edu":12821,"ĠHaryana":12822,"ĠLenovo":12823,"ilit":12824,"ĠView":12825,"Ġ458":12826,"à¤Ĩà¤Īà¤ıà¤¸à¤¬":12827,"akes":12828,"Ġà¥«à¥¬":12829,"istory":12830,"à¤¹à¤ľà¤°à¤¤":12831,"à¤¨à¤ľà¤±":12832,"ĠZà¤ķ":12833,"ims":12834,"Ġread":12835,"echarge":12836,"ights":12837,"Asian":12838,"ediction":12839,"kshaya":12840,"ĠFinale":12841,"Ġà¤Ŀà¤ªà¤Łà¤®":12842,"ĠSquad":12843,"ĠEpisode":12844,"244":12845,"316":12846,"349":12847,"675":12848,"FD":12849,"Log":12850,"North":12851,"run":12852,"vol":12853,"à¤¿î":12854,"à¤²à¤ĸà¤°":12855,"à¤¡à¤£":12856,"à¤ļà¤ĸ":12857,"Ġà¤Ĺà¤²à¤¨":12858,"Ġà¤Ĺà¤¨à¤°":12859,"à¤µà¤°à¤¯":12860,"à¤¹à¤°à¤¨à¤¡":12861,"à¤Ĩà¤Īà¤ĵà¤Ł":12862,"à¤§à¤¨à¤ª":12863,"Ġà¤ħà¤®à¤°à¤ª":12864,"Ġ548":12865,"Ġ418":12866,"à¤¨à¤¨à¤¹":12867,"ĠâĢĿ,":12868,"à¤ķà¤¨à¤Ĺà¤°":12869,"ino":12870,"eresults":12871,"edub":12872,"Ġintegr":12873,"à¥ļà¤°":12874,"Ġ459":12875,"à¤Īà¤ĵà¤Ĩà¤Ī":12876,"Ġfinal":12877,"262":12878,"Ġ553":12879,"Ġà¤ªà¤°à¤µà¤²à¤¯":12880,"Ġà¤¬à¤Łà¤£":12881,"385":12882,"Ġà¥«à¥§":12883,"indian":12884,"à¤ıà¤«à¤Ĩà¤Īà¤ıà¤ļ":12885,"à¥ĩ!\"\"\"":12886,"961":12887,"Ġkm":12888,"à¤°à¤¹à¤®à¤£":12889,"ĠTesting":12890,"iversary":12891,"à¤ħà¤Łà¤ķà¤²":12892,"lick":12893,"NGA":12894,"Ġradi":12895,"eduboard":12896,"335":12897,"BR":12898,"JAY":12899,"group":12900,"jay":12901,"vs":12902,"Ġep":12903,"à¥ĩ\\\"\"":12904,"Ġà¤ķà¤ķà¤²":12905,"à¤¨à¤Ĺà¤¨":12906,"à¤ķà¤Ľ":12907,"à¤²à¤µà¤ķ":12908,"à¤²à¤µà¤²à¤ķà¤°":12909,"à¤µà¤Ĺà¤¤":12910,"Ġà¤ħà¤ĸà¤¨":12911,"Ġà¤Ĩà¤·":12912,"Ġà¤ļà¤¹à¤¤":12913,"Ġà¤«à¤ĸ":12914,"à¥įâĢįâĢį":12915,"Ġà¤Łà¤«":12916,"à¤ľà¤¨à¤®à¤¤":12917,"à¤ģ...":12918,"Ġ748":12919,"Ġ840":12920,"à¥ĩà¤Ĥà¥¤à¥¤":12921,"Ġà¥Ļà¤¤à¤°":12922,"ĠAc":12923,"ĠRos":12924,"ĠRoad":12925,"506":12926,"509":12927,"218":12928,"Ġ607":12929,"Ġà¤¦à¤®à¤ķà¤¤":12930,"Ġà¤¹à¤¡à¤¸à¤¨":12931,"272":12932,"373":12933,"383":12934,"oph":12935,"à¤ıà¤¨à¤ıà¤²à¤¸":12936,"589":12937,"angal":12938,"Ġà¥§à¥¯à¥®à¥®":12939,"ĠSpace":12940,"vert":12941,"ĠBlu":12942,"United":12943,"Maruti":12944,"Ġmarket":12945,"/)":12946,"412":12947,"916":12948,"FIR":12949,"Na":12950,"One":12951,"Sensex":12952,"law":12953,"wk":12954,"à¤ľà¤©":12955,"à¥Ĥà¤ĥ":12956,"Ġà¤Ĩà¥ŀà¤¤":12957,"à¤¼?":12958,"Ġà¤¥à¤®à¤¤":12959,"à¤ĵà¤²à¤®":12960,"à¤ħà¤¸à¤¤":12961,"à¥Ģ))":12962,"Ġ870":12963,"Ġà¤ıà¤®à¤ıà¤®à¤ıà¤¸":12964,"Ġ11000":12965,"Ġà¤®à¤¸à¤ľ":12966,"Ġ1891":12967,"ĠApril":12968,"Ġà¤ĸà¤¡à¥ļ":12969,"ĠGujarat":12970,"ĠEUR":12971,"ĠLink":12972,"402":12973,"604":12974,"ĠOPPO":12975,"Ġ433":12976,"Ġ397":12977,"Ġ464":12978,"Ġele":12979,"à¥¯à¥¦":12980,"576":12981,"achin":12982,"puter":12983,"à¸²":12984,"Ġ(*.":12985,"Ġà¤īà¤Ńà¤¯à¤ļà¤°":12986,"%],":12987,"099":12988,"417":12989,"514":12990,"635":12991,"NI":12992,"nc":12993,"sd":12994,"ãĤ":12995,"à¤¸à¤ı":12996,"à¤®à¤µà¤¤":12997,"Ġà¤¹à¥ľ":12998,"à¤Ĺà¤¬à¤¨":12999,"à¤¬à¤¸à¤¨":13000,"Ġà¤¤à¥ĺà¤°":13001,"Ġà¤Ĩà¤¶à¤¨":13002,"à¤Īà¤¥":13003,"Ġà¤ıà¤Ĩà¤Īà¤ıà¤¸":13004,"Ġà¤ĩà¤°à¤ķ":13005,"à¤ĩà¤¯à¤°":13006,"Ġà¤ĸà¤°à¤ªà¤¤à¤µ":13007,"à¤ķà¤°à¤¬":13008,"à¤¾,...":13009,"à¤¯à¤®à¤¸":13010,"Ġ'(":13011,"Ġà¤Ĩà¤Īà¤ıà¤®à¤¸":13012,"à¤ıà¤«à¤Ī":13013,"erjee":13014,"ĠSun":13015,"704":13016,"ĠGl":13017,"read":13018,"ĠEast":13019,"à¤Ĩà¤Īà¤Ĩà¤°à¤ıà¤¨à¤ıà¤¸à¤ıà¤¸":13020,"ised":13021,"eting":13022,"ĠpH":13023,"261":13024,"odes":13025,"096":13026,"Ġà¥¬à¥ª":13027,"682":13028,"693":13029,"object":13030,"ains":13031,"à¤Ĩà¤Īà¤ıà¤«à¤ıà¤¸à¤¸":13032,"pert":13033,"conduction":13034,"ĠØ³":13035,"à§ģ":13036,"Ġà¥§à¥¯à¥ªà¥Ń":13037,"âĢĶâĢĶâĢĶâĢĶ":13038,"Ġaccount":13039,"ïĤ·":13040,"ghanistan":13041,"ĠBluetooth":13042,"428":13043,"BP":13044,"Royal":13045,"WTS":13046,"mal":13047,"non":13048,"Ġom":13049,"Ġà¤ķà¤¨à¤µ":13050,"à¤¼à¤¾à¥¤\"":13051,"Ġà¤¶à¤²à¤ı":13052,"Ġà¤¸à¤®à¤¬":13053,"à¤ĵà¤ıà¤¨":13054,"à¤¼à¤¾'":13055,"à¤Łà¤°à¤ľ":13056,"à¤¾....":13057,"à¥Ĥà¤ĤâĢĻ":13058,"à¥Īà¤Ĥ.'":13059,"Ġà¤Ĩà¤Īà¤Ĩà¤Īà¤¸":13060,"Ġà¤Ĩà¤Īà¤ıà¤¨à¤ıà¤²à¤¡":13061,"à¤£à¤¨à¤«à¤²":13062,"ĠTi":13063,"ĠHow":13064,"ĠHindustan":13065,"radi":13066,"rack":13067,"ĠLook":13068,"ila":13069,"ured":13070,"Ġ486":13071,"354":13072,"903":13073,"à¥¨à¥ª":13074,"284":13075,"emic":13076,"Ġglobal":13077,"377":13078,"Ġwar":13079,"orty":13080,"à¥¯à¥®":13081,"787":13082,"ANI":13083,"ockey":13084,"Ġà¥§à¥¯à¥ªà¥«":13085,"à¥ĥ-à¤¿":13086,"ĠSeason":13087,"EFT":13088,"ociation":13089,"ependence":13090,"265":13091,"339":13092,"628":13093,"915":13094,"Do":13095,"JDU":13096,"Prime":13097,"à¤¹à¤¹":13098,"à¥Īà¥ĩ":13099,"à¥Ĥà¥ģ":13100,"à¤·à¤¡":13101,"Ġà¤īà¤ĩà¤ķ":13102,"à¤Īà¤¬à¤°":13103,"à¤Īà¤Īà¤ª":13104,"Ġà¤ļà¤¯à¤¨à¤ķ":13105,"à¤ªà¤¤à¤¨":13106,"à¤ıà¤®à¤ıà¤¨à¤ıà¤¸":13107,"à¥Ĥà¤ĤâĢ¦":13108,"Ġà¤ĩà¤¨à¤Ł":13109,"à¤Ķà¤°à¤ķ":13110,"à¤Ĺà¤²à¤¦":13111,"2024":13112,"Ġ629":13113,"à¤ıà¤ķà¤¤à¤°à¤«":13114,"à¥Ľà¤ª":13115,"Ġà¤ªà¤°à¤®à¤ªà¤µ":13116,"Ġà¤Ķà¤¨":13117,"ĠSak":13118,"ĠPan":13119,"enge":13120,"Ġà¤ľà¤¯à¤Ńà¤Ĺà¤µ":13121,"ĠDha":13122,"ĠHai":13123,"Ġà¤ĵà¤µà¤°à¤°":13124,"isan":13125,"408":13126,"à¤¸à¤¹à¤Ń":13127,"ides":13128,"Ġ586":13129,"ength":13130,"TPC":13131,"Ġmanagement":13132,"ĠGovernance":13133,"410":13134,"415":13135,"439":13136,"434":13137,"DL":13138,"Off":13139,"care":13140,"pib":13141,"Ûģ":13142,"ïĥ":13143,"Ġà¨":13144,"à¤¨à¤Łà¤¨":13145,"à¤ķà¤ĭ":13146,"à¥ģà¥ģà¤Ĥ":13147,"à¤ľà¤ļ":13148,"à¤ıà¤ıà¤¸à¤¸":13149,"Ġà¤¤à¤¹à¤ľ":13150,"à¤¼à¤ĥ":13151,"à¤Īà¤ĸ":13152,"à¤¾à¤Ĥ!":13153,"à¤«à¤Ĺà¤µ":13154,"à¤ĩà¤®à¤¸":13155,"à¤ħà¤µà¤®":13156,"Ġà¤§à¤§à¤ķà¤¤":13157,"à¤¯à¤°à¤Ł":13158,"à¤ıà¤¸à¤ıà¤ķ":13159,"à¤·à¤£à¤ķà¤°":13160,"à¤ıà¤®à¤ıà¤¸à¤¸":13161,"à¥ľà¤®":13162,"à¥Ģ.âĢĻ":13163,"à¤Ńà¤µà¤ľà¤¨":13164,"ĠSit":13165,"ĠCore":13166,"ĠAsh":13167,"ĠIED":13168,"ĠNCR":13169,"110001":13170,"rash":13171,"ĠKapil":13172,"Ġ708":13173,"ĠLand":13174,"Ġ481":13175,"à¥¨à¥§":13176,"Ġ441":13177,"rix":13178,"rike":13179,"381":13180,"881":13181,"686":13182,"894":13183,"ĠICU":13184,"ĠMarch":13185,"Ġaddress":13186,"23098543":13187,"lerk":13188,"327":13189,"460":13190,"535":13191,"690":13192,"820":13193,"890":13194,"At":13195,"BL":13196,"Bank":13197,"NASA":13198,"hand":13199,"ten":13200,"Ġà°":13201,"Ġà¤ķà¤ķà¤¡":13202,"à¥ģ]":13203,"Ġà¤¨à¤Łà¤µà¤°":13204,"à¤ľà¤ĭ":13205,"Ġà¤ħà¤Łà¤°":13206,"Ġà¤µà¤ĭ":13207,"à¥Ĥà¤¼":13208,"Ġà¤¤à¥ŀà¤¸":13209,"à¤¼à¥Ĥà¤ģ":13210,"à¤Īà¤¤":13211,"Ġà¤ıà¤Ĩà¤Īà¤ľ":13212,"à¥Īà¥¤)":13213,"à¤Ńà¤Ń":13214,"à¤¾à¤ĤâĢį":13215,"à¤ĩà¤ĵ":13216,"Ġà¤ĸà¤±":13217,"à¤¶à¤¨à¤ª":13218,"Ġà¤ħà¤²à¤ľ":13219,"à¤²à¤¬à¤ļ":13220,"Ġ637":13221,"Ġà¤ıà¤¸à¤ĵà¤ľ":13222,"Ġ760":13223,"Ġà¤ıà¤¨à¤Ĩà¤ĩà¤ı":13224,"Ġ970":13225,"alu":13226,"Ġ1889":13227,"ĠRecharge":13228,"Ġà¤®à¤²à¤ľà¤²":13229,"à¤²à¤®à¤Ł":13230,"Ġà¤ıà¤«à¤ľ":13231,"à¤§à¤µà¤Ĺà¤¢":13232,"ĠTata":13233,"ĠGP":13234,"Ġcor":13235,"asa":13236,"à¤ıà¤¸à¤Īà¤ıà¤¸":13237,"à¥¨à¥©":13238,"451":13239,"Ġhere":13240,"SEE":13241,"077":13242,"Ġ578":13243,"eve":13244,"MSP":13245,"udy":13246,"ĠReopen":13247,"ĠHotstar":13248,"eptember":13249,"Central":13250,"530":13251,"770":13252,"Ba":13253,"No":13254,"Nan":13255,"RNA":13256,"flu":13257,"ser":13258,"Ġuse":13259,"à¤¿\\\"\"":13260,"à¤¨à¤ĩ":13261,"à¤¨à¤µà¤²":13262,"à¤¨à¤¹à¤²":13263,"à¤¨à¤ĭ":13264,"à¤¯à¤ªà¤¤":13265,"à¤ıà¤ıà¤ļ":13266,"à¤¶à¤¬à¤¨":13267,"Ġà¤²à¤¹à¤²à¤¹":13268,"à¤¡à¤ĩà¤¨":13269,"Ġà¤Ĺà¤¦à¤°":13270,"à¤£à¤²":13271,"à¤°à¤¤à¤¤":13272,"à¥Ģà¤Ĥ\"\"":13273,"à¤Ĩà¤£":13274,"Ġ2031":13275,"Ġà¤ĵà¤¨à¤°":13276,"Ġà¤ħà¤°à¤¯":13277,"Ġà¤Ĩà¤Īà¤ıà¤¸à¤ª":13278,"Ġà¤Ĩà¤Īà¤ıà¤ı":13279,"Ġà¤¬à¤²à¤¶":13280,
[...]
